#version: 0.2
a r
e r
a n
i n
t h
e n
t i
o s
th e</w>
a p
a n</w>
o n
i l
i n</w>
a l
r e
ap os
& apos
d e
o r
i s
a s
t e
ı n
m e
l a
l e
o t
o n</w>
u r
u n
&apos ;</w>
o l
q u
qu ot
quot ;</w>
& quot;</w>
v e</w>
a k
d a</w>
b i
l i
o r</w>
o f</w>
in g</w>
d i
t o</w>
d e</w>
r o
an d</w>
m a
e r</w>
i t
u l
a t
e s
o v
l ar
ı n</w>
a l</w>
e l
e t
a c
a ti
a y
o m
e d</w>
r i
s t
e s</w>
e c
a t</w>
i s</w>
e n</w>
o p
l er
bi r</w>
ı r
s i
s a
h a
d a
u s
en t</w>
e k
a ş
i c
r a
ı l
ü n
i y
@ -
@- @</w>
n e
u m
l e</w>
d i</w>
a k</w>
y a</w>
o u
is t
p ro
a m
f or</w>
ın da</w>
a d
k i</w>
a s</w>
g e
i m
&apos ;
s e
c e</w>
a b
t er
i r
&apos; s</w>
d u
g ö
in i</w>
a r</w>
d an</w>
ı ğ
in e</w>
ın ı</w>
e d
l an
th at</w>
s u
la r</w>
i ş
te d</w>
m as
a z
ü r
ü z
c o
p ar
y or</w>
e m
i ti
v er
& #
&# 9
t s</w>
ü l
r u
re s
w h
i ç
b e
b aş
K os
c on
de n</w>
th e
m e</w>
l y</w>
k e
ati on</w>
h i
Kos ov
f or
in in</w>
u t
i t</w>
e k</w>
k ar
i a</w>
te r</w>
e v
a g
c i
w it
u n</w>
l a</w>
b u</w>
i c</w>
in de</w>
a v
t r
wit h</w>
on s</w>
ti on</w>
ı ş
me s</w>
l o
n o
i d</w>
ö n
er e</w>
y ap
c h
ğ i</w>
c om
b y</w>
ın a</w>
m ent</w>
iç in</w>
y e
me s
a ğ
lar ı</w>
l i</w>
k on
ist an</w>
an ı</w>
2 0
ak i</w>
ı k</w>
t ar
le r</w>
ü k
il l</w>
ı k
s ö
il e</w>
b e</w>
m a</w>
ler i</w>
S er
ın ın</w>
l u
sa id</w>
t i</w>
w ill</w>
S ır
g er
a f
p or
g i
a ç
d o
E ur
t e</w>
d ı</w>
gö r
p ol
h e</w>
T i
it y</w>
ığ ı</w>
d aki</w>
ar e</w>
b u
i r</w>
b il
la ş
bi r
er s</w>
Ti mes</w>
e x
co un
g ün
as t</w>
ı m
Eur op
da y</w>
er i</w>
t h</w>
ı s
al ar
e l</w>
s on
i k
ın dan</w>
- -</w>
ü y
f f
l en
m an
g ra
mas ı</w>
du ğ
ha s</w>
g ü
h e
Ser bi
t ur
20 0
at e</w>
1 ;</w>
&#9 1;</w>
3 ;</w>
&#9 3;</w>
al k
as ı</w>
n i
h o
ül k
y e</w>
m en
i ç</w>
ro m</w>
e an</w>
i g
ha ve</w>
f rom</w>
n in</w>
ul d</w>
ar ak</w>
t a
t o
on al</w>
de ki</w>
de v
d ing</w>
ed on
re c
u ş
Europ ean</w>
d er
E U</w>
A B</w>
v i
s t</w>
k il
e t</w>
de r</w>
w as</w>
y ıl
ğ ini</w>
sö y
y as
ov er
t ri
A r
d en
b er</w>
g ar
un u</w>
n ın</w>
ö ne
m in
li k</w>
no t</w>
t y</w>
Kosov o</w>
baş k
ı y
ü ş
ol duğ
l ı</w>
y ar
m il
ru p
c ak</w>
t a</w>
d ur
as ında</w>
li k
i an</w>
it s</w>
e le
ti r
g en
on om
A l
b ak
T ur
in c
th er</w>
B ul
b an
ı yor</w>
ma k</w>
s p
o k
ö l
b istan</w>
Kosov a</w>
Sır bistan</w>
gün ü</w>
R om
y en
i z
th is</w>
h a</w>
s o</w>
b ul
p os
ç o
ı m</w>
mes i</w>
a da
lar ın</w>
s te
k ur
B el
d s</w>
ti ons</w>
ol arak</w>
T ür
söy le
te s
la y
p er
un da</w>
A v
ge ç
t ü
is ter</w>
s ay
ü k</w>
ö r
kar ş
i m</w>
t en
t op
c h</w>
ar t
el er
k at
u y
s or
ı ş</w>
u g
n ati
Serbi a</w>
Bul gar
me m
Bel gra
il er
c e
ol an</w>
b o
a y</w>
e y
in a</w>
ou t</w>
over n
tr y</w>
s ti
d u</w>
an d
p e
M in
de d</w>
iy e</w>
S ou
h ur
ük ü
R e
da ha</w>
c al</w>
Rom an
ar y</w>
ff ic
g r
B os
an a</w>
on e</w>
o s</w>
1 9
g overn
w or
a m</w>
w e
k ay
al ı</w>
g e</w>
de ğ
S E
al l</w>
d is
p ri
u z
A n
the ast</w>
ı r</w>
Av rup
ö z
en t
bul un
in ter
le ş
s er
p res
m ak
Sou theast</w>
u b
y er
s o
t ak
t ı</w>
h al
w o
i k</w>
l ık</w>
re si
de di</w>
coun try</w>
ükü me
iy or</w>
c es
y et
al so</w>
pol iti
be li
M ac
ic h</w>
u k
g u
m is
0 0</w>
an s
K ar
Avrup a</w>
y on
ger ek
wh ich</w>
Min ister</w>
govern ment</w>
w e</w>
g il
v en
SE Times</w>
g el
u m</w>
1 0</w>
te m
M ak
söyle di</w>
es t</w>
t an
h üküme
c a</w>
b un
b öl
tar af
P ar
C ro
H ır
an s</w>
ı z
bu t</w>
the ir</w>
d üz
c or
g h
o un
par ti
me k</w>
ın daki</w>
b er
Hır v
ke y</w>
t u
ma y
yen i</w>
me n</w>
M on
in den</w>
y ak
d ent</w>
h is</w>
k al
b as
g es</w>
m u
di ği</w>
p r
Tür k
si on</w>
o la
i z</w>
b üy
Mac edon
nati onal</w>
son r
A T
il er</w>
M ar
f ir
s ü
m o
B aş
y on</w>
f in
u p</w>
ag re
m on
Cro ati
ığ ını</w>
AT O</w>
N ATO</w>
se ç
f a
op er
sa v
por t</w>
p lan
sa ğ
te s</w>
the y</w>
ec e
n av
kon us
P ri
a d</w>
en ce</w>
te n</w>
Al ban
i h
ç ek
hi p</w>
is i</w>
wo uld</w>
um hur
c ri
ne w</w>
ma ya</w>
Türk iye</w>
1 1</w>
ye ar</w>
u l</w>
i ş</w>
an l
com p
i l</w>
p ec
c r
Ar nav
Bos n
lar ını</w>
ol d</w>
al ış
g o
m ü
v is
ler in</w>
s ec
or e</w>
ço k</w>
y i</w>
beli r
t w
ı l</w>
o y
is e</w>
gör e</w>
ıy la</w>
s on</w>
i ki</w>
ati ons</w>
do ğ
di ğ
e f
re for
B alk
G re
ed il
be en</w>
o ther</w>
ac ak</w>
m alar
a ma
ou r</w>
olduğ unu</w>
di r
or t
başk anı</w>
Sır p</w>
iti es</w>
es i</w>
ter s</w>
kat ıl
y er</w>
an laş
li ği</w>
B i
e ur
c a
u s</w>
B ak
t ing</w>
in g
ov iç</w>
s ho
ab il
Tur key</w>
h ar
y aş
en in</w>
I n
öne m
o ffic
lu k</w>
aç ık
si yas
t ra
19 9
or g
c es</w>
ç alış
is t</w>
y le</w>
tw o</w>
al ly</w>
is h</w>
b r
u t</w>
i d
y ol
ar ası</w>
le d</w>
e di
w ere</w>
ov ic</w>
os t</w>
m ore</w>
al s</w>
Bi H</w>
m s</w>
an ce</w>
y o
com m
on g</w>
s ür
s ki</w>
pro j
p o
y üz
ur e</w>
H er
b et
d ığı</w>
ul us
om e</w>
ti v
Mak edon
l u</w>
e y</w>
l ü
tri es</w>
yap t
ler ini</w>
f o
ic a</w>
h ak
in v
ar k
s an
taraf ından</w>
ar asında</w>
is ti
b ağ
ge le
h er</w>
o f
a h
de c
coun tries</w>
resi dent</w>
ı z</w>
lar arası</w>
ek onom
tes i</w>
ic e</w>
w ar
st er
düz en
il gil
se k</w>
ec onom
Makedon ya</w>
Y un
m er
af ter</w>
ig n</w>
m üz
su ç
büy ük</w>
ti n</w>
y ıl</w>
p ub
wh o</w>
j o
c tion</w>
b i</w>
en er
1 2</w>
p en
B H</w>
li ğ
w n</w>
ou s</w>
gö re
f i
ı lar</w>
ac ağ
c o</w>
dev am</w>
m al
de ste
et ti</w>
lar ının</w>
f er
yet kil
al t
gö ster
em ent</w>
k a</w>
M il
s e</w>
s ır
me k
de f
a di
Serbi an</w>
m an</w>
ada r</w>
p re
k o
y ön
b ec
st an</w>
k en
k en</w>
gör üş
ec ek</w>
ilgil i</w>
us t</w>
su p
Arnav ut
ı la
t ut
k adar</w>
lar a</w>
r an
ş ek
t al
ıs ı</w>
es t
Macedon ia</w>
w s</w>
açık la
iy le</w>
Hırv ati
e ş
Hırvati stan</w>
k ü
us e</w>
ov er</w>
d üş
h el
C umhur
ar s</w>
b ek
ay a</w>
v ar
g n
ay r
Belgra de</w>
al an
an cak</w>
Baş bak
p la
os e</w>
k ab
k ap
m i</w>
sö z
yap ıl
li c</w>
v e
politi cal</w>
c ı</w>
üz er
ac cor
me r</w>
ti c
baş la
u st
diğ er</w>
re s</w>
i es</w>
ül ke
ab le</w>
org an
Belgra d</w>
ma da</w>
ger çek
ec e</w>
re e</w>
b ü
as k
Tur k
f ac
siyas i</w>
th ere</w>
u k</w>
g ro
ab out</w>
az ar
or s</w>
es day</w>
ig h
as s
Croati a</w>
yapt ığı</w>
a in
kon uş
li am
i on</w>
u c
re ign</w>
in deki</w>
me ye</w>
r en
op le</w>
con t
in ce</w>
re gi
u yor</w>
wh ile</w>
k o</w>
offic i
0 9</w>
inc lu
a j
ma ges</w>
y öne
b or
y en</w>
un a</w>
ler ine</w>
z am
w i
accor ding</w>
t old</w>
me di
ge li
d ır
konus unda</w>
ten e
Arnavut luk</w>
un un</w>
Mon tene
v ed</w>
Montene gr
ulus lararası</w>
B an
et ty</w>
k ul
f az
c an</w>
p lo
fir st</w>
an istan</w>
G etty</w>
ü ye
üz ere</w>
ı s</w>
iti on</w>
l ast</w>
Kar ada
I mages</w>
0 5</w>
le g
y an
Pri me</w>
D em
0 7</w>
eur os</w>
u ters</w>
a u
0 6</w>
pe ople</w>
yar d
Turk ish</w>
c y</w>
is su
th an</w>
am p
s hip</w>
dur ing</w>
s il
Bak anı</w>
me d</w>
et i</w>
A B
s el
ülk enin</w>
a ş</w>
Re uters</w>
0 4</w>
A F
gü ven
g h</w>
ler inin</w>
b eri</w>
0 8</w>
e p
0 3</w>
kar ar
mas ına</w>
ci al</w>
m ış</w>
s i</w>
ler e</w>
du c
mas ını</w>
is ed</w>
AB D</w>
olduğ u</w>
w el
iş leri</w>
t ır
AF P</w>
sti tu
b ar
ele c
u z</w>
ge tir
inter national</w>
es ki</w>
or lar</w>
lar ına</w>
ol o
an y</w>
Karada ğ</w>
P resident</w>
dev le
d ığını</w>
Bulgar istan</w>
st an
as e</w>
re d</w>
we en</w>
on ly</w>
ye ars</w>
st ate</w>
o b
min ist
bet ween</w>
gerçek leş
f es
d ür
il iş
mil yon</w>
en s</w>
l is
önem li</w>
oper ation</w>
iy i</w>
ag e</w>
av r
a da</w>
dur um
uş tur
2 0</w>
i p
ün de</w>
c an
ç ık
n a</w>
c ul
de m
sonr a</w>
ces s</w>
0 00</w>
ha z
karş ı</w>
iş bir
S ar
y at
C om
ü n</w>
il k</w>
U ni
a ted</w>
Yun anistan</w>
Roman ya</w>
ev er</w>
U N</w>
O r
B M</w>
i f</w>
es s</w>
m ost</w>
gi bi</w>
il eri</w>
yak laş
s ome</w>
te k
t or</w>
s h
p le
S t
n o</w>
r y</w>
B r
par t</w>
k s</w>
v es</w>
pub lic</w>
e w</w>
kul lan
Alban ia</w>
men ts</w>
v o
re n</w>
kur ul
un c
sho uld</w>
st at
ti me</w>
c re
t ti</w>
p er</w>
k az
s en
Bulgar ia</w>
k iş
no w</w>
faz la</w>
om is
may ı</w>
müz ak
t alk
ar et</w>
ok r
g y</w>
econom ic</w>
s ol
a z</w>
a te
Montenegr o</w>
ch an
ç ağ
en tr
E r
man y</w>
em ber</w>
ha d</w>
gra m
se l</w>
gh t</w>
o d</w>
lik te</w>
ex pec
y ük
R us
ke z
ha beri</w>
n e</w>
lo w
ma h
u e</w>
la v</w>
p l
m iş</w>
gu la
ı da</w>
değ iş
c er
t an</w>
seç im
me t</w>
g i</w>
at ing</w>
st ru
hak k
ain st</w>
yon u</w>
l d</w>
for mer</w>
ülk eler
ç ı
m p
talk s</w>
yüz de</w>
v an
ö yle</w>
len en</w>
te c
ag ainst</w>
f il
ov ina</w>
ov ski</w>
yıl ında</w>
ver diği</w>
Roman ia</w>
y ay
e ğ
r ist
c al
Cumhur başkanı</w>
b el
r ap
ur ity</w>
en d</w>
g es
m ar
it e</w>
le me</w>
c us
ni k</w>
y al
mis sion</w>
b le</w>
ver il
Gre ece</w>
n un</w>
kab ul</w>
l ü</w>
de pen
ülk e</w>
top lan
an lar</w>
ün ü</w>
ı t
le t
şek il
k or
c l
ho w
en ts</w>
et ti
how ever</w>
f ak
d ü
, 000</w>
s ın
tur e</w>
göre v
z iy
t ör
d ay
du y
ec t</w>
un der</w>
ha f
kay n
g ed</w>
G e
ü yor</w>
1 5</w>
an t</w>
b az
Balk an</w>
comm un
u p
pol ice</w>
co uld</w>
k es
şekil de</w>
pro gram
ti c</w>
da v
sü rec
U S</w>
wor k</w>
s a</w>
par liam
ş im
Europ e</w>
ol mak</w>
Bosn a</w>
ı ca</w>
lar ında</w>
j i</w>
ekonom ik</w>
wi th
res s</w>
ler de</w>
th ree</w>
bir likte</w>
say s</w>
e ar
e g
wel l</w>
ç öz
di k
n ed</w>
müzak er
g az
d o</w>
ön ce</w>
s ek
E n
au th
di ğini</w>
tar ih
gü ç
ım c
me et
ış işleri</w>
ğ u</w>
h an
çı kar
ol ma
Tür k</w>
ü s
ro ug
ir an</w>
c ur
ch ar
k ing</w>
w ay</w>
ca de
l ing</w>
te gr
gerek ti
c u</w>
s un
or ities</w>
s ed</w>
el eri</w>
ati ve</w>
ar d
si gn
an da</w>
ing s</w>
3 0</w>
k ıs
ü ç</w>
A t
in di
v ing</w>
b le
In ter
s at
le ad
al ın
sup port</w>
t on</w>
g re
li c
ro l</w>
re la
k om
me y
pres ent
K on
A P</w>
sa hip</w>
N ov
s ince</w>
cont in
C y
th er
in to</w>
ti ve</w>
a der</w>
ş ir
iç inde</w>
re por
ay ı</w>
l ov
o v</w>
is te
da ş
yat ır
wh en</w>
co ur
im z
me v
b in</w>
sonr asında</w>
ist s</w>
sor un
h ed</w>
men t
tü n</w>
İ n
yaklaş ık</w>
j u
es s
lar da</w>
w ar</w>
di r</w>
d ün
l in
b lo
k ö
Y ug
j a</w>
ler inde</w>
de me
c ent</w>
n ing</w>
P azar
U N
el op
regi on</w>
n um
Mon day</w>
su ch</w>
Croati an</w>
len dir
ati c</w>
Yug os
s ur
us in
is m</w>
d ır</w>
pr os
ece ğini</w>
l us
u ç
ü m
edi yor</w>
devle t</w>
k et
anl ığı</w>
den ce</w>
Pazar tesi</w>
b ers</w>
or y</w>
li der
B or
p on
b a</w>
the m</w>
ve ya</w>
j e</w>
sağ la
mes ine</w>
yapıl an</w>
pro cess</w>
ver y</w>
ul ar
la di
üzer inde</w>
st ra
o d
Gre ek</w>
offici als</w>
5 0</w>
t un
um lu</w>
uy g
s y
an al
u la
Alban ian</w>
fo reign</w>
ş öyle</w>
kaz an
tar y</w>
N ik
T adi
i p</w>
deste k
sp ec
Bosn ia</w>
lan an</w>
im por
p h
agre ement</w>
S of
ım s
i f
sav aş</w>
d il
Her sek</w>
ar i</w>
pro ble
ol du</w>
S lov
T he</w>
gele n</w>
sü re
inc i</w>
et k
K ı
Başbak an</w>
t ür
Kı br
c k</w>
o k</w>
d ön
mes ini</w>
iy et
g an</w>
te le
am e</w>
b en
I C
er al</w>
B o
T u
değ il</w>
is ation</w>
pos ition</w>
um a</w>
ar e
refor m
ar ş
mer kez
st and
Hırv at</w>
r e</w>
i ous</w>
f ol
am a</w>
meet ing</w>
e v</w>
açıkla mada</w>
a i
im iz</w>
2 5</w>
Z agre
malar ı</w>
h alk
ay ında</w>
s al
kay de
L i
sö z</w>
b usin
at t
Her z
J an
l ık
oun d</w>
in s
T em
ma in
n or
at an
a use</w>
1 7</w>
il y</w>
Herz eg
ma j
en ti
es e</w>
Herzeg ovina</w>
bec ause</w>
h er
la w</w>
n ı</w>
ke t</w>
haz ır
0 2</w>
se v
or ity</w>
geç en</w>
a de
mem ber</w>
re ad
ç te</w>
f e
ge t</w>
bun un</w>
re port</w>
f t</w>
d iler</w>
S ec
bağ ıms
s ch
ta ma
P er
gen el</w>
el y</w>
inclu ding</w>
ama ç
ed n
inc re
ci l</w>
acağ ını</w>
iler in</w>
f ul
ıla cak</w>
t ine</w>
Kıbr ıs</w>
i den</w>
hüküme t</w>
b ur
kar a</w>
F o
ou gh</w>
e de
st r
ac e</w>
bü tün</w>
he ad</w>
gü n</w>
k am
e den</w>
W edn
fak at</w>
top l
Wedn esday</w>
Macedon ian</w>
0 1</w>
r ul
f ut
mem bers</w>
di rec
F O
gaz e
D ışişleri</w>
yo l</w>
1 3</w>
k aç
v ot
o ur
th ose</w>
sil c
tir il
az ar</w>
mü cade
in depen
rist ina</w>
iliş kil
am ba</w>
ov a</w>
as ındaki</w>
Ç arş
y or
l l</w>
par ty</w>
ma in</w>
ç ab
la v
igh t</w>
Çarş amba</w>
for e</w>
ci p
la m
c ap
wh at</w>
ayr ıca</w>
cr atic</w>
b ot
kayn ak
B ar
z or
haf ta</w>
ha ber
er ek</w>
dec is
b s</w>
h ay
k r
belir tti</w>
le s
ih ti
i al</w>
elec tions</w>
FO R</w>
refor m</w>
baş ar
bu il
toplan t
mil it
auth orities</w>
su z
U lus
pol is</w>
mas ının</w>
li on</w>
th roug
t aş
so ci
ac h</w>
v ar</w>
man ın</w>
geli ş
or d
F r
alar ı</w>
lo cal</w>
expec ted</w>
m iş
impor tan
m ust</w>
yük sek</w>
l s</w>
K omis
Par ty</w>
bir i</w>
s he</w>
rap or
in stitu
işbir liği</w>
res pon
I M
bek len
z e</w>
Başbak anı</w>
A d
ti es</w>
Tu esday</w>
mon th</w>
v er</w>
an no
P ristina</w>
e f</w>
re qu
u tion</w>
ay nı</w>
c ağ
ti onal</w>
ma de</w>
me yi</w>
e i
yer el</w>
am ong</w>
tü r</w>
200 4</w>
N e
üye lik</w>
go ti
u res</w>
es ti
düzen lenen</w>
eş it
iti z
al ık</w>
cur r
kur um
is tem
ger i</w>
c umhur
po in
t ü</w>
ar t</w>
S alı</w>
C oun
cri mes</w>
Pri ş
ım ı</w>
ne goti
hi m</w>
An kara</w>
1 6</w>
M ay
gel di</w>
Nik ol
x t</w>
al ıyor</w>
sec urity</w>
tak e</w>
ac k</w>
yöne lik</w>
stra te
1 4</w>
R o
ne t</w>
avr o</w>
Baş k
bu l</w>
ent ly</w>
P ol
C h
ff er
inv est
te d
sa hi
ef for
te ki</w>
stan bul</w>
we ek</w>
v ic
si ble</w>
as t
ac t</w>
yay ın
an ın</w>
c itiz
iş le
v ur
v atan
G en
tr ans
dev elop
in f
yer ine</w>
d ra
K ur
bot h</w>
IM F</w>
E U
sır a</w>
P ro
yer ek</w>
S ch
de s</w>
ap pro
sa y</w>
d ör
Priş tine</w>
th ese</w>
e ff
ra r</w>
le n</w>
lar dan</w>
he def
Zagre b</w>
plo ma
deme çte</w>
y ür
baz ı</w>
r ol
i ans</w>
ter n</w>
in ş
sav un
ne den
do wn</w>
la dı</w>
a tes</w>
mah ke
al i</w>
parliam ent</w>
Ser b</w>
böl ge
Dem o
k ül
m y</w>
lü ğ
di ploma
be fore</w>
pro te
görüş me
bil ir</w>
A s
M ladi
ş u</w>
M er
ıl ması</w>
öz el</w>
B er
ıl an</w>
ö ğ
anno unc
ber ship</w>
g ress</w>
id di
te k</w>
pol ic
po w
ter r
hakk ında</w>
A h
par t
d ış
Inter national</w>
jo in
D o
pro vi
karş ı
le di</w>
1 8</w>
su b
issu e</w>
li s</w>
B ir
or an</w>
konus u</w>
r os
ıs ında</w>
k ed</w>
im ple
yön ünde</w>
an an</w>
ç eşit
num ber</w>
k op
e th
ver di</w>
topl um
E k
mem bership</w>
ce p
c hi
ç ev
D ec
d ate</w>
Dem okr
ı p</w>
y anı</w>
2 7</w>
at ı</w>
e b
t ro
G ü
Rus si
Coun cil</w>
H az
ar asındaki</w>
gi ri
es inin</w>
p ek</w>
op en
el ç
wh ere</w>
R ad
L a
sy ste
B u
res ul
milit ary</w>
kar ar</w>
re present
S e
y ana</w>
as h
ti k</w>
fes tiv
J un
sti ll</w>
Kar ad
du k
be ing</w>
başla t
al an</w>
ma d
dis cus
t as
an oviç</w>
ev o</w>
G ener
in tegr
O l
düş ün
gerekti ğini</w>
G er
Bos ni
war ds</w>
G ün
k ri
et kil
İ s
resi den
proj ect</w>
Slov en
ne xt</w>
th s</w>
art ır
c ut</w>
ver s
parti es</w>
fut ure</w>
an ovic</w>
fin an
bil dir
al dı</w>
le s</w>
com e</w>
t re
fol low
f un
M I
ıy or
Bulgar ian</w>
vatan daş
böl ges
ol uştur
ne ws</w>
uy gula
gör ül
M ay</w>
busin ess</w>
read y</w>
vis it</w>
throug h</w>
Mar ch</w>
O c
ün ün</w>
ler inden</w>
sa m
200 7</w>
es cu</w>
d ü</w>
öz el
konuş an</w>
Arnav ut</w>
uz un</w>
Jun e</w>
ş em
es inde</w>
I ra
müzaker eler
gö z
yen iden</w>
h op
Mar t</w>
or an
yard ım</w>
D P</w>
Oc to
lar ından</w>
Octo ber</w>
yol suz
m ov
ön er
Fo reign</w>
ex per
Gener al</w>
ör gü
st s</w>
a in</w>
wor ld</w>
lo w</w>
yöne ti
g ar</w>
ı ları</w>
ola cak</w>
gele c
rup tion</w>
le c
ma l</w>
li yor</w>
bü t
T hur
ort ak</w>
D ün
ün e</w>
May ıs</w>
s istem
ou t
Thur s
ıl ık</w>
l ığ
c ü</w>
si g
bo y
Ek im</w>
le v
Thurs day</w>
yar g
r ak
2 1</w>
pla ce</w>
Haz iran</w>
ti ğ
o o
Dec ember</w>
citiz ens</w>
v il
con cer
entr e</w>
decis ion</w>
Per şem
tama m
lead ers</w>
sa de
değ er
ces sion</w>
K as
S an
Perşem be</w>
çeşit li</w>
medi a</w>
c ar
di ye</w>
sade ce</w>
lik le</w>
a ç</w>
200 8</w>
eth n
2 4</w>
u laş
pro gress</w>
. .</w>
lay an</w>
Ar alık</w>
parti cip
Başk anı</w>
son uç
r is
hüküme t
s um
u ary</w>
Jan uary</w>
i fa
ece ği</w>
sür dür
in an
ta in
ati onal</w>
l ine</w>
f ark
ıs ından</w>
güven lik</w>
est ab
ıl ı</w>
te h
im pro
d ılar</w>
tut uk
min ister</w>
it u
O cak</w>
&apos; t</w>
hel d</w>
Ban k</w>
in san
di yen</w>
d y</w>
tü m</w>
pl an</w>
duğ u</w>
Balk ans</w>
se ver
stat us</w>
d önem
IC T
so ur
par la
yo u</w>
ICT Y</w>
as yon
amaç lı</w>
ul y</w>
ed on</w>
d ar
c ed</w>
ra ğ
Mak edon</w>
çağ r
h at
announc ed</w>
h ap
abil ity</w>
importan t</w>
m ir</w>
on ay
Roman ian</w>
p op
hi gh
s ka</w>
S o
2 2</w>
hüküme tin</w>
n er
ar aya</w>
. ..</w>
ma y</w>
refor ms</w>
si z
hüküme ti</w>
uyg ul
C on
un der
eğ iti
n olo
la m</w>
bulun du</w>
ev iç</w>
m ış
cor ruption</w>
bas ed</w>
an n
k ası</w>
Kon se
m ark
l ong</w>
sign ed</w>
bağıms ız
D P
ü re
W or
k ovski</w>
rec ei
comp le
1 9</w>
ık ları</w>
kap sam
anlaş ma</w>
acağ ı</w>
200 6</w>
v et
g ru
tar t
kü p</w>
say ing</w>
P et
ar et
b est</w>
lar la</w>
dör t</w>
Yugos lav
S kop
t ır</w>
re fer
k uz
Nov ember</w>
re d
tart ış
p ot
indi c
ev ic</w>
k ad
2 3</w>
con f
J uly</w>
2 8</w>
re g
g est</w>
ay as
w on</w>
c le
ac cession</w>
le ader</w>
k an
Skop je</w>
Ü s
to ur
th ough</w>
N is
P azar</w>
por ts</w>
ün deki</w>
me as
yetkil iler</w>
institu tions</w>
hi gh</w>
o lay
b os
E y
et s</w>
Par ti
mu z</w>
lu k
deste k</w>
he m</w>
sek tör
th ing</w>
mak e</w>
200 5</w>
har ek
v en</w>
Tem muz</w>
h n</w>
comp any</w>
S un
at ur
ad ded</w>
tur al</w>
ta m</w>
ev en</w>
Sar aj
k ü</w>
im i</w>
Kas ım</w>
s itu
comm it
karş ın</w>
vi ew</w>
pri l</w>
A pril</w>
tem silc
t ti
th en</w>
c as
ti ce</w>
st ate
o m</w>
c ity</w>
Saraj evo</w>
li m</w>
2 6</w>
ü m</w>
ener ji</w>
mon ths</w>
indepen dence</w>
cal led</w>
syste m</w>
et nik</w>
ge ment</w>
düzen le
Sar ay
les s</w>
integr ation</w>
ğ un
m un
Üs küp</w>
le m
sec on
op position</w>
Nis an</w>
A th
ag en
pow er</w>
aç ısından</w>
Ser bs</w>
bun al</w>
te ş
D i
ethn ic</w>
u lar</w>
Saray bos
iy eti</w>
tiğ imiz</w>
dü ğ
ro v
si z</w>
Yun an</w>
S p
me d
a il
f our</w>
st ri
n er</w>
geç ir
p resident</w>
con stru
P ap
l ük</w>
ç a</w>
de mo
y ing</w>
il i</w>
e ve</w>
can di
re f
il i
pros ec
la ma</w>
pri v
bulun uyor</w>
R S</w>
pro pos
k ent
rela tions</w>
to wards</w>
A K
T ra
Mil os
200 9</w>
UN MI
ri ght</w>
an ts</w>
Sun day</w>
1 0
effor ts</w>
c ha
UNMI K</w>
f ur
geç tiğimiz</w>
S ep
gh ts</w>
ar ly</w>
ş art
ati k</w>
us ed</w>
un d</w>
ler den</w>
k as
li f
re main
hi l</w>
y ı</w>
ic al</w>
ce z
ımc ısı</w>
t ly</w>
b in
sın ır
I v
A K</w>
Sep tem
Saraybos na</w>
u yar
issu es</w>
gö n
ıl dı</w>
p at
Septem ber</w>
F il
men in</w>
hel p</w>
ac ak
Dün ya</w>
ü f
li ğini</w>
l and</w>
gro up</w>
üy e</w>
em plo
da hil</w>
var ious</w>
ç i</w>
c i</w>
Balk anlar</w>
s ure</w>
p ru
S av
it al</w>
R adi
ye t</w>
c um
lü l</w>
dem okr
as ed</w>
n ec
con si
Sır p
o j
hi z
Ey lül</w>
al dığı</w>
Bul gar</w>
rağ men</w>
ac k
g er</w>
e h
ama c
ıl ık
su c
iy at
commun ity</w>
chi ef</w>
değiş ik
Bor is</w>
organ ised</w>
res ol
ener gy</w>
g ir
E C</w>
di yor</w>
ma z
ed er
situ ation</w>
iz e</w>
eur o</w>
as yon</w>
con di
st u
sour ces</w>
k in</w>
h ız
duy ur
G ru
sa me</w>
in iti
B as
pos sible</w>
mu hal
eb ru
cr is
F ebru
mes inin</w>
ke z</w>
mücade le</w>
mev cut</w>
de al</w>
anl ığ
Febru ary</w>
ol uk</w>
s ing</w>
re ac
pru s</w>
S te
Cy prus</w>
el e</w>
c ol
Uni ted</w>
Com mission</w>
ev ski</w>
ziy aret</w>
d ığ
Wor ld</w>
S ta
mak la</w>
regi onal</w>
D j
ol uş
Bosni an</w>
ol duk
Ş ub
ne ed</w>
F ri
Kos tun
Ath ens</w>
ad op
M ir
Şub at</w>
u ğ
Kostun ica</w>
Ge or
v ek
üy esi</w>
Kosov alı</w>
ic i</w>
ar d</w>
vot e</w>
g in
mo ve</w>
mal ar</w>
fa al
ço c
9 2</w>
si ons</w>
ola cağ
20 10</w>
da r</w>
imz al
h as
f ic
pro fes
an other</w>
4 0</w>
yür ü
Demo cratic</w>
Sof ia</w>
sağ lay
ort aya</w>
ar ound</w>
ken di</w>
el i</w>
beklen iyor</w>
il di</w>
de s
offici al</w>
res mi</w>
comp an
se t</w>
me t
mas ında</w>
g or
o t</w>
o w
yal n
con stitu
n üf
fer ence</w>
ol ması</w>
Uni on</w>
sever al</w>
etk in
ı cı</w>
sp e
secon d</w>
bil lion</w>
b ile</w>
gerek iyor</w>
a c</w>
y ar</w>
t u</w>
et mek</w>
contin ue</w>
ati ves</w>
p residen
B u</w>
c en
At ina</w>
ta in</w>
iler le
z ir
k ır
leg al</w>
2 9</w>
ız ca</w>
ul u</w>
I s
ler le</w>
kurul uş
polic y</w>
cris is</w>
iy et</w>
bor der</w>
ma tion</w>
B C</w>
negoti ations</w>
d ers</w>
sır asında</w>
al is
per for
h um
ar res
F es
hal e</w>
Konse yi</w>
econom y</w>
g a
chan ge</w>
bu d
üs ü</w>
Fes tiv
o us
H ar
t ors</w>
muhal ef
başk a</w>
kam u</w>
us tice</w>
m it
çağ ır
al ity</w>
ik inci</w>
A ğ
yap ılacak</w>
vi l</w>
ag ue</w>
ha v
fa il
ut e</w>
Komis yonu</w>
zam an</w>
p s</w>
şek l
u r</w>
follow ing</w>
1 .
se e</w>
ü st
g ing</w>
i or</w>
meas ures</w>
ab an
yaln ızca</w>
ti on
B 92</w>
mar ket</w>
Tadi ç</w>
D e
h iç
Re hn</w>
en gel
de b
mil yar</w>
di yerek</w>
J ov
ç e</w>
Parti si</w>
n s</w>
alt ında</w>
war d</w>
leş tir
ask eri</w>
ş ey</w>
uy la</w>
it er
estab lis
destek le
Sta tes</w>
os u</w>
cour t</w>
as i</w>
sal dır
m it</w>
K FOR</w>
k im
at s</w>
re j
laş tır
as i
t or
o z
S A
ar ı</w>
Ulus lararası</w>
bec ome</w>
s us
y az
with out</w>
d ol
ta h
e p</w>
ö r</w>
cri me</w>
Rus ya</w>
ci d
bak an</w>
D ra
with in</w>
gön der
gro w
res i</w>
rec ent</w>
contin u
ti r</w>
par a</w>
z i</w>
finan cial</w>
in ci
öğ ren
ıl ığ
l ığı</w>
minist ry</w>
vis i
lü yor</w>
es tern</w>
conf lic
ver si
ken dis
me leri</w>
k re
P e
1 ,
develop ment</w>
lan dır
ü müz
an si
ther n</w>
199 5</w>
kiş i</w>
ey doğ
g o</w>
ek ledi</w>
in for
yıl lık</w>
ing ton</w>
uygul an
il ik</w>
cul tural</w>
in k</w>
fi ve</w>
at ten
ac y</w>
ut y</w>
L uk
go od</w>
el de</w>
Cy pri
aş tır
sel s</w>
let vek
ev ent</w>
st o
r ation</w>
bak an
söy lüyor</w>
maj or</w>
avr oluk</w>
E X</w>
f am
an ayas
A ug
W ash
p ast</w>
de l</w>
A mer
Wash ington</w>
ti l</w>
P K
ün den</w>
u v
state ment</w>
re tary</w>
ho w</w>
A f
Aug ust</w>
ni te
b ro
ati s
Fri day</w>
200 3</w>
t on
ele k
un til</w>
proble m</w>
e li
di ffer
proble ms</w>
neden iyle</w>
C uma</w>
ü st</w>
tri bunal</w>
göre v</w>
ış ı</w>
yatır ım</w>
cl os
ulus al</w>
seç im</w>
me an
AK P</w>
il ere</w>
y al</w>
inv ol
bulun an</w>
yard ım
la un
al tı</w>
al ar</w>
Tadi c</w>
gen eral</w>
D ev
yak ın</w>
w a
ti m</w>
mil letvek
re co
program me</w>
du e</w>
le ft</w>
ay s</w>
compan ies</w>
şir ket
say ıda</w>
edil en</w>
a ir
ust os</w>
ad ı</w>
M ah
to p</w>
ele ction</w>
d an
belir ti
p u
l ıyor</w>
ec ts</w>
Ağ ustos</w>
mu ch</w>
fur ther</w>
lik e</w>
il d
Cumhur iyeti</w>
re tur
D av
katıl ım</w>
il en</w>
esti g
PK K</w>
ri ghts</w>
ins an</w>
h en
ge ti
Br us
f re
r i</w>
be ş</w>
Z oran</w>
u al</w>
ec ek
pos iti
ol as
amac ıyla</w>
EU L
Brus sels</w>
me c
gen cy</w>
us u</w>
be le
EUL EX</w>
ti sa
g it
v ir
st ates</w>
başk an
id de
Bosn alı</w>
c ase</w>
g in</w>
lan ması</w>
reco gn
b ır
T ir
constru ction</w>
ç ün
B BC</w>
ük sel</w>
p ed</w>
con ference</w>
f ik
Ah tisa
bas ın</w>
c lu
c la
Ahtisa ari</w>
Karad z
5 th</w>
sav c
pres s</w>
b unu</w>
si on
te me
s m
g as</w>
1 00</w>
mah k
requ i
kü ç
te st</w>
İn gil
te l
rul ing</w>
Br üksel</w>
red de
gaze tec
ar ds</w>
Nikol a</w>
iliş kin</w>
bil ity</w>
S r
anal y
N A</w>
ük elç
si ve</w>
prosec ut
ağ ı</w>
yar at
o ğ
as ını</w>
cid di</w>
kal dır
Fr ans
hiç bir</w>
curr ent</w>
k amp
ihti y
entr al</w>
at a</w>
fil m</w>
pro v
te am</w>
o y</w>
do cum
d ile</w>
1 st</w>
ş idde
N ational</w>
en tary</w>
sahi p
pro duc
N ew</w>
di t</w>
kaynak lar</w>
jo in</w>
f ul</w>
vi z
ik ti
de ci
stru c
mas ından</w>
Tir ana</w>
M us
T ele
si de</w>
giri şim
S C</w>
di d</w>
al ready</w>
coun ter
ay an</w>
terr or
e z
inv estig
r ac
mek le</w>
c amp
bır ak
ıy orlar</w>
gerek en</w>
ön ce
al et</w>
kapsam ında</w>
day s</w>
büy ü
eğiti m</w>
ş ey
Russi a</w>
s es</w>
of f</w>
e dec
du m</w>
t aki</w>
un daki</w>
öne m</w>
son a</w>
le k
yön ündeki</w>
sev iy
sec tor</w>
mo der
R ece
ele ş
agre ed</w>
p ay
uc u</w>
ard ından</w>
ço ğun
lev el</w>
o ff
iler leme</w>
ziy aret
cri min
d ış</w>
An laş
or du</w>
doğ an</w>
başla dı</w>
ma t
con tr
h ist
Sec urity</w>
on u</w>
inş a</w>
al ition</w>
o ted</w>
en di
d ana</w>
b ack</w>
alar ında</w>
do es</w>
ac tiv
H ague</w>
y ok
kıs a</w>
uz man
op en</w>
h ing</w>
ap pe
0 m</w>
ca ted</w>
w in
os yal</w>
kül tür</w>
199 9</w>
tri k</w>
to ok</w>
isti kr
ece ğ
ac hi
plan s</w>
doğ ru
j ust</w>
he y</w>
gu e</w>
M edi
tra de</w>
me et</w>
m ı</w>
ful l</w>
mean while</w>
T iran</w>
ümüz deki</w>
is lav</w>
is inin</w>
lar ıyla</w>
represent atives</w>
h ol
W estern</w>
s ou
et e</w>
ko ş
der ece</w>
en d
ac cep
H ol
mey dana</w>
eydoğ u</w>
et y</w>
La hey</w>
sor um
la ck</w>
5 00</w>
lu m</w>
e duc
a p</w>
Y ard
per son
bölges el</w>
M os
mak am
gün kü</w>
ad minist
th re
av ro
D im
ek s</w>
durum da</w>
şekl inde</w>
sın ır</w>
p azar
bo ur
6 0</w>
y ip</w>
fi ed</w>
pro mis
bud get</w>
K o
sor uştur
k oviç</w>
mal i</w>
em e</w>
il eş
V oj
la t
s al</w>
ol may
pre par
e tin</w>
Gü ven
re le
parla men
pr is
m in</w>
as ına</w>
I tal
ted bir
7 th</w>
t ot
spec ial</w>
mış tı</w>
Bas escu</w>
alar ını</w>
S C
par ti</w>
liğ inin</w>
go ing</w>
se m
rol e</w>
pe ti
den ts</w>
ad lı</w>
or um</w>
imz alan
T r
pri me</w>
me den</w>
güç lü</w>
Bu char
ko alis
ans ı</w>
Buchar est</w>
miş ti</w>
com ing</w>
al ist</w>
ön ümüzdeki</w>
fin al</w>
ord in
DP A</w>
la tion</w>
iz in</w>
k i
S re
it ing</w>
ild ren</w>
Ban kası</w>
bek le
aç ık</w>
sa f
si x</w>
alk ın
Par liam
li er</w>
are as</w>
ı ya</w>
T h
ı ların</w>
y aban
ar a</w>
f ar</w>
ro ad</w>
de sp
y orlar</w>
st art</w>
I stanbul</w>
1 2
San ader</w>
su ç</w>
söz lerine</w>
0 ,000</w>
z anl
İ stanbul</w>
re ş</w>
d ül
bas k
ş ü
ti al</w>
an y
8 th</w>
gelec ek</w>
İ tal
ear ly</w>
D an
yıl ın</w>
s es
te ch
T ay
Al man
p lay
emplo y
da ğ
F in
3 1</w>
h uk
f ree</w>
e qu
camp a
ad di
ad an</w>
Sof ya</w>
on un</w>
ol an
co alition</w>
M an
B ük
wo men</w>
di k</w>
as yonu</w>
yet er
ü z</w>
Yugos lav</w>
karar ı</w>
O li
c s</w>
o c
lan ıyor</w>
S ol
ülke de</w>
te e</w>
minist ers</w>
B üy
k rar</w>
ju di
im p
Güven lik</w>
lo b
festiv al</w>
y an</w>
soci ation</w>
h os
incre ase</w>
Bak anlığı</w>
stand ards</w>
consi der
y mp
as ının</w>
Er doğan</w>
st ability</w>
ifa de</w>
do k
böl ge</w>
M it
top lam</w>
mek te</w>
bet ter</w>
6 th</w>
oo l</w>
Mladi ç</w>
Gen el</w>
Sec retary</w>
At lan
open ed</w>
h is
condi tions</w>
ır ken</w>
t ığı</w>
stand art
Mladi c</w>
Bük reş</w>
mun ic
lu ğ
ge ther</w>
en ica</w>
Li b
Gün eydoğu</w>
s in
i ri
e ach</w>
qu oted</w>
faal iyet
oy n
invest ment</w>
for ces</w>
d on
M u
Demokr at</w>
th ir
g az</w>
ço ğu</w>
an lam
s et
du ction</w>
M al
z ar
fark lı</w>
cle ar</w>
bar ış</w>
w ant</w>
sel f</w>
A k
leş me</w>
ed s</w>
dec lar
r an</w>
offic e</w>
iy ileş
B atı</w>
ear lier</w>
conflic t</w>
b ri
s ci
lan dı</w>
Dim it
ben z
ı t</w>
düş ük</w>
re li
politi ci
Alman ya</w>
th ink</w>
sa h
ad d
D ai
sol ution</w>
çöz üm</w>
k ovic</w>
ekonom i</w>
P on
un i
luk la</w>
g ür
ı dan</w>
me se
4 th</w>
sür e</w>
le y
Ol ymp
or der</w>
A sh
f ound</w>
dur um</w>
ch ildren</w>
p ass
join t</w>
no k
iz m</w>
görül üyor</w>
il mesi</w>
gör ün
ask er
yaş anan</w>
ni fic
g eler
vers ity</w>
to gether</w>
han gi</w>
ser v
savun ma</w>
resul ts</w>
e bil
cul ture</w>
o wn</w>
liğ ine</w>
M ü
pec ts</w>
is ini</w>
etti ği</w>
ap p
sp ok
tan ın
la te</w>
K om
a th
Mah ke
se y
üzer ine</w>
cri tic
c entre</w>
T ar
prov ince</w>
gerek li</w>
mon ey</w>
con tri
az ın
un dan</w>
haz ır</w>
sa d
gele ce
tra di
elek trik</w>
olo g
A b
p ut</w>
liğ e</w>
ıl ığı</w>
an i</w>
ste p</w>
do gan</w>
grow th</w>
S ek
İ ş
vis ion</w>
remain s</w>
Rece p</w>
K r
sig nific
d in
y ine</w>
wor king</w>
L j
ı c
gen er
as ıl</w>
alar ın</w>
ım ız
si yle</w>
k no
d on</w>
for ce</w>
Er dogan</w>
maj ority</w>
küç ük</w>
k oy
Min ist
200 2</w>
p et
def ence</w>
a day</w>
Tay yip</w>
başk anlığı</w>
Gru evski</w>
li d
th ers</w>
inter est</w>
e ti
Yard ımcısı</w>
par ç
c ame</w>
art ık</w>
hum an</w>
değer lendir
ic s</w>
cas es</w>
düz ey</w>
im e</w>
su g
e ver
oluş an</w>
curr ently</w>
T op
li ance</w>
al though</w>
ülk eleri</w>
yol unda</w>
parliam entary</w>
vi ol
com peti
S or
e ler</w>
s and
n an</w>
l ul
si c</w>
ne igh
suç ları</w>
ik a</w>
yaş ındaki</w>
exper ts</w>
ag o</w>
jo ur
al ists</w>
H as
n ot
en ted</w>
ilişkil er
R um</w>
tak en</w>
are a</w>
M es
tas ar
n de</w>
A ust
e de</w>
ch ed</w>
candi date</w>
R at
a id</w>
ım ız</w>
perfor man
yo k</w>
lid eri</w>
w ed</w>
un ca</w>
f ight</w>
a de</w>
ler iyle</w>
karş ıla
Parliam ent</w>
r u</w>
r a</w>
g or</w>
Sre br
yaban cı</w>
duğ unu</w>
ex pres
ı dır</w>
ul t</w>
ülk esinin</w>
k m</w>
yarg ı</w>
et me
j ana</w>
et me</w>
M o
i de
sup por
en i</w>
200 1</w>
wh e
le t</w>
el ere</w>
ıl an
ula tion</w>
munic ip
in d</w>
S tan
edec ek</w>
te p
buil ding</w>
bi ri
yar ış
olma dığını</w>
ar aştır
k ut
J o
ön ces
t le</w>
Ad ri
k aç</w>
T ri
hal inde</w>
al th</w>
res pec
re gar
k e</w>
en ces</w>
strate j
ec ted</w>
St ate</w>
zam an
Pon te</w>
al o
to wn</w>
Cypri ot</w>
ülke deki</w>
so cial</w>
organ is
educ ation</w>
ob ser
gün lük</w>
es ine</w>
R u
katıl dı</w>
S i
20 11</w>
lif e</w>
iddi a</w>
A gency</w>
sor un</w>
f ır
dön üş
can not</w>
K ür
8 0</w>
gi ven</w>
an u</w>
aç ıl
Ulus al</w>
zor unda</w>
e ded</w>
bun a</w>
b re
Mer kez
örgü t
om s</w>
B ri
vir on
repor ted</w>
gör ü
ch al
d ro
b ol
tes lim</w>
m i
d j
Ira k</w>
sat ın</w>
en ter
C ar
yan ın</w>
provi de</w>
Ger many</w>
lo bo
alt ına</w>
re st
er ken</w>
direc tor</w>
at or</w>
and ır
e ye</w>
d ist
P op
ol umlu</w>
S to
campa ign</w>
af f
Yugoslav ya</w>
per i
ger ç
em ents</w>
d re
T V</w>
Rat ko</w>
politici ans</w>
iz i</w>
infor mation</w>
for m</w>
chal len
kon fer
res sed</w>
c in
ter m</w>
re main</w>
ment ation</w>
la h</w>
20 0</w>
proj ects</w>
nor thern</w>
n ers</w>
enti al</w>
zam anda</w>
uz laş
organ ize</w>
la dığı</w>
v al
chan ges</w>
kayde dil
P od
İ ki</w>
i de</w>
ever y
Alban ians</w>
l as
nati on
konuş mada</w>
o u</w>
m alı</w>
kat k
h â
bağ lı</w>
İ ç
son unda</w>
abil ir</w>
w ays</w>
nec ess
b al
aş ır
st ren
da ily</w>
kaç ak
di ffic
y oun
tak lık</w>
la w
k ers</w>
L e
whe ther</w>
kre di</w>
endi ş
jour n
li der</w>
inclu de</w>
counter part</w>
beli eve</w>
ed om</w>
yak ın
recei ved</w>
des cri
at eral</w>
liğ in</w>
ur ged</w>
t av
re k
g rup
baş ta</w>
mis sion
la ter</w>
differ ent</w>
7 0</w>
lik ely</w>
gi der
As sociation</w>
si bility</w>
S lobo
desp ite</w>
e very</w>
an ti</w>
Srebr enica</w>
j an
ot s</w>
lob al</w>
boy unca</w>
har d</w>
Voj islav</w>
op s</w>
düzen len
da ir</w>
c ust
re as
G ot
F or
stren g
leg is
ön c
so me
bir kaç</w>
ac tion</w>
agen cy</w>
a head</w>
su z</w>
1 3
Oli mp
Av ust
özel likle</w>
fac e</w>
hi bi
et a</w>
c am
anlaş maz
de ter
i u</w>
str ong</w>
hop e</w>
çık an</w>
se ar
pe ace</w>
Ne ws</w>
up s</w>
um ar
tot al</w>
thir d</w>
yas a</w>
ru n</w>
o il</w>
mes inden</w>
m ot
lüğ ü</w>
l ük
M ic
B il
w r
uyg un</w>
us h</w>
ma dan</w>
f iyat
bur ada</w>
çoc uk
sho w</w>
değişik lik
F at
öz gür
f i</w>
şü p
kom ut
ne eds</w>
a ir</w>
C entre</w>
Rad ov
Got ovina</w>
ülkeler in</w>
in ten
s ık
ek i</w>
mese le
cr acy</w>
sor umlu</w>
p ur
in du
sum mit</w>
ler ce</w>
c ing</w>
C or
so on</w>
kazan dı</w>
ar ada</w>
positi ve</w>
n i</w>
ac i</w>
kon ular
Re pub
n da</w>
l ığını</w>
kuz ey</w>
c us</w>
F eder
ihti la
p an
l â</w>
inter es
her hangi</w>
A c
kö tü</w>
199 2</w>
por tun
demo cratic</w>
d ge</w>
bas sad
b om
sağ lık</w>
mak ta</w>
dür ü</w>
Sloven ya</w>
merkez li</w>
mahke me
az alt
tak dir
suç la
mev ki
ag es</w>
tic aret</w>
hay at
M ec
açıkla dı</w>
fac il
al ong</w>
Fil m</w>
yüz ünden</w>
or t</w>
teme l</w>
olacağ ını</w>
C our
yan dan</w>
r o</w>
n et
n ame</w>
he ad
dış ında</w>
le ast</w>
bi d</w>
lar ge</w>
h t</w>
van ov</w>
op portun
cap ital</w>
alo gue</w>
D ep
hâ lâ</w>
getir di</w>
t ory</w>
g an
descri b
Sr p
M ol
çalış malar
ola y</w>
m ul
ey al
düğ ü</w>
yap tı</w>
Slobo dan</w>
üy eler
a f</w>
pro per
milletvek il
b an</w>
ıl mış</w>
s hi
ak e</w>
Yugoslav ia</w>
Sol ana</w>
yetkil i</w>
tür ü</w>
sav aş
gro ups</w>
gelec ek
S atur
An ton
t ad
ken d
gel en
bölge de</w>
peri od</w>
ir e</w>
en g
ban k
alkın ma</w>
G az
j ustice</w>
G u
aç tı</w>
te ly</w>
mil lion</w>
i o</w>
c el
üye liği</w>
s ız</w>
re ter
Pod gor
D S
k at</w>
yatır ım
lar gement</w>
Ash down</w>
ist ance</w>
Geor ge</w>
pres ent</w>
en viron
ede ce
Frans a</w>
C o
kri z
as a</w>
administ ration</w>
Satur day</w>
yor uz</w>
m ing</w>
ön e</w>
imple mentation</w>
e mek
con duc
ğ in</w>
üy orlar</w>
r ast
n ation</w>
ffic i
Ro men</w>
çağır dı</w>
sil ah
hen üz</w>
takdir de</w>
ad ım</w>
p iy
mü m
si l</w>
d ri
İ sti
poin t</w>
el en
rapor da</w>
mission er</w>
mak ing</w>
Ö z
kon ulu</w>
M i
mevki daş
cus ed</w>
cont rol</w>
b ra
mas ıyla</w>
spok es
presiden cy</w>
A gre
viol ence</w>
di ri
ati sti
C umar
y anl
kes in
e me
Cumar tesi</w>
sahi bi</w>
ad ay
öl dür
muhalef et</w>
Ira q</w>
tarih i</w>
neigh bour
imple men
ülke ler</w>
kü n</w>
fun ds</w>
f ra
bi z
top lum</w>
hükümet inin</w>
a j</w>
Merkez i</w>
t ar</w>
m os
atis ation</w>
al isation</w>
necess ary</w>
f on
ülkeler inin</w>
tri al</w>
tour ism</w>
Russi an</w>
on y</w>
n un
söz c
pot ansi
SA A</w>
Pap and
ö dül
mu ş</w>
bun ların</w>
pro tec
p as
i ally</w>
Montenegr in</w>
Minist ry</w>
ıs ını</w>
ser ious</w>
s ok
h old</w>
di alogue</w>
u da</w>
ru c
ces s
tra v
müm kün</w>
2 ,
um u</w>
u es</w>
reac hed</w>
Podgor ica</w>
200 0</w>
tak ing</w>
f ew</w>
du ce</w>
ben ef
vur gula
n asıl</w>
mü ş</w>
lik a</w>
Y or
w ing</w>
ne ar</w>
achi ev
yap an</w>
vis a</w>
bağımsız lık</w>
ad ım
S u
s en</w>
resul t</w>
lar gest</w>
kent inde</w>
el ine</w>
di c
ç er
ne arly</w>
Cour t</w>
vo ic
ha m
di yal
D ay
re view</w>
n al</w>
ıs ının</w>
ç at
y se</w>
En er
Agre ement</w>
m ut
göster iyor</w>
i ma
o thers</w>
ne w
N or
Mahke mesi</w>
Dep uty</w>
yıl ı</w>
n a
br ing</w>
Par la
Mit rov
yolsuz luk</w>
g esi</w>
as tern</w>
ükü m
yardım cı</w>
mem nun
du lar</w>
yayın lanan</w>
sug ges
p ing</w>
kayde tti</w>
Rom a</w>
Büy ükelç
ör ne
alar ının</w>
p e</w>
ne v
re sel</w>
H o
sti tut
arres t</w>
Papand re
in ed</w>
h an</w>
at ors</w>
Dai resi</w>
3 r
youn g</w>
la ws</w>
di u</w>
3r d</w>
üm ü</w>
mec lis</w>
im s</w>
g lobal</w>
Aust ri
tür lü</w>
pot ential</w>
böl ün
t able</w>
bağıms ız</w>
ul an</w>
h ome</w>
edil mesi</w>
B ran
leştir me</w>
lar ındaki</w>
istikr ar
etti ğini</w>
dün y
lu ğu</w>
ful ly</w>
blo c</w>
an ya</w>
p ay</w>
or uz</w>
om in
l ıca</w>
eleş tir
de leg
ol u</w>
kaçak ç
gerçekleş ti</w>
ab ri
gaze tes
deci ded</w>
Luk a</w>
uv vet
ul os</w>
t ığını</w>
bil im</w>
Tem silc
nüf us
s ul
ü çün
qu es
li ber
doğ ru</w>
bil gi</w>
b a
1 5
nati ons</w>
iler inin</w>
es pec
d ul
bölge deki</w>
baş larında</w>
organ isation</w>
hal a</w>
bağ lan
aç ıdan</w>
A m
il an</w>
espec ially</w>
So ci
Repub lika</w>
retur n</w>
gi ve</w>
düz ey
O h
A G
z or</w>
employ ment</w>
b ac
Ol li</w>
olduğ una</w>
hal f</w>
fam ily</w>
es ini</w>
yaş ayan</w>
s ü</w>
lin es</w>
Uni versity</w>
E con
rec ently</w>
C i
stitut e</w>
son una</w>
G ro
ıl ıyor</w>
st ar
d ged</w>
ti s
n d</w>
k eti</w>
bo l</w>
Econ om
pet rol</w>
ist ler</w>
an ket
Lib ya</w>
r ate</w>
ad ding</w>
reli gi
m ine</w>
impro ve</w>
Ge org
B ur
r on
ola bil
is ing</w>
hal ine</w>
2 nd</w>
tem sil</w>
sorum lul
d ık
ser best</w>
c ak
ac ı</w>
Re present
Day ton</w>
son uc
con fir
b all</w>
y esi</w>
K al
Yor k</w>
D S</w>
ne eded</w>
de st
Ban ja</w>
B ra
Anlaş ması</w>
z er
pop ulation</w>
kes im
fin d</w>
bu gün
Srp ska</w>
Fr ance</w>
yıl dır</w>
ous ly</w>
ex hibi
ma z</w>
go al</w>
İn ter
us ing</w>
n on</w>
incre as
att ac
al ma</w>
al acak</w>
H un
ban k</w>
appro ved</w>
f av
büt ç
Sloven ia</w>
sü ren</w>
ra f
si vil</w>
cr os
Al liance</w>
yetkil ileri</w>
ment osu</w>
gerç ek</w>
sm all</w>
s har
sürec i</w>
ai med</w>
D en
r ven
pres ented</w>
karşı ya</w>
den ti
beli ev
ate ly</w>
san tr
V al
ın t
indepen dent</w>
a ve</w>
veril en</w>
signific ant</w>
le mek</w>
c over
al leg
ter ör
sağ lan
s ing
ak tar
vic es</w>
s inin</w>
mevkidaş ı</w>
koş ul
is ine</w>
Ital y</w>
v an</w>
qu ar
iler ini</w>
Festiv al</w>
taş ı
fre edom</w>
ag ed</w>
terr it
oper asyon
buil d</w>
be gan</w>
ülke den</w>
y ur
ver en</w>
st and</w>
pe ac
k li</w>
Milos evic</w>
2 .
İ l
s ız
o g
ey lem
ar ri
Radov an</w>
reter i</w>
repor ts</w>
ha ber</w>
M üs
Karadz ic</w>
F ran
nite lendir
day an
ar alarında</w>
O s
Ger man</w>
Geor gi
tra ffic
ıy ı</w>
önc eki</w>
cl ose</w>
İtal ya</w>
İ T</w>
tur izm</w>
o l</w>
Par ti</w>
Do dik</w>
Avust ur
İ tti
ver gi</w>
elec tri
doğru dan</w>
diploma tic</w>
şim di</w>
tem p
ta x</w>
ex pla
en tegr
discus s</w>
bassad or</w>
activ ities</w>
v al</w>
ö de
ihtila f
pre vi
SC E</w>
Hun gar
An nan</w>
üy eleri</w>
et meye</w>
establis hed</w>
O SCE</w>
N ic
J os
Müs lü
E m
suç u</w>
kü resel</w>
G S
s osyal</w>
bil g
ar an
open ing</w>
no ted</w>
geli yor</w>
ç ı</w>
sev en</w>
o ds</w>
do mes
baş vur
D er
tör en
fac t</w>
P a
3 5</w>
suc cess
ov ska</w>
ikti dar
et mesi</w>
baş lıca</w>
anlaş ması</w>
öğren c
Ab dul
ö türü</w>
tro ops</w>
priv ate</w>
mek te
kno wn</w>
öl ç
ilişkil eri</w>
duyur du</w>
T al
İnter net</w>
hız landır
Bir liği</w>
AG İT</w>
üçün cü</w>
s ite</w>
bo ost</w>
am oun
ı f
u ally</w>
ter e</w>
medi ğini</w>
gerçekleş en</w>
ask ed</w>
con fi
Represent ative</w>
s ak
dün ya</w>
proj e</w>
laun ched</w>
bak anı</w>
ğ ine</w>
rven kovski</w>
kes in</w>
kay bet
arres ted</w>
Iv o</w>
H ab
İ ş</w>
ma s</w>
T omis
Ü ni
ha i</w>
e ight</w>
dönem de</w>
baş lay
l ish</w>
katıl ım
ac coun
T an
19 8
kap at
ob li
l os
k it
he alth</w>
gr ap
b ly</w>
sig n</w>
co mes</w>
yolsuz lukla</w>
u ş</w>
n ess</w>
Tomis lav</w>
S y
Com missioner</w>
vo y</w>
ste ps</w>
gerçekleş tir
bil ateral</w>
alar ına</w>
Eur o</w>
vi ze</w>
ti cal</w>
ag ain</w>
parti si</w>
İngil tere</w>
oran ında</w>
mücade le
ma te</w>
in ing</w>
de mon
D nev
tu res</w>
n ak
kam u
gru p</w>
an ted</w>
9 th</w>
kuz ey
iler ine</w>
Or taklık</w>
E x
il iyor</w>
i v
com men
J er
to o</w>
i th
tu r</w>
rul e</w>
incre ased</w>
de p
refer en
demokr atik</w>
T er
el d</w>
bir leş
Sor umlu</w>
wh ose</w>
rast ruc
ge l</w>
domes tic</w>
Mol d
Li ber
la test</w>
Ad alet</w>
war ned</w>
ser vices</w>
se en</w>
parlamen to</w>
ol masına</w>
mil li
H oo
çat ış
vi e
re t
li ving</w>
li es</w>
to day</w>
si k
k av
con clu
adop ted</w>
D r
3 0
re kab
pos t</w>
he yet
Abdul lah</w>
dün yanın</w>
ti mes</w>
i ons</w>
yas al</w>
t ab
sözc üsü</w>
pos ed</w>
le ad</w>
i er</w>
he p
en ded</w>
d os
çalış ma</w>
vil la
f u
ann ual</w>
3 00</w>
mekte dir</w>
S D</w>
m ik
hakk ındaki</w>
d ges</w>
R es
on ya</w>
iy at</w>
us es</w>
k omis
d ışişleri</w>
ne den</w>
fin ans
e du
constitu tion</w>
rastruc ture</w>
olduk ça</w>
iş aret</w>
te es</w>
pro duction</w>
on es</w>
dik leri</w>
ö v
reg ime</w>
başar ılı</w>
tiril mesi</w>
expres sed</w>
bi g
C ri
C E
ol ur
ko m</w>
festiv al
bak anlığ
prosecut or</w>
malar ın</w>
el s</w>
ap poin
Dra gan</w>
gen in</w>
w ants</w>
st ressed</w>
san at
diffic ult</w>
c ab
art ış</w>
T K</w>
roug ht</w>
j an</w>
en sure</w>
eff er</w>
edil iyor</w>
ar eti</w>
199 0</w>
yaş am
ner ship</w>
g ic</w>
O A</w>
te l</w>
ment al</w>
bun dan</w>
baş ına</w>
alt yap
Sırp lar</w>
Mitrov ica</w>
Gro up</w>
priv atisation</w>
ot o
man der</w>
le x
ist ing</w>
f ig
Ste f
Sch effer</w>
v ade
t rol</w>
proper ty</w>
le ar</w>
char ges</w>
ü cre
plan t</w>
edil di</w>
ed erek</w>
D ef
h ere</w>
ass istance</w>
inf lu
analy sts</w>
K or
Hoo p</w>
ro und</w>
g ı
ç im
iti bar
da tes</w>
as ıyla</w>
pres sure</w>
lead ing</w>
kiş inin</w>
kamu oy
toplant ısında</w>
min ority</w>
g s</w>
deb t</w>
cumhur başkanı</w>
ön de</w>
m ül
karşı laş
c entral</w>
bele diye</w>
sağlay acak</w>
amp iy
ot ur
isti f
pub lis
pre v
hi ç</w>
da i
a it</w>
V OA</w>
H ak
stu dents</w>
rec ek</w>
f oun
büt çe</w>
a h</w>
Dev elop
spe ak
ri d</w>
is ha</w>
inf rastructure</w>
constitu tional</w>
A li</w>
ser gil
f ri
üzer indeki</w>
wor ks</w>
re al</w>
mahk eme</w>
benz er</w>
şir keti</w>
expec t</w>
l isi</w>
güç lendir
durum u</w>
d one</w>
cer em
şidde t</w>
ülke ye</w>
tek nolo
nolo gy</w>
ex ten
çer çev
ted ly</w>
ess es</w>
kon om
comm on</w>
bele di
at temp
Üni versi
tur n
or tak
gen ç</w>
c ele
bugün e</w>
am an
Sek reteri</w>
propos ed</w>
propos al</w>
nok t
m uş
ec h</w>
P r
ıyor uz</w>
ön ünde</w>
sor unu</w>
me sa
konuş tu</w>
Develop ment</w>
ta j
referen dum</w>
q i</w>
invol ved</w>
il a</w>
i denti
at tr
me ans</w>
kor un
repor ters</w>
parç ası</w>
gen iş</w>
con nec
Fat mir</w>
yük sel
sonr aki</w>
om an</w>
nor th</w>
ma dığını</w>
ma c
ig h</w>
en ing</w>
R us</w>
başk anlığ
P A
siz lik</w>
os yal
legis lation</w>
H al
yıl ından</w>
strate gy</w>
dis h</w>
cumhur başkanlığı</w>
anlam ına</w>
is inde</w>
c ular</w>
şüp hel
çağr ısında</w>
tan ım
geç miş
yeter li</w>
um ut
l ist</w>
fo cus</w>
commit ted</w>
tele viz
pro ce
or a</w>
al low
ac qu
a me
J ustice</w>
ye di</w>
st ry</w>
p ip
on ce</w>
in tro
i e</w>
at ör
dağ ıt
com par
cap ac
Bar ış</w>
sahip liği</w>
r al
ıyor um</w>
tis h</w>
ol um
merkez i</w>
ih rac
V ladi
ük le
ç iz
traffic king</w>
lo c
ş im</w>
vot ers</w>
re l</w>
V uk
Ber isha</w>
t ment</w>
söz lerinde</w>
prote ction</w>
ob j
mad al
hiz met
d ly</w>
ç if
ol s</w>
o ffer
a ut
P o
konus undaki</w>
high er</w>
I gor</w>
tr e</w>
sek iz</w>
iç er
em er
d önem</w>
cust oms</w>
J a
1 8
vi du
tan ı
sch ool</w>
m ur
kas ab
kap asi
kal an</w>
E konom
3 .
discus sed</w>
ılık la</w>
si mil
ok ul
Vladi mir</w>
Ch rist
ra ised</w>
m anı</w>
k es</w>
gre at</w>
gerekti ği</w>
b ay
S im
C entral</w>
soci ety</w>
er ed</w>
V er
pri ces</w>
pr ac
mes inde</w>
ma dı</w>
ilişkil er</w>
e bilir</w>
Bri tish</w>
me ler</w>
in s</w>
O ffic
Festiv ali</w>
ros s</w>
iş let
co m</w>
anlaş manın</w>
tad ır</w>
seçim leri</w>
initi ative</w>
halk ın</w>
gerçekleş tiril
di es</w>
söz ü</w>
be gin
Y ük
V la
vurgula dı</w>
tek rar</w>
say ısı</w>
s ent</w>
ol e</w>
hist or
b öyle</w>
Kur dish</w>
F E</w>
Üniversi tesi</w>
b rought</w>
yıl ki</w>
f ar
Sav un
G DP</w>
yıl da</w>
we eks</w>
ik ili</w>
S ti
Pe ace</w>
in et</w>
Radi o</w>
In stitute</w>
star ted</w>
sear ch</w>
ter ms</w>
sa at
lider leri</w>
l in</w>
en voy</w>
def ic
al most</w>
sup p
sen ten
sağla mak</w>
eler ini</w>
d ıkları</w>
recei ve</w>
ra ther</w>
contri bu
m r
hak ları</w>
Ar my</w>
9 0</w>
al low</w>
S ali</w>
res t</w>
ko v</w>
issu ed</w>
commun ic
Tr ans
Olymp ic</w>
resol ution</w>
mak tan</w>
crimin al</w>
anayas a</w>
Savun ma</w>
K an
ş i
pri ce</w>
indi vidu
effor t</w>
yetkil ilerin</w>
yaş an
hist ory</w>
exper i
ade t</w>
a ver
Yük sek</w>
Def ence</w>
3 ,
20 12</w>
şir ket</w>
ülke yi</w>
yüz den</w>
s an</w>
olmay an</w>
bak anlığı</w>
ad ığı</w>
D K</w>
G oran</w>
199 1</w>
su s</w>
me di</w>
di zi</w>
kon trol</w>
bel li</w>
al mak</w>
S am
yürü t
müzakereler in</w>
memnun iyet
jo b</w>
isti yor</w>
tek nik</w>
cab inet</w>
S tra
Re public</w>
İsti krar</w>
rela ted</w>
tama men</w>
s u</w>
kar ış
d ou
c u
c ru
baş lan
Ru men</w>
yol u</w>
tü sü</w>
g ec
tiv ely</w>
teh dit</w>
piy as
iş a</w>
ir ken</w>
etti ler</w>
V uk</w>
R FE</w>
Komis yon</w>
li ght</w>
kon u</w>
gider ek</w>
R L</w>
organis ations</w>
esti ma
bor u</w>
1 4
ün i
docum ent</w>
Al man</w>
lan da</w>
hop es</w>
fail ed</w>
ar ab
reform ları</w>
gü c
A j
t in
re ach</w>
kuruluş u</w>
N at
GS Y
kad ın
geliş tir
be gin</w>
N o
H D
Ber işa</w>
stat ü</w>
dığ ında</w>
a at</w>
V i
v ement</w>
ul du</w>
serv ice</w>
hap p
cerem ony</w>
böl geler
İ H</w>
yürü tü
stan ding</w>
hav a</w>
aman lis</w>
ad ışı</w>
ad aki</w>
süre kli</w>
on ger</w>
mon it
mem ur
S il
Kar amanlis</w>
Jer em
vi ola
religi ous</w>
pla y</w>
ma ğ
li t</w>
kil led</w>
in da</w>
GSY İH</w>
F ren
c ost</w>
ci var
al le
ak u</w>
ıla cağ
y üküm
obli g
f er</w>
F T</w>
İç işleri</w>
ölç ü
o me
bulun duğu</w>
pla ced</w>
n den</w>
l o</w>
k er</w>
ili ği</w>
halk ı</w>
ber g</w>
ğ un</w>
üre ti
ç ap
pro mot
ne l</w>
S FOR</w>
E C
k now</w>
ex amp
yard ımcısı</w>
işbir liğini</w>
199 8</w>
çalış an</w>
reg ist
re gula
poin ts</w>
ede yse</w>
dis p
bel ge
al i
ülk esi</w>
politi ka</w>
or ta</w>
bo dy</w>
M is
5 m</w>
terror ism</w>
stat üsü</w>
il legal</w>
gü mr
düğ ünü</w>
H igh</w>
u ç</w>
ol maya</w>
ter ör</w>
med ya</w>
kor uma</w>
kom ün
d ata</w>
Th aci</w>
Sou th</w>
S E</w>
yapıl ması</w>
w at
um ut</w>
tutuk lan
requi re
repor tedly</w>
investig ation</w>
L on
Jov anovic</w>
Fren ch</w>
voic ed</w>
sol di
politi k
en try</w>
z af
ni hai</w>
c li
çağr ıda</w>
t ılar</w>
an ti
H I
Af ri
ı larının</w>
v a</w>
halk ının</w>
edu led</w>
bir inci</w>
ac ross</w>
E B
ı lara</w>
yıl ına</w>
wor kers</w>
st re
ner edeyse</w>
mis yon
gen ç
Di rec
ş e
part ment</w>
malar ını</w>
kad ın</w>
Avrup alı</w>
say g
Gü l</w>
prosecut ors</w>
mer kez</w>
isti h
iler le</w>
hiz met</w>
ö n</w>
y u</w>
ci vil
al ities</w>
wa ter</w>
sci ence</w>
de man
T A</w>
M la
ra z</w>
bak ış</w>
ükle er</w>
w in</w>
sch eduled</w>
p ic
or ad</w>
bu gün</w>
S osyal
M R
plan ned</w>
p ak
for ward</w>
aşır ı</w>
ti ms</w>
simil ar</w>
sand al
ri yor</w>
respon sibility</w>
ov o</w>
inclu ded</w>
en ds</w>
eff ec
consider ed</w>
avro ya</w>
Parla mentosu</w>
Kür t</w>
r un
dik kat</w>
ac ts</w>
Mil orad</w>
A lek
yor um</w>
uc lear</w>
th ous
se par
en ding</w>
el j
big gest</w>
J av
Bor is
yol uyla</w>
sür dü</w>
ros o</w>
Milos eviç</w>
Bar roso</w>
İ k
yar ar
müzak ere</w>
en ough</w>
deleg ation</w>
N G
yöneti m</w>
w le
la mak</w>
acak tır</w>
R D</w>
pos e</w>
parti cul
mak ers</w>
kayn ak</w>
inclu des</w>
be h
Karadz iç</w>
ifa de
e ğini</w>
e anu</w>
diğ ine</w>
ye l</w>
yatır ımc
os lav</w>
ev i
ac cess</w>
A ra
particul arly</w>
oper ate</w>
en cy</w>
Tra ian</w>
S ur
yen il
si ç</w>
s or</w>
ort al
m ight</w>
len mesi</w>
gi z
deter min
de li
beh ind</w>
al ter
z a</w>
harek et</w>
en ter</w>
disp ute</w>
demo cracy</w>
büt ün
y az</w>
y alı</w>
si des</w>
rec or
h un
en cour
seç men
la k</w>
ko lay
i ja</w>
geli r
describ ed</w>
b aş</w>
En sti
l ül
off er</w>
in de
gelen ek
f el
competi tion</w>
commun ities</w>
ch o
yas adışı</w>
op in
b ah
aver age</w>
J ap
D in
1 1
ı larını</w>
önces inde</w>
uzlaş ma</w>
ke l</w>
h es
baş ında</w>
attac ks</w>
A lex
ö y
tar af</w>
rele ased</w>
liğ indeki</w>
hal k</w>
a gement</w>
h il
direc t</w>
den iz</w>
d al
ac an</w>
tr ansi
kri z</w>
di pl
a may
R ama
L aj
vic tims</w>
memnuniyet le</w>
er k
da m</w>
se ek
li t
kan ıt
k uvvet
electri city</w>
dipl om
bo ok</w>
ap er</w>
ad ayı</w>
Offic e</w>
spec if
ma aş
doğ al
sen ior</w>
ir man</w>
inter net</w>
ec h
doğ al</w>
at h</w>
journ alists</w>
in ste
So cial</w>
Pa ul</w>
veril di</w>
invest ors</w>
he men</w>
and ığı</w>
Or d
söyle diler</w>
atten ded</w>
addi tion</w>
oğ lu</w>
ma ması</w>
judi cial</w>
f lo
enti ty</w>
add ress</w>
im medi
atur al</w>
sp or</w>
r isti
ol sa</w>
h on
Atlan tik</w>
A ir
toplum un</w>
r ing</w>
f l
f igh
d le</w>
ıl masını</w>
sistem i</w>
kr iter
is hed</w>
emek li</w>
b at
B öl
0 .
respon sible</w>
gu aran
d ru
ci es</w>
sır ada</w>
ort am
mey eceğini</w>
iz le
ir i</w>
invest ments</w>
dist ri
G al
id ar
i tesi</w>
ar ti
P re
Amer ik
pip eline</w>
ola cak
ol ası</w>
n dan</w>
le m</w>
ci ary</w>
azın lık</w>
ıla bil
ur a</w>
tra ining</w>
olma dığı</w>
Georg i</w>
sa ge</w>
gen işle
cre ate</w>
P an
0 s</w>
stri c
capac ity</w>
büyü me</w>
an ni
ül mesi</w>
vi k</w>
siyas et
inste ad</w>
em in</w>
dep uty</w>
Ah met</w>
ölçü de</w>
me work</w>
me siyle</w>
cer tain</w>
w ent</w>
tal ep</w>
ic eanu</w>
en e</w>
e ği</w>
düzenle diği</w>
do lay
b ab
ris k</w>
provi ded</w>
par ts</w>
m us
m ig
i ed</w>
f abri
ci ç</w>
alar a</w>
pro f
lo an</w>
follow ed</w>
b ut
an ds</w>
Do ğu</w>
Atlan tic</w>
ıs ına</w>
t as</w>
re ti
offic ers</w>
is land</w>
he de
değiş tir
bun lar</w>
ar my</w>
ak lan
K alkınma</w>
tre at
politi cs</w>
h and</w>
gi den</w>
concer n</w>
an ların</w>
Bran ko</w>
ü ş</w>
Ü yesi</w>
y our</w>
ke ep</w>
gümr ük</w>
HD Z</w>
Dimit ri
fo ot
eler in</w>
abil isation</w>
S h
Jov anoviç</w>
teh di
e as
blo c
Anton io</w>
ıl ığını</w>
sürec inin</w>
previ ous</w>
er ini</w>
sur v
s ports</w>
lüğ e</w>
kon um
bil in
agre ements</w>
ne ver</w>
lar dır</w>
d ini</w>
bec ame</w>
ar gu
Mold ova</w>
G ul</w>
üy le</w>
soruştur ma</w>
or anı</w>
Rom an</w>
m üş
el inde</w>
B ush</w>
ıyor du</w>
su n</w>
re commen
dan ış
at re</w>
Tar iceanu</w>
4 .
ü le
yür ür
seçim ler</w>
o p</w>
milli yet
k ova</w>
govern ments</w>
examp le</w>
c all</w>
anlaş maya</w>
yor um
sem bly</w>
pay laş
obser ver</w>
n uclear</w>
n ine</w>
kor u
ep ing</w>
bin lerce</w>
L inda</w>
çün kü</w>
yur t
presiden tial</w>
ola bilir</w>
C ha
ow ned</w>
ma dığı</w>
m iyor</w>
isti krar</w>
interes ts</w>
ic ally</w>
güven ce</w>
alan ında</w>
Am bassador</w>
regar ding</w>
p i
n ükleer</w>
mak tadır</w>
görev i</w>
fır sat
comple te</w>
b our</w>
Mac ar
Hab er</w>
EB RD</w>
t al</w>
deste ği</w>
da ma
confi dence</w>
bi çim
yön et
publis hed</w>
lan gu
ay ın</w>
M art
K at
Ensti tüsü</w>
uzman lar</w>
m om
lider ler</w>
n atural</w>
malar ına</w>
m ini</w>
ber t</w>
zir a</w>
teş vik</w>
soldi ers</w>
getir il
faz l
candi dates</w>
cal ls</w>
4 00</w>
ö te</w>
zir v
terror ist</w>
pro tes
particip ants</w>
m inin</w>
lu s</w>
indu stry</w>
hede f</w>
ffici ent</w>
ampiy on
D A</w>
t at
r ot
fa ir</w>
tut um
tar i
ov ac</w>
opportun ity</w>
ek sik
Or ta</w>
En largement</w>
visi ted</w>
tele f
lar ca</w>
f is
ey i</w>
devle t
bask ı</w>
Par vanov</w>
C N
s ar
k u</w>
il ling</w>
def a</w>
bağlan t
a way</w>
Karad aku</w>
ş ark
çalış ıyor</w>
potansi yel</w>
out side</w>
bir liği</w>
İs ra
ğ e</w>
t ru
rej im
man date</w>
li dir</w>
kur tar
ikti dar</w>
cre dit</w>
bil diri
B ay
is im</w>
importan ce</w>
defic it</w>
cr iter
Avustur ya</w>
sorun ları</w>
k ı
P al
Is ra
mü da
büy ükelç
Kur ulu</w>
suc cess</w>
di vi
Laj cak</w>
Gün ey</w>
ti k
sing le</w>
mit ted</w>
kendis ini</w>
edi yorlar</w>
başk an</w>
M eh
M a
tr ying</w>
t ık
so y
sh ort</w>
ok ing</w>
judi ciary</w>
dığ ına</w>
alter nati
C ul
yüküm lül
ti l
per son</w>
moder n</w>
imp act</w>
göster en</w>
zar ar</w>
uy uştur
ol up</w>
ol ma</w>
milletvek ili</w>
eng en</w>
ch es</w>
begin ning</w>
Mil an</w>
on g
lar daki</w>
iş leme</w>
confir med</w>
çık tı</w>
me de</w>
Müslü man</w>
B eta</w>
İ sp
ac iç</w>
B uc
us unda</w>
p aid</w>
ev ents</w>
değ il
Sch engen</w>
sum mer</w>
low er</w>
lo ok</w>
f la
bil gil
un ları</w>
söy l
represent ative</w>
ort adan</w>
exhibi tion</w>
O per
H üküme
6 .
kon tr
de ad
com mander</w>
Tele kom</w>
thous ands</w>
requi red</w>
ques tion</w>
li ve</w>
en a</w>
böl genin</w>
agre e</w>
ac cused</w>
tur n</w>
sür üyor</w>
ha ving</w>
S osyal</w>
mark ets</w>
en gel</w>
Sırp ların</w>
M P
son uç</w>
olum suz</w>
ne g
bakan ları</w>
D ur
z ic</w>
oper ations</w>
jo bs</w>
de k</w>
ür ün
tain ed</w>
C an
B e
A y
1 50</w>
s c
kom ş
h and
af f</w>
Mus lim</w>
p ped</w>
l ost</w>
h ment</w>
declar ation</w>
wh y</w>
tic ari</w>
ta x
pris on</w>
o ulos</w>
j ik</w>
ede bil
dış ı</w>
E S
Bo ş
Aj ansı</w>
12 th</w>
tü rel</w>
tü ke
se qu
h it
car ri
spokes man</w>
f ay
e ge
civar ında</w>
Georgi ev</w>
4 4</w>
prote st
pri ority</w>
conduc ted</w>
böl üm
acağ ına</w>
H e
tech n
sch o
ref u
mü dürü</w>
kıs m
ger ek</w>
al d</w>
Sti pe</w>
4 5</w>
ex tre
environ ment</w>
ek ler</w>
dra ft</w>
demon str
c os
bir bir
ban ks</w>
uğ r
uy orlar</w>
g et
b es
S O
yaş am</w>
yap ıyor</w>
sp on
res sing</w>
qu e</w>
pr in
geç iş</w>
deb ate</w>
criter ia</w>
c ar</w>
at ure</w>
Jav ier</w>
Fin ance</w>
D a
, 5</w>
t y
stat üs
promis e</w>
ple dged</w>
karar l
is im
hi t</w>
düş ür
abil eceğini</w>
y av
sus pec
s alar
plan lıyor</w>
koalis yon</w>
hız lı</w>
ayr ı</w>
in ation</w>
comple ted</w>
C ez
ur s</w>
ul ması</w>
re ad</w>
or ig
kaç ak</w>
görü len</w>
dav a</w>
addi tional</w>
a ter</w>
K ül
Austri a</w>
ula cak</w>
sürec ini</w>
oy la
mik tar
col lec
art an</w>
agen da</w>
P at
s er</w>
qu ic
it self</w>
it ation</w>
high est</w>
dol ar
ci vil</w>
biz im</w>
ac tions</w>
w anted</w>
trav el</w>
Nov i</w>
Mal iye</w>
s k
ra tes</w>
mark s</w>
cen tur
ac tive</w>
ac h
I van
E ast</w>
me z
lığ ına</w>
lik leri</w>
imple ment</w>
e um</w>
continu ed</w>
challen ges</w>
alleg ed</w>
yak ında</w>
v ol
tav si
tak ım
success ful</w>
ses sion</w>
r ö
insan ların</w>
Pet er
B la
İ v
li f</w>
gün lerde</w>
f as
ef ul</w>
demokr asi</w>
c are</w>
bi g</w>
mül tec
ı ma</w>
we ap
t ol
st atisti
sci enti
min al</w>
k il</w>
cin ay
Bo z
ıs rar</w>
len iyor</w>
join ing</w>
b la
S P</w>
üye liğine</w>
ver s</w>
stu dy</w>
over all</w>
madal ya</w>
ke tin</w>
ec u
Y eni</w>
I li
y ans
wh ole</w>
join ed</w>
inter view</w>
diğ er
a ded</w>
K es
Büyükelç isi</w>
Buc kovski</w>
ın ca</w>
un employment</w>
söyle yerek</w>
lay arak</w>
duc ed</w>
ada m
ug iti
ti ği</w>
sel ves</w>
respec t</w>
g isi</w>
a ward</w>
rak am
kontr ol
hi r</w>
hazır lan
h u
f unc
ad van
visi ons</w>
söyl üyorlar</w>
ne ği</w>
f y</w>
ab road</w>
Mart ti</w>
Dj uk
İngil iz</w>
me diği</w>
kül türel</w>
kal dı</w>
iyileş tir
yap mak</w>
tour ists</w>
san ay
me cl
l an</w>
konfer ans
geç er
diyal o
R i
R as
Macar istan</w>
teş kil</w>
sey ah
refu ge
proj enin</w>
il k
commit ment</w>
ayr ıl
art ış
alın an</w>
F ile</w>
teş kil
tak ım</w>
s ine</w>
implemen ting</w>
gen ce</w>
gazetec ilere</w>
ag ri
Par is</w>
vo tes</w>
belirti l
av o
ye bil
tar ım</w>
diploma t</w>
F ac
şey i</w>
ıy an</w>
wi de</w>
ide a</w>
M üz
toplan tı</w>
prev ent</w>
indic tees</w>
ta da</w>
iste yen</w>
i on
görüş me</w>
d ation</w>
Tal at</w>
S el
yanl ısı</w>
st ance</w>
ser t</w>
refer and
li y
huk uk
al in</w>
Liber al</w>
yıl dan</w>
yap acak</w>
t ati
f ugiti
di an</w>
V u
T e
set t
s por
mar k</w>
karş ılan
ü ç
ç iler</w>
ul uyor</w>
s om
pat h</w>
opin ion</w>
kıs ıt
kö y
dok uz</w>
cumhur başkan
al ması</w>
O y
İtti fak
y ık
tep ki</w>
tamam lan
sol da</w>
görüşme de</w>
a at
G j
yürür lüğe</w>
ver diler</w>
t ör</w>
part inin</w>
ou ght</w>
huk uk</w>
elec ted</w>
B an</w>
5 .
yas ında</w>
yapt ıkları</w>
th ings</w>
sign ing</w>
parlamen to
laun ch</w>
l j
gö z</w>
concer ns</w>
char ged</w>
al ised</w>
M or
E P</w>
Demokr atik</w>
protes to</w>
man agement</w>
gro und</w>
equ ip
du r</w>
amoun t</w>
T ic
L u
u el</w>
top rak
sorun lar</w>
Pol iti
ver im
pol is
plan ı</w>
olas ılıkla</w>
estab lish</w>
co med</w>
I I</w>
10 th</w>
1 5th</w>
wel comed</w>
vade li</w>
uyar dı</w>
parti ler</w>
engel le
baz ıları</w>
T he
S ey
Olimp iyat</w>
H P</w>
ver me</w>
municip alities</w>
g a</w>
do w
B lo
ser ies</w>
p ack
obj ec
net work</w>
fo od</w>
eceğ ine</w>
c ot
c ities</w>
bek liyor</w>
abil ecek</w>
N E</w>
İ ran</w>
üzer inden</w>
v ak
om ing</w>
müzaker eleri</w>
inv est</w>
göre n</w>
d ings</w>
compar ed</w>
anl ığını</w>
St re
un ion</w>
tiv es</w>
st art
s at</w>
il s</w>
hat tı</w>
Mes iç</w>
mec lis
id dle</w>
faal iyet</w>
ay lık</w>
may an</w>
lider liğindeki</w>
estima ted</w>
S vet
Inter ior</w>
le ction</w>
at lar</w>
K ad
villa ge</w>
toplant ıda</w>
onay ladı</w>
işbir liğinin</w>
gö ç
fail ure</w>
b on</w>
al ed</w>
R ug
Br it
sil ah</w>
seç il
re ven
plan lanan</w>
göster di</w>
every thing</w>
ek e
bek lenen</w>
Oh rid</w>
Lj ub
Amer ic
s atis
rap or</w>
produc ts</w>
la s</w>
karş ılık
for m
expla ined</w>
air s</w>
ad ılar</w>
thre at</w>
of ten</w>
katıl an</w>
ju dges</w>
fir m</w>
bo z
W ar</w>
C inci
İn san</w>
su st
silah lı</w>
si mp
ol a</w>
mek ten</w>
kor k
ev a</w>
etkil i</w>
7 5</w>
seek ing</w>
la dığını</w>
kon uda</w>
g ın</w>
f al
da ş</w>
anlaş mayı</w>
MR O</w>
H um
Cinci ç</w>
uyuştur ucu</w>
sh are</w>
re search</w>
g ri
er ing</w>
bur g</w>
yer li</w>
some thing</w>
parla ment
gü cü</w>
ev ent
aç ıldı</w>
Has ani</w>
ğ ü</w>
ç ö
tir e</w>
sonuc unda</w>
göz lem
g ets</w>
clos ed</w>
ad in
Peter sen</w>
la bor
k leri</w>
ge z
doğ rul
com mission</w>
prote st</w>
koalis yon
belir len
İ li
ro ad
iy orlar</w>
Olimp iyat
5 5</w>
stratej ik</w>
cal ling</w>
or ing</w>
bildir ildi</w>
J ess
Com mit
s y</w>
doğal gaz</w>
d ük
anal istler</w>
alt ın</w>
Hungar y</w>
G a
B ab
yürütü len</w>
malar a</w>
fac ing</w>
elç isi</w>
buil t</w>
bas is</w>
V MRO</w>
P av
Jess en</w>
ıl masına</w>
s ac
olduk larını</w>
fa ir
do ing</w>
M ed
z en
lit tle</w>
kurul ması</w>
kur al
kom şu</w>
ihtiy aç</w>
ask er</w>
al e</w>
Rug ova</w>
P SD</w>
Cypri ots</w>
z an
tarih li</w>
strate gic</w>
start ing</w>
ra k</w>
mul ti
mahke mesi</w>
fi eld</w>
edece ğini</w>
baş bakan</w>
ac il</w>
Kül tür</w>
Ch risti
pol ls</w>
kil ome
is es</w>
dj ic</w>
U n
P u
Is lam
In v
z ay
muş tu</w>
f ak</w>
düşün üy
T ek
I D</w>
Dj in
tr on
res our
pass ed</w>
kayde tti
il ed</w>
figh ting</w>
dur dur
att ack</w>
M ust
Dev let</w>
B lic</w>
or ial</w>
mov ement</w>
mem iş</w>
i b
es iyle</w>
docum ents</w>
critic ised</w>
Djin djic</w>
ven tion</w>
s ons</w>
lığ a</w>
Dav ut
Cez a</w>
öv gü
y o</w>
vic tory</w>
katıl ımc
is ay
er iş
Hol landa</w>
Ge ç
A T</w>
İsra il</w>
çab a</w>
tarih leri</w>
t ation</w>
respon se</w>
re bil
le ave</w>
iler let
c ir
H av
ön üne</w>
weap ons</w>
tör ü</w>
sonuç lar</w>
re duce</w>
h im
evi dence</w>
araştır ma</w>
üst len
yak al
rö por
ou th</w>
lık lar</w>
gör üyor</w>
g al
en ler</w>
accep t</w>
C hi
yak alan
sus pects</w>
speak ing</w>
karar ını</w>
il ies</w>
dav et</w>
ar ing</w>
Papandre ou</w>
Mes ic</w>
çerçev esinde</w>
particip ation</w>
on going</w>
olog ical</w>
düşün üyor</w>
a w
S DP</w>
Mir oslav</w>
Mer kel</w>
H R</w>
Ber lin</w>
özel leştirme</w>
th o
in tel
igh ts</w>
ho urs</w>
görüşme ler</w>
continu es</w>
Commit tee</w>
son ucu</w>
ra di
particip ate</w>
katk ıda</w>
geç ici</w>
con c
St abilisation</w>
Frans ız</w>
gelecek te</w>
7 .
1 7th</w>
öldür ül
uygulan ması</w>
sh ort
scho ols</w>
m ir
ho use</w>
fac es</w>
eff ect</w>
som ut</w>
pub lic
pros pects</w>
ol makla</w>
ok s</w>
n es
dav ran
bom b
b ar</w>
Tra j
tech nology</w>
streng th
qu ality</w>
h i</w>
gün dem
d istan</w>
arri ved</w>
y in
taş ıyor</w>
tah min</w>
pol isi</w>
harek et
geli r</w>
alın dı</w>
Must af
E l
y um
u ğu</w>
rej ected</w>
ot oğ
mış tır</w>
lo t</w>
law makers</w>
en tire</w>
F on
An ayas
tes ine</w>
seçim lerin</w>
require ments</w>
on ed</w>
ist e</w>
h out</w>
ex change</w>
Sosyal ist</w>
A ff
r ati
program ı</w>
nor mal</w>
emplo ye
c ro
yer ini</w>
li ke
kendis ine</w>
fin ance</w>
ız ı</w>
v ice</w>
techn ical</w>
i ade</w>
for um</w>
et teki</w>
ek u</w>
e m</w>
cade s</w>
L ab
İl k</w>
yap maya</w>
polic ies</w>
mad de
im izi</w>
fra mework</w>
ad vis
H el
Feder ation</w>
1 6
çev re</w>
vers ary</w>
ru les</w>
ron t</w>
haber lerinde</w>
h y
er a</w>
ag ing</w>
20 th</w>
t az
pres ence</w>
parti sinin</w>
mes sage</w>
es inden</w>
en fl
devle tin</w>
ar med</w>
achi eve</w>
S N
Or gan
Islam ic</w>
2 1st</w>
ço ğ
over e
me li</w>
gru bu</w>
bec oming</w>
Boris ov</w>
ı lar
övgü de</w>
çöz üm
wor th</w>
p rec
or i
mu ha
mov ed</w>
indic ted</w>
bilg isay
alın ması</w>
a ten</w>
a ims</w>
P ad
Ord usu</w>
M NE</w>
Jos ip
Ar şi
st able</w>
hay ata</w>
for mation</w>
bor ç
başar ıs
açık ça</w>
DP MNE</w>
Car la</w>
Arşi v</w>
th em
s overe
d ak
yan i</w>
offer ed</w>
S TK</w>
DS S</w>
B at
throug hout</w>
or anda</w>
me z</w>
lan ds</w>
k ın
j e
foot ball</w>
consi der</w>
an o</w>
alar da</w>
çoc uk</w>
ver iyor</w>
lan d
ken ti</w>
gü ç</w>
er te
er c
en ed</w>
cre ated</w>
w oman</w>
tek lif</w>
tedbir ler</w>
se ats</w>
reas on</w>
r ise</w>
peac eke
mil yon
iş sizlik</w>
ex pen
Mos tar</w>
C rvenkovski</w>
şir ketin</w>
ph one</w>
hakk ı</w>
göz den</w>
gerçek ten</w>
et te</w>
Sy ri
La ura</w>
Der neği</w>
Brit ain</w>
tes inin</w>
rapor unda</w>
pro m</w>
ph as
no wle
m ıyor</w>
kay ıt
k an</w>
CN N</w>
Ö r
ten der</w>
langu age</w>
karşılık lı</w>
influ ence</w>
be l</w>
ayr ınt
D ub
yöneti mi</w>
ti f</w>
territ ory</w>
st al
s ık</w>
recogn ise</w>
nitelendir di</w>
l onger</w>
dur uş
ch ance</w>
bek li
başkan lık</w>
Kes imi</w>
Din k
sugges ted</w>
mp ion
miş tir</w>
me yen</w>
mal ıdır</w>
kurul an</w>
if ic
görüşme lerde</w>
gec ik
ban ka</w>
B al
ti ğini</w>
sür dü
struc tures</w>
streng then</w>
st ac
la ması</w>
l ilik</w>
ab en</w>
Direc tor</w>
Ar aştır
y azar
tarih te</w>
rekab et</w>
oblig ations</w>
ma ter
lay acak</w>
fam ilies</w>
ex ports</w>
de fin
de ath</w>
cover ed</w>
R um
De partment</w>
tek lif
oy unc
os ki</w>
lo cated</w>
iş i</w>
SE E</w>
Mec lis</w>
Ital ian</w>
Gru bu</w>
EU FOR</w>
yükümlül ük
ver ecek</w>
pack age</w>
oluştur uyor</w>
hap is</w>
durum un</w>
dow n
diplom asi</w>
condi tion</w>
believ es</w>
anni versary</w>
Mü dürü</w>
un sur
profes yon
ple s</w>
kaydedil en</w>
fi f
diploma tik</w>
de plo
ch ing</w>
bakan lık</w>
Tic aret</w>
Pro gram
Alek san
Aff airs</w>
örgü t</w>
öl üm
yan ıt</w>
sto p</w>
sayg ı</w>
pro gra
o ci
go ods</w>
g un
eğ il
con s
ark en</w>
alan da</w>
al ways</w>
ad al
ack nowle
resi gn
pop ular</w>
min orities</w>
kil it</w>
i ra
V o
S al
Ga mes</w>
ö dü
yayın ladığı</w>
ver mek</w>
shi ps</w>
performan ce</w>
me mesi</w>
fin ans</w>
Nat asa</w>
surv ey</w>
pros ed
ol masını</w>
müzakereler inin</w>
kesin likle</w>
has tan
fil m
edil miş</w>
constru c
and ır</w>
acağ ız</w>
a im</w>
S en
B ler
A R
th us</w>
seçim lerde</w>
reform u</w>
plan ning</w>
ob stac
lik ler</w>
grow ing</w>
ger s</w>
de y
d ö
clos er</w>
Cri minal</w>
19 7
İ z
seyah at</w>
resol ved</w>
remain ing</w>
reform ların</w>
promot e</w>
cour se</w>
V es
Gaz prom</w>
Americ an</w>
199 0s</w>
11 th</w>
ücre t
zor un
tes is
lığ ının</w>
konuş masında</w>
iktidar daki</w>
giz li</w>
ex pan
al ey
K ov
I T</w>
F u
on a</w>
mur der</w>
ma m
cru cial</w>
ağ ır</w>
Medi ap
Ekonom i</w>
uygula maya</w>
them selves</w>
suppor ted</w>
n ak</w>
kab in
har cam
Stra te
Stef an</w>
19 th</w>
specif ic</w>
ro un
recogn ised</w>
p t</w>
hos p
divi ded</w>
chan ged</w>
Ser ge
Pad dy</w>
K ab
J ose</w>
Dr ask
çöz ü
yıl ındaki</w>
siyas et</w>
ra m</w>
olma dan</w>
oci de</w>
insan lar</w>
dik lerini</w>
busin esses</w>
başk anlığını</w>
bağımsız lığını</w>
a dem
Dra g
İtal yan</w>
yön de</w>
ti v</w>
sat ış
röpor taj
ortal ama</w>
om berg</w>
komut anı</w>
inf lation</w>
ihtiy acı</w>
ex pl
değişik lik</w>
c ement</w>
T ech
Se j
C os
si m
re t</w>
po or</w>
oz one</w>
olan ak</w>
l ular
ger gin
der ed</w>
aley h
acak lar</w>
Slov ak
Ener gy</w>
ı larına</w>
Ör gü
uygula ma</w>
tes inde</w>
inc ele
ilgil en
gelenek sel</w>
fun ding</w>
f all</w>
declar ed</w>
d ina</w>
c ou
D us
yıl dön
resour ces</w>
pr o</w>
h al</w>
depen dent</w>
ash i</w>
K uz
ç ar
yer leş
sürec inde</w>
si onal</w>
s iste
increas ing</w>
g ain
dem and</w>
altyap ı</w>
al dığını</w>
Gen işle
Demo cr
Blo omberg</w>
ü len</w>
tho do
ro v</w>
olacak tır</w>
k ind</w>
g old</w>
cele br
and ığını</w>
al maya</w>
Zagre p</w>
SO K</w>
ş ik
malar ının</w>
m or
dev r
cont ro
PA SOK</w>
Meh met</w>
Dnev nik</w>
nüf us</w>
mek an
m id</w>
la l</w>
de v</w>
bro ad
abil eceği</w>
R ights</w>
Ja ap</w>
6 00</w>
üre tic
te mas
sho ws</w>
savc ısı</w>
k olay</w>
istif a</w>
el a</w>
bor ders</w>
Soci alist</w>
Se a</w>
Papandre u</w>
Or thodo
B ek
6 5</w>
k ir
is tek
de ta
co w</w>
Mil o</w>
C eku</w>
we ek
indu stri
con v
Sey diu</w>
Mos cow</w>
Mic ha
veril ecek</w>
soy kır
r ar
pur ch
offici ally</w>
neighbour ing</w>
göre ve</w>
elj ko</w>
di ed</w>
S tr
5 0
sa ğ</w>
n am
kamp any
hap pen
gelece ği</w>
ex p
centur y</w>
belirti yor</w>
b ute</w>
am id</w>
achiev ed</w>
Orthodo x</w>
N ab
C lin
v ia</w>
un la</w>
temsilc ileri</w>
sust ain
ser ve</w>
re tim</w>
müzaker eler</w>
inan ıyor</w>
equip ment</w>
em enin</w>
d ra</w>
ass ess
adım lar</w>
S a
santr al
may acağını</w>
it ors</w>
indic tment</w>
cre di
başlan gı
bas sy</w>
Or to
Iv an</w>
on ları</w>
mo bile</w>
lead er
kur ma</w>
gre ater</w>
eyal etin</w>
etkin lik</w>
endiş e</w>
do lar</w>
den ey
d in</w>
Sp lit</w>
Kos or</w>
C up</w>
Af gh
ziyaret te</w>
um uz</w>
t ığ
protec t</w>
om ir</w>
og lu</w>
k ıy
gen ocide</w>
con cre
c ent
başlat tı</w>
analy st</w>
Arnavut lar</w>
seç en
se ek</w>
ol uyor</w>
ni ght</w>
it ar
in a
imzalan an</w>
hum an
deci de</w>
cla ims</w>
c iting</w>
bi z</w>
app lic
al ing</w>
ş ans
ziy areti</w>
v az
recogn ition</w>
decis ions</w>
ch ap
b öy
appe ar
İs lam</w>
lin ed</w>
invol vement</w>
for ced</w>
Olymp ics</w>
Genişle meden</w>
1 20</w>
makam ları</w>
kolay laştır
immedi ately</w>
i hal
eş it</w>
experi ence</w>
ex ecu
di rek
am end
Sloven ian</w>
P art
Mediap ool</w>
E SC
Ci o
4 ,
çalış an
yas anın</w>
söyle yen</w>
or i</w>
olacağ ı</w>
implemen ted</w>
ga ther
diyalo g</w>
belir ten</w>
ön lem
mat ter</w>
hat ta</w>
ei ther</w>
belirtil di</w>
belir le
b inden</w>
I ran</w>
2 8th</w>
ımız ı</w>
ğ inin</w>
yıl a</w>
söz leri</w>
reform lar</w>
oper ating</w>
me ti</w>
concre te</w>
örne ğin</w>
trans port</w>
gru b
fis cal</w>
edil ecek</w>
allow ed</w>
Sej diu</w>
Os man
J u
yıl lardır</w>
ug e</w>
tain ing</w>
prepar ed</w>
leader ship</w>
la y</w>
fig ures</w>
ark ada
appro val</w>
Nab uc
An gel
z en</w>
sus pen
redde tti</w>
lığ ın</w>
kur ban
iç indeki</w>
en tin</w>
effec tive</w>
dou b
accep table</w>
E ski</w>
ter ci
lev els</w>
inter ior</w>
ex isting</w>
O n
Feder asyonu</w>
An te</w>
ı f</w>
temsilc isi</w>
t ations</w>
sistem inin</w>
li ed</w>
em phas
do ks</w>
Nabuc co</w>
Mus li
Micha el</w>
çab alarını</w>
ro w</w>
op ti
le ment</w>
imzal adı</w>
eler ine</w>
cl as
ac ılık</w>
Orto doks</w>
E u
C HP</w>
new sp
kay b
c k
ar ran
yin ele
vo dina</w>
vi de
ri es</w>
la bour</w>
id ari</w>
ga ve</w>
etkil ey
co iu</w>
bir isi</w>
at i</w>
Tri bunal</w>
Cul ture</w>
Cio coiu</w>
13 th</w>
zam andır</w>
un it</w>
toplum sal</w>
sy m
sektör ü</w>
sa at</w>
imzal adılar</w>
haber lerde</w>
cha irman</w>
benef it</w>
Bak oy
8 00</w>
İsp anya</w>
uyar ınca</w>
fir e</w>
e te
b asında</w>
ad alet</w>
ac ting</w>
Y org
O b
Mer kez</w>
Boş nak</w>
Amerik an</w>
ra ise</w>
parti cular</w>
no thing</w>
ma ş
iste di</w>
inş aat</w>
cor e</w>
çalış maları</w>
suç la</w>
pop ü
organ iz
om o
ith al
is ion</w>
görev deki</w>
for med</w>
establis hment</w>
ece de</w>
Djuk anovic</w>
ü b
tanın mış</w>
oy un
li gh
kapsam lı</w>
er ke
ch o</w>
appro ach</w>
Mar ina</w>
Con stitu
su ik
li ves</w>
kazan an</w>
k ız
isti c</w>
hayat ını</w>
ex tradi
cos ts</w>
bi raz</w>
Har adin
1 4th</w>
thre at
sor unun</w>
say esinde</w>
prote sts</w>
promis ed</w>
lus u</w>
kamp anya</w>
fo re
al ism</w>
UN ESC
UNESC O</w>
P f
Har ek
tr a</w>
sub mitted</w>
ref lec
impro ved</w>
durum unda</w>
bo ard</w>
auth ority</w>
C ol
çab aları</w>
vatandaş ların</w>
tal ep
rele ase</w>
p le</w>
m oun
ilişkiler in</w>
hit aben</w>
fut bol</w>
employe es</w>
eme z</w>
concer ning</w>
C o</w>
ul a</w>
regist ered</w>
ra f</w>
ma ç
kurum ları</w>
ast ase</w>
anal ist</w>
V as
Mu ha
E astern</w>
Dan i
y ed</w>
ve ç</w>
positi ons</w>
parti lerin</w>
kar maş
g g
do laş
arkada ş
P S</w>
Mil ov
B ele
ş ah
et meyi</w>
con sum
başk ent
S ci
N astase</w>
Mos kova</w>
G i
Bo g
ü t
teh like
sho wed</w>
olduk ları</w>
mark ed</w>
k â
impro ving</w>
f ront</w>
es ted</w>
cour ts</w>
cli mate</w>
P lan
1 7
yap ma</w>
sürec ine</w>
st age</w>
re pe
dık larını</w>
challen ge</w>
av an
K ra
Eur Ac
Bakoy ann
opportun ities</w>
na med</w>
is ted</w>
bre ak
accoun t</w>
a war
U I</w>
M at
1 6th</w>
ş art</w>
li gence</w>
it age</w>
il gi</w>
ific ation</w>
hi c</w>
den eti
commun ist</w>
F und</w>
Bler ta</w>
yıl larda</w>
uz ak
sec ure</w>
re p
prosed ür
mo del</w>
dest ro
av ail
Z am
UN DP</w>
Se li
P I</w>
E R
Bir liğe</w>
z am</w>
pla ces</w>
lık lı</w>
hol ds</w>
f otoğ
eler inin</w>
d n</w>
ar ke
alar ak</w>
K up
ter k</w>
profes sor</w>
mos tly</w>
haber lere</w>
de lay
be g
Y ar
tak es</w>
re stric
parti leri</w>
part ner</w>
iste diğini</w>
gü r</w>
ex erc
d ık</w>
char ge</w>
C z
3 2</w>
tur ned</w>
sou thern</w>
pos sibility</w>
milletvekil leri</w>
finan cing</w>
cri tical</w>
bor ç</w>
ay ır
Hum an</w>
üst ün
yet k
me ş
ig n
ar dian</w>
F I
30 th</w>
2 5th</w>
ığ ın
si tes</w>
s is</w>
olo gy</w>
mat ch</w>
li ç</w>
kat ı</w>
karar ın</w>
fo cused</w>
cha e
böy le
benef its</w>
belge de</w>
ak er</w>
P ak
z one</w>
p raised</w>
men sup
getir mek</w>
fa x</w>
en largement</w>
el op</w>
con sequ
commit tee</w>
com promise</w>
Sur iye</w>
Pop escu</w>
O t
Kom itesi</w>
EurAc tiv</w>
Ç in</w>
su per
program mes</w>
liğ inde</w>
happ en</w>
fik ir</w>
dolar lık</w>
de l
amp ;</w>
Man uel</w>
Kr as
K il
& amp;</w>
of i</w>
n omin
mu h
meet ings</w>
kıs mı</w>
dru g</w>
coun cil</w>
ch e
N i
Lj aj
Bab acan</w>
yok sul
provi ding</w>
ma tic</w>
it a</w>
ing ly</w>
il d</w>
dev elop</w>
believ ed</w>
Nikol ovski</w>
Karada ğ
D UI</w>
C har
Af g
örgü tü</w>
vis itors</w>
tasar ru
s inden</w>
müzakereler ini</w>
milliyet çi</w>
imzalan dı</w>
g y
expec ts</w>
etkil en
bölges inde</w>
beledi y
baş layan</w>
G overn
Afg anistan</w>
2 3rd</w>
ıs ıyla</w>
üst ü</w>
ti yle</w>
taraf lı</w>
st ay</w>
sal e</w>
pres ents</w>
j ur
geti ren</w>
fair s</w>
eder ken</w>
değ er</w>
W e
S tu
Dimitri s</w>
çif t
uğ ra
ti ler</w>
teh lik
sağ da</w>
s cen
re al
gazetec i</w>
değişiklik ler</w>
d r
cur ren
contr act</w>
biçim de</w>
Sto jan
Pf P</w>
ıl dığı</w>
ön görülüyor</w>
televiz yon</w>
sürec in</w>
mücadele de</w>
mahk emenin</w>
gün de
adi l</w>
B en
20 13</w>
yap acağı</w>
recor d</w>
politi kas
mahkeme siyle</w>
et ki</w>
communic ations</w>
S ark
Pro fes
5 ,
2 2nd</w>
. b
u tions</w>
si gar
opti mis
may la</w>
it ate</w>
il ik
ih lal</w>
gel diler</w>
appoin ted</w>
R ama</w>
ılar ak</w>
var dı</w>
tü m
st aff</w>
sağla ma</w>
ph ase</w>
municip ality</w>
establis hing</w>
bun ları</w>
bar ış
Sp ain</w>
P ros
Nikol iç</w>
Mustaf a</w>
6 ,
şik ay
İ gor</w>
çoğun luğ
ru h
resol ve</w>
ra m
profes sional</w>
j ect</w>
in dir
iler den</w>
gün ey
ex clu
dre ds</w>
alış ver
ac tu
S ad</w>
L DK</w>
Adri atic</w>
A z
3 4</w>
1 8th</w>
çek il
çar p
sho wn</w>
s ini</w>
lar dı</w>
il eti
böl gesi</w>
bra him</w>
bildiri de</w>
atör ü</w>
ass ass
B ro
Ar men
u d</w>
kı yas
iy orum</w>
ed eral</w>
Mak fax</w>
stru ction</w>
part ners</w>
katıl mak</w>
git ti</w>
gel diğini</w>
belirti liyor</w>
In dependent</w>
Gu ardian</w>
up coming</w>
tion ing</w>
r ating</w>
proj esi</w>
p tion</w>
ler indeki</w>
hun dreds</w>
fav our
erke k</w>
ch ur
Z iv
Adri y
tur ing</w>
pos t
pos es</w>
orig in
head s</w>
he aded</w>
ger il
R T
Pol ice</w>
M et
E lec
Afgh anistan</w>
Adriy atik</w>
2 50</w>
.b g</w>
yan ında</w>
say ısının</w>
over ty</w>
neg ative</w>
mak es</w>
k alkınma</w>
iy im
her kes</w>
comp la
b en</w>
H af
s par
re iter
gerçekleş ecek</w>
ci c</w>
avail able</w>
as soci
ar ac
an lat
quar ters</w>
avo id</w>
ac ted</w>
a ile</w>
Kuz ey</w>
tic s</w>
onay lan
negoti ating</w>
men i</w>
kamp an
his se
he av
discus sions</w>
bir inin</w>
bi ze</w>
S pe
K ofi</w>
Iv ica</w>
Eu observer</w>
3 6</w>
ödü l</w>
Ç ek</w>
söz leş
sun du</w>
main ly</w>
m ers</w>
iç işleri</w>
h att
görüş mek</w>
ge dly</w>
ev i</w>
do c
ay olu</w>
ak is</w>
administ r
M iddle</w>
2 7th</w>
tradi tional</w>
pol l</w>
mov ie</w>
moder n
hukuk un</w>
ex cep
dün yas
continu ing</w>
av ing</w>
Z rvenkovski</w>
K er
Hak ları</w>
F er
As sembly</w>
5 ,000</w>
yas ak
ver diğini</w>
toplant ısı</w>
ser gi</w>
kriz in</w>
iy ordu</w>
h ost</w>
e i</w>
c ally</w>
alle gedly</w>
P ek
B es
şart ları</w>
üyeler inin</w>
re v
pla t
kamuoy u</w>
k ate
h uge</w>
bildir di</w>
bi l</w>
ate ş
S w
Ro bert</w>
teşkil at
sou ght</w>
röportaj da</w>
mov ing</w>
lık ların</w>
k ol
ing ing</w>
heyet i</w>
grub un</w>
fay d
en na</w>
B aj
ü r</w>
çoğun luğu</w>
z ko</w>
yo ğun
v ely</w>
strength ening</w>
ran ts</w>
hedef i</w>
görün üyor</w>
gazetes inin</w>
bi t</w>
af fairs</w>
H aş
Cz ech</w>
1 ,000</w>
uz ak</w>
sp ending</w>
pu an</w>
ov ision</w>
in ess</w>
giri şim</w>
es sen
d ance</w>
Econom y</w>
ülkeler ine</w>
ülk elere</w>
veril mesi</w>
kat liam
du res</w>
de k
da fi</w>
P i
Aleksan dar</w>
üre tim</w>
uygul anan</w>
komün ist</w>
kal ma</w>
institu tion</w>
bec er
Vi enna</w>
199 6</w>
ıy dı</w>
ılığ ında</w>
Örgü tü</w>
tri ed</w>
tari h</w>
sen d</w>
nüfus un</w>
lo oking</w>
he y
con dem
baş a</w>
ama cı</w>
Ener ji</w>
z an</w>
sa w</w>
mom ent</w>
mek tu
kaç ın
karar lı</w>
iddi an
ful fil
fin ally</w>
day alı</w>
comm er
belir t
at ures</w>
as ından</w>
Eur ovision</w>
ıs ındaki</w>
vot ing</w>
sub stan
son u</w>
referand um
on lara</w>
olur sa</w>
me an</w>
iy ana</w>
facil ities</w>
em in
ecek tir</w>
durum daki</w>
bağ ış
a mak</w>
Mec lisi</w>
L azar
199 3</w>
Ö dül
tan ıt
ser ved</w>
pri orities</w>
mesa j
lık ları</w>
kurtar ma</w>
kiş ilerin</w>
ifade si</w>
ed in
ecek ler</w>
bor n</w>
bo j
Z v
V iyana</w>
R am
H rist
Gre eks</w>
Dav or</w>
B ir</w>
zam anı</w>
with dra
top rak</w>
ris k
prote sto
person al</w>
p ir
mu sic</w>
k ra
geti riyor</w>
gazetes ine</w>
every one</w>
econom ies</w>
du p</w>
bun unla</w>
bir çok</w>
ba har
Oh ri</w>
B ağ
ün lü</w>
y azar</w>
ur ging</w>
olas ılığı</w>
mey ecek</w>
kal ar</w>
de ler</w>
c t</w>
b and</w>
aff ected</w>
Zam an</w>
8 .
2 6th</w>
İs v
uyar ıda</w>
trans fer</w>
proce dures</w>
lo g
gu lar</w>
an der</w>
P lus</w>
Isra el</w>
F inan
ther e
sonuç ları</w>
p overty</w>
n ik
k ov
iy oruz</w>
i bi</w>
histor ic</w>
ff ic</w>
ci ted</w>
c iler</w>
ath le
Milos oski</w>
Austri an</w>
İsv iç
ut sch
ti yat
let ter</w>
karmaş ık</w>
görüş ün
d omin
ca used</w>
açıkla ma</w>
Serge y</w>
Kon j
G or
Dani el</w>
B oy
İ d
um ents</w>
trans par
requ est</w>
liğ iyle</w>
kö pr
güven li</w>
dış ındaki</w>
bölün müş</w>
Clin ton</w>
supp ly</w>
sa d</w>
istikr arı</w>
grap h
geçir il
diğ inde</w>
bi re
agen cies</w>
Pu tin</w>
Nikol ic</w>
Jerem iç</w>
9 .
y di</w>
ver g
tec ek</w>
süre dir</w>
reas ons</w>
play ed</w>
iş e</w>
i med</w>
i as</w>
his s
haber ine</w>
go als</w>
dik kat
conflic ts</w>
br on
Vu j
S DS
O s</w>
Econom ic</w>
B H
önce den</w>
yakın larındaki</w>
per sons</w>
ne y</w>
lo ans</w>
k anal
h in
etkil e
et mekle</w>
düşünüy orum</w>
develop ments</w>
cros s</w>
contri bute</w>
assess ment</w>
al anı</w>
Temsilc i</w>
R ic
Haş im</w>
tak ımı</w>
residen ts</w>
progra m</w>
potansi y
p il
mekan iz
görev den</w>
fik ir
düzey de</w>
den et
cen sus</w>
başlay acak</w>
Dus an</w>
ti tu
teknolo j
ser b
p azar</w>
oz y</w>
mem nun</w>
lis te
kil er</w>
interes ted</w>
inter nal</w>
cla imed</w>
bağ l
Ne boj
Mus eum</w>
Alex ander</w>
şe hir</w>
ır ım</w>
us u
tol er
quic k
nor mal
moder ni
mas sac
im um</w>
hel ping</w>
g üz
com b
Sark ozy</w>
SDS M</w>
öğ retim</w>
tion ed</w>
tes ini</w>
sett lement</w>
mpion ship</w>
liber alisation</w>
inci ples</w>
def e
blo ğun</w>
atten d</w>
4 3</w>
spec i
ik na</w>
duy duğu</w>
demokr as
curren cy</w>
conclu ded</w>
Y ıl
Pol onya</w>
NG Os</w>
Inv est
F re
Dur res</w>
zir ve
yay ın</w>
tutuk la
tor al</w>
n ek
it h</w>
geçer li</w>
fir ması</w>
fark l
c over</w>
bas ic</w>
au di
a i</w>
K e
şim di
transi tion</w>
tour ist</w>
te sp
suspec ted</w>
s co
ri yet</w>
ol sun</w>
n iyet</w>
ha k</w>
bel ge</w>
attemp t</w>
ar z
ad ına</w>
W el
Sav aş</w>
S ü
In zko</w>
Has him</w>
3 3</w>
yönet men</w>
süre ce</w>
politi kası</w>
i di
der ecede</w>
con vic
bu la
bour g</w>
S uç
C han
uz man</w>
olo ji</w>
ok ul</w>
o ve</w>
m ülk
lo ws</w>
im ler</w>
hat ır
em a</w>
edi tion</w>
düny ası</w>
br inging</w>
ar chae
S lav
O p
0 ,
yarg ılan
tem por
söy len
sp ent</w>
si yon
lo ck</w>
he v</w>
ha r</w>
gerek se</w>
di m</w>
bir lik</w>
aut onom
ar ın</w>
ar aç
aff ect</w>
U kr
Neboj sa</w>
K am
E cho</w>
ılacağ ını</w>
tra ffic</w>
saf e</w>
quick ly</w>
pr inciples</w>
me tre
le y</w>
es er
boy cot
b att
atten tion</w>
U SA
Ste in
Ho use</w>
ver ici</w>
utsch e</w>
tur iz
off ers</w>
lık la</w>
kor um
individu als</w>
hos ted</w>
görü ş</w>
geli şim
am s</w>
Ukr ay
w er</w>
süre ç</w>
kaç ır
itibar en</w>
dönem inde</w>
d y
crimin als</w>
alt ını</w>
USA ID</w>
Tra de</w>
HI NA</w>
ılığ ıyla</w>
ç ok
yap mayı</w>
top lu</w>
tah min
serb est
rela tion
kaçakç ılığı</w>
kal i
j evic</w>
bar at</w>
Y as
U kra
Kup ası</w>
Cro ats</w>
7 00</w>
ş eh
öğ ret
çoğun luk</w>
thre ats</w>
territ orial</w>
tain s</w>
state ments</w>
seçim lerinde</w>
not ing</w>
kurum sal</w>
in t</w>
fol low</w>
dai re
at ory</w>
V ar
Spe aker</w>
özgür lüğ
tr ack</w>
teknolo ji</w>
res er
pres er
person nel</w>
performan s
ot e</w>
on ların</w>
od y</w>
ne z
me lerini</w>
ex port</w>
environ mental</w>
de cades</w>
carri ed</w>
b ed</w>
ac c
Demo cracy</w>
3 7</w>
ö deme
zor lu</w>
yay gın</w>
vo ted</w>
ver meye</w>
sır al
of t</w>
k alkın
inv itation</w>
ho ş
fic ation</w>
f e</w>
dık tan</w>
br an
ask ıya</w>
An ad
st ake</w>
me chan
kon uyla</w>
kap say
ju g</w>
güven liği</w>
görüşün deler</w>
g ain</w>
eğ len
es indeki</w>
critic ism</w>
bildir iliyor</w>
bac ked</w>
an dum</w>
Val entin</w>
No el</w>
Demokr asi</w>
Christi an</w>
C er
ım ını</w>
uz at
sürec ek</w>
sigar a</w>
sav cı</w>
ran ge</w>
prin cip
pr e</w>
hay al</w>
dev re
alt ındaki</w>
Stan is
Musli ms</w>
Bu d
2 9th</w>
öğren ci</w>
yo ğun</w>
ur th</w>
u ti
the atre</w>
tele vision</w>
t te
n ov
amend ments</w>
V en
R ice</w>
Hal k</w>
Bak anlar</w>
Anad olu</w>
çek ti</w>
re present</w>
pas s</w>
hüküme te</w>
g res
dis crimin
ca de</w>
Democr ats</w>
ye ti
v et</w>
sur vi
pu an
korun ması</w>
individu al</w>
inci dent</w>
h ri</w>
görev li</w>
girişim i</w>
es iz</w>
con sul
başla ması</w>
adop tion</w>
S ov
Ch ina</w>
B lack</w>
ular ı</w>
terör le</w>
tedbir leri</w>
taş ıyan</w>
tax es</w>
sağ layan</w>
s man</w>
redde t
ques tions</w>
mun ity</w>
mis sions</w>
la k
k eri</w>
hazır lanan</w>
haf t
fig ure</w>
dik ten</w>
bi t
as la</w>
artır mak</w>
Yorg o</w>
Top i</w>
Tan jug</w>
Jerem ic</w>
Öz el</w>
s ı
refuge es</w>
provi des</w>
num er
ko ordin
f ik</w>
dol u</w>
Y at
Tek nolo
H ad
Bak an</w>
Ş ampiyon
İtti fak</w>
telef on</w>
t ac
spe ech</w>
son larında</w>
res men</w>
p un
duc ing</w>
bilgisay ar</w>
F ree</w>
ülkeler de</w>
yans ıt
turn out</w>
temsilc iler</w>
tel ls</w>
ola ğ
muhalef etteki</w>
min deki</w>
may acak</w>
l ap
k al</w>
güç lük
etkin lik
dör dün
Pet ar</w>
De utsche</w>
2 4th</w>
yüz lerce</w>
ten sions</w>
sürdür üle
re conc
pro mp
per man
part nership</w>
me tre</w>
journ alist</w>
is el</w>
S F</w>
P ress</w>
Lon don</w>
ş i</w>
yetkil ilerle</w>
uy u</w>
tic ally</w>
süre ç
spe ed</w>
sorum lusu</w>
sa s</w>
rol ü</w>
ma j</w>
istikrar lı</w>
fil mi</w>
al dılar</w>
Ge o
Cro at</w>
ö den
çö k
z aten</w>
van ın</w>
s ığın
ros oft</w>
rec eğini</w>
p ati
monit oring</w>
ma mış</w>
kate gor
düzenlen di</w>
blo ck</w>
aç ılan</w>
Mic rosoft</w>
Jo hn</w>
I r
Dub rov
ıy ız</w>
ıl dığını</w>
ğ iyle</w>
ön lemek</w>
x ed</w>
tehlike ye</w>
nokt ası</w>
l y
ful f
emer gency</w>
cez a</w>
bre ak</w>
St and
4 8</w>
4 6</w>
y outh</w>
te şek
tas k</w>
tartış ma</w>
pro ces
malar da</w>
k uş
ik isi</w>
fo urth</w>
f iz
ecek lerini</w>
dic t</w>
c ed
bar ri
ac cus
C alin</w>
5 1</w>
ulaş tı</w>
u ya</w>
tur ist</w>
tr an
tem iz
separ ate</w>
ov ar</w>
neighbour s</w>
len miş</w>
len diri
ist en
gör mek</w>
gel eri</w>
comp et
b ill</w>
Rad y
Muha met</w>
Kras ni
In tegr
G r
Bir liğin</w>
Bele diye</w>
yük se
ul uk</w>
sec tors</w>
sec retary</w>
mahke meye</w>
ma r</w>
len da</w>
initi al</w>
impor ts</w>
gü ven</w>
fe el</w>
fac tory</w>
duk ları</w>
başar ı</w>
Pr lenda</w>
ver mesi</w>
tır ma</w>
sorun ların</w>
gerçekleştiril en</w>
düzen ledi</w>
vis its</w>
tesp it</w>
tar get</w>
suppor ters</w>
out come</w>
n or</w>
mis t</w>
le ar
kut la
i di</w>
gelecek teki</w>
g ın
develop ed</w>
determin ed</w>
ch er</w>
cel l
ce p</w>
am ir</w>
P DK</w>
O HR</w>
M aj
Bosni ak</w>
ş eff
çev re
uk anoviç</w>
ther lands</w>
tat bi
tal e
sonr ası</w>
numer ous</w>
mo tion</w>
medi cal</w>
me lidir</w>
kö ken
ho uses</w>
danış man
b ün
artır ma</w>
Ob ama</w>
M ad
ş unları</w>
yolsuz luğ
yetkil isi</w>
wor st</w>
vie ws</w>
ven ess</w>
um e</w>
treat ment</w>
struc ture</w>
seviy ede</w>
peac eful</w>
particip ated</w>
kayde t
iler inden</w>
i ve</w>
han ds</w>
e ing</w>
der hal</w>
d ations</w>
ch ec
buil dings</w>
accep ted</w>
L A</w>
şim diye</w>
çöz ül
val ues</w>
ti s</w>
th an
tain ment</w>
s mal
reven ues</w>
prosec ution</w>
oy u</w>
op oulos</w>
n iyet
liğ inden</w>
l ili
indi cated</w>
harek ete</w>
geç ti</w>
fir ms</w>
dec entr
d öne
appro x
a maya</w>
Y öne
Ne therlands</w>
Başk an</w>
su fficient</w>
stan ds</w>
siyas iler</w>
ren e
refer andum</w>
massac re</w>
kim se</w>
connec tion</w>
concer ned</w>
con sen
bun e</w>
at ılmış</w>
Res ear
Part nership</w>
4 1</w>
özgür lüğü</w>
yap ması</w>
w as
ug g
tüke tic
sp ace</w>
particip ating</w>
ol ju
olju b</w>
mu ame
legis la
işbir liğine</w>
ay la</w>
Y ol
S um
P as
MP s</w>
J our
şidde t
yav aş</w>
ur ken</w>
t ı
seçim lere</w>
s qu
rapor u</w>
ho od</w>
gaze tesi</w>
g ıda</w>
cre ating</w>
aç tığı</w>
L o
Dubrov nik</w>
Bel gi
ğ inde</w>
ülkeler den</w>
önce lik
yarg ı
wa iting</w>
ula ted</w>
sağ lanması</w>
pr ise</w>
n es</w>
mi ted</w>
m ary</w>
ho mes</w>
go t</w>
event ually</w>
düş üş</w>
bulun dular</w>
Vla do</w>
Resear ch</w>
J ean</w>
Geç en</w>
4 7</w>
ım ına</w>
y ecek</w>
sel l</w>
s old</w>
road s</w>
peaceke eping</w>
li mited</w>
i des</w>
gather ed</w>
f ans</w>
dre w</w>
as su
anlaş masının</w>
S pec
S iy
Mo is
MI A</w>
M un
Fac e
. com</w>
İli ş
çalış maya</w>
suc ce
re sts</w>
rak am</w>
pri or</w>
kiş isel</w>
fer red</w>
essen tial</w>
enti ties</w>
dönüş tür
doğru ladı</w>
as on</w>
M ov
D ut
ü c
yöne tic
yanl ış</w>
syste ms</w>
sup ports</w>
re un
pris es</w>
polis in</w>
min ent</w>
isti yoruz</w>
gen el
bekle yen</w>
Tri bune</w>
Radi ç</w>
Mois iu</w>
Anayas a</w>
ye ş
we b
war ning</w>
terci h</w>
te xt</w>
stru gg
sektör ünde</w>
m ük
lan dığı</w>
i qi</w>
i dir</w>
h em
g ur
dü r</w>
dis mis
arti sts</w>
N ano</w>
M c
Dimit rov
C e
199 7</w>
yas ayı</w>
yan ıt
tehdi t
res inin</w>
ot oy
kendis i</w>
ik u
fe ar</w>
eler de</w>
dik k
as k</w>
approx ima
allow ing</w>
Se ç
M em
I C</w>
Face book</w>
E F</w>
A NA</w>
4 2</w>
İç in</w>
yard ımı</w>
w ri
si bil
p ain
ot omo
on e
mal iyet
kıyas la</w>
in come</w>
fik r
exper t</w>
civil ians</w>
bün y
al one</w>
ade qu
Medi ter
G ö
Ak deniz</w>
örne k</w>
yar alan
vers ite</w>
tati l</w>
saf ety</w>
me ly</w>
k a
har c
görüşme lerin</w>
görev ini</w>
gö tür
gi ving</w>
gi m</w>
fil ms</w>
f le
agri culture</w>
C hur
Bel ç
öz gür</w>
t our</w>
sub si
simp ly</w>
ran ean</w>
play ers</w>
müzaker elere</w>
lic en
industri al</w>
ihrac at</w>
hu a</w>
h ic
gra du
enter tainment</w>
en iz</w>
dj an</w>
aş ı</w>
arab ul
an ma</w>
ab ove</w>
Z eljko</w>
Vuk ovar</w>
Mir ko</w>
Di v
2 m</w>
önces i</w>
un its</w>
su ffer
st ations</w>
qu esti
pro ced
med y
kurul u</w>
kor uy
inci dents</w>
en for
düzenlen ecek</w>
diffic ul
dama ge</w>
consen sus</w>
bu y</w>
aç an</w>
ag er</w>
O M</w>
K ri
Har is</w>
G 17</w>
İsviç re</w>
çev ir
u be</w>
tti ler</w>
there fore</w>
sm ugg
profesyon el</w>
pas ap
olan ağı</w>
koalis yonu</w>
kend ilerini</w>
gi di
fav our</w>
entegr asyon
açıkla masında</w>
ak tif</w>
Y en
Y ap
Mediter ranean</w>
Fil ip</w>
E n</w>
u ki</w>
trav el
sık ı</w>
sür ül
suppor ting</w>
re ally</w>
merkez inde</w>
man aged</w>
ler deki</w>
kiş ilik</w>
katıl ma</w>
im mig
ili ation</w>
gel diği</w>
f os
dikk ate</w>
di c</w>
Radi c</w>
Integr ation</w>
vis iting</w>
tasarru f</w>
st a</w>
sk and
sibil ities</w>
new ly</w>
müzakereler ine</w>
facil ity</w>
dem ir
de pre
de cade</w>
bo os
av u
appear ed</w>
alar ından</w>
alan larda</w>
Kov ac
Konj iku
Karadağ lı</w>
ur al</w>
sü resi</w>
sağla m</w>
oun dup</w>
iş ç
execu tive</w>
end or
do or</w>
contro versi
comm and</w>
ayr ımc
ama dı</w>
Stojan ovska</w>
R oundup</w>
G ord
B re
A I
ter ek</w>
sol ve</w>
salar ies</w>
lec ek</w>
institu tional</w>
getir ilmesi</w>
gen işleme</w>
ege men
al th
X in
Dut ch</w>
C ur
C ham
3 8</w>
Ü l
t led</w>
ser ma
read iness</w>
re ve
ok e</w>
kri zi</w>
ihtiy aç
dir me</w>
ci ent</w>
ca te
busin ess
anl ık
W est</w>
Spec ial</w>
K i</w>
ve to</w>
usu f</w>
tartış malı</w>
t z</w>
sun uz</w>
müz ik</w>
main tain</w>
intel ligence</w>
fri end
cre ation</w>
W .</w>
Her ald</w>
Haf ta</w>
F A</w>
Bra j
İv o</w>
İn san
yıl ının</w>
trans por
tal k</w>
suç lu</w>
r ace</w>
n j
müda hal
mes ele</w>
me lerin</w>
komis yon
kay g
k ic
ey lem</w>
dev am
dead line</w>
d or</w>
P hil
May or</w>
Christ mas</w>
vol un
vide o</w>
sun duğu</w>
ra z
ihrac at
halk a</w>
fugiti ve</w>
edi p</w>
deman ds</w>
biri m
at mos
Xin hua</w>
M ur
Lon dra</w>
Amer ika</w>
A si
suç lanan</w>
standart larına</w>
popü ler</w>
ma aş</w>
li ghts</w>
k ent</w>
k alk
enfl asyon</w>
dan ger
applic ation</w>
Sch war
Pe ter</w>
Ot t
çap lı</w>
yıl ları</w>
yıl d
sur ren
si ze</w>
se em
sağla dı</w>
resol ving</w>
ler ken</w>
ist lerin</w>
in iz</w>
ih l
hol ding</w>
head quarters</w>
h es</w>
get ting</w>
e ffici
decentr alisation</w>
car ry</w>
b ack
ass ets</w>
approxima tely</w>
ak ta</w>
V ic
Turk s</w>
Slov en</w>
Pol and</w>
L ef
HI V</w>
ığ ına</w>
tr ust</w>
t ul
newsp aper</w>
leş tiril
katıl ıyor</w>
karşıla dı</w>
karşı tı</w>
fır sat</w>
encour age</w>
c ast</w>
bölge ye</w>
be ş
acak larını</w>
P A</w>
I vanov</w>
A gim</w>
İk ti
vet er
pro duce</w>
over come</w>
mey eceği</w>
len di</w>
le yen</w>
es ts</w>
ecek leri</w>
di a</w>
commer cial</w>
bri dge</w>
Ukray na</w>
F i
En g
E st
İ yi</w>
üye liğinin</w>
ve hic
san c
re fa
lar gel
largel y</w>
itar ian</w>
ist ence</w>
i red</w>
gi es</w>
et miş</w>
dis covered</w>
consequ ences</w>
anket e</w>
Th ess
Dün yasında</w>
ıl masının</w>
ör ü</w>
wa it</w>
vatandaş ları</w>
tor ate</w>
sc and
relation ship</w>
re public</w>
la maya</w>
kapasi te
i dar</w>
haber lerine</w>
fin al
f ru
dra f
di z
der ec
deli ver
controversi al</w>
contribu tion</w>
ay ındaki</w>
assass ination</w>
ar chi
ade mis
Thess al
Kür t
Karad eniz</w>
Finan cial</w>
D ay</w>
yon d</w>
yarar lan
vie wed</w>
vaz geç
taraf ı</w>
reg ular
p i</w>
op ol
me lerine</w>
ma tik</w>
la ğ
kiş iler</w>
karş ılığında</w>
kal acak</w>
böl ümü</w>
belir gin</w>
be yond</w>
administr ative</w>
T C</w>
NG O</w>
L is
J e
Geo ana</w>
F TA</w>
ön gören</w>
treat y</w>
televiz yon
söz de</w>
seçmen lerin</w>
sağ lıyor</w>
run ning</w>
quar ter</w>
mo on</w>
mes lek
ke ş
in ti
ima ge</w>
eli min
e fficient</w>
e be
discus sion</w>
di vision</w>
c op
b ad</w>
add ressing</w>
Kos tas</w>
D on
3 m</w>
ş ar
ır k
savun uyor</w>
oc c
mil li</w>
kır ık
kül tür
k g</w>
gra d</w>
elec toral</w>
c y
b on
açıl ış
ann ually</w>
U PI</w>
Sch illing</w>
R os
Macedon ians</w>
I S</w>
G ür
D u
A N
7 ,
w ish</w>
w ise</w>
us unun</w>
söz lerini</w>
s core</w>
reac hing</w>
od aklan
lay ıcı</w>
kaydetti ği</w>
ign ty</w>
gir di</w>
en j
comple x</w>
comple tely</w>
commit ments</w>
V is
Mü cade
La w</w>
F BiH</w>
Chi ef</w>
Boz idar</w>
İş birliği</w>
ü çte</w>
ç eve</w>
stri ke</w>
s w
kilome tre</w>
fe la
fazl ası</w>
ekonom inin</w>
di ç</w>
di ya</w>
bi c</w>
baş savcısı</w>
ark o</w>
an ik</w>
Tech nology</w>
Bo jana</w>
AK I</w>
şü ph
yapıl dı</w>
wr it
um u
to v</w>
tal eb
seç men</w>
se lec
retur ned</w>
plan ts</w>
li m
kav uş
ch ev</w>
but ov</w>
alan larında</w>
Bar butov</w>
6 2</w>
şey in</w>
ut ting</w>
tion ally</w>
sovere ignty</w>
sour ce</w>
reiter ated</w>
perman ent</w>
org an</w>
olduğ undan</w>
laştır ma</w>
ist atisti
iler iyle</w>
him self</w>
has tal
de lay</w>
bul mak</w>
aw are</w>
H ay
şekl indeki</w>
şart lar</w>
çözü me</w>
yas aları</w>
yapt ır
u red</w>
ti veness</w>
ti ri
tarih inde</w>
sır asıyla</w>
sa k</w>
ot o</w>
on iki</w>
mesa j</w>
kurum larının</w>
iz de</w>
it ary</w>
in ter</w>
im izin</w>
high ly</w>
eğlen ce</w>
ear th
c er</w>
bo oks</w>
autonom y</w>
appoin tment</w>
any thing</w>
P or
öz erk
week end</w>
toplum u</w>
tempor ary</w>
t ack
sorumlul uk</w>
olog ists</w>
neden i</w>
met z</w>
koru mak</w>
kayn ağı</w>
dro pped</w>
cro w
cle arly</w>
c at
büy ük
bo ş
baz da</w>
al mayı</w>
The atre</w>
T uz
St am
Ric hard</w>
Pat ri
E ğ
5 3</w>
z er</w>
obser vers</w>
n ün</w>
ken tin</w>
intro duced</w>
il an
eur ozone</w>
el ds</w>
dok un
deta ils</w>
bir ini</w>
bekle diğini</w>
ban king</w>
S es
Mar ko</w>
Em bassy</w>
İs lam
çab alarına</w>
yöneti m
win ning</w>
wi de
st ation</w>
pak et
p us
ma cı</w>
inter nation
insan ları</w>
in o</w>
hes ap
ar rests</w>
an cient</w>
Syri a</w>
Lab us</w>
Bra m
ın day
öner ilen</w>
ödül ü</w>
tut ar
ti f
taraf ın</w>
str ong
se min
or ies</w>
o w</w>
mis yonu</w>
mer tz</w>
m ün
g ul
etkin likte</w>
et mesini</w>
er y</w>
entegr asyon</w>
cla im</w>
Fon iqi</w>
Bram mertz</w>
&apos; m</w>
ış ık</w>
ıl ım</w>
wr ote</w>
we b</w>
uy ru
tic le</w>
temas larda</w>
sorumlul uğ
respec tively</w>
re construction</w>
ou red</w>
nation alist</w>
le aving</w>
lar ken</w>
kurum lar</w>
gör düğü</w>
eleş tiril
ek ip
char ac
alleg ations</w>
al t</w>
T our
Ne hri</w>
K ath
G o
D el
Bel ene</w>
ön ünü</w>
vis ed</w>
ter nal</w>
pro minent</w>
pri mary</w>
p ush</w>
mü tte
kaz andır
içer en</w>
har mon
f eder
enj oy
düz el
c ks</w>
açık lan
air port</w>
Roman ians</w>
B a
ş ampiyon
yeş il</w>
represent ing</w>
reconc iliation</w>
ra hat
p aper</w>
oper ational</w>
offic es</w>
mas s</w>
kesin ti
increas ingly</w>
ifa des
id are</w>
görüş mesi</w>
gönder il
fin ding</w>
fac ed</w>
etk in</w>
develop ing</w>
contr ol
c eviç</w>
artır ılması</w>
acak ları</w>
Mov ement</w>
Mac ar</w>
K uvvet
Cham ber</w>
Adri an</w>
zaf er</w>
wor ked</w>
turn uv
so f
requ ire</w>
ran t</w>
program ına</w>
play er</w>
nüfus unun</w>
kö t
kullan ılacak</w>
katk ı</w>
k red
fun da
f ederal</w>
dördün cü</w>
distri bu
diploma ts</w>
baş bakanı</w>
Pap adop
L ju
Kom ut
K ol
J ad
Boy ko</w>
Al t
Air lines</w>
A zer
8 5</w>
tr end</w>
tamam lanması</w>
requi res</w>
re gular</w>
re ality</w>
pr en
ort asında</w>
or taklık</w>
olo jik</w>
is ola
hel ped</w>
güven il
fin ished</w>
dönem i</w>
duy ulan</w>
diploma t
bi zi</w>
an tik</w>
advan t
Thessal oniki</w>
ıla bilir</w>
örgü tün</w>
Ç alış
st ory</w>
si cal</w>
sandal ye</w>
resign ation</w>
rapor a</w>
ra ising</w>
proced ure</w>
prac tice</w>
mültec i</w>
k lerini</w>
it i</w>
ge ç</w>
ed ing</w>
e astern</w>
baş ı</w>
add ressed</w>
ab ly</w>
V l
Ni metz</w>
K LA</w>
Dimitrov a</w>
Afri ka</w>
6 3</w>
çap ında</w>
zay ıf</w>
wide ly</w>
uy oruz</w>
suç ladı</w>
stre ets</w>
or tada</w>
olabil eceğini</w>
num bers</w>
müda hale</w>
med al</w>
l ında</w>
gen elinde</w>
direc tly</w>
den e
comp u
başlangı ç
activ ity</w>
W il
Tr ay
Sel anik</w>
Chur ch</w>
9 ,
0 0m</w>
yetkil ilere</w>
yaş adığı</w>
si vil
restric tions</w>
oper asyon</w>
n is</w>
mü f
kur mak</w>
iler de</w>
he yet</w>
getir me</w>
func tioning</w>
et mesine</w>
et h</w>
es n</w>
e lik</w>
can landır
bulun duğunu</w>
açıl ış</w>
Rady osu</w>
C en
6 7</w>
ön ündeki</w>
çalış ması</w>
yaş ıyor</w>
tü ğü</w>
tri p</w>
ti ç</w>
sustain able</w>
ser i
ris ing</w>
r or</w>
or ation</w>
mensup larına</w>
kal ab
gi ble</w>
ges el</w>
fun d</w>
eğiti m
es k
ekonom isi</w>
ek tir</w>
San at</w>
Pri z
M eta</w>
Hungar ian</w>
ılığ ının</w>
un il
stu dent</w>
n os
la u
kri tik</w>
hosp ital</w>
f ic</w>
expl os
differ ences</w>
di ren</w>
devle ti</w>
civil ian</w>
ayrınt ılı</w>
asi de</w>
adop t</w>
Ukra ine</w>
Ira qi</w>
Da ily</w>
D ac
ş ansı</w>
ımız ın</w>
veril ere</w>
um ent</w>
ter min
sec ret</w>
se at</w>
se ason</w>
pro bab
probab ly</w>
n esses</w>
n deki</w>
mut ual</w>
her itage</w>
ener j
doğrul t
dik al</w>
değiş tiril
bilin en</w>
V oy
Mar ija</w>
B it
ven dos
v aat
ug en</w>
telef onu</w>
strong ly</w>
remain ed</w>
ra dikal</w>
op posed</w>
onay la
katıl dığı</w>
ist i</w>
ip tal</w>
do esn</w>
communic ation</w>
co de</w>
c ars</w>
bil im
bi ti
bas e</w>
alın dığında</w>
ad ığını</w>
Pe ople</w>
K u
BH F</w>
B usin
An dre
A u
toplant ıya</w>
seem s</w>
minist ries</w>
kısıt la
kur may</w>
işle m
hak larını</w>
güç leri</w>
gu ard</w>
düzen li</w>
ay larda</w>
anayas al</w>
Y T
Dav id</w>
ü ste
yön tem
yol undaki</w>
y ağ
vatandaş lar</w>
uğr aş
te ams</w>
sug gest</w>
pr ot
ow ner</w>
meas ure</w>
kit ab
kay be
in vi
fri ends</w>
abil mek</w>
Jad ran
G ra
E duc
Dan ube</w>
val ue</w>
un less</w>
re duced</w>
p ping</w>
min den</w>
makam larının</w>
im ing</w>
i i</w>
hop ing</w>
et mişti</w>
er di</w>
ef i</w>
düş üş
duyur uda</w>
dro p</w>
değil dir</w>
da m
col labor
ca use</w>
bloc ked</w>
b is
ask s</w>
ap art
a u</w>
Oy un
Davut oğlu</w>
D iy
şüphel i</w>
tiyat ro</w>
süre yle</w>
regula tions</w>
on ing</w>
olan ak
k ans
iy di</w>
impro vement</w>
gr anted</w>
gerek ç
ek liyor</w>
ac a</w>
U y
P ub
P en
Kil is
De jan</w>
A ction</w>
0 km</w>
zen gin</w>
the astern</w>
sur ance</w>
substan tial</w>
ref used</w>
offic er</w>
offer ing</w>
me lere</w>
kısm ını</w>
internation ally</w>
fil ed</w>
et raf
edil emez</w>
ca dem
Nic ola
For ces</w>
F oun
E lek
A cadem
3 1st</w>
İs veç</w>
özel leştir
ver dict</w>
us unu</w>
uni versity</w>
soykır ım</w>
ow ners</w>
k af
inan ıyorum</w>
employ ed</w>
dolay ısıyla</w>
describ ing</w>
d ging</w>
ar aç</w>
ap pre
alternati ve</w>
K ap
I z
E v
şirket ler</w>
İ van
üni versi
ç ılar</w>
teme l
sergil e
se fer
ri ch</w>
promis es</w>
ol ur</w>
ko t</w>
kab ine</w>
göster diği</w>
ev ac</w>
edil mesini</w>
ce a</w>
T iyat
Ott oman</w>
G ol
Angel a</w>
A D</w>
ülkeler inde</w>
sym bol
senten ce</w>
say ısını</w>
plan ını</w>
ol mayı</w>
ol mas
mar uz</w>
istih dam</w>
histor ical</w>
h uz
col le
anlaş masını</w>
Ri ver</w>
Ke mal</w>
Invest ment</w>
Hüküme t</w>
Constitu tional</w>
Bir leş
As ya</w>
1 m</w>
çağr ısı</w>
çağ daş</w>
tes ti
scienti sts</w>
rot ating</w>
ro s</w>
reti red</w>
re duction</w>
ran ked</w>
pre s</w>
pow er
of ias</w>
mahke mesinin</w>
li ter
kaydedil di</w>
inten ded</w>
etk isi</w>
equ al</w>
athle tes</w>
appe ar</w>
So ren</w>
Kath im
CE FTA</w>
C v
Ay han</w>
2 5
&apos; re</w>
ton nes</w>
pro ve</w>
par ents</w>
p ace</w>
me ant</w>
ir ler</w>
hav a
düzen leme</w>
difficul ties</w>
da vanın</w>
conduc t</w>
cez ası</w>
Y e
Müz esi</w>
Kathim erini</w>
Jadran ka</w>
C ukanoviç</w>
Belç ika</w>
Ban ka</w>
2 ,000</w>
198 9</w>
ığ ın</w>
çık ıyor</w>
ut an
stan ces</w>
seç ildi</w>
say f
par al
ne i
n is
ma den
huk uki</w>
for mal</w>
eas y</w>
dra g</w>
di l</w>
de signed</w>
bas ket
attr act</w>
any one</w>
a x</w>
Stanis hev</w>
Seç im</w>
Priz ren</w>
P ort
Osman lı</w>
Nor th</w>
Hrist of
Fin lan
Dnev nik
Christ ofias</w>
As s
ıs al</w>
ı larından</w>
İ r
yinele di</w>
mam ız</w>
leg ally</w>
lat ko</w>
kurul uş</w>
il l
ex plo
e ş</w>
dai resi</w>
bulun arak</w>
bak anın</w>
alın acak</w>
Pol is</w>
Mücade le</w>
ER B</w>
Cos tas</w>
B ut
ılacağ ı</w>
u tes</w>
taraf tar
sub ject</w>
st ar</w>
parlament onun</w>
me te</w>
lin ked</w>
lan mış</w>
iş lenen</w>
invol ving</w>
ina ug
ileti şim</w>
faaliyet leri</w>
edil diği</w>
doğrult usunda</w>
Tuz la</w>
T una</w>
No bel</w>
I l
İk inci</w>
ziyaret inde</w>
y ers</w>
taşı mac
sok ak
si ght</w>
p han
ley ecek</w>
konuş ma</w>
inş ası</w>
exerc ise</w>
demon stra
chap ters</w>
ağ ır
ar ms</w>
app ly</w>
am bassador</w>
acc eler
YT D</w>
Schwar z</w>
S ports</w>
G ERB</w>
D ora</w>
Al f
yenil en
w estern</w>
un ds</w>
um uz
tan ık</w>
s cre
re presented</w>
re ly</w>
op tion</w>
on lar</w>
lider lerinin</w>
katıl ması</w>
il g
c ev
aktar ılan</w>
Sr bi
R ec
Pol ic
H il
F e
Co E</w>
Avustur yalı</w>
12 44</w>
üye liğini</w>
z ul
y ment</w>
win ner</w>
tut ul
topl ul
st ressing</w>
sh ori</w>
senten ced</w>
r ying</w>
plan larını</w>
lider lerin</w>
jo y</w>
im posed</w>
i ğ
hedef ine</w>
göster diğini</w>
bulun ması</w>
ass ist</w>
Stre et</w>
R acan</w>
Mla den</w>
önce lik</w>
un ut
th ought</w>
serma ye</w>
sağla maya</w>
s cal
ran king</w>
la tions</w>
initi ally</w>
ihtiy ac
ih ra
gu il
edi yoruz</w>
cu ts</w>
as y
ab use</w>
S ağ
Pros ec
Foun dation</w>
DP S</w>
A ç
yor du</w>
up gra
um b
stre et</w>
sah ne</w>
saf h
pre me</w>
or dered</w>
op ens</w>
kil is
h our</w>
go es</w>
gen elde</w>
fir ma</w>
fac tors</w>
el in</w>
du ties</w>
destro yed</w>
chur ch</w>
blo g
ben im</w>
beklen ti
as lında</w>
alar ıyla</w>
U z
5 4</w>
4 9</w>
çocuk lar</w>
van t</w>
set ting</w>
re marks</w>
propos als</w>
plan la
oc cur
municip al</w>
mo de
li man
kur ulacak</w>
kal ıyor</w>
high way</w>
göster il
foun ded</w>
etkin liğe</w>
etk oviç</w>
elç i</w>
boy kot</w>
b ür
ad anın</w>
Teknolo ji</w>
T at
Pro te
Kos tov</w>
K az
Josip oviç</w>
Dnevnik .bg</w>
C ity</w>
C am
üni versite</w>
vendos je</w>
threat ened</w>
ster ity</w>
sp ek
sanay i</w>
salar y</w>
n as
m ous</w>
lu p</w>
katıl ımı</w>
istih barat</w>
invi ted</w>
happ y</w>
görüş ünde</w>
guaran tee</w>
grup lar</w>
fırsat ı</w>
fel l</w>
düny ada</w>
direc tion</w>
arabul uc
ak at</w>
ai de</w>
ad ını</w>
W ol
V ice</w>
S in
R az
P ost</w>
P C</w>
G DA</w>
Eğ iti
E K</w>
C ap
8 ,
yav aş
yap ıcı</w>
sol utions</w>
smal ler</w>
ris ks</w>
kullan ma</w>
kent indeki</w>
kat ılacak</w>
gö ç</w>
elen a</w>
ebil eceğini</w>
dou ble</w>
bul ma</w>
bank acılık</w>
au sterity</w>
T om
Stre am</w>
Sp or</w>
P am
Kab ashi</w>
Bat ılı</w>
A li
çıkar dı</w>
Ö n
z iç</w>
yıl lar</w>
yet ki</w>
un able</w>
th in
siste m</w>
sen se</w>
sal es</w>
mem iz</w>
l ose</w>
komis yon</w>
kar de
ihra ç</w>
hizmet leri</w>
for ms</w>
ec i</w>
dec re
contribu ted</w>
concer t</w>
cez a
att ini</w>
an tly</w>
ak es</w>
agre es</w>
ada mı</w>
Müslü man
H ur
Fr attini</w>
Educ ation</w>
ö tesi</w>
yeti ş
wel come</w>
under standing</w>
sorun unun</w>
regi ons</w>
r ose</w>
profes sion
ol maları</w>
müş ter
ma yor</w>
iri z</w>
imz a</w>
hazır ladığı</w>
görev l
for tun
enfor cement</w>
en lerin</w>
ek a</w>
der in</w>
dec line</w>
con su
cele bra
başlat ma</w>
başarıs ız
bakanlığ ının</w>
aş a</w>
avan taj
attemp ts</w>
att ığı</w>
alan ındaki</w>
al u
P IC</w>
I m
F orum</w>
ık larını</w>
üre t
ü mü
çalışmalar ını</w>
verim li</w>
te st
sur ing</w>
spon sor
seri ously</w>
s low</w>
ro om</w>
pur su
mar ily</w>
m id
kon ular</w>
kil ling</w>
kaybet ti</w>
k in
eur oluk</w>
e ase</w>
depen ds</w>
ban a</w>
adequ ate</w>
T o
O z
Büy ük</w>
Braj shori</w>
yurt dışında</w>
wor ds</w>
uy umlu</w>
th ly</w>
sor si
ol ar
nei ther</w>
ne ler</w>
kuzey deki</w>
iler ek</w>
he ugen</w>
gan g</w>
fugiti ves</w>
ex ce
açıkla maya</w>
ad ds</w>
Ver heugen</w>
V ak
Sav aşı</w>
SN SD</w>
Mon it
Academ y</w>
&apos; ve</w>
tek rar
t ap
sorun una</w>
sor ti
pow ers</w>
ph y
ordin ary</w>
l d
kaldır ılması</w>
k ı</w>
broad cas
as ter</w>
Pub lic</w>
B SP</w>
ı daki</w>
w illing</w>
vatandaş larının</w>
uzman ları</w>
ted bir</w>
saldır ı</w>
rup t</w>
previ ously</w>
ot ing</w>
n ar
le h
lay ıp</w>
kurum ların</w>
karar ının</w>
gün ey</w>
geliş me</w>
finans e</w>
effici ency</w>
e da</w>
dos t
dec ek</w>
d less</w>
boycot t</w>
başlangıç ta</w>
ay ol
as sembly</w>
an üstü</w>
alternati f</w>
aj ans
Lib yan</w>
Kos te
Dink iç</w>
C R</w>
6 6</w>
3 9</w>
çık maz
çek iyor</w>
transi t</w>
rec eğ
prepar e</w>
pat la
moderni z
ley ici</w>
ju red</w>
iz leme</w>
gön ül
eleştir di</w>
den ied</w>
de aling</w>
cumhurbaşkan ının</w>
batt le</w>
aç ığı</w>
alar la</w>
ad vo
S RS</w>
Ras im</w>
O C</w>
K SF</w>
Bil jana</w>
öğrenc iler</w>
çoğun lukla</w>
satis fied</w>
re presents</w>
ra il
pros per
ok ol
mis sing</w>
kullan ıl
kon ser
kend ilerine</w>
eş i</w>
de tained</w>
da ted</w>
ch ild</w>
belir li</w>
as por
ar ay
Inter net</w>
IC J</w>
5 7</w>
ın ız</w>
yap arak</w>
trans ferred</w>
t act</w>
so red</w>
prepar ing</w>
prepar ations</w>
per spec
ob tain</w>
lu yor</w>
kıs men</w>
kullan ılan</w>
in jured</w>
in es</w>
imzal am
festiv ali</w>
ekonom isinin</w>
du k</w>
cros sing</w>
compu ter</w>
cho ice</w>
ay kır
al ırken</w>
af lık</w>
S DA</w>
Ro han</w>
Jour nal</w>
C lu
5 6</w>
under stand</w>
se z
re struc
os unun</w>
ordin ation</w>
men su
katıl maya</w>
iliş k
giri ş
gaze te
discrimin ation</w>
dar be</w>
dal g
ce ğini</w>
al g
abil mesi</w>
Yat ırım</w>
Aust ral
1, 5</w>
üretic isi</w>
çoc uğ
yükümlülük lerini</w>
standart ları</w>
spokes person</w>
say ısında</w>
ru led</w>
rec over
olduğ unda</w>
olay ları</w>
kur um</w>
kal a</w>
hak im
fi elds</w>
ex ternal</w>
duy g
don dur
deter mine</w>
de sign
ay da</w>
at tı</w>
Sp iri
Finlan diya</w>
Ekonom ik</w>
An dri
şirket leri</w>
ım ın</w>
ğ a</w>
üç lü</w>
tavsi ye</w>
statisti cs</w>
spon sored</w>
sou th</w>
signific antly</w>
savc ılar</w>
one ws</w>
meslek taş
lık larını</w>
loc ation</w>
iz ni</w>
iz ed</w>
ins isted</w>
identi fied</w>
he alth
happen ed</w>
gener ally</w>
cumhur iyet
cor respon
ark a</w>
ac adem
Sci ence</w>
Eur onews</w>
20 14</w>
ı lardan</w>
y um</w>
y la</w>
ulaş tırma</w>
tru e</w>
the less</w>
rele vant</w>
ran ks</w>
politi cally</w>
ist ri
i ade
göz altına</w>
etk ovic</w>
enter prises</w>
durum a</w>
di g
de ep
de ad</w>
con test</w>
cer tain
arran gement</w>
al andır
K D
Er gen
C a
Busin ess</w>
Şampiyon ası</w>
Ş im
ır sa</w>
yıldön ümü</w>
yön etme
up on</w>
ten tion</w>
t ou
supp lies</w>
oper ator</w>
o ther
mahk um</w>
iş ten</w>
iş im</w>
iz len
identi ty</w>
h üküm
e z</w>
direk törü</w>
değişiklik leri</w>
cros s
ar g
V an
Temsilc iler</w>
Si me
Polic y</w>
Kıbr ıs
Gür c
5 2</w>
şart larını</w>
çarp tır
umut ları</w>
tutuk landı</w>
ti ren</w>
suç lular
sand ık</w>
promot ing</w>
por ation</w>
plan ladığını</w>
müzakereler de</w>
med als</w>
mecl iste</w>
köt üye</w>
kiş iyi</w>
kadın ların</w>
ir se</w>
geliştir me</w>
geler ek</w>
gelece ğini</w>
g en</w>
fail ing</w>
cumhur başkanlığ
appe al</w>
ab ol
a ğ</w>
R a
P ra
M P</w>
Ljub l
Jap an</w>
D ış</w>
ter y</w>
ted ar
sınır ları</w>
sorun lara</w>
pri marily</w>
post pon
par k</w>
ol masının</w>
obstac le</w>
ihtilaf ı</w>
exten ded</w>
enter ed</w>
com bin
col lap
az z</w>
as sociation</w>
In du
Davut oglu</w>
C av
şimdi den</w>
ımız a</w>
ım ının</w>
zaf er
uz manı</w>
um i</w>
tutuk lama</w>
tar gets</w>
sık ınt
power ful</w>
p ek
mov es</w>
kar ak
it sa</w>
initi atives</w>
hal en</w>
hak im</w>
güc ünün</w>
et ary</w>
eriş im</w>
destekle mek</w>
anlam da</w>
Wel le</w>
Slovak ya</w>
Nov ak</w>
Mi ha
Mar k
Ljubl jana</w>
Gürc istan</w>
İ m
zam anlar</w>
w rap
ti p</w>
th u
te dav
tamam la
pre dic
pr oto
mark ing</w>
kon sorsi
heav y</w>
gö l
f iyat</w>
con sorti
bütün leşme</w>
belir ttiler</w>
ac compan
Voj vodina</w>
Stu dies</w>
Pre drag</w>
Pet rov
Mar koviç</w>
K oz
Georg ia</w>
Drask oviç</w>
Cha irman</w>
şe bek
ç isi</w>
yol da</w>
wit ness</w>
vo ter</w>
uy ordu</w>
to w
sınır lı</w>
süre de</w>
str onger</w>
s low
oz ar</w>
net works</w>
le dil
l or
iş ev</w>
iti raz
is inden</w>
getir mesi</w>
ger ide</w>
fu el</w>
f requ
er tele
ek on</w>
eh ol
diğ imiz</w>
critic s</w>
conv inc
com ments</w>
boos ting</w>
bel geler
baş lıklı</w>
az i</w>
an la
ade mi</w>
Z i
T ro
Sp an
Soci alists</w>
Sime on</w>
Olimpiyat ları</w>
şirket lerin</w>
ü ğ
te ach
sp end</w>
sin iz</w>
se eks</w>
prof it</w>
plan lanıyor</w>
pen sions</w>
os t
olduğ unun</w>
olağ anüstü</w>
kaynak ları</w>
kadın lar</w>
h or
fa iz</w>
ex istence</w>
ent ing</w>
bahar da</w>
ak s</w>
adam ları</w>
T ok
T aç
Radi kal</w>
K ö
K amp
Isra eli</w>
G iri
For ce</w>
Dink ic</w>
üniversi te
yen ler</w>
wor k
uy orum</w>
tra fi
tehlik eli</w>
sun ulan</w>
res cu</w>
regar dless</w>
obstac les</w>
iş ler</w>
her kesin</w>
görül dü</w>
geçmiş te</w>
g ay
eli ç</w>
ay ına</w>
avr onun</w>
accor d</w>
W all</w>
UN IC
R ex
Q a
Komis eri</w>
Ergen ekon</w>
Bil im</w>
9 5</w>
6 4</w>
4 m</w>
üreti mi</w>
ön le
zirv esinde</w>
yön el
un acceptable</w>
tri s</w>
sız lık</w>
sa bit</w>
pl as
kurul du</w>
k ış
hon our</w>
g ame</w>
dokun ul
bi i</w>
bağ ım
at ların</w>
agri cultural</w>
af ter
Vl ora</w>
T re
Svet la</w>
Stan işev</w>
Minist ers</w>
Josip ovic</w>
G abri
Bo ard</w>
A p
İslam cı</w>
çocuk ların</w>
z il
vi z</w>
v ac
uy um</w>
us ers</w>
st op
sho wing</w>
scal e</w>
pen sion</w>
olma ması</w>
olas ılığını</w>
mo tiv
may ın</w>
mal ıyız</w>
konfer an
kaz andığı</w>
iç i</w>
isti s
im pres
han ded</w>
giri ş</w>
expec tations</w>
es sion</w>
ec ting</w>
diğer leri</w>
da hil
con serv
başarıs ız</w>
appro pri
V AT</w>
UNIC EF</w>
Su preme</w>
Organ isation</w>
Kur ds</w>
Kar aciç</w>
KD V</w>
B DP</w>
6 m</w>
İ ler
zay ıf
su l</w>
sp ring</w>
purch ase</w>
mahke mesine</w>
ler s</w>
kayıt lı</w>
integr ity</w>
i maj
huz ur
gel mesi</w>
far k</w>
fac tor</w>
en suring</w>
eceğ iz</w>
don an
dav ası</w>
d anovic</w>
bar ik
an lay
amaç layan</w>
al mış</w>
a il</w>
Temsilc isi</w>
N et
Ja mes</w>
Hol keri</w>
Eğiti m</w>
Do ğ
ü p</w>
ç ilerin</w>
yayın lan
viola tions</w>
tro ub
tanın an</w>
spok e</w>
sat ış</w>
re r</w>
r il
os ia</w>
oran ının</w>
na mes</w>
mu yor</w>
lin ks</w>
leg iti
l ings</w>
har can
haf tal
gör üy
dayan arak</w>
d ary</w>
chan ces</w>
bi ds</w>
ad li</w>
V el
Svet ozar</w>
N D</w>
M en
yayın la
yard ımc
yap ısal</w>
yakın larında</w>
viz esiz</w>
us ul
unc u</w>
tw are</w>
sürdür üyor</w>
strate ji</w>
sanc tions</w>
san at</w>
pat ri
law yer</w>
iç ine</w>
ist ant</w>
ins ists</w>
hi kay
en able</w>
chan ging</w>
biri mi</w>
aykır ı</w>
Vuj anovic</w>
S and
Fre edom</w>
Alf red</w>
ş efi</w>
wi fe</w>
web site</w>
ver gil
uyru k
sın ıf
struc tural</w>
scienti fic</w>
oran la</w>
li ye</w>
koy du</w>
ins ka</w>
guil ty</w>
düş tü</w>
clos ely</w>
bekli yoruz</w>
bağ ış</w>
an im
Hüküme ti</w>
Ash ton</w>
yas ası</w>
vatandaş ı</w>
um uyor</w>
um s</w>
transpar ency</w>
sugges ts</w>
s hel
restruc turing</w>
pec t</w>
pasap ort
mom ent
kon ser</w>
kas ının</w>
günde me</w>
fulf il</w>
fiyat ları</w>
en visions</w>
el j</w>
deney im
consider ing</w>
bor c
bir araya</w>
bel ow</w>
O d
Kıbrıs lı</w>
Bit ola</w>
Birleş ik</w>
Bir lik</w>
unc er
oyun cul
k u
iste diği</w>
gra ted</w>
gerek çe</w>
bulun mak</w>
bir inde</w>
asy lum</w>
appe ars</w>
alar dan</w>
V ete
St ru
Mar ia</w>
J elena</w>
Drask ovic</w>
D es
Balk an
B N
zer land</w>
yok sa</w>
yap ımı</w>
y eri</w>
wri ter</w>
wit zerland</w>
ver erek</w>
ver eceğini</w>
tech nolo
sur roun
recei ving</w>
parla mentosu</w>
oyn ay
onay lanması</w>
mü dür
min imum</w>
min es</w>
los ses</w>
konfer ans</w>
karar a</w>
iti raz</w>
isti k</w>
inv ested</w>
hi dro
hen sive</w>
görev ine</w>
expan sion</w>
ex c
en ess</w>
cez alandır
certain ly</w>
ce ği</w>
as pir
ac tors</w>
a wards</w>
Tur izm</w>
S witzerland</w>
R ap
M as
Jap onya</w>
Harek eti</w>
Afri ca</w>
Ac cor
1. 5</w>
yapt ığını</w>
shar es</w>
seçim lerden</w>
s in</w>
re ment</w>
r üş
person el</w>
ol os</w>
mesele si</w>
kampany ası</w>
iy or
iddi aları</w>
güz el</w>
görüş tü</w>
demo cr
day anan</w>
büny esinde</w>
archi tec
ap par
W o
W is
Taç i</w>
R en
Nic osia</w>
Con tact</w>
B on
199 4</w>
önem ini</w>
zanl ısı</w>
w w
ten nis</w>
sınır ı</w>
sto od</w>
smugg ling</w>
scen e</w>
refuge e</w>
p ul
p ah
optimis tic</w>
o ş
n daki</w>
lan dığını</w>
konular ı</w>
getir diği</w>
f on</w>
f ast</w>
determin ation</w>
cinay et
bas ın
ar ama</w>
T as
T ah
S on
P ac
Is lam</w>
Er lis</w>
Bo c</w>
zor luk
yıldön üm
y aş</w>
um duğunu</w>
standart larını</w>
saat lerde</w>
ro ck</w>
re ducing</w>
presiden ts</w>
pay ing</w>
kasab asında</w>
karş ılık</w>
is a</w>
g ol
g lu</w>
fra ud</w>
fla g</w>
ff er</w>
ex ist</w>
ef ul
consum ers</w>
consorti um</w>
cent res</w>
bire y
bağımsız lığı</w>
ay aklan
ar dı</w>
T P</w>
Parla men
N en
M ıs
F ut
Di ary</w>
çoğ unun</w>
yayın ladı</w>
umut larını</w>
ul e</w>
tron ik</w>
tamam ladı</w>
sürdürüle bilir</w>
ser ving</w>
sanat çı</w>
res ort</w>
rejim inin</w>
olay lar</w>
me l</w>
los s</w>
len direc
kim lik</w>
katılımc ılar</w>
j us
inaug ur
in ian</w>
immedi ate</w>
göç men
g iy
değerlendir me</w>
competi tive</w>
campa ig
bro ad</w>
bak anlık
bah se
art ması</w>
ar ies</w>
al im
aj ansı</w>
T aci</w>
Sto j
Ro ber
Lef koş
Büyükelç iliği</w>
&apos; ll</w>
yaş ay
yapıl andır
wh om</w>
ul ti
u fac
tu ğ
t ent</w>
sür erek</w>
suspec t</w>
spe ak</w>
spar ked</w>
sektör ünün</w>
se be
produc ed</w>
occur red</w>
kay ıt</w>
kap an
g ory</w>
fif th</w>
extradi tion</w>
etti kleri</w>
en joy</w>
dönem ine</w>
di aspor
deman ding</w>
de partment</w>
coun ts</w>
convic ted</w>
candi d
c il
beledi ye
ar anan</w>
Te mas</w>
Pam uk</w>
Gün lüğü</w>
E I
Bur ns</w>
Alex and
taz min
t ık</w>
suç lanıyor</w>
some one</w>
sign al</w>
re public
republic s</w>
princip le</w>
perspec tive</w>
pass en
mad di</w>
konferan sta</w>
ilişkiler ini</w>
görüşme leri</w>
gr ant</w>
f res
en ced</w>
ed r
dö viz</w>
dis pu
da ire</w>
comp re
cir cum
cha ir
bel ki</w>
auth or
art ıyor</w>
Re gi
Prosec ut
N ec
N IS</w>
MP A</w>
M e
K uk
K ay
Haradin ay</w>
Cha mpionship</w>
C re
7 m</w>
7 2</w>
öner di</w>
zirve de</w>
yol larını</w>
war time</w>
tri g
sor u</w>
so ğ
s üz
re zer
protec ted</w>
p a
ord unun</w>
ok ed</w>
o mes</w>
num ar
lec tu
kaz and
iş ini</w>
iyim ser</w>
haber leşme</w>
getir diler</w>
gerekti ğine</w>
g ece</w>
for ming</w>
düzey inde</w>
cez asına</w>
av a</w>
an ov</w>
Hak k
H am
Belgi um</w>
7 8</w>
ığ ında</w>
ü ğü</w>
wh er
ur ing</w>
sak in
r üz
pos ing</w>
oy lama</w>
other wise</w>
nam ent</w>
komş ular
i et</w>
hi ding</w>
gin e
eff ects</w>
educ ational</w>
demir yolu</w>
de si
dan ger</w>
dama ged</w>
co l</w>
ca tes</w>
bel on
acknowle dged</w>
Kor uma</w>
Kilis esi</w>
J as
Govern ment</w>
F ena</w>
E gy
D I
Com mander</w>
Ara b</w>
ş aşır
çalışmalar ının</w>
yas aların</w>
yap mış</w>
statüs ünü</w>
san ık
s ha
plan a</w>
lam da</w>
kâ r</w>
işle v
im possible</w>
i day</w>
grup ları</w>
dünyas ından</w>
construc tive</w>
consider able</w>
comb at</w>
c az
bec omes</w>
açık lanan</w>
az ından</w>
ap ers</w>
announc ement</w>
ah ası</w>
Wis ner</w>
W h
Demokr atlar</w>
Arnavut ların</w>
ülkeler inden</w>
vo wed</w>
u daki</w>
tti ği</w>
transpor tation</w>
suspen ded</w>
sub mit</w>
se es</w>
ro ute</w>
plan ları</w>
parlamento da</w>
od or
neden le</w>
ne ver
ler y</w>
l iler</w>
kö k
kil er
ke pt</w>
j in
insan ın</w>
in surance</w>
gerçekleştir di</w>
ev alu
er en</w>
dev ri
comp li
citiz en
bar ın
ama z</w>
V ec
Sek er
He alth</w>
8 m</w>
ü cü</w>
yürü ten</w>
y u
w al</w>
w age</w>
til mesi</w>
terör ist</w>
süre li</w>
ra d
never theless</w>
m ist
len diren</w>
il ing</w>
gener als</w>
faz ak
eğil im
en ti</w>
c ilik</w>
büy üy
bağlant ılı</w>
aç ıyor</w>
ay ından</w>
K aide</w>
Ge li
3 ,000</w>
İ statisti
yeter siz</w>
yaş ında</w>
veril iyor</w>
vatandaş larına</w>
un ity</w>
sistem ini</w>
sil ver</w>
sey ir
seviy esinde</w>
se a</w>
s ı</w>
pri ze</w>
pak eti</w>
otur um
olay ı</w>
ol muş</w>
ol maktan</w>
memur u</w>
may acağı</w>
in str
im ize</w>
iddi asıyla</w>
f üz
dokunul maz
bo dies</w>
avu kat
avro dan</w>
al ise</w>
Y ak
St ability</w>
St .</w>
Slovak ia</w>
H y
H a
Belgra d
10 ,000</w>
yer de</w>
yatırımc ılar</w>
sof tware</w>
pu ties</w>
oluş uyor</w>
ma f
konum unda</w>
hiz mete</w>
genç ler</w>
fotoğ raf
f ı</w>
ev re</w>
entegr asyonu</w>
de puties</w>
danger ous</w>
c are
bulun acak</w>
anket te</w>
an ları</w>
achiev ing</w>
Yun anl
Prote ction</w>
P residen
Ljaj iç</w>
L ist</w>
Com p
Bulgar ians</w>
Bakoyann is</w>
Avust ral
ı tı</w>
çok tan</w>
zan lı</w>
yas alar</w>
villa ges</w>
uti li
taş ıy
sah n
re moved</w>
oyunc u</w>
mese les
kapsay an</w>
k ar</w>
it als</w>
göster erek</w>
gre en</w>
ff e
di dn</w>
comple tion</w>
clu b</w>
car rying</w>
başlat ılan</w>
aç ılması</w>
Ser vice</w>
Seker inska</w>
S ab
R up
Qa eda</w>
P act</w>
J ak
E P
Ar t</w>
5 8</w>
şiddet li</w>
yok sul</w>
wi desp
widesp read</w>
we ak
tartış malar</w>
sorumlul uk
reun ification</w>
require ment</w>
po z
ortam ı</w>
op pon
olur ken</w>
ma bon</w>
ld wide</w>
his ses
hep i</w>
has ar</w>
gü müş</w>
enter ing</w>
do le
destekle yen</w>
deste ğini</w>
d alar</w>
col lection</w>
candid acy</w>
actu al</w>
a ur
Se zer</w>
Rex hepi</w>
Kos umi</w>
Komut anı</w>
Ker mabon</w>
Haradin aj</w>
Eur o
D aciç</w>
Con dole
şey ler</w>
üste sinden</w>
ç ileri</w>
win s</w>
tarih inin</w>
siyas ilerin</w>
ra i
proj eler</w>
pris on
organis ers</w>
min d</w>
man ufac
ma il</w>
kur uc
idar esi</w>
gerek ecek</w>
fa ther</w>
dön üş</w>
de di
cover ing</w>
bur adaki</w>
argu es</w>
aleyh inde</w>
af fir
af ax</w>
T ran
Span ish</w>
Medi a</w>
K ul
J ur
Dimit rov</w>
Condole ez
Bakoyann i</w>
Ara p</w>
6 8</w>
öner isini</w>
Ç er
tatbi kat
sp lit</w>
sorun unu</w>
santr ali</w>
proj eye</w>
perfor med</w>
p age</w>
olacağ ına</w>
met res</w>
kre dis
ide as</w>
hol iday</w>
hey k
ha m</w>
güç lerinin</w>
geçir ilmesi</w>
edi yorum</w>
dol dur
d ım</w>
cir c
bildir il
bi y
ağ a</w>
Y ah
Ses elj</w>
S A</w>
Rece pi</w>
Politi ka</w>
Medi afax</w>
Lu x
ödül ünü</w>
çalışmalar ına</w>
z u
unil ateral</w>
u di</w>
tu red</w>
tele com</w>
ri z
prec ed
plan ının</w>
par alle
oluştur an</w>
objec tive</w>
mus eum</w>
meet s</w>
lüğ ünü</w>
los ing</w>
kon du</w>
kilome tre
kay ıp</w>
if y</w>
ek ib
değiş im</w>
citizen ship</w>
cam p</w>
ban kası</w>
ati on
at ro
art tı</w>
anlaşmaz lık</w>
Yol suz
Tele com</w>
Soci ety</w>
Rup el</w>
Mir cea</w>
Hırv atlar</w>
B ey
yürüt ül
yapıl mış</w>
wit nesses</w>
versi ties</w>
vehic les</w>
tow ns</w>
ti tle</w>
te x
te grated</w>
sergil en
re sear
mon thly</w>
man ner</w>
kov uştur
ka deme
iti s</w>
insan i</w>
hos ts</w>
hav ayolu</w>
grap h</w>
gi ves</w>
gi de</w>
geliş miş</w>
fo cus
fa il</w>
event ual</w>
diyal og
at titu
al a</w>
ag nos
advis er</w>
V eli
Tour ism</w>
Program me</w>
Kad dafi</w>
I A</w>
H in
G ar
Eng lish</w>
Araştır ma</w>
w ages</w>
surren der</w>
pro mo
oran dum</w>
oblig ation</w>
nüf uz
men istan</w>
leş tirilmesi</w>
len ic</w>
ju dge</w>
investig ations</w>
hazır la
hatt ının</w>
ha bil
göster ic
gre v
g ent</w>
fotoğ raf</w>
farkl ılık
excep t</w>
erte len
effec tively</w>
doc tors</w>
dene tim</w>
dav eti</w>
bal ance</w>
asker leri</w>
ash es</w>
app lied</w>
V uy
Stein er</w>
Rom pres</w>
Mold ov
Le ague</w>
Em il</w>
Bağ ıms
AI DS</w>
ş ek</w>
ılığ ın</w>
ı larıyla</w>
ür ken</w>
yoksul luk</w>
temsilc i</w>
taş ın
squ are</w>
sho t</w>
rekab et
rec eği</w>
r ural</w>
pro ved</w>
multi ethnic</w>
li min
lar ger</w>
kur du</w>
kit ap
kay a</w>
iş le</w>
ith al</w>
govern ance</w>
em lak</w>
el se
compre hensive</w>
competi tiveness</w>
co ast</w>
belir terek</w>
bakan larının</w>
bak anlar</w>
anlaş mada</w>
adal ete</w>
Vete vendosje</w>
V an</w>
Stam bol
St av
R au
Lux em
F E
D ahası</w>
B us
An a</w>
Al b
İliş kiler</w>
t ük
siz liği</w>
represent ation</w>
paral el</w>
milletvekil lerinin</w>
mektu p
low est</w>
kriter leri</w>
kal ıcı</w>
iş çi</w>
in stal
il ave</w>
direc ted</w>
de pos
confi dent</w>
b inin</w>
awar eness</w>
av es</w>
Op en</w>
Mar kovic</w>
Kur ul
I NA</w>
D ar
CE O</w>
Bos kovski</w>
Asi a</w>
Ah meti</w>
0 0,000</w>
özgür lük</w>
ç ey
yazar ı</w>
yak ıt</w>
tron ic</w>
ta ş</w>
t asks</w>
sür mekte</w>
siz ce</w>
shar ed</w>
sh all</w>
sek tör</w>
rek or</w>
proj eleri</w>
pre limin
plat form</w>
per cent
open ha
ol arı</w>
mus sen</w>
miktar da</w>
liber al</w>
karş ısında</w>
k ot
itibar ıyla</w>
in side</w>
ho us
hazır lık</w>
görüşme lere</w>
geliş tirilmesi</w>
facil itate</w>
ex am
en s
dru gs</w>
dest ination</w>
der ek</w>
delay ed</w>
cinay et</w>
cho ose</w>
ch e</w>
barış çı</w>
aç ığ
arac ılığıyla</w>
Ti to</w>
Sa x
Oli ver</w>
Nov in
K re
Ivan ovic</w>
Cor poration</w>
ğ lu</w>
ülkeler le</w>
ük sem
çöz mek</w>
wor ldwide</w>
ver dikleri</w>
tutum unu</w>
tri als</w>
teach ers</w>
tavsi y
recommen dations</w>
on ay</w>
muame le</w>
mad de</w>
lar ımız</w>
it ti
ilerle meyi</w>
görev lisi</w>
gazetec iler</w>
funda mental</w>
fe atures</w>
eksik liği</w>
do z
distribu tion</w>
deplo yment</w>
bul du</w>
birbir ine</w>
ben im
ap art</w>
anlaş malar</w>
U K</w>
Port ug
L üksem
Condoleez za</w>
C ob
An dy</w>
İ brahim</w>
ön eri</w>
yaş ad
t son</w>
rest aur
qu ite</w>
performan ces</w>
os en</w>
organ ise</w>
olma dı</w>
ol ution</w>
me th
ke eping</w>
inten si
gün de</w>
g one</w>
extre mely</w>
def end
belir siz</w>
bac king</w>
azın lıkların</w>
avro yu</w>
argu ing</w>
anlaşmaz lığı</w>
ama z
S af
Rober tson</w>
Ras mussen</w>
Radi cal</w>
Luxem bourg</w>
Gen el
İttifak ın</w>
ön leme</w>
yar ı</w>
viol ent</w>
uç ak
short ly</w>
real istic</w>
re place</w>
prelimin ary</w>
por t
pen al
oy la</w>
m im
lis ted</w>
kil lings</w>
iş aret
is hing</w>
ir regular
initi ated</w>
ilerlet me</w>
il jana</w>
har it
halk ına</w>
h in</w>
et meleri</w>
erk ekler</w>
em niyet</w>
edil ebilir</w>
diyal oğ
destekle diğini</w>
destek leme</w>
bas tır
ask ing</w>
ar gue</w>
al masına</w>
St aff</w>
N es
Fran k</w>
Bay ram</w>
6 1</w>
5 0m</w>
ıl maz</w>
üstün lüğü</w>
çiz di</w>
y as</w>
uni versities</w>
uni que</w>
tradi tion</w>
tic areti</w>
terr or</w>
te ls</w>
suç lan
ph oto
or tam</w>
medi um</w>
laş a</w>
la ik</w>
kurum larına</w>
kre di
isti yor
inter pre
hidro elektrik</w>
güçlendir me</w>
en ko</w>
edil mesine</w>
dış ına</w>
du ty</w>
destek liyor</w>
car ds</w>
bulun uluyor</w>
be t</w>
bar aj
aç acak</w>
an t
V las
T I</w>
S we
P ot
O S</w>
L eh
Is la
I brahim</w>
Hır isti
Diy ar
B üt
B iz
şüphel en
v es
us undaki</w>
toplum unun</w>
te v</w>
ta j</w>
t ıkları</w>
söz leşme</w>
sovere ign</w>
sandal ye
s li
qu al
moment um</w>
la ted</w>
inc isi</w>
i ği</w>
harek eti</w>
geç mesi</w>
far mers</w>
faaliyet e</w>
edece ğ
da f
control led</w>
bun lardan</w>
ate st</w>
appropri ate</w>
Yen iden</w>
Y er
Vuy anoviç</w>
T s
Re lations</w>
M ik
Kan ada</w>
Diyar bak
9 00</w>
çöz ümü</w>
çöz me</w>
Ç ağ
zaman ında</w>
zaman larda</w>
yas aya</w>
yapıl masını</w>
top ics</w>
toler ance</w>
te z
tav ır</w>
tan ık
suffer ed</w>
stand ard</w>
sonuc una</w>
quic k</w>
on y
mük em
l iliği</w>
köken li</w>
kim s
hükümet ini</w>
human itarian</w>
hak larının</w>
gre atest</w>
fam ous</w>
est ate</w>
ek ibi</w>
edece ği</w>
com mo
cell or</w>
ce ma
bırak tı</w>
ans a</w>
al lies</w>
al liance</w>
advant age</w>
T et
Sırp lara</w>
Prosecut or</w>
Ljaj ic</w>
J on
B amir</w>
Amer ica</w>
Ak ademis
6 9</w>
şirket inin</w>
ılığ ına</w>
öde me</w>
yol dan</w>
ver miş</w>
us al</w>
ul ty</w>
tak ip</w>
success fully</w>
sol id
sign s</w>
senten ces</w>
s hak
prac ti
pass ports</w>
pan el</w>
ortak laşa</w>
ort ağı</w>
muha biri</w>
m inde</w>
la ku</w>
kuruluş ları</w>
kampan yas
it able</w>
hep si</w>
ha fif
getir meye</w>
fabri k
exp and</w>
en ab
ebil eceği</w>
ebil ecek</w>
de tention</w>
bor cu</w>
bağlan tı</w>
Voy vodina</w>
Lüksem burg</w>
Lazar ova</w>
Er meni</w>
EI B</w>
E M
10 0m</w>
çık ması</w>
ur g</w>
toplant ının</w>
ri s</w>
respon dents</w>
poin ted</w>
plan ın</w>
olmay acak</w>
muş tur</w>
muhalef etin</w>
mek tir</w>
komut a</w>
kno wle
iş siz</w>
hayat i</w>
geti recek</w>
gar anti</w>
demonstr ate</w>
deliver ed</w>
circum stances</w>
bri ef
be at</w>
awar ded</w>
at ları</w>
an lı</w>
S DS</w>
N is</w>
M r
Kur distan</w>
Kon fer
Can ada</w>
Belgrad lı</w>
B est</w>
20 ,000</w>
şart ı</w>
ücre t</w>
ug ht</w>
tour nament</w>
tep k
tar z
ste pped</w>
proces ses</w>
or ge</w>
mecl ise</w>
me zar
küç ül
koşul ları</w>
k ıyı</w>
k ok
je op
in ese</w>
hız la</w>
geti ri
gerçek çi</w>
festival de</w>
fay da</w>
favour able</w>
exten d</w>
eceğ inden</w>
domin ated</w>
dolay ı</w>
danışman lık</w>
böyle likle</w>
bölgeler de</w>
bu re
b bi</w>
ab akat</w>
Z e
V it
Sum mer</w>
G ad
Comp any</w>
Ch inese</w>
C as
B TA</w>
Öz gür
voic ing</w>
uy gu
tes is</w>
t avr
sing er</w>
seçim lerinin</w>
ob vi
o ğu</w>
ne k</w>
mon etary</w>
mev zu
ler di</w>
kon uk</w>
j ic</w>
in spec
in li</w>
hedef liyor</w>
h at</w>
gen işlet
geliş meler</w>
g le</w>
fur ther
expres sion</w>
et mekte</w>
ele ments</w>
edi tor</w>
de ep</w>
con ven
com mem
bron ze</w>
bil işim</w>
ad v
accoun ts</w>
accompan ied</w>
Sax e</w>
Met o
Ir ish</w>
E li
E lection</w>
Dac ic</w>
Cob urg</w>
çalış malar</w>
vade de</w>
v ements</w>
ur ges</w>
tale bi</w>
ser g
scand al</w>
proto col</w>
ph ere</w>
pe ten</w>
nis peten</w>
meclis in</w>
impro vements</w>
ilerle menin</w>
hazır lanıyor</w>
ex por
emin im</w>
edil diğini</w>
edi ci</w>
e asi
dok tor
cross ings</w>
boy ut
bi d
b ence</w>
aş i</w>
aş am
are tin</w>
Nov os
Hel lenic</w>
F air</w>
E ro
A g
şikay et</w>
ü l</w>
w ers</w>
sco res</w>
rezer v
resul ted</w>
reac tion</w>
re move</w>
ra s</w>
produc er</w>
pr ised</w>
paralle l</w>
oy ların</w>
od or</w>
occ up
mas sive</w>
lik ten</w>
kısm ının</w>
kuzey indeki</w>
knowle dge</w>
kar iy
kap alı</w>
kamuoy una</w>
kad ar
fe asi
endor sed</w>
der in
defin ed</w>
con cep
can in</w>
bu s</w>
ass os</w>
aktar dığına</w>
accus ations</w>
abil ities</w>
S PS</w>
S I
P la
Oy unları</w>
Mla djan</w>
M W</w>
L am
Bosni aks</w>
B y
çıkar ıldı</w>
çöz ülmesi</w>
su it</w>
sto ck</w>
sp ir
sol ved</w>
sah te</w>
ri ed</w>
retur ns</w>
resi g
r in</w>
percent age</w>
oyn adığı</w>
oper atörü</w>
muha fazak
mater i
liy iz</w>
laş ma</w>
kullan ımı</w>
konular da</w>
ket s</w>
hal de</w>
h ek
gü dü
gi ren</w>
gerçekleş mesi</w>
g u</w>
f lights</w>
en dek
e lic</w>
destek len
da k</w>
co ast
ch osen</w>
c ko</w>
blo ğa</w>
atten ding</w>
acağ ından</w>
Konse y</w>
Hakk ındaki</w>
Fo cus</w>
Dai anu</w>
C al
Bud ap
şim i</w>
tur ning</w>
ti tled</w>
terror ists</w>
st eri</w>
sanat çı
s l
s car
rol ünü</w>
oluştur ul
oc cas
n ur
müf etti
malar la</w>
in ts</w>
elek tronik</w>
contr acts</w>
care er</w>
başk enti</w>
at er
anti cip
al lows</w>
ak si</w>
ak en
Yöne tim</w>
V et
U D
Por tek
Parliam entary</w>
In formation</w>
IC G</w>
E di</w>
Ad minist
çab alarının</w>
sü b
suik ast
sever e</w>
res c
ren ov
regar d</w>
re ta
r ken</w>
pur pose</w>
promp ted</w>
otomo bil</w>
mul ti</w>
mal iye</w>
luk ta</w>
kurul masını</w>
istikrar ın</w>
irregular ities</w>
hap se</w>
h ance</w>
gi diyor</w>
expen sive</w>
estima tes</w>
emek lilik</w>
distri ct</w>
bağım l
bay rağ
at or
Tet ovo</w>
Stru ga</w>
Siy asi</w>
Milov anoviç</w>
L ati
Gaz e
Dan im
D ink</w>
B un
ı larda</w>
ç ılık</w>
yol cul
yaptır ım
y iz</w>
var lığını</w>
t ough</w>
redde dil
re placed</w>
pro visions</w>
ordin ator</w>
müş tü</w>
lead s</w>
kır sal</w>
kit ap</w>
kaçakç ılık</w>
iz liyor</w>
in oviç</w>
harek etin</w>
güven liğini</w>
göster mesi</w>
fac ts</w>
elek tri
eful ly</w>
edr ana</w>
e mek</w>
bul uş
ber ab
an ces</w>
alis ing</w>
Stan koviç</w>
S K</w>
Q u
Pro di</w>
F ak
EU observer</w>
E len
Com mer
Br cko</w>
A ward</w>
5 9</w>
ız a</w>
çalış mak</w>
writ ten</w>
was te</w>
uy du</w>
ty pe</w>
ti recek</w>
tel ling</w>
tas lağ
sürdür dü</w>
söy leniyor</w>
sistem ine</w>
sem bol
rüş vet</w>
respon sibilities</w>
re a</w>
pro p
pati ents</w>
origin al</w>
op les</w>
no tes</w>
keş f
karar ına</w>
im a</w>
high ligh
he aring</w>
etkinlik lere</w>
en hance</w>
ed ings</w>
ch es
ca u
bi yo
bes ides</w>
bas ına</w>
argu ed</w>
ar dis
anno un
an lara</w>
an dı</w>
ada m</w>
U AD</w>
Swe den</w>
Lj iljana</w>
K y
H ür
De me
Cumhur iyet</w>
7 ,000</w>
20 20</w>
20 15</w>
197 4</w>
ver meyi</w>
um n</w>
ula j</w>
ta bii</w>
sec ular
oy un</w>
oto bü
lüğ üne</w>
intel lectu
görev lendir
gö steri</w>
geçir me</w>
geliş tiril
fe ars</w>
else where</w>
earth qu
doub t</w>
bölges indeki</w>
asker ler</w>
arke olog
af for
actu ally</w>
Z em
Wol f
S k
Or tad
Milov anovic</w>
Mil oş
M ag
Ko ha</w>
K en
Fat os</w>
D is
ış tı</w>
ıl ım
ülk em
çıkar t
un fortun
tutuk lanması</w>
sp read</w>
so l</w>
sistem in</w>
sağla dığı</w>
ri dor</w>
reven ue</w>
proce edings</w>
play s</w>
p lus</w>
on line</w>
o tel
n ature</w>
mükem mel</w>
min ing</w>
kar t
ist ent</w>
indic tee</w>
in ic</w>
im munity</w>
ihtila f</w>
hüküme tine</w>
h et
fazl asını</w>
faaliyet lerini</w>
etkin liği</w>
ent ation</w>
el inden</w>
el den</w>
ek si
dra w</w>
destekle meye</w>
dedi cated</w>
business men</w>
bir leşme</w>
ak lama</w>
ac tor</w>
Y az</w>
Tele graph</w>
Sağ lık</w>
S utan
Rama dan</w>
Pet ro
Miloş eviç</w>
Kal et
Char ter</w>
A ir</w>
10 0,000</w>
öl ü</w>
çab uk</w>
yöneti minin</w>
yargı ç
wr ong</w>
win ter</w>
vatan daş</w>
sus pic
sistem inde</w>
sin yal
seçim lerine</w>
ser ves</w>
p ra
mo re
m u</w>
kon ut</w>
k ence</w>
ithal at
ins ist</w>
inc umb
in stance</w>
im ha</w>
hakk ına</w>
gör dü</w>
grap hic</w>
f are</w>
econom ist</w>
coun t</w>
comp ens
clos ure</w>
cap ture</w>
bildir diğine</w>
aleyh indeki</w>
al led</w>
accor dance</w>
Vak fı</w>
Sw ed
N B
3 50</w>
1 30</w>
ılığ a</w>
üy esinin</w>
ümü z</w>
önlem ler</w>
Ö ğ
z emin</w>
yum uş
yol unu</w>
vis as</w>
ul dn</w>
tic aret
te ac
sho p</w>
sağlay acağını</w>
s we
r ally</w>
protest ers</w>
proj eyi</w>
priv ati
or ada</w>
n one</w>
malar dan</w>
mak ro
mak er</w>
legisla tive</w>
kan ıt</w>
j iç</w>
in tegrated</w>
has sas</w>
ha fi
hafi f</w>
gözlem ciler</w>
gain ed</w>
ga p</w>
g un</w>
friend ly</w>
form ally</w>
es a</w>
chap ter</w>
c ation</w>
c ad
b lu
ate dly</w>
anayas aya</w>
ak sine</w>
ag ues</w>
U r
P lan</w>
Lefkoş e</w>
Gabri el</w>
Fi at</w>
Böl gesi</w>
0 th</w>
çek en</w>
yüksel di</w>
tı bbi</w>
tion ary</w>
ste m</w>
sonuç lara</w>
si x
sen ding</w>
rail way</w>
play ing</w>
on gest</w>
ol anlar</w>
n ica</w>
mülk iyet</w>
milli ons</w>
mes le
malar ında</w>
main taining</w>
lin k</w>
kur tul
kri ze</w>
kontrol ü</w>
kims enin</w>
ihti yat
i hale</w>
hisses ini</w>
he art</w>
geç miş</w>
gaz ete</w>
en dir
düşün ül
dra wn</w>
bir leştirme</w>
bel i</w>
b ail
as ts</w>
P R
Ortad oğu</w>
Mil en
K it
Hab er
Gaze tec
Armen ian</w>
Akademis i</w>
ş e</w>
ücret siz</w>
özerk lik</w>
çıkar ıl
Ç oc
ye bilir</w>
yap acağını</w>
y eceğini</w>
uk at</w>
stan tin
son g</w>
skand al
si tesi</w>
se ized</w>
re mov
plan ına</w>
more over</w>
man ip
j um
iy se</w>
increas es</w>
imzal ay
i bil
hiz meti</w>
guaran tees</w>
dec lined</w>
cha mp
c ra
avro v</w>
ans ki</w>
an ket</w>
adv ance</w>
Ziv koviç</w>
Y usuf</w>
Sutan ovac</w>
S tar
P ulaj</w>
N ine</w>
L avrov</w>
Hür riyet</w>
Gord ana</w>
D NA</w>
Chan cellor</w>
B edrana</w>
Ar di</w>
Air port</w>
Ad nan</w>
1 000</w>
İş çi</w>
wher e
v ul
tra fik</w>
sub sequ
si ci
remov al</w>
refa h</w>
ra id</w>
prosper ity</w>
pla cing</w>
oyn anan</w>
ou li
muh teme
man ager</w>
ma p</w>
l ılar</w>
kullan arak</w>
jus ti
iş kence</w>
intro duction</w>
indi ri
incumb ent</w>
göster mek</w>
gerek ir</w>
g ree</w>
festival in</w>
expla ins</w>
değişik liği</w>
değ in
de struction</w>
de gree</w>
de als</w>
charac ter
bir leştir
baş ından</w>
bal ık
bakanlığ ından</w>
assu red</w>
R aj
Od ası</w>
Mil os</w>
Med ve
8 3</w>
ıla cak
zar ar
z inc
yolsuz luk
yaban c
ulaş mak</w>
ula cağ
ti riyor</w>
sun ul
sec ular</w>
resc ue</w>
repe atedly</w>
protec ting</w>
pres ti
performan s</w>
per aken
o ya</w>
len in</w>
kur maya</w>
karşılan dı</w>
ihl al
ep ers</w>
eli gible</w>
easi er</w>
dis placed</w>
dir en
de t</w>
dayan ıyor</w>
convinc ed</w>
bölge yi</w>
bloc king</w>
atmos phere</w>
archae ologists</w>
al acağı</w>
Z o
Sw is
M ob
Kuvvet leri</w>
Krasni ki</w>
Hur riyet</w>
Gen ç
5 0,000</w>
1 40</w>
ş ampiy
var ılan</w>
var i
usul süz
us una</w>
un uz</w>
u dur</w>
tra in</w>
topl uma</w>
st ated</w>
seç ilen</w>
selec ted</w>
ros u</w>
promis ing</w>
prac tical</w>
mütte fik
muhteme len</w>
kullan ıc
kil i</w>
katılım cı</w>
kali te
human ity</w>
ho me
getir diğini</w>
gelece ğe</w>
et beg
elec t</w>
eas ily</w>
durum dan</w>
dil ik</w>
celebra ted</w>
cate gory</w>
başkanlığ ındaki</w>
ay d
anlaş tılar</w>
T eş
Sam ar
Pal est
K ES
Gol den</w>
Fu ele</w>
Cumhur başkanlığı</w>
C ath
A C
zanl ının</w>
yol ları</w>
yap abil
vur gu
tan e</w>
se aled</w>
s ıf
rej imi</w>
program ın</w>
not e</w>
mik tar</w>
mal z
konular ında</w>
kesim inde</w>
kab ul
ilerle meye</w>
i te
güc ünü</w>
g ü</w>
foun der</w>
fac tion</w>
etti ğ
es ting</w>
en han
emphas ised</w>
düz in
durum unu</w>
draf ted</w>
der g
depen d</w>
cont act</w>
cl ashes</w>
aç ma</w>
artış la</w>
announc ing</w>
analy sis</w>
am bassad
Ye ar</w>
W al
Sırp ları</w>
Politi cal</w>
Nicola s</w>
K K
8 ,000</w>
ş er
ülkeler ini</w>
öl üm</w>
ö f
çıkar ılması</w>
ur gent</w>
taraf lar</w>
t ress</w>
sürdür meye</w>
sürdür me</w>
r as
prot okol
per pet
p es</w>
our s</w>
ni hay
min ute</w>
mil a</w>
mağ dur
lık lara</w>
lik lerini</w>
lan ma</w>
kic ked</w>
k l
iz den</w>
infor mal</w>
in stability</w>
immig rants</w>
gün leri</w>
fut bol
f lu</w>
el inin</w>
der s
consum ption</w>
colle agues</w>
citiz en</w>
cha m
b alt
aşır ılık</w>
ağ ının</w>
ate ş</w>
ass ess</w>
amaç lanıyor</w>
ad ver
a ther</w>
Ziv kovic</w>
R em
Pet rov</w>
Mir oljub</w>
KES H</w>
K ou
EC B</w>
E ri
D ic
Bak anlığ
Avustral ya</w>
1 10</w>
- -
İd di
ül tesi</w>
öğret men
veril miş</w>
ver me
v ital</w>
uz un
ular ını</w>
ti le</w>
süre çte</w>
prof ile</w>
pro visi
par am
ov ers</w>
milyon larca</w>
mater ial</w>
lar sa</w>
karşıla mak</w>
iyim ser
iy etin</w>
ins isting</w>
h us
ger ed</w>
further more</w>
fo rec
doğ um</w>
de e
com ment</w>
c evic</w>
bulun dur
bran ch</w>
biy at</w>
bir ine</w>
bil ls</w>
as gar
arab a</w>
ak ar
V e
Traj kovski</w>
T es
Sil ah
Regi onal</w>
R an
Po well</w>
N ed
Mis sion</w>
Medve dev</w>
H R
Genel kurmay</w>
F ra
Dj elic</w>
D eğ
C E</w>
B eth</w>
Aç ık</w>
Al bert</w>
İsp an
önem lidir</w>
yer inde</w>
wor se</w>
van siyon
v a
toplan dı</w>
sı cak</w>
söz cü</w>
sun uyor</w>
st or
spokes woman</w>
sm oking</w>
sho oting</w>
sel ling</w>
sah ne
rest ore</w>
pot enti
po l</w>
n ish</w>
mü yor</w>
ley ic
le f
kriter lerini</w>
konferans a</w>
k em
j ing</w>
hop ed</w>
hedef leniyor</w>
h ter</w>
govern ing</w>
f ro
ek lerini</w>
ec tion</w>
dey işle</w>
dev ral
deman ded</w>
de si</w>
dak ik
comp ete</w>
co ach</w>
b ing</w>
alar ındaki</w>
ab sol
Suç ları</w>
Sim itis</w>
Sav a</w>
R N</w>
Profes sor</w>
Ne w
Monit or</w>
L it
K i
J AT</w>
F ati
Eur ozone</w>
Cv etkovic</w>
Bla ir</w>
ış ma</w>
çab alar</w>
yetkil ilerinin</w>
yatırım lar</w>
yatır ımı</w>
y s</w>
w al
vul ner
ver eceği</w>
van ya</w>
top ic</w>
surv ey
pay ment</w>
olmay acağını</w>
modern isation</w>
mechan ism</w>
lin ing</w>
licen se</w>
is h
ing er</w>
im in</w>
i um</w>
gönder di</w>
guaran te
grup ların</w>
gazetes inde</w>
fark ında</w>
f em
en visi
doz ens</w>
dis ip
contri but
ceza ev
bun lara</w>
açılış ını</w>
audi ence</w>
alt ın
ac comp
S asa</w>
Re por
Or han</w>
Novos ti</w>
Le ban
In iti
Hol ding</w>
7 6</w>
19 80</w>
İngil iz
ürün leri</w>
örgüt leri</w>
yeter ince</w>
under ing</w>
tar ak</w>
sen ar
savaş ı</w>
s ets</w>
refer ring</w>
politici an</w>
ortal am
ne dir</w>
mağ lup</w>
mak tır</w>
li ved</w>
iyileştir me</w>
is ms</w>
is iyle</w>
ir ing</w>
inş aat
inde x</w>
ik iye</w>
hoş gör
hedef leri</w>
gro unds</w>
geçir di</w>
en k
değişiklik lerin</w>
dav ada</w>
cou ple</w>
correspon dent</w>
cla iming</w>
ces aret</w>
beş inci</w>
bel geleri</w>
başlangı ç</w>
asgar i</w>
as pects</w>
ans wer</w>
ach es</w>
a ths</w>
Tur k</w>
Raz van</w>
Mad rid</w>
M S</w>
M O
L üb
Kür distan</w>
Dj ur
10 m</w>
şah ıs
İstatisti k</w>
İkti dar
Ödül ü</w>
yıl larında</w>
y n
withdra w</w>
uygulan masını</w>
uni ons</w>
tele fon
strugg le</w>
sti p
si te
sen dik
s ile</w>
requ ested</w>
rapor un</w>
po p</w>
pazar lık</w>
pass ing</w>
mağ az
ma gaz
k ıl
intro duce</w>
i ted</w>
ha bi
gener al
f in</w>
er n
em p
demonstra ted</w>
deli ver</w>
celebr ate</w>
can cer</w>
c lock</w>
bro ke</w>
başlat ılması</w>
başla ma</w>
başar dı</w>
ayrımc ılık</w>
aktar dığı</w>
ac on
Trans port</w>
Po or</w>
P N
O bra
Mah k
KK TC</w>
J acqu
H aj
G ünü</w>
D al
Büt ün
An at
8 1</w>
7 3</w>
şim dilik</w>
yür üy
y üz</w>
ur y</w>
tören inde</w>
tazmin at</w>
str ation</w>
son baharda</w>
sağla ması</w>
recover y</w>
read ing</w>
pre ven
on ar
o in</w>
no body</w>
ne ar
mem orandum</w>
man n</w>
makro ekonomik</w>
l ists</w>
iti ons</w>
is kop
ha iled</w>
gör düğünü</w>
geç i
getir ildi</w>
genç lerin</w>
festival e</w>
ey le</w>
en or
ei jing</w>
değer lendiri
ch ers</w>
başlan g
ağ ın</w>
ark asında</w>
amoun ts</w>
al acağını</w>
Vas il
UN H
UNH CR</w>
Syri an</w>
S cot
For mer</w>
Deme tris</w>
B eijing</w>
Anat ol
2, 5</w>
ı larında</w>
çatış malar</w>
yüksel t
wo od</w>
wa ve</w>
us ually</w>
tw ice</w>
the w</w>
tele communications</w>
söyle diği</w>
kar ayolu</w>
j eviç</w>
gi de
geç ecek</w>
gerçekleştir diği</w>
g ical</w>
ey alet</w>
ek ip</w>
cap able</w>
bron z</w>
açıkla ması</w>
ay dan</w>
al abil
ade s</w>
Nic ho
Mar oviç</w>
K ir
Gad dafi</w>
F it
A E
A AK</w>
8 2</w>
İler leme</w>
İ h
yöneti mindeki</w>
w est</w>
uygula mada</w>
tak v
ste el</w>
sonuç lan
sh ops</w>
religi on</w>
pro per</w>
potenti ally</w>
pil ot</w>
p sy
ol muştu</w>
ol li</w>
numar alı</w>
mis yon</w>
mesele ler</w>
lık tan</w>
köpr ü</w>
kiş iye</w>
kal ması</w>
k uş</w>
j un
im pose</w>
haber ler</w>
h ast
göç men</w>
gi ant</w>
fe atur
featur ing</w>
er re</w>
en gine
do ors</w>
dis play</w>
condem ned</w>
bü ro
ban ned</w>
ar ticle</w>
al dıkları</w>
Sü ley
Sov iet</w>
Ro g
Mil ler</w>
Li maj</w>
Kar olos</w>
I N
Gre at</w>
Gen işleme</w>
A gri
20 m</w>
çey re
çer çeve</w>
w ake</w>
viola tion</w>
uni ted</w>
tır man
tü ler</w>
tut uyor</w>
ti a</w>
suçla maları</w>
sur prise</w>
sou theast</w>
par anın</w>
pah alı</w>
nok tas
ner ede</w>
negoti ation</w>
mor ning</w>
mi xed</w>
kur ban</w>
kim in</w>
isti yorlar</w>
inter im</w>
im ir</w>
ho using</w>
health care</w>
göster gesi</w>
graph y</w>
finans man</w>
finans man
eğiti mi</w>
ey n
don ors</w>
değerlendir il
con stan
com man
can lı</w>
be ha
b bed</w>
ar ily</w>
al ılar</w>
ad mission</w>
P os
P ah
Nicho las</w>
N 1</w>
Kor id
Jacqu es</w>
H ot
Fati h</w>
E X
Cri mes</w>
Bi den</w>
Alt ın</w>
İspan yol</w>
önem i</w>
çalış tı</w>
yaklaş ım</w>
y iy
y ere</w>
ur ban</w>
top lama</w>
tan ıyan</w>
shi p
recommen ded</w>
re vi
p sik
oluştur ulması</w>
mo ther</w>
mektup ta</w>
land alı</w>
la h
iş in</w>
iktidar a</w>
gain ing</w>
f iy
er ial</w>
ed oms</w>
dismis sed</w>
bütün leş
br ings</w>
bir den</w>
b ought</w>
alan ları</w>
achiev ements</w>
Zem un</w>
Mıs ır</w>
I S
H en
H S
Con ference</w>
Be q
Baj ram</w>
çalış tığı</w>
yen in</w>
yak ından</w>
tele kom</w>
taşı dığı</w>
tack le</w>
seçim lerini</w>
sağlan acak</w>
san ık</w>
pris ing</w>
ou ts</w>
orig in</w>
nok tada</w>
mensu p</w>
mat ters</w>
malar ından</w>
ma x
kü r</w>
kaynak lanıyor</w>
k er
iy as</w>
ibil ite</w>
gener ation</w>
fik ri</w>
f f</w>
deneti m
de st</w>
c ine</w>
beg un</w>
baş bakanın</w>
b atı</w>
atro cities</w>
at an</w>
ambassad ors</w>
ac ci
ab and
S ul
Presiden cy</w>
Pah or</w>
8 4</w>
2. 5</w>
üz ün
ülkeler indeki</w>
ülk esinde</w>
çık ar</w>
yaşan dı</w>
win d</w>
vir tu
tören de</w>
tri c</w>
ten sion</w>
tedbir lerin</w>
sorun larla</w>
seç ti</w>
savaş ın</w>
rest or
resign ed</w>
prev enting</w>
practi ces</w>
pen ding</w>
oper asyonu</w>
op pose</w>
olog ist</w>
ol masından</w>
mut abakat</w>
materi als</w>
li mit</w>
koşul lar</w>
kon uyu</w>
kon se
kay ak</w>
istikr ara</w>
il aç</w>
ho tel</w>
he ard</w>
gönder diği</w>
gil i</w>
gel miş</w>
expres sing</w>
em bassy</w>
dol ara</w>
danış manı</w>
d zic</w>
ch em
büyüy en</w>
bil ecek</w>
ben i</w>
belir leme</w>
baş lıyor</w>
We b</w>
Traj kov</w>
Teş kil
T assos</w>
S vil
Rad yo</w>
Gü cü</w>
G os
Fu arı</w>
Fin nish</w>
Dj ok
Div anı</w>
C eliç</w>
A D
zorun lu</w>
yolsuzluğ a</w>
yetk isi</w>
yaz ı</w>
um un</w>
teşek kür</w>
sür pri
stop ped</w>
si m</w>
sey re
sektör üne</w>
sektör ündeki</w>
sch ror</w>
r in
profesyon el
peaceke epers</w>
olduğ umuz</w>
neigh bour</w>
li man</w>
kullan an</w>
katıl mayı</w>
jeop ardis
işle y
iz ledi</w>
iy a</w>
im port</w>
ho tels</w>
hedef ini</w>
exclu sive</w>
e deme
dığ ından</w>
düzenle diler</w>
dis aster</w>
diaspor a</w>
d om
concer ts</w>
clos ing</w>
bilgil eri</w>
bildir ge
ati k
at ma</w>
at ings</w>
as tır
Stand ard</w>
S öz
S han
R TK</w>
R A</w>
Program ı</w>
Pek u
Mi tev</w>
Mar k</w>
Konjiku sic</w>
Kamp schror</w>
In sight</w>
Gj orge</w>
Av ro</w>
Amerik alı</w>
9 8</w>
7 4</w>
ı larla</w>
İ van</w>
özel leştiril
çif t</w>
tü phan
tarih ten</w>
taraf sız</w>
saldır ıları</w>
reac tions</w>
re habil
ra in</w>
monit or</w>
le j
kut ladı</w>
kav uştur
karar laştır
j es
is on</w>
inter vention</w>
i mal</w>
hen dis
fem ale</w>
deste ğiyle</w>
de aths</w>
counter parts</w>
contribu tions</w>
con text</w>
ci pl
c lar
bay anlar</w>
aut o
alışver iş</w>
Y outh</w>
Ves na</w>
Res olution</w>
Rama zan</w>
Mo ody</w>
Mar tin</w>
G ri
Constitu tion</w>
Cath ol
Ak ımı</w>
A ri
İktidar daki</w>
çalışan ları</w>
zanl ılarının</w>
yan ından</w>
te ll</w>
tan t</w>
sır ayı</w>
st abil
seçmen ler</w>
sec tion</w>
se fer</w>
rak ip
pol ling</w>
perfor m</w>
over ha
oluştur ma</w>
olay ların</w>
mark et
ma daki</w>
l oviç</w>
kil ls</w>
kes im</w>
kal mış</w>
jan in</w>
idar ity</w>
i ved</w>
güvenil ir</w>
göster meye</w>
ger eğini</w>
encour aging</w>
doğ u</w>
differ ence</w>
conserv ative</w>
connec ted</w>
conclu sion</w>
collec tive</w>
belir lenen</w>
bac ks</w>
as ing</w>
ad in</w>
Vic tor</w>
Uy gula
SE EC
SEEC P</w>
Re form</w>
Rad man
I on</w>
Had zic</w>
H iz
FE NA</w>
E l</w>
D ok
Com mun
ıs ız</w>
ık tan</w>
üy eli</w>
yolsuzluğ un</w>
uc uz</w>
tören ine</w>
tru th</w>
t om
sür düğü</w>
suç lar</w>
succe ed</w>
sorumluluğ unu</w>
satis faction</w>
reform lara</w>
p utting</w>
oran ları</w>
mü n</w>
mu az
men tal
lo oks</w>
katıl dılar</w>
insan lara</w>
inde ed</w>
im ini</w>
gro w</w>
fin als</w>
eyal ette</w>
et mektedir</w>
er inin</w>
dra v
delay s</w>
commem or
büyü menin</w>
bilgil ere</w>
bask ın</w>
b o</w>
att ığını</w>
anni er</w>
al masını</w>
Z drav
Z annier</w>
Y an
Stan kovic</w>
Srbi ja</w>
Mu am
Kra j
Est on
Boş nak
Anlaş masının</w>
10 .
ı p
öğren im</w>
yardım ıyla</w>
veril mesini</w>
uygulan masına</w>
taraf ların</w>
ser gide</w>
sa m</w>
s inde</w>
rüz gar</w>
rela tively</w>
pu y</w>
prop ag
ow nership</w>
muaz zam</w>
lu c
lider lik</w>
la ik
iyileş tirilmesi</w>
in nov
hy dro
hedef lerine</w>
fela ket
f atur
et ry</w>
et menin</w>
er mesinden</w>
e men</w>
düş en</w>
böyle ce</w>
beha vi
av ukat</w>
at ıl
Ti hiç</w>
Rom puy</w>
Portek iz</w>
Pek in</w>
Mat thew</w>
Komis yon
Kat ol
G lobal</w>
G ates</w>
Fe ith</w>
Europ e
E ven
C EC</w>
B B
şidde tle</w>
şeh ir
ığ ımız</w>
ım ında</w>
zanl ıları</w>
yap ı</w>
talk ing</w>
surroun ding</w>
say ıdaki</w>
ro economic</w>
reve aled</w>
radi cal</w>
or ic</w>
mü him
ma t</w>
m ıyorum</w>
l ıyorlar</w>
kendis inin</w>
ist lere</w>
insan lık</w>
hi be</w>
gün eydoğ
fe ature</w>
ex press</w>
enor mous</w>
elen dirme</w>
e di</w>
dal ında</w>
cont ent</w>
combin ed</w>
com missioner</w>
bilim sel</w>
bildir i</w>
ağ ını</w>
attr acting</w>
at ılan</w>
amay acağını</w>
al ım</w>
ad mitted</w>
Zv etkoviç</w>
Wh ite</w>
Swed ish</w>
Pri ze</w>
Mar ovic</w>
Krasni qi</w>
Hol bro
Fri ed</w>
Fran co</w>
F onu</w>
Dra zen</w>
Com munity</w>
Bütün leşme</w>
B ag
üyeler inden</w>
zor la</w>
yok tur</w>
wel coming</w>
w ill
ula tions</w>
ula te</w>
tur u</w>
tor ture</w>
ste ş
sp iri
ri ots</w>
re ter</w>
proj esinin</w>
par ator
optimis m</w>
op h
on ur
oluştur duğu</w>
o da</w>
müfetti ş
ma ma</w>
kuruluş larının</w>
kaynak lanan</w>
karış ık</w>
işbir liğiyle</w>
iyileş me</w>
iti raf</w>
in ovic</w>
im ti
haftal ık</w>
gönül lü</w>
fiz ik
el se</w>
el led</w>
depen dence</w>
ces sive</w>
blo k</w>
bilgil er</w>
barın dır
bar ışı</w>
bak ıl
bail out</w>
az ı</w>
ast ava</w>
Yard ım</w>
Wor kers</w>
T odor
San ay
R ed</w>
P ass
Novin ite</w>
Nec det</w>
Kar ş
I ran
Holbro oke</w>
E d
Cor ruption</w>
Böl gesel</w>
An ti</w>
özgür lük
çıkar larını</w>
zir ve</w>
zanl ıların</w>
yet en
y in</w>
wrap ped</w>
sü resinin</w>
sü res
sonuç larını</w>
so v</w>
sa ve</w>
retur ning</w>
res hold</w>
reflec t</w>
public ly</w>
per spek
out look</w>
mün as
mis sile</w>
mesele leri</w>
men tioned</w>
mechan isms</w>
m y
loc ations</w>
lis tesinde</w>
le ti
laun ching</w>
la undering</w>
kriz den</w>
k ış</w>
j isi</w>
isti n</w>
istek li</w>
hak lı</w>
görev inden</w>
fun ction</w>
fayd alan
ef san
dis cipl
decre ase</w>
d ating</w>
başkan ları</w>
appro ve</w>
Z astava</w>
V ass
U S
Top al
Swis s</w>
Nat aşa</w>
Konjiku siç</w>
Hristof iyas</w>
Festiv al
D istri
Commer ce</w>
Al p
üyeler ine</w>
örgüt ünün</w>
önc ül
yıl larca</w>
vers y</w>
tü ğ
tr ac
toprak larında</w>
tele phone</w>
ste ad
st one</w>
sorun larını</w>
se eing</w>
say ılı</w>
respec ted</w>
re bel
parti te</w>
ma hal
l ilik
kal dığı</w>
inter ethnic</w>
in ations</w>
hi ja</w>
hay ır</w>
geç iyor</w>
eli m
ekonom ist</w>
di s</w>
di j
değiş en</w>
der ing</w>
conv ince</w>
consi ders</w>
compli cated</w>
commun ism</w>
cap e</w>
can cel
bölges ine</w>
bil eceğini</w>
aut umn</w>
arti st</w>
am i</w>
ak ş
ail esinin</w>
a v</w>
Un der
U laştırma</w>
T aki</w>
T A
Ro c
Rap or
Rad mila</w>
P ow
Or t
M oun
G ashi</w>
şüp he
ırk lı</w>
İngiliz ce</w>
ülk esinden</w>
ç ısı</w>
yürüt tüğü</w>
yarar lı</w>
uygula ması</w>
utili ty</w>
unfortun ately</w>
t ıp</w>
sin ki</w>
sen si
savc ılık</w>
piy asa</w>
pazar ına</w>
op tions</w>
o tis</w>
mu ad
mot or
mig ration</w>
met al</w>
m iddle</w>
lar y</w>
kur ul</w>
kil ise</w>
izle yen</w>
in jur
gir mesi</w>
fore ig
fi res</w>
do w</w>
dav aları</w>
dahil inde</w>
ci gar
başkent inde</w>
b ine</w>
azalt mak</w>
avo i
auth or</w>
alın mış</w>
ak ıl
Ti hic</w>
S ad
P h
K ot
Hel sinki</w>
Gr and</w>
Georgi evski</w>
G oo
EX IT</w>
D it
C in
İsti h
çif te</w>
çağır dılar</w>
un employed</w>
tan esi</w>
stratej isi</w>
sen di
se g
res ume</w>
produc ers</w>
p ayı</w>
ouli as</w>
ord usu</w>
nüf usu</w>
nj ak</w>
mos que</w>
lak bar</w>
katıl anların</w>
i tely</w>
hap s</w>
gün ler</w>
görül düğü</w>
görev de</w>
ger eği</w>
flo ods</w>
encour aged</w>
dok tor</w>
diploma cy</w>
coun ter</w>
collap se</w>
c evski</w>
ay dır</w>
ast ro
amac ının</w>
am bi
affir med</w>
Türk ler</w>
Ter esa</w>
S em
Re port</w>
Rau fo
Fin land</w>
Austral ia</w>
Ar ts</w>
A lakbar</w>
7 7</w>
şüp he</w>
öl çek
yol una</w>
yas al
t ments</w>
sır adan</w>
stri kes</w>
spiri t</w>
say ımı</w>
sak lan
res ses</w>
rec ession</w>
ph oto</w>
otoy ol
oppon ents</w>
münas ebe
münasebe tiyle</w>
kırık lığına</w>
komis yonu</w>
kay gı
inc elen
fres h</w>
eş lik</w>
etkil eri</w>
et ten</w>
düny adaki</w>
dispu tes</w>
değer inde</w>
devre dil
deter i
deplo yed</w>
day dı</w>
da ble</w>
concep t</w>
bel genin</w>
be k</w>
av lj
ar am
al ıyorlar</w>
al am
ac commo
Y il
V ir
Obra d
Lüb nan</w>
K um
Initi ative</w>
H er</w>
Dj ord
Dit ore</w>
D arko</w>
Croati ans</w>
Clu b</w>
Bağıms ız</w>
Administ ration</w>
İl gili</w>
ülk esine</w>
ükü m</w>
ör nek
z ak</w>
yatırımc ıların</w>
y umu</w>
y ası</w>
vur gul
un ded</w>
to m</w>
th ro
teşkil atı</w>
ter ed</w>
taraf tan</w>
respon d</w>
rak ibi</w>
plat form
pic ture</w>
ot os</w>
ord ine</w>
ol malı</w>
o di
mon opol
lear n</w>
lay ık</w>
kur mayı</w>
ko ordine</w>
kal ınt
kal may
işle yen</w>
istatisti k
investig ate</w>
hos ting</w>
hand le</w>
hal t</w>
h n
gerekç esiyle</w>
ev ska</w>
er tesi</w>
dü ler</w>
decis ive</w>
contro versy</w>
collabor ation</w>
car d</w>
c ked</w>
arkeolog lar</w>
alan lar</w>
ak tör
advan ced</w>
Wolf gang</w>
T a
Sil ay
Profes ör</w>
Pro eski</w>
PN L</w>
P lav
Nor veç</w>
Mahk eme</w>
Kovac evic</w>
Jov an</w>
Jan kovic</w>
Isla mist</w>
H os
Govern or</w>
Com munic
Car lo</w>
C r
Anton ela</w>
ılabil ecek</w>
çalış tığını</w>
v ic</w>
un ve
toplant ısına</w>
th reshold</w>
tati l
standart ların</w>
re ver
radi o</w>
r het
proj ede</w>
plan ladığı</w>
plan da</w>
pe oples</w>
on able</w>
od ak
n ci</w>
med yanın</w>
mac roeconomic</w>
lo ve</w>
kış kır
kul ü
il miş</w>
idi s</w>
h ır
gres sive</w>
ga gement</w>
fin dings</w>
fil min</w>
değ in</w>
dak ika</w>
cra ft</w>
cau tioned</w>
c overs</w>
bir th</w>
art ışı</w>
ak la</w>
U l
St atisti
Sil aj
R O
Nen ad</w>
In dia</w>
En ver</w>
D TP</w>
Cor ridor</w>
B in
B ah
4 ,000</w>
ıc ılık</w>
çocuk ları</w>
çek iş
çalış acak</w>
yatırım ları</w>
yaralan dı</w>
we igh
volun te
uç ak</w>
under mine</w>
taşımac ılık</w>
sürül dü</w>
sok ak</w>
siz in</w>
s .
reti yle</w>
pro of</w>
pen sion
parti lerinin</w>
oyn am
out going</w>
olay ın</w>
not unu</w>
mal iyeti</w>
ma tically</w>
karde ş
karar ları</w>
k ah
it enin</w>
invest or</w>
in iç</w>
il lu
if e</w>
h üküm</w>
güçlendir ilmesi</w>
gözlem c
gi recek</w>
ge ments</w>
fel low</w>
expen di
em ri</w>
eler inden</w>
düz gün</w>
do m</w>
c ılık</w>
büro kr
başla dığı</w>
ad j
Portug al</w>
Pet rescu</w>
Pap oulias</w>
K ing</w>
Indu stry</w>
F lor
İv ica</w>
İttifak a</w>
öncelik li</w>
çöz üle
zaman dan</w>
zam anın</w>
yol a</w>
yas ak</w>
tem per
t aban
sız ın</w>
subsi dies</w>
standart lara</w>
si bly</w>
sh op
ser gisi</w>
sağ lanan</w>
saldır ılar</w>
sahip leri</w>
sa has
s kills</w>
run s</w>
recor ded</w>
per haps</w>
near by</w>
n y</w>
m ızı</w>
lis tesinin</w>
kuvvet leri</w>
kend ini</w>
isola tion</w>
hosp itals</w>
heyet inin</w>
experi enced</w>
eler inde</w>
ege an</w>
devle te</w>
cust om
cor rupt</w>
cha mpionship</w>
aç abilir</w>
ayr ılık
at tri
ama da</w>
al ıp</w>
a us
Se çim
Ri j
Papadop oulos</w>
Pak tı</w>
L ip
Kra gu
Jan koviç</w>
Ili escu</w>
Er hard</w>
B I
A egean</w>
İvan oviç</w>
önem lisi</w>
yol lardan</w>
yatırım cı</w>
vo ice</w>
umuz u</w>
um p
turiz mi</w>
tri partite</w>
ther ine</w>
sun an</w>
su retiyle</w>
sh ap
sanay ii</w>
ruh sat
rec i</w>
re min
ra b
pros pect</w>
produc t</w>
por tion</w>
pay ments</w>
out put</w>
misyon un</w>
le um</w>
kilometre lik</w>
kararl ılığını</w>
it an</w>
ist er
in sufficient</w>
highligh ted</w>
haft alarda</w>
gi dil
g â
feasi bility</w>
dön dü</w>
du bbed</w>
din am
değ ildi</w>
derec elendirme</w>
defe ated</w>
ces i</w>
bölgeler inde</w>
bir liğinin</w>
be yaz</w>
bağımsız lığının</w>
bal l
azalt ma</w>
ay akta</w>
ar az
anlaş maları</w>
an ah
acağ ım</w>
Vec ern
Strate gic</w>
Si vil</w>
Ser ge</w>
L ut
Harek et</w>
Goo gle</w>
En viron
198 4</w>
1. 000</w>
şans ını</w>
ıl ıkları</w>
ı -</w>
ö riz
çatış ma</w>
yap ım</w>
visi ble</w>
uzlaş maya</w>
teşek kül
spec ulation</w>
some times</w>
ro ut
per ce
ov ica</w>
ol dular</w>
mo del
misyon unun</w>
min utes</w>
man age</w>
mahkeme yle</w>
ligh tly</w>
kan un
kalab alık</w>
kal an
iyileştir mek</w>
inc en
ilişkiler de</w>
hes ab
gru bunun</w>
girişim in</w>
fos ter</w>
ent al</w>
en cies</w>
dün yasında</w>
deb ts</w>
cor rec
con solid
cle an</w>
bir lik
belir siz
başlat ıldı</w>
ama ması</w>
Top l
Süley man</w>
Slov ak</w>
Palest inian</w>
Net work</w>
Miha j
Le ak
L at
Kam u</w>
I rak
Hin distan</w>
Haber leşme</w>
H uk
H 5
H5 N1</w>
Fra mework</w>
Bre zil
ü le</w>
çıkar ma</w>
ye mek</w>
yaz ılı</w>
yay ı</w>
yarat mak</w>
we ak</w>
wat ch</w>
war n</w>
w on
uyg un
un likely</w>
toplum lar</w>
toplant ıdan</w>
thir ds</w>
ter ing</w>
sin ema</w>
sa fe
s os
pr atik</w>
politikas ını</w>
ple dging</w>
organis ing</w>
off en
m ür
luğ unu</w>
kullan dı</w>
koalisyon unun</w>
kademe li</w>
j ail</w>
hol id
hak larına</w>
gidi ş
gi decek</w>
geç erek</w>
geliştir mek</w>
eyal etteki</w>
equ ality</w>
deste ğin</w>
der ly</w>
cu bic</w>
boy s</w>
bom b</w>
barri cades</w>
ay lar</w>
aspir ations</w>
ar ch
ann is</w>
activ ists</w>
a mayı</w>
Top lum</w>
Silay ciç</w>
Rec on
RT S</w>
Pri v
Mü steş
G ör
Fak ültesi</w>
Bur gaz</w>
1 .</w>
şaşır t
şark ı</w>
ın lar</w>
İr landa</w>
çek mek</w>
zirv esi</w>
yük sek
yol cu</w>
yok sun</w>
yaz ılım</w>
yar ısı</w>
yapt ılar</w>
y alan
ver gisi</w>
v is</w>
tık larını</w>
tüke ti
tutuk ladı</w>
tr en
th or
tedav i</w>
seçen ek</w>
re ş
rati fied</w>
rakam ın</w>
ra v
r it
pus hing</w>
proj esine</w>
politikas ının</w>
parlamento ya</w>
p ly</w>
p har
otoy ol</w>
origin ally</w>
om bud
man ship</w>
ma ch
lığ ıyla</w>
le gen
kurum lara</w>
kom ple
kaldır ma</w>
k ız</w>
ithal at</w>
ing ness</w>
hükümet le</w>
ge ted</w>
g ali
func tional</w>
el ler</w>
direc tors</w>
cor por
connec tions</w>
con ten
clas s</w>
champ ion</w>
bulun madığını</w>
benz eri</w>
attitu de</w>
at ıf
alın masını</w>
alar ca</w>
air e</w>
acqu ired</w>
Z latko</w>
V ele
Silaj dzic</w>
Leak ey</w>
Kragu j
Hıristi yan</w>
Her itage</w>
Fac ulty</w>
Di rek
D üz
Azer bay
Accor ds</w>
A 1</w>
Ş eff
ım la</w>
İnsan lar</w>
yas asını</w>
will ingness</w>
viz yon
ten s</w>
te ur</w>
su r</w>
sin e
simp le</w>
ro b
reser ves</w>
repor ting</w>
re gre
provisi onal</w>
profession als</w>
perpet r
passen gers</w>
os una</w>
on i</w>
olabil eceği</w>
objec tives</w>
o tel</w>
mak sızın</w>
ma tur
l ovic</w>
ken di
inten tion</w>
imzalan ması</w>
il gisi</w>
hava alan
h ac
görüş lerini</w>
gi u</w>
gel eni</w>
eğ it
ethn ic
er in</w>
ent re
elec tronic</w>
ekonom iyi</w>
dığ ımız</w>
dri ving</w>
down town</w>
destek li</w>
desi re</w>
declar e</w>
bütç esi</w>
birleş ik</w>
aç ığını</w>
anayas anın</w>
an lık</w>
an e</w>
U E
Str as
Sec ur
Pop ovski</w>
PA CE</w>
N a
Mü dür
Luk iç</w>
Li e
K O
I OC</w>
G rac
Don ald</w>
Dev let
Cul tural</w>
B ür
9 9</w>
8 8</w>
ülke yle</w>
örne ği</w>
öner isi</w>
önce likleri</w>
çözü mün</w>
Ül k
z burg</w>
yar ısında</w>
yan gın
wor d</w>
to bac
tobac co</w>
ti an</w>
taşı dığını</w>
tartış maya</w>
tan k</w>
sığın ma</w>
suç ların</w>
sugges ting</w>
speak er</w>
say dı</w>
sa ges</w>
rhet oric</w>
proce ed</w>
pro be</w>
prin t</w>
pos ts</w>
person eli</w>
onay lanan</w>
o red</w>
ni tele
müzaker ec
müz is
m its</w>
kullan ıyor</w>
komisyon un</w>
ke y
karşı lay
in je</w>
hükümet ler</w>
hakk ını</w>
güney indeki</w>
g ayr
fun ded</w>
fikr ini</w>
fail s</w>
entre pren
emer ging</w>
em bar
el ver
doğal gaz
defend ants</w>
contr ast</w>
conf is
compens ation</w>
başkan ının</w>
at y</w>
as h</w>
acqu it
T or
Silah lı</w>
Pro j
Pass y</w>
P res
Iv ana</w>
Iran ian</w>
I re
I o
Egy pt</w>
Do w
Den izi</w>
Bar ack</w>
1 80</w>
ım ından</w>
çalış ıyorlar</w>
ye me
yaklaş an</w>
y i
y ed
wat ers</w>
vatandaş lara</w>
u çağ
sun uldu</w>
ri val</w>
resig n</w>
re vol
re fin
rati fication</w>
on d</w>
milletvekil lerine</w>
magaz ine</w>
lo du
lodu y</w>
li mit
kışkır t
isti yorum</w>
getir erek</w>
ger eğ
ge mi</w>
füz e</w>
finan ced</w>
fi xed</w>
en on</w>
eler ce</w>
ege men</w>
diğ inden</w>
destek lenmesi</w>
dav aların</w>
da imi</w>
custom ers</w>
cont acts</w>
con ce
collec ted</w>
ci haz
c king</w>
bulun duğ
be half</w>
başla masından</w>
b ina</w>
b ai
atıf ta</w>
asker lerinin</w>
as tr
amaç lıyor</w>
abil iyor</w>
V uc
Seli maj</w>
Roc en</w>
Lab our</w>
L im
Koz loduy</w>
E sad</w>
Danim arka</w>
Char les</w>
Ca therine</w>
Azer bai
9 m</w>
7 1</w>
0. 000</w>
0 0
şeff af</w>
şark ıcı</w>
Şim şek</w>
Şeff aflık</w>
İs la
ö z</w>
çıkar larına</w>
zen gin
yoğun laş
wor ry</w>
vulner able</w>
u ca</w>
tut um</w>
tut tur
sürpri z</w>
stu dies</w>
sorun la</w>
ri ver</w>
rapor unu</w>
prepar ation</w>
polic emen</w>
pek iş
max imum</w>
ma makla</w>
li qu
lex i
karşı layan</w>
kalab al
kal dığını</w>
im kans
iliş ki</w>
he ar
gur ur</w>
gr at
fulfil led</w>
fi red</w>
fe el
ev et</w>
ek leri</w>
ec ho
düş man
dönem in</w>
dri ve</w>
doc tor</w>
dav ayı</w>
consider ation</w>
coast al</w>
cle ar
cel l</w>
baz ılarının</w>
az alma</w>
ay ak
au ti
ass ume</w>
as tery</w>
artır dı</w>
arri ve</w>
ar acı</w>
ail esi</w>
ag ers</w>
achiev ement</w>
Ts vet
T üz
Ru d
Phil ip</w>
Pak istan</w>
P M</w>
Mla den
L iz
Kri v
Kraguj evac</w>
Ko alis
K PC</w>
F ou
Den k
İttifak ı</w>
yas alara</w>
yar ım</w>
var dır</w>
var an</w>
tut mak</w>
te cr
tari he</w>
taraf ının</w>
su ic
puan la</w>
pol isinin</w>
op poses</w>
op e</w>
mov ies</w>
man tık
lu lar</w>
labor at
la dılar</w>
l ying</w>
kuruc usu</w>
kur ucu</w>
ken der</w>
j el
inten ds</w>
ing ent</w>
iddian a
i tem
hatır lat
görev lerini</w>
ge v
foun dation</w>
fin ish</w>
er ecek</w>
endiş elerini</w>
en gagement</w>
dy nam
doğ ur
din ar</w>
dig ital</w>
de m</w>
bil iyor</w>
belirlen miş</w>
S ın
S adi
Rij eka</w>
Ili r</w>
Grac an
Dnev ni</w>
C lar
Azerbay can</w>
öğrenc ilerin</w>
çıkar mak</w>
ç li</w>
z im</w>
y es</w>
transpar ent</w>
taleb inde</w>
sıral am
sy n
sun ulacak</w>
sol id</w>
sig orta</w>
sandal y
s n
risti an</w>
rela tives</w>
re tain</w>
pre vention</w>
parç alan
ord ers</w>
nite lendiren</w>
n u</w>
mü r</w>
kurum larını</w>
item s</w>
il ç
har ici</w>
geçer siz</w>
gelişim i</w>
fri end</w>
düzin elerce</w>
dra matic</w>
dev i</w>
de li</w>
crow d</w>
cou p</w>
bölüm ünü</w>
bur den</w>
bu ying</w>
biri ydi</w>
bi ç</w>
belge yi</w>
bakanlığ ına</w>
b at</w>
ar asına</w>
appear ance</w>
al located</w>
ad ap
abil is</w>
T im
Stras bourg</w>
Mil itary</w>
Ma x
Kur ti</w>
Ire land</w>
G ent</w>
For umu</w>
Dr .</w>
D abilis</w>
Büyükelç i</w>
B is
Ass istant</w>
Air ways</w>
3 0,000</w>
önce likle</w>
çık acak</w>
tur istler</w>
ter ler</w>
tehdi di</w>
tar geted</w>
sü z</w>
sym bol</w>
suç un</w>
ste m
sad ık</w>
respon ded</w>
politik aları</w>
otur um</w>
oper a</w>
mecl isi</w>
me lerinin</w>
m iyorum</w>
les cu</w>
kuzey de</w>
kul laku</w>
kay ıp
kan alı</w>
j azz</w>
inv esting</w>
inter ven
inan ıyorlar</w>
ho p</w>
h ec
gün eş</w>
geçir mek</w>
gazetec ilerin</w>
fon lar</w>
facil it
f an
ex tra
ex ists</w>
en om
dağıt ım</w>
con grat
chur ches</w>
cate gor
bölges inin</w>
broad cast</w>
berab er
beklen diği</w>
başla dığını</w>
b ru
b es</w>
b alan
açıkla masına</w>
attr acted</w>
ar da</w>
ap s</w>
announ ce</w>
ad ıyla</w>
W e</w>
Sim sek</w>
Sch ool</w>
P ic
Oper a</w>
Lis bon</w>
Kr al
K a
J ag
Fil ip
ES M</w>
Bil gi</w>
9 6</w>
1, 500</w>
İkti dar</w>
üy ü</w>
ür ün</w>
çağır an</w>
z ih
z ede
yapıl anma</w>
tre as
toplan an</w>
ten is</w>
st a
sorumlul uğu</w>
sor una</w>
sor s</w>
sol idarity</w>
sektör ünü</w>
se em</w>
scen ar
sal t</w>
sah ası</w>
ren owned</w>
regist ration</w>
prof its</w>
peti tion</w>
olmas a</w>
objec tions</w>
mücade lenin</w>
memur ları</w>
m ly</w>
law yers</w>
langu ages</w>
kil o</w>
katılım ını</w>
karar da</w>
is o
im iyle</w>
ild t</w>
ga mes</w>
foreig ners</w>
fizik sel</w>
fiy atı</w>
ex cell
excell ent</w>
ev al</w>
et ler</w>
eleştiril ere</w>
ebe v
dör t
dur uldu</w>
def end</w>
chan nel</w>
bri ef</w>
bo ğ
birey sel</w>
ben ik</w>
basın ında</w>
ba h</w>
az al
ayol ları</w>
asyon un</w>
archae ological</w>
ama dığı</w>
alan daki</w>
al ev
adi s</w>
Tiyat rosu</w>
Si benik</w>
SN S</w>
Re form
Nik olay</w>
Nes ovski</w>
M ey
Leh ne</w>
Leban on</w>
Fut ure</w>
Fou ere</w>
E ide</w>
C ristian</w>
Bo ok</w>
Bay ra
B ildt</w>
200 m</w>
ıl mıştı</w>
üyeler ini</w>
çıkar dılar</w>
ç ilik</w>
Ü ye
ver sion</w>
uygula mak</w>
uncer tain
tartış malara</w>
sür mesi</w>
si vely</w>
seviy esine</w>
sektör ün</w>
saat lik</w>
preced ented</w>
postpon ed</w>
pol ise</w>
oy unu</w>
okul a</w>
newsp apers</w>
mal ların</w>
ler imizi</w>
le si</w>
lat ter</w>
las ting</w>
lar ımızı</w>
kurum un</w>
kurul masına</w>
konfer ansı</w>
iş ti</w>
iş areti</w>
is iç</w>
ir siniz</w>
hayat ta</w>
hay at</w>
görül memiş</w>
ge o
focus ing</w>
fal ls</w>
f lexi
en lere</w>
dük leri</w>
d ün</w>
bur aya</w>
big ger</w>
ben ch
baş savcı</w>
arabuluc uluk</w>
al co
agnos top
adım ları</w>
Vel chev</w>
Sh kullaku</w>
R ek
On line</w>
N A
Ho x
Direc torate</w>
Da ha</w>
Bor islav</w>
An agnostop
şart ların</w>
şar ap</w>
şampiy onu</w>
ış ığında</w>
Çer çeve</w>
yaz ık</w>
un anim
than ks</w>
te sts</w>
sici ans</w>
sh ut</w>
seek ers</w>
sco red</w>
pre mi
pr ol
pol lu
olabil ecek</w>
n ic
n ect</w>
meş ru</w>
medi cine</w>
mas ız</w>
li can</w>
la ki</w>
kon ması</w>
kom itesi</w>
iş li</w>
iş lenmiş</w>
il legally</w>
govern mental</w>
g as
fra g
fel t</w>
fak tör
etkiley en</w>
esk iden</w>
emer ged</w>
cust ody</w>
consul tations</w>
caz ip</w>
bulun uldu</w>
baz en</w>
ba har</w>
aş ağı</w>
an ne</w>
al mıştı</w>
Wo men</w>
T ose</w>
Rama z
Pop e</w>
Liz bon</w>
J usuf</w>
Hil lary</w>
Hav a
Fit ch</w>
B A</w>
İn ş
İddi an
çıkar ılan</w>
çıkar ları</w>
çoğunluğ unun</w>
yükse len</w>
yas ada</w>
veter an</w>
ven ture</w>
val u
un rest</w>
u f
tut an</w>
tamam ı</w>
sürdür ülen</w>
sensi tive</w>
secon dary</w>
requ ests</w>
rapor una</w>
rap id</w>
rak ip</w>
qu es</w>
qu ali
p iskop
negoti ate</w>
n ings</w>
mil k</w>
le ts</w>
la t</w>
kurum u</w>
konus unu</w>
kazan ç</w>
k ör
identi fy</w>
hızlandır ma</w>
holid ays</w>
hep imiz</w>
ha da</w>
ex ac
düşün ce</w>
duk larını</w>
den ges
co ğ
cha in</w>
cas h</w>
cal m</w>
c af
bomb alı</w>
bla me</w>
basket ball</w>
bank anın</w>
ban kalar</w>
associ ations</w>
artır maya</w>
ak rab
air craft</w>
Z enica</w>
V il
Teşkil atı</w>
S ah
N ok
M om
Lati n</w>
En tegr
D ağı</w>
Cathol ic</w>
Av az</w>
A l</w>
1 60</w>
İ vanov</w>
çıkmaz a</w>
yıld ızı</w>
yer lerinden</w>
yaşan ıyor</w>
war ns</w>
vur ul
ur i</w>
un precedented</w>
ti ca</w>
thin ks</w>
testi mon
te en</w>
tal ima
suçla malar</w>
str ongest</w>
st ro
six th</w>
si t</w>
savun du</w>
ris ki</w>
ra ted</w>
r atings</w>
proper ties</w>
preser ve</w>
nihay et</w>
ne h
nak il</w>
mücade les
mektu p</w>
m o</w>
lim its</w>
lik op
li am</w>
kend ine</w>
k im</w>
imzal adığı</w>
ihtiyac ımız</w>
ic es</w>
he p</w>
h ız</w>
gündem inde</w>
gün üne</w>
göster ildi</w>
fiz ibilite</w>
f eld</w>
exc av
ev ening</w>
e es</w>
e a</w>
dikkat li</w>
ca ught</w>
c üsü</w>
bi yle</w>
b ini</w>
ayr ılan</w>
an ia</w>
W i
W at
Pi erre</w>
P ula</w>
Mar i
M ev
M ek
L ar
J and
G ele
F is
A S</w>
0 .</w>
ön görüyor</w>
zul üm
zaman la</w>
w ine</w>
tra ined</w>
t ay
so und</w>
resear chers</w>
regula tion</w>
program ları</w>
p eki</w>
ob tained</w>
nur ses</w>
mas a</w>
lük teki</w>
karar lar</w>
isim li</w>
hükümet inden</w>
harcam aları</w>
haf taki</w>
ge mil
edeceğ iz</w>
e grad</w>
depre m</w>
d at
conduc ting</w>
centur ies</w>
begin s</w>
bas es</w>
aç ılacak</w>
at ured</w>
as ion</w>
V ek
UD F</w>
Tre aty</w>
Sci ences</w>
Sch o
SA F</w>
Nor way</w>
Mal ta</w>
L eg
Koste liç</w>
Gord on</w>
D E
Con gress</w>
Al ina</w>
ş ub
İm parator
ğ inden</w>
ülkeler deki</w>
önces ine</w>
çab aların</w>
tur da</w>
tal i
suik as
statüs ünün</w>
si de
shar ing</w>
sav ings</w>
s lightly</w>
s ke</w>
reflec ts</w>
redde diyor</w>
ra p</w>
ra fin
pur poses</w>
psy ch
proj elerin</w>
profes örü</w>
pop ular
per cep
or du
mü dür</w>
mon uments</w>
mes sages</w>
mak in
ma tely</w>
k ür
k las
jan ovski</w>
iş lerini</w>
itti fak
infor med</w>
i -</w>
hon oured</w>
hi on</w>
güven i</w>
gu ests</w>
fe atured</w>
eylem leri</w>
electri c</w>
eksik siz</w>
e der</w>
dön en</w>
duy duğunu</w>
destek lenen</w>
contr ary</w>
cin sel</w>
cer ti
carri er</w>
capac ities</w>
bölüm ünde</w>
break ing</w>
bire r</w>
bir inc
bel ges
anlaş mayla</w>
ame de</w>
Tah iri</w>
T ol
Sand zak</w>
O S
Mar ty</w>
Luk ic</w>
Kal fin</w>
Im ple
Ex ecu
E f
Den iz</w>
8 6</w>
6 ,000</w>
İsla mi</w>
ç ete
zanl ılarını</w>
ug hter</w>
tü tün</w>
tab i</w>
suç a</w>
sonuç landı</w>
santr al</w>
rebel s</w>
ra g</w>
protesto lar</w>
program ının</w>
p act</w>
on ayı</w>
müzakereler inde</w>
mücadele yi</w>
merkez inin</w>
me yle</w>
luğ un</w>
ler imiz</w>
legiti mate</w>
le tin</w>
kurban ların</w>
ko dra</w>
karş ıt
kapasi tesini</w>
k anı</w>
join tly</w>
j o</w>
is yan
inaugur ated</w>
inan ılan</w>
il li</w>
i deal</w>
ho l</w>
he likop
h ü
gör üyorlar</w>
geçir diği</w>
gerçekleştiril di</w>
f ine</w>
et le</w>
erk ek
do zen</w>
compla ints</w>
compet ing</w>
comp ly</w>
comp liance</w>
celebr ations</w>
b lack</w>
anket ler</w>
advo c
ab sor
Z ir
Y ves</w>
UE FA</w>
T ak
Stef an
Secur itate</w>
S on</w>
N MS</w>
M av
L et
Katol ik</w>
I SAF</w>
Gracan ica</w>
F ar
Execu tive</w>
Direk törü</w>
C ris
Bran islav</w>
B ec
AR M</w>
ım da</w>
üb ü</w>
wel comes</w>
vil e
ver irken</w>
tuğ unu</w>
teklif i</w>
te or
takım ının</w>
st aged</w>
shar p</w>
seçim lerinden</w>
ser vis
s ki
s cul
rene wed</w>
re infor
pro hibi
prison ers</w>
pri vile
pos sibilities</w>
ph enom
oyla mada</w>
nomin ated</w>
nite lik
mü hendis
me liyiz</w>
mahk um
m iz</w>
lul uğu</w>
kıy ısındaki</w>
koru maya</w>
kapsam ındaki</w>
k imi</w>
iş adamı</w>
iri m</w>
influ ential</w>
il kes
hükümet ten</w>
hec tar
hap is
haber de</w>
ha c</w>
gözlem ci</w>
getir ilen</w>
gen der</w>
g ging</w>
fabri kası</w>
every body</w>
etraf ında</w>
et tir
er t</w>
envisi oned</w>
düzenle yen</w>
duy uyor</w>
diğ im</w>
discus sing</w>
diplomat lar</w>
cin si
campaig ns</w>
bul g
bo un
başkanlığ ına</w>
bakanlığ ın</w>
açık landı</w>
appre ci
ama ç</w>
Z uk
Su lej
S om
S lj
Rom e</w>
Pol t</w>
Pal ace</w>
Moldov an</w>
Luk oil</w>
Konfer ansı</w>
F ir
Ex press</w>
D an</w>
Bud va</w>
B ot
As sad</w>
şirket lerinin</w>
ıc ısı</w>
İ dar
özgürlüğ ünü</w>
Öz el
yükse li
uzak laştır
ul ts</w>
titu tion</w>
teşekkül lü</w>
ter öriz
tem sil
sw im
su res</w>
sti l</w>
spor cu</w>
si j
shi ft</w>
shar ply</w>
sa bah</w>
s lo
ru m</w>
re bilir</w>
program da</w>
pazar ı</w>
oluştur mak</w>
ne li
m ik</w>
lic op
ler dir</w>
ko lek
kasab ası</w>
kal acağını</w>
j ed
inan ıyoruz</w>
iler inde</w>
her kes
has ta</w>
h ı</w>
güdü m
git mek</w>
gir mek</w>
gi rebil
gel ere</w>
fiyat lar</w>
ev ol
en tar
eler le</w>
doub ts</w>
di ja</w>
aç tığını</w>
azalt ılması</w>
ay ar
attac ked</w>
ation alist</w>
as sa
arran gements</w>
adver ti
ac him</w>
V latko</w>
Tal eski</w>
Pro cess</w>
P D</w>
N er
Meto hija</w>
Kaz ak
K ız
Est onya</w>
Co alition</w>
B ü
A M
3. 5</w>
ıc ak
ümüz de</w>
ü s</w>
z i
z ab
yar al
y l
x es</w>
week ly</w>
ver mişti</w>
uk an
trans formation</w>
tr ends</w>
tor ies</w>
tiv ity</w>
tan ın</w>
t üş
sun mak</w>
st ak
s la
s cep
ri c</w>
program ını</w>
present ing</w>
perpetr ators</w>
out standing</w>
opin ions</w>
oper atör
on to</w>
ne fre
mo bil
mey iz</w>
mesele yi</w>
merkez iyet</w>
me bla
makam ların</w>
m leri</w>
lüğ ünün</w>
kullan mak</w>
kon sol
kom ite</w>
kategor isinde</w>
investig ators</w>
investig ated</w>
he licop
hav alim
gre w</w>
ga ther</w>
fol lows</w>
finans manı</w>
fi ili</w>
f led</w>
eng aged</w>
employ ers</w>
edec ektir</w>
durum larda</w>
dra wing</w>
diyalo ğu</w>
der ken</w>
da hi</w>
cumhurbaşkanlığ ının</w>
büyü meyi</w>
bir d</w>
bi a</w>
benim se
başla dılar</w>
aç mayı</w>
ann es</w>
al ling</w>
Uygula ma</w>
Ter ziç</w>
Pol ish</w>
Papadop ulos</w>
O k
O M
Nor thern</w>
N S</w>
L ul
K uc
J el
E s
D I</w>
Bla go
Ar ticle</w>
200 ,000</w>
yıld ız
uygulan acak</w>
ular ın</w>
ti gh
suç larıyla</w>
suç larla</w>
santral inin</w>
s feld</w>
ri f
respec tive</w>
real ise</w>
r on</w>
perfor mers</w>
p al
medi k</w>
med yas
luğ unda</w>
koordin atörü</w>
karş ıl
işle m</w>
iz min</w>
iz el
inti har</w>
inan ılıyor</w>
in ski</w>
in os</w>
ha te
guarante ed</w>
gr an
gerçekleştiril ecek</w>
g ah
for um
fin ds</w>
et leri</w>
em r
e deki</w>
dığ ının</w>
dri vers</w>
değer li</w>
devlet inin</w>
defe at</w>
d anoviç</w>
conf ron
comp uters</w>
c le</w>
blo k
benz in</w>
bağ layan</w>
barri ers</w>
ay larında</w>
attr active</w>
asker lerin</w>
ar ch</w>
an ovo</w>
am ended</w>
a to</w>
Z u
Tray kovski</w>
Tan ja</w>
Ste el</w>
Parti sinin</w>
M ot
Ko ci</w>
Jo hn
Jo achim</w>
Jan kul
Irak lı</w>
Gü ç
FI FA</w>
Ben edi
Bar an</w>
BN N</w>
Al kal
12 .
üy ordu</w>
çık tığı</w>
çık ma</w>
yol un</w>
yen lerin</w>
y el
w hate
whate ver</w>
upgra de</w>
tör eni</w>
trig gered</w>
tre ated</w>
ti rebil
speak s</w>
signific ance</w>
sahip ler</w>
s it
re y</w>
proj ected</w>
pos sibly</w>
or man</w>
or al</w>
metre kar
mas aya</w>
m de</w>
lu ğun
lider in</w>
legisla ture</w>
la cks</w>
kon an</w>
kapsay acak</w>
istif asını</w>
ir di</w>
har m</w>
göz ardı</w>
görüy oruz</w>
gelir leri</w>
fon ları</w>
etkin liğin</w>
eler den</w>
değerlendir mek</w>
cl ass
bölge den</w>
br ary</w>
bildiril diğine</w>
bağ lamda</w>
balt al
b y
affor d</w>
ac he</w>
Ter zic</w>
T E</w>
Roman o</w>
P li
Mo bil
J ones</w>
I lic</w>
H alk
Fon iki</w>
Er menistan</w>
ES S</w>
Cri me</w>
Ci vil</w>
B uk
B lan
A tan
9 7</w>
3, 5</w>
ıs rar
ım dan</w>
ılan ma</w>
öner iyi</w>
öldür ülmesi</w>
çek me</w>
çab alarında</w>
yerleş tiril
w alk
w .
u tely</w>
thu si
ter sine</w>
tedar ik
tanın ması</w>
su gar</w>
siz ed</w>
siyas ileri</w>
si tesinde</w>
savc ıları</w>
rep ut
reli ef</w>
questi oned</w>
pro cu
olay da</w>
mültec ilerin</w>
lu x
lik lerin</w>
la id</w>
kaydetti ğini</w>
kat ılabil
izel os</w>
il ler</w>
il da</w>
ha ven</w>
güc üne</w>
görev leri</w>
gergin lik</w>
fulfil ling</w>
ev ac
em is
ef s</w>
econom ists</w>
değil ler</w>
değ eri</w>
dest inations</w>
deneti mi</w>
d or
contribut ing</w>
consu mer</w>
cham ber</w>
cal an</w>
ca using</w>
behavi our</w>
baş bakanlık</w>
bağlant ısı</w>
auti ful</w>
ath on</w>
at ması</w>
art masına</w>
arri val</w>
apart ment</w>
accomp lis
Yolsuz lukla</w>
Vo ice</w>
Ven izelos</w>
Tar ım</w>
Sr djan</w>
S nez
S O</w>
Rama danovic</w>
L ake</w>
H O</w>
F üle</w>
E t
E ge</w>
Dan il
D C</w>
Con stan
C lau
Böl ge</w>
Bir likle</w>
Ber n
8 7</w>
. h
ön görülen</w>
ölüm c
yar attığı</w>
ulti mately</w>
tı p
tüm ü</w>
toplum ların</w>
ti st</w>
tem iz</w>
tarih lerinde</w>
st yle</w>
siyas ete</w>
sak in</w>
s ıcak
ro polis</w>
produc ing</w>
potansiy eli</w>
param il
out lined</w>
ot ori
olma dığına</w>
mücadele ye</w>
mur ders</w>
monopol y</w>
merkez indeki</w>
malar ıyla</w>
lük s</w>
lin king</w>
lan ce</w>
kredis i</w>
kazan ması</w>
k ula
iş g
ist asyon
inclu sion</w>
far m</w>
f ile</w>
exten sion</w>
er k</w>
den k</w>
defin itely</w>
de le
day ız</w>
da dır</w>
comp on
ble s
biti ous</w>
başvur u</w>
başlat tığı</w>
başla masını</w>
b ars</w>
aş ağ
arg uments</w>
am bitious</w>
S ing
Rum sfeld</w>
Pro ject</w>
Pap a</w>
P TK</w>
M ESS</w>
Jon ilda</w>
Ar med</w>
üye liğe</w>
çocuk lara</w>
yas asının</w>
wor ried</w>
w able</w>
vic tim</w>
v ation</w>
ty pes</w>
tur mo
turmo il</w>
ti len</w>
tec av
tan e
tah sis</w>
suffer ing</w>
streng th</w>
st e</w>
situ ations</w>
seviy esi</w>
resi m</w>
pres sing</w>
plas tic</w>
parti al</w>
oper ators</w>
od rag</w>
monit ors</w>
matur ity</w>
laborat u
l ong
komple k
kapasi tesine</w>
kapasi tesi</w>
kaldır mak</w>
ist leri</w>
investig ating</w>
hedef inin</w>
görüş tüler</w>
ger y</w>
geli p</w>
fro zen</w>
expan ded</w>
exhibi tions</w>
etti k
en thusi
düzel t
durum unun</w>
dij ital</w>
di visions</w>
demonstr ations</w>
dai res
d den</w>
credi bility</w>
continu ation</w>
collec t</w>
c m</w>
business man</w>
bi yol
bas it</w>
b ık
at ın</w>
as ov</w>
alan larındaki</w>
activ ely</w>
Z arko</w>
Yah udi</w>
V ran
S ancak</w>
S M
Recon struction</w>
Ramaz anoviç</w>
Petro leum</w>
Pat ten</w>
Oper ation</w>
Mis ko</w>
Mi odrag</w>
M SK</w>
Li thu
J ansa</w>
Bes a</w>
Araştır malar</w>
4. 5</w>
1. 2</w>
ım ları</w>
ım cı</w>
ıc ılar</w>
ç iğ
yaz ısında</w>
uç ur
uz anan</w>
ut en
usulsüz lük
tur istlerin</w>
threat ening</w>
temsilc ilerinin</w>
tal ya</w>
specif ically</w>
scul p
s log
s eri</w>
ro kas
reta il</w>
restaur ants</w>
res istance</w>
pro ud</w>
on el</w>
moderni ze</w>
men tary</w>
main tained</w>
le mi</w>
l un
kural ları</w>
kon udaki</w>
kesim indeki</w>
katılımc ıların</w>
kap ısı</w>
intro ducing</w>
immig ration</w>
imkans ız</w>
har ika</w>
görüş ü</w>
fon ların</w>
extra ordinary</w>
ethn ically</w>
elver işli</w>
econom ics</w>
dur gun
davran ış
dam g
cr ack
contr ols</w>
con nect</w>
ce u
büyükelç isi</w>
broadcas ting</w>
bla med</w>
bin ası</w>
bekli yorlar</w>
başla masına</w>
başar ıyla</w>
ati vely</w>
ajans ının</w>
acceler ate</w>
Y aş
W es
T z
Sim iç</w>
Sadi ku</w>
Pli va</w>
Ne z
Mi hai</w>
M ati
J ar
In de
Gal lery</w>
G un
G el
Djok ovic</w>
D am
B ill</w>
5 50</w>
şey den</w>
ıs ın
ül dü</w>
üc ker</w>
ölümc ül</w>
öde mek</w>
yöneti min</w>
wi der</w>
w rest
unc lear</w>
un d
umu d
tro ika</w>
tin y</w>
technolo gies</w>
tarih ine</w>
tah mini</w>
survi ve</w>
super vised</w>
suik ast</w>
siyaset çiler</w>
sen i</w>
reform unun</w>
reform larını</w>
present ation</w>
plan es</w>
par ayı</w>
olma z</w>
ok u
mig rants</w>
me den
me at</w>
ma mak</w>
ma ceu
m ists</w>
lili ğini</w>
len g
kâ r
kullan maya</w>
kullan dığı</w>
kap as
işlet me</w>
in e
hedef lerini</w>
girişim leri</w>
gir ls</w>
gec esi</w>
fe es</w>
fa ult</w>
et mekten</w>
ekonom isini</w>
ede biyat</w>
ec es</w>
döne me</w>
cont ingent</w>
ayr ılmış</w>
alın dığı</w>
air ports</w>
Yunanl ılar</w>
W ar
T O</w>
Spiri ç</w>
Shan tek</w>
Ser best</w>
Repub lican</w>
R ücker</w>
R ak
R C</w>
Par k</w>
M eg
L an
Kum anovo</w>
Kad are</w>
Hav a</w>
H is
H aciç</w>
Ey lem</w>
E di
Boris sov</w>
Arnavut ça</w>
Andri ja</w>
An talya</w>
9 3</w>
8 .</w>
şidde te</w>
ş ans</w>
öğrenc isi</w>
örgüt ler</w>
ödül ünün</w>
çık mak</w>
çalış ırken</w>
z ones</w>
yu kar
yargı ç</w>
yans ı
var lığı</w>
tıp kı</w>
tutar ında</w>
teh like</w>
tas lak</w>
t asked</w>
suic ide</w>
succe eded</w>
stric t</w>
stand by</w>
stal led</w>
st ore</w>
sonuç ların</w>
son undan</w>
sağla mayı</w>
savc ıların</w>
sanat çılar</w>
re va</w>
re member</w>
proces sing</w>
pro motion</w>
pre condition</w>
plan landığı</w>
pat lama</w>
pat lak</w>
parti tion</w>
overha ul</w>
or man
ol der</w>
o tic</w>
negoti ator</w>
multi ple</w>
milit ants</w>
makam lar</w>
kır mızı</w>
kriz le</w>
ke ep
kaynak larını</w>
katılım ının</w>
k uv
ira de</w>
in se</w>
imp lic
ilişkil ere</w>
ihtiyat lı</w>
if ying</w>
i ei</w>
his se</w>
gerek tir
genel likle</w>
gain s</w>
g lob
fla gs</w>
fir maları</w>
f ying</w>
ev lerine</w>
es cal
entrepren eur
enjoy ed</w>
edu cated</w>
econom ically</w>
cumhurbaşkan ları</w>
chair manship</w>
ch ose</w>
belir lenmesi</w>
aç mak</w>
aç acağını</w>
ar ıyor</w>
alco hol</w>
ak tör</w>
W HO</w>
Vla h
Vele s</w>
Topal li</w>
T rak
S mil
R ol
Nok ia</w>
L ou
Koste lic</w>
Kom siç</w>
Jand ro
Hol landalı</w>
G he
Fran k
F DI</w>
Den mark</w>
Bu gün</w>
9 1</w>
1, 2</w>
ış ını</w>
İ kili</w>
çalış ıyoruz</w>
ç elik</w>
yönetic isi</w>
y ük</w>
us tin</w>
ul tran
tığ ına</w>
tu ğu</w>
sürdür mek</w>
sür üyorlar</w>
stru ck</w>
seçim i</w>
sec ured</w>
s mo
rec ru
po o
pe di
ok uy
nüfus a</w>
nite likte</w>
mü te
mpion ships</w>
minist erial</w>
mac ılar</w>
lendirec ek</w>
l ist
kredi yi</w>
kaybe den</w>
karak ter
kalmay ıp</w>
jur y</w>
iş len
in struc
imaj ını</w>
ik isinin</w>
hazır lık
güç lerin</w>
görü le
gra ve</w>
gi ous</w>
ger iye</w>
ger isinde</w>
gel mesini</w>
fir mly</w>
fir manın</w>
fe wer</w>
fark la</w>
fal ling</w>
f ish</w>
eğ er</w>
expla in</w>
ehol ds</w>
e ast</w>
düzey indeki</w>
cover age</w>
comp lic
chan n
bul maya</w>
boz ul
bomb ings</w>
anlaş maların</w>
aff ecting</w>
ad d</w>
Z or
Var na</w>
V ati
V a
Si bi
Scot sman</w>
S up
S ev
O v
Mil ut
MO L</w>
Imple mentation</w>
Has an</w>
H us
Genç lik</w>
Eur ost
E van
D OS</w>
Col in</w>
Clar k</w>
Cap ital</w>
Bur gas</w>
Brezil ya</w>
Bog danoviç</w>
Anatol ian</w>
A gr
4 0,000</w>
şim d
ülkeler iyle</w>
öğret men</w>
çev ril
ç uk</w>
yurt dışındaki</w>
yurt dışına</w>
yatırımc ılara</w>
yal ar</w>
ver iler</w>
us ual</w>
ulus lu</w>
tören le</w>
top ladı</w>
taş ım
tarih ini</w>
takım ın</w>
success or</w>
sto red</w>
sağla dığını</w>
recei ves</w>
propos e</w>
phy sical</w>
normal e</w>
man i</w>
kuvvet lerinin</w>
kurul muş</w>
konferans ında</w>
kap s
kal maya</w>
kal mak</w>
k up
k esi</w>
jur is
jin al</w>
is ki</w>
is ic</w>
in sp
in no
in izi</w>
i van
hus band</w>
hous eholds</w>
hel ps</w>
hay van
güçlendir mek</w>
gönder me</w>
g ation</w>
fre edoms</w>
flo o
finans al</w>
feder ation</w>
f low</w>
extre me</w>
evac u
eng age</w>
el ini</w>
el derly</w>
earthqu ake</w>
duy dukları</w>
devam ı</w>
d ro</w>
co ca
coca ine</w>
ch ner</w>
c ari</w>
boy u</w>
blo w</w>
blo od</w>
blo g</w>
başla mak</w>
ay ının</w>
attri bu
at ıyor</w>
artır acak</w>
am bar
alın dığını</w>
adem os</w>
Z il
Yap ılanma</w>
Ste ph
Seli may</w>
Sav c
S qu
Pap ademos</w>
Kr sti
Kom ün
K ü
K ristina</w>
K ing
Jos ip</w>
Hristof yas</w>
D aci</w>
Bar bu</w>
B ou
4 .</w>
1 70</w>
.h r</w>
öne me</w>
önce liği</w>
çök üş
yıldönüm ünü</w>
yer lerde</w>
yaş lı</w>
yatırım ın</w>
yarat ıyor</w>
yap arken</w>
x ing</w>
viola ted</w>
ve çli</w>
us h
un sur</w>
teac her</w>
tartış mak</w>
sık ış
sıf ır</w>
sürdür ülmesi</w>
sun acak</w>
st ag
sou theastern</w>
s ke
rest ing</w>
re ci
pro vision</w>
pre de
peraken de</w>
per s
penal ties</w>
ov ei</w>
of isi</w>
mus unuz</w>
medi klerini</w>
me l
loc ate</w>
lif ting</w>
lar ımızın</w>
kr al
konum unu</w>
koalisyon un</w>
kesinti leri</w>
karış ık
iş ver
ivan canin</w>
is n</w>
is mi</w>
iktidar da</w>
h ev
güven ini</w>
göster ilen</w>
görüş lü</w>
geti rebil
et mesinden</w>
eli ş
ec ker</w>
e ties</w>
düzenlen mesi</w>
düzen i</w>
düny aya</w>
du var
du ces</w>
cap it
ca z</w>
başlat mak</w>
auth ors</w>
ati s</w>
an ist</w>
al ıyordu</w>
al makla</w>
Vis egrad</w>
Vass il
Tele vision</w>
St at
Sam ard
Pow er</w>
Müsteş arı</w>
M ile</w>
M el
L ov
Kovac eviç</w>
K un
Jos ep
H ü
H at
F ederal</w>
Di Carlo</w>
4 ,5</w>
üm r
ziy ade</w>
ye tecek</w>
yatırım ların</w>
yapıl ıyor</w>
wr ite</w>
vari ety</w>
tro y
testimon y</w>
tak dir</w>
t ina</w>
sü t</w>
sub j
stal e
si fied</w>
savun uyorlar</w>
sar f
rev ski</w>
rakam lar</w>
propag anda</w>
or ts</w>
olo g</w>
ol malıdır</w>
obvi ous</w>
n alı</w>
moun tain</w>
men fa
medi cs</w>
man aging</w>
mahkeme de</w>
kö tü
kullan ılması</w>
koy duğu</w>
kon uya</w>
komş uluk</w>
kes imi</w>
kazan mak</w>
kav ram
katılım ın</w>
k ağ
itibar iyle</w>
intellectu als</w>
indic ate</w>
hükümet leri</w>
hat a</w>
happen s</w>
gel in
fulf ill</w>
fre ely</w>
fin es</w>
fin alised</w>
fil es</w>
eur oya</w>
ekonom iye</w>
düzenle y
doğ umlu</w>
con gress</w>
c utting</w>
bure au
bulun uyorlar</w>
be autiful</w>
ağ ına</w>
ağ aç</w>
at öl
appar ent</w>
anal isti</w>
al om</w>
ac hing</w>
Zdrav ko</w>
Z adar</w>
Trans par
Sulej man</w>
Strate jik</w>
Sibi u</w>
P ir
Montenegr ins</w>
Mit reva</w>
L ag
Kraj ina</w>
Kom sic</w>
K ır
IC C</w>
F a
E V
Can adi
Bog danovic</w>
Azerbai jan</w>
Au th
At om
Armen ia</w>
A E</w>
7 9</w>
2 40</w>
şimd ilerde</w>
şeff aflık</w>
ş air</w>
öl dü</w>
Ç inli</w>
zirve ye</w>
zer o</w>
z z
z at</w>
yaşam ını</w>
yard ıma</w>
withdra wal</w>
var lık</w>
uyar ı</w>
ulacağ ını</w>
ul u
ti ed</w>
ther mal</w>
tep kil
tavsi ye
tah sil
sürec indeki</w>
suç larından</w>
stale mate</w>
sp lan
short ages</w>
say ısız</w>
safe guard</w>
s ake</w>
ra y</w>
pursu e</w>
par k
organiz atör
olay larının</w>
obser ved</w>
nation als</w>
müz e</w>
mun ition</w>
muad ili</w>
men ler</w>
may ors</w>
mahke mesinde</w>
lo s</w>
las ted</w>
l on</w>
kontrol ünü</w>
karış tır
kar g
istatisti k</w>
hoşgör ü</w>
ho ş</w>
hedef leyen</w>
get ing</w>
g ı</w>
fol kl
expec ting</w>
expan ding</w>
exhibi t</w>
engel lemek</w>
ekib inin</w>
edece ğine</w>
docum entation</w>
der nek
demonstr ation</w>
deep ly</w>
da ir
credi ts</w>
crack down</w>
clu bs</w>
categor ies</w>
bölüm ünün</w>
bulun ma</w>
bro ader</w>
bildiri yor</w>
bi ç
ber aat</w>
att or
at ür
at ör</w>
at maya</w>
arke oloji</w>
altın cı</w>
aday ları</w>
aday lar</w>
Y ov
Transpar ency</w>
Tra v
T op</w>
Sou theastern</w>
R od
P D
O DI
Mar ian</w>
K av
Inter pol</w>
B ay</w>
ımız da</w>
ıl masından</w>
özel leştirilmesi</w>
çek ildi</w>
yenilen ebilir</w>
yenil ik
yap maları</w>
y iti
wel fare</w>
we alth</w>
unsur u</w>
under taken</w>
tüğ ünü</w>
tören e</w>
tut umu</w>
t orlar</w>
süb vansiyon
söyle yebil
statüs üne</w>
re m</w>
rad yo</w>
ra fi</w>
pra g
pi eces</w>
ort aç
ol dest</w>
ok oviç</w>
nes ty</w>
maaş ları</w>
leg acy</w>
kuruluş unun</w>
kur ş
kolay ca</w>
j evo</w>
iş siz
iso ara</w>
injur ies</w>
hükümet lerin</w>
hectar es</w>
gör me</w>
geç tiğini</w>
gerekti ren</w>
gerek sin
g uluyor</w>
finan ci
ez ici</w>
ex tent</w>
ex it</w>
ex cessive</w>
ev lat</w>
eti yle</w>
en cla
ec tions</w>
ebev eyn
duy la</w>
dolay lı</w>
docum entary</w>
dis appointment</w>
di ction</w>
demonstr ators</w>
def alarca</w>
bulun ul
bo ş</w>
baş bakan
bağımsız lığına</w>
ball ots</w>
at ık</w>
ans ka</w>
alışver iş
al maları</w>
T un
T ru
O sij
Müz ak
Müslüman lar</w>
L or
Kou chner</w>
K ore</w>
K ac
I P</w>
F ul
D amir</w>
Ch ildren</w>
C ec
Bür osu</w>
ö tesinde</w>
ç eliş
Çoc uk</w>
yen erek</w>
yaş adı</w>
yapıl dığı</w>
ww w.
vurgu layan</w>
uncertain ty</w>
tradi tionally</w>
taşıy acak</w>
tat min</w>
tan ce</w>
star ts</w>
sorun lu</w>
sorun lardan</w>
seçil miş</w>
sağlay arak</w>
saf has
rej im</w>
reci pro
re luc
program ında</w>
pro ven</w>
pollu tion</w>
performans ı</w>
pass port</w>
olma z
nitelendir diği</w>
muhafazak â
mon ument</w>
mo bil</w>
medi eval</w>
me trik</w>
mat ches</w>
m ort
kat ına</w>
isola ted</w>
in andığını</w>
ilişkiler inde</w>
ihl ali</w>
har d
güçlük ler</w>
göz lem</w>
gra fi</w>
g resi</w>
fir maların</w>
fas l
fa ith</w>
ey es</w>
etkilen en</w>
equ ally</w>
engel ler</w>
deteri or
d ans</w>
cr a</w>
confir m</w>
con tain</w>
bul uyor</w>
bu çuk</w>
belge ler</w>
başlat maya</w>
bal lot</w>
ad ımı</w>
Zuk or
T ony</w>
Sum mit</w>
Sim ic</w>
Scho ok</w>
Osij ek</w>
Mec lis
K ut
Josep h</w>
Jo int</w>
I PA</w>
Her sek
G ümr
Dimit ar</w>
D y
Cre dit</w>
Az iz</w>
As keri</w>
Ar hin</w>
An na</w>
ız da</w>
ölçek li</w>
zirv esine</w>
zaman ının</w>
yüz yıl</w>
yaz dı</w>
yarat ma</w>
wh ite</w>
war rant</w>
ver i</w>
v o</w>
uç uş
unve iled</w>
ula tes</w>
tik çe</w>
tes ted</w>
tab lo</w>
sign als</w>
shop ping</w>
sek reteri</w>
se x
roun ds</w>
rene wable</w>
reg ister</w>
redde den</w>
recor ds</w>
re li</w>
re h
proj elerine</w>
procu rement</w>
p o</w>
ordin ated</w>
oran ını</w>
oran ına</w>
operasyon un</w>
occ ur</w>
motiv ated</w>
mor al</w>
moder ate</w>
milyon dan</w>
mey eceğ
m ic
kes tr
is hment</w>
imp as
im leri</w>
ilişkiler inin</w>
ilerle mesi</w>
ic o</w>
hi kes</w>
hapis han
hand over</w>
halk ını</w>
güç lerini</w>
geçmiş i</w>
friend ship</w>
fer it</w>
f ly</w>
exten ding</w>
etk isini</w>
edil mişti</w>
do ws</w>
devr aldı</w>
den in</w>
cro ft</w>
cen az
bo gar</w>
bir liğiyle</w>
bin ding</w>
bil eceği</w>
bat ısındaki</w>
ayr ak
adop ting</w>
academ ic</w>
absol utely</w>
Squ are</w>
S la
R EC
Pra gue</w>
Ort ak</w>
Müdür lüğü</w>
M ate
M ali</w>
L A
Kur tul
Ko rea</w>
F C</w>
Europ ol</w>
Eli zab
Den is</w>
Bü tün</w>
Armen ians</w>
çıkar ak</w>
çalış anların</w>
ç e
Ç evre</w>
ver mesini</w>
ular a</w>
u li
te la
söyle mek</w>
suspen sion</w>
statisti cal</w>
st abilisation</w>
soruştur manın</w>
sor gu
so lar</w>
siyaset çi</w>
sahip tir</w>
s ence</w>
rokas tra</w>
ro c
reput ation</w>
repe at</w>
recommen d</w>
preven ted</w>
ple ased</w>
pl ying</w>
per sec
parlament osunun</w>
oyunc usu</w>
ol gun
ob taining</w>
meth ods</w>
mas ıdır</w>
lider lerle</w>
leş mesi</w>
lav a</w>
lar s</w>
kır ıl
korum ası</w>
kor uyor</w>
kazan ma</w>
kaybet tiği</w>
katılım ıyla</w>
k lin
inş a
in habi
ik lim</w>
hızlandır maya</w>
head scar
head ing</w>
güvenil ir
geç iri
gerç eğ
geliş mekte</w>
gel mesine</w>
fabri ka</w>
eğitim li</w>
ethnic ity</w>
et inin</w>
et inde</w>
e x</w>
dist ance</w>
determin ing</w>
demokr atik
dem ir</w>
cli m
bulun muyor</w>
bran ches</w>
belir lemek</w>
be del
be ar</w>
b ag
attemp ted</w>
assu med</w>
ar m</w>
applic ations</w>
an ese</w>
amoun ted</w>
ak ademis
after wards</w>
adj ust
ad s</w>
Zir v
Yar ış
Tiyat ro</w>
Tele viz
Ru ecker</w>
Plan ı</w>
J azz</w>
In tel
Giri şimi</w>
F est</w>
Eurost at</w>
Dow ner</w>
Distri ct</w>
Dic k</w>
D Y</w>
Canadi an</w>
C el
Bu re
Bern ard</w>
B unun</w>
An ders</w>
2, 500</w>
10 ,
1. 6</w>
ılık larını</w>
İş let
zar ara</w>
zan is</w>
writ ers</w>
vir us</w>
vie wing</w>
vatandaş ın</w>
uygulan masında</w>
uten ant</w>
un like</w>
un earth
unearth ed</w>
troub le</w>
top la
t ren</w>
stem ming</w>
separ ati
sayf alık</w>
sat ışı</w>
ran ging</w>
plan e</w>
pension ers</w>
p ap
p a</w>
oyunc ular</w>
opol iti
olas ılığının</w>
mün ferit</w>
muhal if</w>
monit ored</w>
medi kleri</w>
medi k
m n
lan a</w>
kazan arak</w>
kat ledil
iş adam
if las</w>
hızlandır mak</w>
hüküme tiyle</w>
he ye
hazır lanması</w>
gra de</w>
frequ ently</w>
f ts</w>
extre mist</w>
expendi tures</w>
er isi</w>
er as</w>
düşünüy oruz</w>
dis appointed</w>
d g
coğ rafi</w>
construc ted</w>
connec ting</w>
chec k
bar iz</w>
açığ ının</w>
artır mayı</w>
ar bi
an ony
am munition</w>
ak a</w>
air line</w>
ail eleri</w>
af raid</w>
Z bogar</w>
V ol
S cep
P an</w>
Os lo</w>
N u
N azi</w>
Mar in</w>
M HP</w>
Lul zim</w>
Jap on</w>
H an
Gen eva</w>
EV N</w>
Djuk anoviç</w>
Bas ha</w>
15 .
şüphelen ilen</w>
ım ıyla</w>
İmparator luğu</w>
öz ür</w>
çek ilmesi</w>
ziyaret çi</w>
yolsuz luğu</w>
yer leştir
wh el
us ted</w>
un resolved</w>
tutuk lanan</w>
tur istik</w>
toplul uk
tol l</w>
thin king</w>
terör e</w>
terci h
temsilc ileriyle</w>
temper atures</w>
ta ah
sürdür ül
sor t</w>
si dir</w>
se e
savaş tan</w>
san ız</w>
s ının</w>
ri m
repe ated</w>
reli able</w>
over whel
olur du</w>
nor m
neighbour hood</w>
medy ada</w>
medi ator</w>
meclis teki</w>
me deki</w>
mal ları</w>
mad des
ma g
ler se</w>
lar ın
karşı laştır
kap ılarını</w>
j ür
in ary</w>
ik il
i vo
i ves</w>
hes ap</w>
görevl ileri</w>
gro wn</w>
gre v</w>
geçir ilen</w>
f onu</w>
ex tra</w>
etti klerini</w>
etme mesi</w>
enter prise</w>
enjoy s</w>
ede bilir</w>
e meyeceğini</w>
dri ven</w>
draf ting</w>
de par
d ney</w>
cris es</w>
chem ical</w>
ces aret
bil inc
beklen diğini</w>
bank aların</w>
bab ası</w>
at ını</w>
anlaşmaz lıklar</w>
anlaş masına</w>
anah tar
ak la
ab sence</w>
Yıl maz</w>
V ik
Tra b
Sy dney</w>
Spiri c</w>
R I</w>
Pra g</w>
ODI HR</w>
Ned j
Mu sic</w>
Kurtul uş</w>
Ko ş
Jan ica</w>
Inde x</w>
I sch
Her man</w>
H rant</w>
Ghe org
G aşi</w>
Dimitri j</w>
Del ta</w>
Budap est</w>
Agri culture</w>
3 0m</w>
2 .</w>
ıy sa</w>
çağır ıyor</w>
youn ger</w>
war s</w>
travel led</w>
tes inden</w>
tep kiler</w>
te tik
taraf ında</w>
sur prised</w>
strength ened</w>
st ay
si es</w>
sen e</w>
sem t
sec uring</w>
savun an</w>
s wi
s ans
re alised</w>
rahat sız</w>
r ı</w>
por tal</w>
po etry</w>
perce ived</w>
os a</w>
ob struc
nomin ation</w>
ne ut
miş lerdi</w>
mil est
mey dan</w>
mesaj ı</w>
medy aya</w>
mak al
liter ature</w>
li ft</w>
kuruluş un</w>
kullan ılıyor</w>
ket t</w>
kaynak larının</w>
kaynak lardan</w>
k ıt
iyileş tiril
ik asyon</w>
ihtilaf ının</w>
hazırlan mış</w>
hak aret</w>
haber inde</w>
gün ün</w>
göre bil
gather ing</w>
fon larının</w>
faaliyet lerinin</w>
f light</w>
endi ren</w>
e ge</w>
duy ul
dur an</w>
dok torlar</w>
dj man</w>
dis cover
destek ç
demokras inin</w>
def en
con tains</w>
con ces
car efully</w>
cap abilities</w>
bulun muştu</w>
bla ck
başvur usunu</w>
author ised</w>
at ar</w>
asker lik</w>
accus ing</w>
Yer el</w>
Tu djman</w>
T ut
T eh
Sre ten</w>
Sov yet</w>
Slj ivancanin</w>
Seli mi</w>
S P
Roman lar</w>
O il</w>
O EC
OEC D</w>
Nedj eljko</w>
N az
Mar mar
Lit vanya</w>
Korid or</w>
K ust
K el
Jap anese</w>
J oz
H all</w>
H ac
Fir st</w>
Elek tro
Cen evre</w>
C ust
Belgi an</w>
Ağ ı</w>
Alek sand
50 0m</w>
4 0m</w>
şek er</w>
Ş ir
ınday dı</w>
İd ari</w>
İ cra</w>
öldürül düğü</w>
çab ayı</w>
ziyaret inin</w>
ziyaret ini</w>
yar ışı</w>
yap makla</w>
we ather</w>
wat ch
ve il
veil lance</w>
unc over
toplul uğ
taz ele
t ub
t ruc
sır aya</w>
sürdür düğü</w>
sup posed</w>
st ad
sez on
set tle</w>
savun uc
rej ect</w>
qu anti
princip al</w>
pr er
popular ity</w>
pi ece</w>
openha gen</w>
obli ged</w>
nati ve</w>
merkez ine</w>
ma cy</w>
kuzey inde</w>
k ul</w>
isim ler</w>
ilerle mesini</w>
id ly</w>
herkes e</w>
han i</w>
ham per
güz el
fi es</w>
fas ıl
extre mists</w>
erte leme</w>
endiş elen
elimin ate</w>
eksi k</w>
diyaloğ un</w>
dil ek
da ughter</w>
conc entr
camp s</w>
böl geleri</w>
bu laş
bomb ing</w>
bom bal
ber to</w>
bağ layıcı</w>
bayrağ ı</w>
basket bol</w>
b ayan</w>
b TV</w>
ar resting</w>
ar alarındaki</w>
anlat ıyor</w>
anlam ı</w>
anal iz
alar m</w>
a iming</w>
a -</w>
Z ar
Y ou
Un it</w>
Sanay i</w>
S ho
Rem ik
P ren
N ap
Mom cil
Man j
Ma il</w>
M ul
M AP</w>
Jan ez</w>
J ah
For d</w>
D re
C openhagen</w>
C her
Bus ek</w>
Bure au</w>
Bek iri</w>
Anagnostop oulos</w>
5 .</w>
ığ a</w>
İz leme</w>
İdar esi</w>
üç ü</w>
çık tığını</w>
yürüt me</w>
wo unded</w>
val id</w>
tra ge
toprak larının</w>
tic aretin</w>
technolo gical</w>
tamam lamak</w>
sın ıf</w>
söy lerken</w>
suç lardan</w>
su ffer</w>
sp ot</w>
sonuç lanan</w>
sig ort
si ege</w>
seç ilmesi</w>
sal on
ro man
reform ing</w>
r are</w>
politi kalar</w>
pir acy</w>
perfor ming</w>
per su
p ave</w>
openha g</w>
ok ulu</w>
moun tains</w>
mo ur
mim ar
me mekle</w>
mak ul</w>
kan ıtı</w>
istiyor sa</w>
industri es</w>
iler liyor</w>
ifades inin</w>
her şeyi</w>
hedef le
he ating</w>
ha b
güc ün</w>
göster ileri</w>
göster ecek</w>
görüşme lerinin</w>
gra m</w>
go l</w>
geç mesine</w>
geliş im</w>
gelece ğine</w>
gel mek</w>
g ged</w>
f ran
f ought</w>
ey lemi</w>
ex ec
e ze</w>
dönüş ü</w>
diğ inin</w>
dey imiyle</w>
deta iled</w>
corpor ate</w>
comb ating</w>
cal c
c in</w>
bul dular</w>
bro ken</w>
be ğ
b ayrak
b as</w>
avu katı</w>
avlj evic</w>
at ının</w>
al ama
ak lık</w>
W TO</w>
Sam ir</w>
P etk
Nov a</w>
Mladen ov</w>
M ut
M im
M ih
K openhag</w>
Isch inger</w>
Environ ment</w>
Diyarbak ır</w>
D z
Cust oms</w>
C annes</w>
B eg
3 01</w>
Ş ah
üm it</w>
ü lecek</w>
çıkar ına</w>
çev r
çalışan larının</w>
Çalış ma</w>
zaman lı</w>
zam ana</w>
yaş andığı</w>
yayınla dıkları</w>
yarat tı</w>
yapıl masına</w>
yansıt ıyor</w>
yaklaş makta</w>
y ir
vurgula dılar</w>
uygula dığı</w>
ulu stan</w>
ul gar
ulgar akis</w>
tüketic i</w>
tut ulan</w>
ti ally</w>
te mas</w>
tar if
sürdür mesi</w>
standart larının</w>
son uca</w>
sol ving</w>
si yon</w>
seyir c
sağ landı</w>
s ter</w>
run off</w>
ro i</w>
ri m</w>
rest oration</w>
re vised</w>
re cip
ori ented</w>
oper ated</w>
ol muştur</w>
not u</w>
nation alism</w>
may be</w>
lis tesine</w>
kın adı</w>
kor kul
komün ikasyon</w>
kazand ılar</w>
katıl anlar</w>
kaps ıyor</w>
kap ı</w>
issu ing</w>
im nas
im al
iddi alı</w>
i os</w>
i dam</w>
göster isi</w>
gö tü
govern or</w>
ger ing</w>
fur t</w>
fol k</w>
fas ter</w>
explos ion</w>
er up
enerj isi</w>
el lerinde</w>
ek len
ec an</w>
düşür dü</w>
dön dür
durum dalar</w>
değiştir mek</w>
devlet ler</w>
deste ğine</w>
describ es</w>
deleg ations</w>
defic its</w>
def ine</w>
cons ists</w>
bölün me</w>
bon ds</w>
bloc ks</w>
bir th
bekle mek</w>
başlay acağını</w>
başar ısı</w>
bağ layacak</w>
ayr ıldı</w>
ar asından</w>
appe aled</w>
anal iz</w>
an ının</w>
akar yakıt</w>
ab led</w>
a waiting</w>
Parlamen terler</w>
P lev
Mir anda</w>
Makedon lar</w>
M iti
Liber ation</w>
Jankul ovska</w>
Inv estig
A mar
6 50</w>
ş of
ıl masında</w>
çözüm ler</w>
çoğunluğ unu</w>
çoğ unu</w>
Ü r
zinc ir
z il</w>
yürütü yor</w>
yol unun</w>
yer altı</w>
yas alarını</w>
w is
v i</w>
uni fied</w>
tr il
th y</w>
tar geting</w>
söyle mişti</w>
sur veillance</w>
sun um
su red</w>
slow ly</w>
say ede</w>
s le
reti rement</w>
r üt
pos ted</w>
plan lan
perspek tif
paramil itary</w>
op posing</w>
olay la</w>
nok ta</w>
mühim mat</w>
mas raf
market ing</w>
man astır
li yorlar</w>
kuz eydoğ
konsol os
kon sey
kay d
kapat ma</w>
istikrar sız
imti yaz
impas se</w>
ic evic</w>
hel m</w>
he ar</w>
ham le
gün ünde</w>
gün eydoğu</w>
finan ces</w>
exerc ises</w>
eler iyle</w>
edil mesinin</w>
ebil mesi</w>
e e</w>
dis bur
destekle diği</w>
de mek</w>
cri p
conces sions</w>
char ging</w>
büyü mesi</w>
boy kot
bot tom</w>
bor ro
bom ba</w>
bir liğine</w>
bilgisay ar
ber y</w>
bağlant ıları</w>
b ö
ateş li</w>
at ılması</w>
associ ate</w>
amend ment</w>
Ves elin</w>
Ran ko</w>
O kul
Momcil o</w>
Mark ac</w>
Kri z</w>
Konse y
K ok
K ah
Gen c</w>
F ır
Evan gel
Eston ia</w>
Elen a</w>
E F
D mit
Communic ations</w>
C okoviç</w>
C em
C ed
Büy ük
Bay kal</w>
B B</w>
Anlaş masını</w>
1, 6</w>
şey leri</w>
üye liğin</w>
çiğ ne
ç ilere</w>
zaf eri</w>
yöneti mini</w>
yatırımc ıları</w>
yardım ın</w>
yap ılarına</w>
w an</w>
v olum
v als</w>
uzman ların</w>
uygula masının</w>
ust a</w>
ulaş ım</w>
tti ğini</w>
tra ding</w>
ti p
tes isi</w>
ten ed</w>
temsilc ilerin</w>
tah liye</w>
sır alan
sın av
speci alists</w>
sh ed</w>
resul ting</w>
rejim ini</w>
ra ises</w>
publis hing</w>
ot h</w>
open ly</w>
oluştur duğunu</w>
oj ik</w>
neden lerden</w>
nation wide</w>
mir ası</w>
mem ur</w>
ma masını</w>
ma masına</w>
liste de</w>
lic k</w>
la us</w>
l iste</w>
l ise</w>
kazan ç
kapasite ye</w>
inş asına</w>
ilerlet mek</w>
il mesini</w>
ic ra</w>
hazır lay
göl ge</w>
faaliyet lerin</w>
er o</w>
ekonom isine</w>
ek i
düşün c
döne minden</w>
di gn
dee pen
dayan ışma</w>
dat ab
daf one</w>
d anı</w>
co inci
chec k</w>
cancel led</w>
bölün müş
bri dges</w>
belediye ler</w>
başla mış</w>
başarısız lıkla</w>
as ay
arbi tr
aray ış
ar ına</w>
apart ments</w>
amay an</w>
ail ed</w>
ad ıkları</w>
ab st
Wat ch</w>
Vo dafone</w>
Strate gy</w>
Stra zburg</w>
S ha
PD L</w>
Muam mer</w>
Mar shall</w>
Mac ovei</w>
Kot or</w>
IC O</w>
Huk uk</w>
Hal a</w>
H or
Gümr ük</w>
G as
Frank furt</w>
Fo gh</w>
Europe ans</w>
Ero ğlu</w>
EM O</w>
E mir</w>
E L
Cris is</w>
Clu j</w>
C K</w>
C C</w>
C AR
B eh
Alp ha</w>
8 9</w>
İstih barat</w>
öv gü</w>
çık ış</w>
çocuğ un</w>
Ç ok</w>
zor laştır
yor sunuz</w>
yan daş
volum e</w>
tiğ ine</w>
tek stil</w>
te min
t les</w>
strugg ling</w>
st ret
s ın</w>
s ap
rec ektir</w>
reas onable</w>
rap idly</w>
pul l</w>
pu anı</w>
protest ol
proper ly</w>
pres sures</w>
predic ted</w>
politik alarını</w>
parti lere</w>
our selves</w>
ortam da</w>
op ulos</w>
on larca</w>
noktas ına</w>
milyon luk</w>
milletvekil inin</w>
lık larının</w>
ly wood</w>
li e</w>
kamuoy unda</w>
k id
iti me</w>
investig ative</w>
inti mid
il mesine</w>
il ki</w>
ihtiyaç ları</w>
ic eviç</w>
her oin</w>
hedef ler</w>
görüş ünü</w>
gr en
ga wat
fla t</w>
fir malar</w>
fil i
experi ences</w>
ex pi
etkiley ici</w>
esti mate</w>
en cing</w>
du al</w>
dri ver</w>
değiş iyor</w>
değerlendir di</w>
dav et
constan t</w>
com pos
bulun masına</w>
bil mesi</w>
beledi yesi</w>
anl ıkları</w>
an mış</w>
al ıcı</w>
ak ın</w>
af fili
aday ların</w>
Vik tor</w>
Statisti cs</w>
Siy as
P ur
Nik ola
N as
Mil li
Lithu ania</w>
H on
E th
Djord jevic</w>
D ob
Com m
Bor ut</w>
B lu
B iti
Aleksan der</w>
4 00m</w>
şidde tin</w>
İsra illi</w>
üc ü
yer leri</w>
ye mek
ver it
vehic le</w>
v at
travel ling</w>
ti li
subsi di
sonuç larına</w>
seyir ci</w>
sanat ç
regular ly</w>
referandum da</w>
referand umu</w>
receğ iz</w>
ra c</w>
purch ased</w>
protest ors</w>
post p
postp one</w>
po et</w>
on n
mu sicians</w>
mar gin
makam larını</w>
lık ta</w>
kullan ım</w>
kon uk
kno ws</w>
kitab ı</w>
kent te</w>
kend ileri</w>
katıl masını</w>
karşıla ma</w>
iş ine</w>
iç ek</w>
iz leyic
indi rec
im izde</w>
im ent
ik e</w>
hiç biri</w>
h ana</w>
göster iler</w>
gör müş</w>
gör düğ
gr y</w>
git mesi</w>
gerek iyordu</w>
geliş meleri</w>
ge ler</w>
func tions</w>
for get</w>
ff ers</w>
f ate</w>
em ig
ele me</w>
el enin</w>
ek le
edil eceğini</w>
düzenlen iyor</w>
dört te</w>
durum la</w>
don or</w>
do g</w>
diğ eri</w>
distri but
dic t
design ated</w>
cus u</w>
cop e</w>
conclu sions</w>
conclu de</w>
bloc k
biz zat</w>
biri yle</w>
bin asının</w>
benz er
bekli yorum</w>
be bek</w>
açıkla dılar</w>
associ ated</w>
as es</w>
ar te
ag a</w>
Tu be</w>
Tes la</w>
T zanis</w>
Steph en</w>
Radov anoviç</w>
Priv atisation</w>
Lju bi
Kit ap</w>
K af
J an</w>
Hersek li</w>
Hava alanı</w>
Har ri</w>
Ex change</w>
D or
D omin
Cumhur iyet
Con vention</w>
Ch ris</w>
Bra zil</w>
Bey az</w>
Ban croft</w>
Bag h
An ast
Amar iei</w>
13 .
ş ok</w>
ılabil eceğini</w>
üyeler iyle</w>
üye ler</w>
ölüm üne</w>
çök er
yüz yıldan</w>
yir mi</w>
yarar ına</w>
yapıl an
yap ısı</w>
we ight</w>
w an
var sa</w>
umu duyla</w>
ul i</w>
ten is
taş ı</w>
tan ts</w>
tah vil
t ına</w>
suçla mada</w>
st ages</w>
sistem leri</w>
se ment</w>
se lection</w>
sch ed
scand als</w>
sc ope</w>
san mıyorum</w>
saldır ının</w>
ro ots</w>
rejim in</w>
ref usal</w>
rakam lara</w>
ra il</w>
proj esini</w>
produc tive</w>
politi k</w>
plan ında</w>
person ally</w>
pazar ının</w>
pass es</w>
otomo bil
organiz asyon</w>
ok ap
mit ting</w>
milest one</w>
metre küp</w>
mes elenin</w>
man agers</w>
lik lere</w>
licen ses</w>
konum da</w>
kaçın ılmaz</w>
kat ılarak</w>
karşılaş tığı</w>
kap sa
kadın lara</w>
işg al</w>
istikrar ını</w>
is iz</w>
instr uments</w>
indic tments</w>
hek tar
hedef lere</w>
geç mek</w>
gerek siz</w>
fiyat larının</w>
feel ing</w>
faaliyet ler</w>
enti rely</w>
din le
dey di</w>
dead lock</w>
dav asında</w>
dav alar</w>
cons istent</w>
clear ed</w>
ca uti
ca uses</w>
bin anın</w>
bilg iye</w>
başvur uda</w>
bakıl dığında</w>
bak ım</w>
bak ana</w>
açıl masını</w>
ay n
app li
ans wers</w>
anlığ a</w>
aday lığı</w>
acqu ire</w>
You Tube</w>
V id
Srebr en
S ig
R af
Pros per</w>
P E
M ig
Lie utenant</w>
Kriv okap
Ko ordin
J ol
J NA</w>
I g
I P
Hol lywood</w>
H u
Gre gor
Gazetec iler</w>
G üz
G an
E mp
D ağ
Ar gen
Afri can</w>
ış ığına</w>
ımız dan</w>
ıl masıyla</w>
ı ç
yan gın</w>
wor ker</w>
vatandaş lık</w>
v ski</w>
uy um
uncer tain</w>
ultran ationalist</w>
u fak</w>
top u</w>
ti ght</w>
sürül üyor</w>
statüs üyle</w>
state hood</w>
ro utes</w>
ro u
regre t</w>
recommen dation</w>
rai ds</w>
pu ts</w>
program lar</w>
potansiy eline</w>
pl janin</w>
parlament os
p raising</w>
od ds</w>
merkez leri</w>
makam larına</w>
lendiri yor</w>
lan acak</w>
konferans ına</w>
kom i
kim se
kaynak lara</w>
katliam ı</w>
kabin enin</w>
journ alism</w>
iz le</w>
istikrar sızlık</w>
ins anı</w>
initi ate</w>
impor ted</w>
iment ul</w>
ihrac atı</w>
iade si</w>
i bar
hizmet ler</w>
hi ke</w>
hand ling</w>
güdüm lü</w>
gerek irse</w>
ge mis
fazl asının</w>
faaliyet lerine</w>
ev de</w>
etkil erini</w>
et meyeceğini</w>
et ken
engel leri</w>
endiş eler</w>
ear n</w>
ear marked</w>
e hir</w>
dolaş ım</w>
destro y</w>
der nek</w>
comple ting</w>
comm it</w>
cez alar</w>
bo y</w>
bench marks</w>
bank rup
b alık</w>
asyon una</w>
ar z</w>
ama dığını</w>
alk ol</w>
ac tress</w>
Zu pljanin</w>
Z eri</w>
Yöne ti
Yun anlı</w>
Sto y
Srp ske</w>
Roman ların</w>
R is
Pac kett</w>
OM V</w>
Mor at
Mob ile</w>
M ül
K iri
K AD
G öz
Even imentul</w>
Elec tions</w>
D uk
D ele
Clau de</w>
Christi e</w>
Ced omir</w>
But mir</w>
Bon n</w>
Bas ın</w>
B ask
A le
15 ,000</w>
14 .
ım lar</w>
ık lar</w>
ülk esini</w>
çoc uğu</w>
zanl ılar</w>
yas asında</w>
yap makta</w>
wri tes</w>
var lığının</w>
uygula masına</w>
uy andır
us eful</w>
um in
ulaş ması</w>
to ol</w>
tir ken</w>
ta y</w>
sür tüş
survey ed</w>
sto res</w>
standart lar</w>
sorun uyla</w>
side lines</w>
si mul
simul tane
shap e</w>
semin ar</w>
secular ism</w>
saat ler</w>
s port</w>
rekabet çi</w>
rek lam</w>
ref use</w>
re anu</w>
phenom enon</w>
pat rol
parti ye</w>
p led</w>
p az
p ac
oy birliğiyle</w>
on ur</w>
of is
nüf uz</w>
no w
nez aret
nev i</w>
me lerden</w>
ma m</w>
m ü</w>
lux ury</w>
lis ans
ler ek</w>
kö y</w>
kon unun</w>
kapas ite</w>
kamuoy unun</w>
kalite li</w>
k us
k ati
iz asyon</w>
inşa atı</w>
ic h
i mages</w>
hay ran
gü reş
görün üm</w>
gran ting</w>
g lo
frequ ent</w>
foun dations</w>
fis hing</w>
fela ket</w>
f isi</w>
eylem ler</w>
exac tly</w>
er ine</w>
enthusi as
entegrasyon una</w>
em i</w>
duğ unda</w>
dol andır
di men
devre ye</w>
deney im</w>
demokr at</w>
cour age</w>
cli ents</w>
chann els</w>
cap ita</w>
bulun uyordu</w>
bulun dukları</w>
bro thers</w>
bi ome
att ılar</w>
at mak</w>
at ly</w>
at am
ast le</w>
asker î</w>
as signed</w>
app ing</w>
amay acak</w>
ai ted</w>
adi r</w>
ad landır
acqu is
acci dent</w>
Yat ır
Y al
W ah
V elj
Ren a
R ai
Morat inos</w>
Kuk es</w>
Kon gresi</w>
K üre
John son</w>
Hırv atların</w>
GS M</w>
Diyarbak ir</w>
Devlet leri</w>
D um
C af
C NA</w>
Araştır maları</w>
şirket lere</w>
Ş u</w>
İ H
öner iler</w>
Özel leştirme</w>
yüz yılın</w>
yönet meni</w>
yok la
yetkil inin</w>
yay ım
yay la</w>
yarış ma</w>
yap acakları</w>
with drew</w>
win ners</w>
wal k</w>
ver mesine</w>
tut tu</w>
tic kets</w>
ti se</w>
than ked</w>
teşkilat ının</w>
ter minal</w>
te y
taleb ini</w>
sın ız</w>
sti mu
st ress</w>
sk y</w>
sett led</w>
ses sions</w>
sembol ik</w>
scenar io</w>
sağla dılar</w>
savun masız</w>
s osyal
rout sas</w>
refin ery</w>
refer red</w>
re act</w>
prer equ
prerequ is
plas tik</w>
pas sage</w>
parti yi</w>
parla k</w>
par as
ortam ını</w>
ortak ları</w>
o ul
neut r
neighbour ly</w>
nation alists</w>
mesele lerin</w>
menfa at
mahkeme lerin</w>
ma ç</w>
m üy
luğun daki</w>
lendir me</w>
kiş iden</w>
karar larını</w>
kal p</w>
k new</w>
join s</w>
iz lemek</w>
is yan</w>
is en</w>
integr ate</w>
iddi alarını</w>
ho t</w>
his set
hem şi
hazır ladı</w>
happen ing</w>
ham med</w>
görüş menin</w>
fikir de</w>
fair ly</w>
f at
etkin likler</w>
etbeg oviç</w>
et miyor</w>
es cape</w>
eleş tiren</w>
edi ğini</w>
e ter</w>
duruş ma</w>
dur uyor</w>
dis abled</w>
değiştir meye</w>
demonstra tes</w>
con stitute</w>
cin ema</w>
bo und</w>
birbir inden</w>
bel ong</w>
bekle diği</w>
aç ması</w>
attribu ted</w>
artış a</w>
ar en
ali ve</w>
ail enin</w>
Zil ei</w>
W inter</w>
Sırp ça</w>
Sur roi</w>
Snez ana</w>
Saf et</w>
S t</w>
Ram ush</w>
Pot oc
Pop ovic</w>
P es
Os car</w>
Maj a</w>
Kö pr
Kalet oviç</w>
Indu stri
I n</w>
Hos p
Hil mi</w>
H ari</w>
Fil istin</w>
Emp ire</w>
EU PM</w>
D routsas</w>
D ays</w>
CAR DS</w>
C uk</w>
C enter</w>
Br un
Be lar
B M
As soci
Ar jan
Andre as</w>
An al
6 0m</w>
2 5m</w>
ığ ının</w>
ın tı</w>
özel liğini</w>
öz erk</w>
öner isinde</w>
ön der
çık maya</w>
çek im
ziyaret çiler</w>
yay gın
yap ıyorlar</w>
yakalan ması</w>
wr iting</w>
veter ans</w>
v ig
tüke tim</w>
trans mission</w>
trans formed</w>
tran splan
tradi tions</w>
top lamda</w>
ti vis
th row</w>
ten se</w>
tasarru f
tanın ıyor</w>
sınır ın</w>
su lar</w>
su bur
soğ uk</w>
sonr asındaki</w>
seç mek</w>
seviy eye</w>
sa bah
reflec ted</w>
recogn ising</w>
pres sion</w>
ph il
parti den</w>
oyn ayan</w>
ori jinal</w>
nitelendir erek</w>
mış lardı</w>
meslektaş ı</w>
me gawat
lü ler</w>
lider lerini</w>
l ment</w>
l ini</w>
kur duğu</w>
kiş ileri</w>
kim liği</w>
kayde den</w>
kad ının</w>
iste diklerini</w>
ira de
invol ve</w>
incele me</w>
hydro power</w>
hab ere</w>
ha j</w>
göz eti
görün tü
gönder ilen</w>
gu ards</w>
gradu ally</w>
gerç eği</w>
genel kurmay</w>
g ayrı</w>
fa al</w>
exce ed</w>
eriş imi</w>
er o
er iyor</w>
enab ling</w>
en sti
el le</w>
dış ından</w>
dük lerini</w>
don ated</w>
do v</w>
devr alacak</w>
denet leme</w>
de liber
d öv
charac ter</w>
cez aları</w>
cema at
c entr
c el</w>
büyük lükteki</w>
bütç esinin</w>
bütç esini</w>
bür osu</w>
bro ther</w>
br and</w>
ble s</w>
benef ic
be yan</w>
başlang ıc
ayr ılması</w>
architec ture</w>
ar tic
am ıyor</w>
Yas ası</w>
Wil liam</w>
Under secretary</w>
Sp a
S hala</w>
Petrov iç</w>
N et</w>
Müzak er
Maj or</w>
MR F</w>
M other</w>
Lju be</w>
L il
K us
I on
Gheorg he</w>
Evangel os</w>
Dem ir
C oviç</w>
But ler</w>
B uy
Ar ena</w>
An gel</w>
AT P</w>
1. 3</w>
öğrenc ileri</w>
çöz meye</w>
çalış tır
Özgür lük</w>
yol o
yas ama</w>
yarg ıl
yap masına</w>
ver mekle</w>
van ts</w>
tr o</w>
tic ket</w>
tan gible</w>
tali mat
talep lerini</w>
subsequ ently</w>
sub ay
stip ulates</w>
sch i</w>
sanık ların</w>
res el
rej ection</w>
qu o</w>
progra ma</w>
poin ting</w>
pain ful</w>
or ches
ol malarına</w>
offen sive</w>
o dak</w>
modern ise</w>
mis m</w>
milliyet ç
men tion</w>
mantık lı</w>
mahkeme ler</w>
l ılık</w>
kullan ımını</w>
kre diler</w>
koşul ların</w>
konular ın</w>
kapasi tesinin</w>
kam yon
jo bles
j et
içer iyor</w>
i h</w>
hem fikir</w>
gre atly</w>
ga de</w>
fo rest</w>
ff s</w>
f ear
extradi ted</w>
ex changes</w>
ev asion</w>
et mesinin</w>
en dü
em br
em bas
dr in
destekle yecek</w>
dem ar
con ver
com mission
cinsi yet</w>
cess or</w>
başkanlığ ında</w>
baş bakanları</w>
bankrup t
açıkla malarda</w>
appre hen
an ıyor</w>
Türk leri</w>
Tran daf
Stef anoviç</w>
S ven</w>
S ay
S T
S R</w>
Parlamen to</w>
P ira
N af
Medi u</w>
Mar ket</w>
Mah mu
L uc
J or
J ok
Geli ş
En dek
Elek trik</w>
Div ac</w>
Cam p</w>
By ty
1, 3</w>
İz mir</w>
üst e</w>
öğrenc ilere</w>
ön lenmesi</w>
öldürül dü</w>
çık masına</w>
çalış anı</w>
Ö .</w>
yönet men
yok tu</w>
yiy ecek</w>
ye dek</w>
yaşam ı</w>
yaş ama</w>
yas ağı</w>
yas alarına</w>
yap ıları</w>
where ab
whereab outs</w>
ven ues</w>
va ad
v as
uygu lay
tran che</w>
tasar ıyı</w>
t uk
symbol s</w>
sur plus</w>
sur gery</w>
subsequ ent</w>
sor gul
sev o</w>
s ular
[...]
