{
  "eos": 0, 
  "UNK": 1, 
  "the": 2, 
  ",": 3, 
  ".": 4, 
  "of": 5, 
  "to": 6, 
  "in": 7, 
  "and": 8, 
  "a": 9, 
  "&quot;": 10, 
  "for": 11, 
  "&apos;s": 12, 
  "@-@": 13, 
  "is": 14, 
  "on": 15, 
  "that": 16, 
  "with": 17, 
  "by": 18, 
  "/": 19, 
  "as": 20, 
  "said": 21, 
  "will": 22, 
  ")": 23, 
  "(": 24, 
  "be": 25, 
  "it": 26, 
  "are": 27, 
  "has": 28, 
  "have": 29, 
  "from": 30, 
  "at": 31, 
  "EU": 32, 
  "was": 33, 
  "he": 34, 
  "Kosovo": 35, 
  "--": 36, 
  "an": 37, 
  "not": 38, 
  "this": 39, 
  "its": 40, 
  "Serbia": 41, 
  "European": 42, 
  "country": 43, 
  "also": 44, 
  "which": 45, 
  "Minister": 46, 
  "government": 47, 
  "we": 48, 
  "&#91;": 49, 
  "&#93;": 50, 
  "their": 51, 
  "but": 52, 
  "his": 53, 
  "they": 54, 
  "would": 55, 
  "year": 56, 
  "new": 57, 
  "-": 58, 
  "been": 59, 
  "Turkey": 60, 
  "two": 61, 
  "were": 62, 
  "one": 63, 
  "more": 64, 
  "countries": 65, 
  "all": 66, 
  "BiH": 67, 
  "after": 68, 
  "who": 69, 
  ":": 70, 
  "Serbian": 71, 
  "other": 72, 
  "I": 73, 
  "Macedonia": 74, 
  "Belgrade": 75, 
  "political": 76, 
  "Southeast": 77, 
  "there": 78, 
  "Times": 79, 
  "about": 80, 
  "or": 81, 
  "Croatia": 82, 
  "according": 83, 
  "co": 84, 
  "told": 85, 
  "first": 86, 
  "%": 87, 
  "Prime": 88, 
  "over": 89, 
  "euros": 90, 
  "people": 91, 
  "last": 92, 
  "than": 93, 
  "during": 94, 
  "SETimes": 95, 
  "Turkish": 96, 
  "international": 97, 
  "up": 98, 
  "President": 99, 
  "only": 100, 
  "years": 101, 
  "between": 102, 
  "state": 103, 
  "operation": 104, 
  "can": 105, 
  "UN": 106, 
  "some": 107, 
  "NATO": 108, 
  "Albania": 109, 
  "should": 110, 
  "Bulgaria": 111, 
  "Montenegro": 112, 
  "if": 113, 
  "had": 114, 
  "no": 115, 
  "economic": 116, 
  "former": 117, 
  "talks": 118, 
  "against": 119, 
  "while": 120, 
  "Romania": 121, 
  ";": 122, 
  "Greece": 123, 
  "however": 124, 
  "time": 125, 
  "&apos;": 126, 
  "under": 127, 
  "police": 128, 
  "could": 129, 
  "per": 130, 
  "most": 131, 
  "three": 132, 
  "says": 133, 
  "US": 134, 
  "Europe": 135, 
  "now": 136, 
  "10": 137, 
  "support": 138, 
  "11": 139, 
  "into": 140, 
  "since": 141, 
  "public": 142, 
  "when": 143, 
  "well": 144, 
  "our": 145, 
  "part": 146, 
  "war": 147, 
  "out": 148, 
  "region": 149, 
  "Monday": 150, 
  "such": 151, 
  "Croatian": 152, 
  "process": 153, 
  "officials": 154, 
  "Greek": 155, 
  "foreign": 156, 
  "them": 157, 
  "many": 158, 
  "Albanian": 159, 
  "Bosnia": 160, 
  "cent": 161, 
  "agreement": 162, 
  "meeting": 163, 
  "do": 164, 
  "because": 165, 
  "Herzegovina": 166, 
  "law": 167, 
  "report": 168, 
  "so": 169, 
  "including": 170, 
  "Wednesday": 171, 
  "Macedonian": 172, 
  "end": 173, 
  "member": 174, 
  "those": 175, 
  "members": 176, 
  "party": 177, 
  "elections": 178, 
  "authorities": 179, 
  "what": 180, 
  "local": 181, 
  "must": 182, 
  "Party": 183, 
  "she": 184, 
  "expected": 185, 
  "Tuesday": 186, 
  "month": 187, 
  "Pristina": 188, 
  "among": 189, 
  "any": 190, 
  "made": 191, 
  "09": 192, 
  "Getty": 193, 
  "crimes": 194, 
  "Images": 195, 
  "12": 196, 
  "security": 197, 
  "07": 198, 
  "week": 199, 
  "05": 200, 
  "06": 201, 
  "both": 202, 
  "these": 203, 
  "say": 204, 
  "Reuters": 205, 
  "take": 206, 
  "parliament": 207, 
  "Serb": 208, 
  "before": 209, 
  "04": 210, 
  "03": 211, 
  "08": 212, 
  "work": 213, 
  "AFP": 214, 
  "issue": 215, 
  "day": 216, 
  "membership": 217, 
  "number": 218, 
  "Council": 219, 
  "military": 220, 
  "The": 221, 
  "being": 222, 
  "still": 223, 
  "project": 224, 
  "next": 225, 
  "parties": 226, 
  "future": 227, 
  "business": 228, 
  "May": 229, 
  "March": 230, 
  "Bulgarian": 231, 
  "way": 232, 
  "visit": 233, 
  "June": 234, 
  "October": 235, 
  "news": 236, 
  "Foreign": 237, 
  "Thursday": 238, 
  "?": 239, 
  "through": 240, 
  "International": 241, 
  "December": 242, 
  "citizens": 243, 
  "decision": 244, 
  "world": 245, 
  "leaders": 246, 
  "progress": 247, 
  "January": 248, 
  "media": 249, 
  "&apos;t": 250, 
  "minister": 251, 
  "status": 252, 
  "Balkans": 253, 
  "very": 254, 
  "you": 255, 
  "held": 256, 
  "announced": 257, 
  "important": 258, 
  "Romanian": 259, 
  "reforms": 260, 
  "based": 261, 
  "saying": 262, 
  "where": 263, 
  "November": 264, 
  "long": 265, 
  "July": 266, 
  "accession": 267, 
  "corruption": 268, 
  "won": 269, 
  "leader": 270, 
  "institutions": 271, 
  "high": 272, 
  "Skopje": 273, 
  "make": 274, 
  "added": 275, 
  "April": 276, 
  "company": 277, 
  "months": 278, 
  "independence": 279, 
  "Sarajevo": 280, 
  "called": 281, 
  "system": 282, 
  "opposition": 283, 
  "Serbs": 284, 
  "place": 285, 
  "even": 286, 
  "president": 287, 
  "four": 288, 
  "met": 289, 
  "relations": 290, 
  "towards": 291, 
  "efforts": 292, 
  "Balkan": 293, 
  "integration": 294, 
  "Sunday": 295, 
  "issues": 296, 
  "help": 297, 
  "September": 298, 
  "national": 299, 
  "various": 300, 
  "head": 301, 
  "plan": 302, 
  "Bank": 303, 
  "community": 304, 
  "chief": 305, 
  "energy": 306, 
  "power": 307, 
  "situation": 308, 
  "organised": 309, 
  "group": 310, 
  "General": 311, 
  "sources": 312, 
  "February": 313, 
  "Commission": 314, 
  "regional": 315, 
  "Bosnian": 316, 
  "need": 317, 
  "United": 318, 
  "Athens": 319, 
  "same": 320, 
  "reform": 321, 
  "another": 322, 
  "Cyprus": 323, 
  "him": 324, 
  "Democratic": 325, 
  "vote": 326, 
  "right": 327, 
  "around": 328, 
  "main": 329, 
  "several": 330, 
  "second": 331, 
  "signed": 332, 
  "billion": 333, 
  "Union": 334, 
  "continue": 335, 
  "World": 336, 
  "her": 337, 
  "policy": 338, 
  "crisis": 339, 
  "border": 340, 
  "negotiations": 341, 
  "official": 342, 
  "economy": 343, 
  "deal": 344, 
  "following": 345, 
  "measures": 346, 
  "States": 347, 
  "court": 348, 
  "become": 349, 
  "without": 350, 
  "possible": 351, 
  "may": 352, 
  "20": 353, 
  "within": 354, 
  "crime": 355, 
  "recent": 356, 
  "ethnic": 357, 
  "financial": 358, 
  "EC": 359, 
  "market": 360, 
  "ministry": 361, 
  "move": 362, 
  "see": 363, 
  "key": 364, 
  "development": 365, 
  "five": 366, 
  "good": 367, 
  "major": 368, 
  "set": 369, 
  "past": 370, 
  "event": 371, 
  "August": 372, 
  "statement": 373, 
  "Friday": 374, 
  "until": 375, 
  "problems": 376, 
  "tribunal": 377, 
  "problem": 378, 
  "then": 379, 
  "Tadic": 380, 
  "left": 381, 
  "companies": 382, 
  "Sofia": 383, 
  "programme": 384, 
  "election": 385, 
  "further": 386, 
  "much": 387, 
  "Zagreb": 388, 
  "rights": 389, 
  "due": 390, 
  "Brussels": 391, 
  "states": 392, 
  "conference": 393, 
  "case": 394, 
  "...": 395, 
  "02": 396, 
  "how": 397, 
  "ruling": 398, 
  "15": 399, 
  "RS": 400, 
  "current": 401, 
  "team": 402, 
  "join": 403, 
  "already": 404, 
  "top": 405, 
  "Tirana": 406, 
  "National": 407, 
  "led": 408, 
  "did": 409, 
  "Russia": 410, 
  "sector": 411, 
  "AP": 412, 
  "level": 413, 
  "does": 414, 
  "us": 415, 
  "Hague": 416, 
  "plans": 417, 
  "full": 418, 
  "01": 419, 
  "meet": 420, 
  "agreed": 421, 
  "meanwhile": 422, 
  "trade": 423, 
  "representatives": 424, 
  "days": 425, 
  "use": 426, 
  "open": 427, 
  "Western": 428, 
  "Security": 429, 
  "took": 430, 
  "budget": 431, 
  "down": 432, 
  "2004": 433, 
  "Ankara": 434, 
  "cultural": 435, 
  "special": 436, 
  "just": 437, 
  "30": 438, 
  "prime": 439, 
  "mission": 440, 
  "like": 441, 
  "areas": 442, 
  "six": 443, 
  "Bucharest": 444, 
  "far": 445, 
  "Istanbul": 446, 
  "early": 447, 
  "gas": 448, 
  "off": 449, 
  "back": 450, 
  "coalition": 451, 
  "women": 452, 
  "euro": 453, 
  "free": 454, 
  "ministers": 455, 
  "IMF": 456, 
  "role": 457, 
  "standards": 458, 
  "increase": 459, 
  "better": 460, 
  "Secretary": 461, 
  "start": 462, 
  "quoted": 463, 
  "forces": 464, 
  "investment": 465, 
  "clear": 466, 
  "want": 467, 
  "Mladic": 468, 
  "office": 469, 
  "earlier": 470, 
  "1": 471, 
  "construction": 472, 
  "opened": 473, 
  "each": 474, 
  "city": 475, 
  "think": 476, 
  "joint": 477, 
  "conflict": 478, 
  "get": 479, 
  "results": 480, 
  "come": 481, 
  "$": 482, 
  "order": 483, 
  "my": 484, 
  "conditions": 485, 
  "centre": 486, 
  "province": 487, 
  "money": 488, 
  "children": 489, 
  "solution": 490, 
  "ten": 491, 
  "general": 492, 
  "found": 493, 
  "25": 494, 
  "press": 495, 
  "final": 496, 
  "growth": 497, 
  "used": 498, 
  "remains": 499, 
  "step": 500, 
  "Erdogan": 501, 
  "majority": 502, 
  "defence": 503, 
  "able": 504, 
  "interest": 505, 
  "go": 506, 
  "old": 507, 
  "came": 508, 
  "although": 509, 
  "own": 510, 
  "parliamentary": 511, 
  "2007": 512, 
  "change": 513, 
  "together": 514, 
  "cases": 515, 
  "currently": 516, 
  "experts": 517, 
  "human": 518, 
  "working": 519, 
  "area": 520, 
  "candidate": 521, 
  "fight": 522, 
  "Parliament": 523, 
  "2008": 524, 
  "stability": 525, 
  "social": 526, 
  "education": 527, 
  "Cypriot": 528, 
  "State": 529, 
  "cannot": 530, 
  "given": 531, 
  "Germany": 532, 
  "ICTY": 533, 
  "provide": 534, 
  "director": 535, 
  "reported": 536, 
  "Agency": 537, 
  "campaign": 538, 
  "best": 539, 
  "politicians": 540, 
  "term": 541, 
  "remain": 542, 
  "northern": 543, 
  "projects": 544, 
  "force": 545, 
  "ago": 546, 
  "17": 547, 
  "life": 548, 
  "legal": 549, 
  "Albanians": 550, 
  "information": 551, 
  "daily": 552, 
  "whether": 553, 
  "counterpart": 554, 
  "include": 555, 
  "believe": 556, 
  "received": 557, 
  "urged": 558, 
  "different": 559, 
  "later": 560, 
  "despite": 561, 
  "taken": 562, 
  "every": 563, 
  "position": 564, 
  "Association": 565, 
  "2006": 566, 
  "put": 567, 
  "ahead": 568, 
  "agency": 569, 
  "16": 570, 
  "late": 571, 
  "hope": 572, 
  "strong": 573, 
  "total": 574, 
  "building": 575, 
  "third": 576, 
  "27": 577, 
  "needs": 578, 
  "2005": 579, 
  "run": 580, 
  "summit": 581, 
  "less": 582, 
  "positive": 583, 
  "peace": 584, 
  "13": 585, 
  "show": 586, 
  "18": 587, 
  "festival": 588, 
  "soon": 589, 
  "face": 590, 
  "along": 591, 
  "least": 592, 
  "capital": 593, 
  "democratic": 594, 
  "changes": 595, 
  "bid": 596, 
  "Centre": 597, 
  "Yugoslavia": 598, 
  "groups": 599, 
  "2009": 600, 
  "period": 601, 
  "large": 602, 
  "million": 603, 
  "administration": 604, 
  "Saturday": 605, 
  "14": 606, 
  "implementation": 607, 
  "name": 608, 
  "UNMIK": 609, 
  "New": 610, 
  "justice": 611, 
  "presidency": 612, 
  "control": 613, 
  "violence": 614, 
  "Iraq": 615, 
  "funds": 616, 
  "town": 617, 
  "tourism": 618, 
  "Russian": 619, 
  "Montenegrin": 620, 
  "Boris": 621, 
  "serious": 622, 
  "dialogue": 623, 
  "making": 624, 
  "Ministry": 625, 
  "lack": 626, 
  "line": 627, 
  "few": 628, 
  "likely": 629, 
  "near": 630, 
  "result": 631, 
  "24": 632, 
  "largest": 633, 
  "nearly": 634, 
  "Court": 635, 
  "review": 636, 
  "Kostunica": 637, 
  "Deputy": 638, 
  "others": 639, 
  "bring": 640, 
  "Agreement": 641, 
  "arrest": 642, 
  "reached": 643, 
  "young": 644, 
  "potential": 645, 
  "home": 646, 
  "2010": 647, 
  "bloc": 648, 
  "visa": 649, 
  "oil": 650, 
  "global": 651, 
  "yet": 652, 
  "laws": 653, 
  "though": 654, 
  "action": 655, 
  "return": 656, 
  "especially": 657, 
  "ready": 658, 
  "family": 659, 
  "recently": 660, 
  "21": 661, 
  "adding": 662, 
  "improve": 663, 
  "Republika": 664, 
  "nation": 665, 
  "trial": 666, 
  "give": 667, 
  "necessary": 668, 
  "needed": 669, 
  "decided": 670, 
  "population": 671, 
  "find": 672, 
  "goal": 673, 
  "approved": 674, 
  "organisation": 675, 
  "taking": 676, 
  "Slovenia": 677, 
  "small": 678, 
  "Srpska": 679, 
  "aimed": 680, 
  "independent": 681, 
  "non": 682, 
  "Italy": 683, 
  "University": 684, 
  "freedom": 685, 
  "began": 686, 
  "reports": 687, 
  "nations": 688, 
  "B92": 689, 
  "am": 690, 
  "significant": 691, 
  "Alliance": 692, 
  "diplomatic": 693, 
  "rate": 694, 
  "discuss": 695, 
  "activities": 696, 
  "tax": 697, 
  "German": 698, 
  "established": 699, 
  "KFOR": 700, 
  "France": 701, 
  "22": 702, 
  "noted": 703, 
  "Karadzic": 704, 
  "culture": 705, 
  "troops": 706, 
  "OSCE": 707, 
  "Festival": 708, 
  "private": 709, 
  "Milosevic": 710, 
  "boost": 711, 
  "Representative": 712, 
  "launched": 713, 
  "arrested": 714, 
  "seven": 715, 
  "fact": 716, 
  "eight": 717, 
  "pay": 718, 
  "health": 719, 
  "1995": 720, 
  "Commissioner": 721, 
  "close": 722, 
  "bilateral": 723, 
  "again": 724, 
  "anti": 725, 
  "Washington": 726, 
  "19": 727, 
  "opening": 728, 
  "increased": 729, 
  "rule": 730, 
  "too": 731, 
  "steps": 732, 
  "28": 733, 
  "23": 734, 
  "whose": 735, 
  "domestic": 736, 
  "latest": 737, 
  "2003": 738, 
  "point": 739, 
  "warned": 740, 
  "Rehn": 741, 
  "AKP": 742, 
  "services": 743, 
  "today": 744, 
  "adopted": 745, 
  "living": 746, 
  "de": 747, 
  "lead": 748, 
  "annual": 749, 
  "2": 750, 
  "constitution": 751, 
  "post": 752, 
  "regime": 753, 
  "expressed": 754, 
  "prosecutor": 755, 
  "build": 756, 
  "difficult": 757, 
  "ties": 758, 
  "wants": 759, 
  "stressed": 760, 
  "26": 761, 
  "ensure": 762, 
  "production": 763, 
  "privatisation": 764, 
  "charges": 765, 
  "property": 766, 
  "EULEX": 767, 
  "assistance": 768, 
  "analysts": 769, 
  "Zoran": 770, 
  "3": 771, 
  "PKK": 772, 
  "pressure": 773, 
  "road": 774, 
  "plant": 775, 
  "minority": 776, 
  "debt": 777, 
  "News": 778, 
  "central": 779, 
  "men": 780, 
  "seen": 781, 
  "BBC": 782, 
  "half": 783, 
  "students": 784, 
  "infrastructure": 785, 
  "expect": 786, 
  "hold": 787, 
  "leading": 788, 
  "50": 789, 
  "done": 790, 
  "real": 791, 
  "proposal": 792, 
  "proposed": 793, 
  "involved": 794, 
  "round": 795, 
  "referendum": 796, 
  "Nikola": 797, 
  "means": 798, 
  "north": 799, 
  "known": 800, 
  "film": 801, 
  "legislation": 802, 
  "strategy": 803, 
  "common": 804, 
  "reporters": 805, 
  "don": 806, 
  "Development": 807, 
  "focus": 808, 
  "committed": 809, 
  "Justice": 810, 
  "trafficking": 811, 
  "voters": 812, 
  "protection": 813, 
  "higher": 814, 
  "customs": 815, 
  "Ahtisaari": 816, 
  "school": 817, 
  "discussed": 818, 
  "sign": 819, 
  "great": 820, 
  "society": 821, 
  "prices": 822, 
  "asked": 823, 
  "initiative": 824, 
  "constitutional": 825, 
  "Kurdish": 826, 
  "brought": 827, 
  "Roma": 828, 
  "GDP": 829, 
  "started": 830, 
  "bank": 831, 
  "once": 832, 
  "envoy": 833, 
  "Central": 834, 
  "almost": 835, 
  "terms": 836, 
  "rather": 837, 
  "receive": 838, 
  "Army": 839, 
  "Yugoslav": 840, 
  "low": 841, 
  "issued": 842, 
  "here": 843, 
  "weeks": 844, 
  "Peace": 845, 
  "resolution": 846, 
  "criminal": 847, 
  "effort": 848, 
  "price": 849, 
  "history": 850, 
  "allow": 851, 
  "fully": 852, 
  "1999": 853, 
  "job": 854, 
  "Defence": 855, 
  "cabinet": 856, 
  "Republic": 857, 
  "1st": 858, 
  "list": 859, 
  "organisations": 860, 
  "document": 861, 
  "DPA": 862, 
  "hopes": 863, 
  "failed": 864, 
  "reach": 865, 
  "begin": 866, 
  "Berisha": 867, 
  "ceremony": 868, 
  "service": 869, 
  "29": 870, 
  "religious": 871, 
  "going": 872, 
  "related": 873, 
  "cost": 874, 
  "Institute": 875, 
  "British": 876, 
  "know": 877, 
  "illegal": 878, 
  "High": 879, 
  "data": 880, 
  "French": 881, 
  "investigation": 882, 
  "reportedly": 883, 
  "voiced": 884, 
  "across": 885, 
  "Jovanovic": 886, 
  "workers": 887, 
  "entry": 888, 
  "prosecutors": 889, 
  "coming": 890, 
  "Group": 891, 
  "Basescu": 892, 
  "date": 893, 
  "George": 894, 
  "scheduled": 895, 
  "included": 896, 
  "similar": 897, 
  "biggest": 898, 
  "times": 899, 
  "planned": 900, 
  "delegation": 901, 
  "enough": 902, 
  "considered": 903, 
  "includes": 904, 
  "present": 905, 
  "access": 906, 
  "particularly": 907, 
  "forward": 908, 
  "operate": 909, 
  "behind": 910, 
  "responsibility": 911, 
  "might": 912, 
  "dispute": 913, 
  "democracy": 914, 
  "described": 915, 
  "sides": 916, 
  "5": 917, 
  "science": 918, 
  "communities": 919, 
  "competition": 920, 
  "offer": 921, 
  "average": 922, 
  "attacks": 923, 
  "released": 924, 
  "killed": 925, 
  "form": 926, 
  "Sanader": 927, 
  "South": 928, 
  "Olympic": 929, 
  "victims": 930, 
  "electricity": 931, 
  "senior": 932, 
  "journalists": 933, 
  "investors": 934, 
  "Euro": 935, 
  "Social": 936, 
  "attended": 937, 
  "addition": 938, 
  "address": 939, 
  "entity": 940, 
  "Office": 941, 
  "points": 942, 
  "me": 943, 
  "terrorism": 944, 
  "direct": 945, 
  "investments": 946, 
  "pipeline": 947, 
  "judicial": 948, 
  "create": 949, 
  "presented": 950, 
  "capacity": 951, 
  "instead": 952, 
  "water": 953, 
  "deputy": 954, 
  "certain": 955, 
  "training": 956, 
  "provided": 957, 
  "followed": 958, 
  "island": 959, 
  "officers": 960, 
  "army": 961, 
  "comes": 962, 
  "concern": 963, 
  "politics": 964, 
  "keep": 965, 
  "your": 966, 
  "Atlantic": 967, 
  "40": 968, 
  "previous": 969, 
  "sports": 970, 
  "Gul": 971, 
  "never": 972, 
  "ended": 973, 
  "became": 974, 
  "6": 975, 
  "example": 976, 
  "governments": 977, 
  "call": 978, 
  "sent": 979, 
  "nuclear": 980, 
  "Thaci": 981, 
  "presidential": 982, 
  "interests": 983, 
  "2002": 984, 
  "Ambassador": 985, 
  "regarding": 986, 
  "confidence": 987, 
  "published": 988, 
  "Tayyip": 989, 
  "al": 990, 
  "hand": 991, 
  "Recep": 992, 
  "calls": 993, 
  "soldiers": 994, 
  "candidates": 995, 
  "terrorist": 996, 
  "industry": 997, 
  "participants": 998, 
  "loan": 999, 
  "Enlargement": 1000, 
  "opportunity": 1001, 
  "4": 1002, 
  "natural": 1003, 
  "outside": 1004, 
  "nine": 1005, 
  "win": 1006, 
  "mandate": 1007, 
  "Radio": 1008, 
  "deficit": 1009, 
  "air": 1010, 
  "importance": 1011, 
  "went": 1012, 
  "success": 1013, 
  "visited": 1014, 
  "responsible": 1015, 
  "short": 1016, 
  "judiciary": 1017, 
  "trying": 1018, 
  "impact": 1019, 
  "Gruevski": 1020, 
  "beginning": 1021, 
  "single": 1022, 
  "TV": 1023, 
  "side": 1024, 
  "credit": 1025, 
  "Srebrenica": 1026, 
  "events": 1027, 
  "summer": 1028, 
  "representative": 1029, 
  "exhibition": 1030, 
  "commander": 1031, 
  "2001": 1032, 
  "thousands": 1033, 
  "required": 1034, 
  "question": 1035, 
  "accused": 1036, 
  "live": 1037, 
  "site": 1038, 
  "operations": 1039, 
  "jobs": 1040, 
  "Muslim": 1041, 
  "confirmed": 1042, 
  "complete": 1043, 
  "declaration": 1044, 
  "lost": 1045, 
  "prison": 1046, 
  "why": 1047, 
  "2011": 1048, 
  "having": 1049, 
  "12th": 1050, 
  "spokesman": 1051, 
  "Ivo": 1052, 
  "priority": 1053, 
  "aid": 1054, 
  "conducted": 1055, 
  "banks": 1056, 
  "draft": 1057, 
  "environment": 1058, 
  "criteria": 1059, 
  "debate": 1060, 
  "pledged": 1061, 
  "Igor": 1062, 
  "completed": 1063, 
  "additional": 1064, 
  "agenda": 1065, 
  "highest": 1066, 
  "hard": 1067, 
  "civil": 1068, 
  "Finance": 1069, 
  "itself": 1070, 
  "travel": 1071, 
  "Ratko": 1072, 
  "alleged": 1073, 
  "implement": 1074, 
  "challenges": 1075, 
  "continued": 1076, 
  "del": 1077, 
  "big": 1078, 
  "wanted": 1079, 
  "100": 1080, 
  "joining": 1081, 
  "Vojislav": 1082, 
  "view": 1083, 
  "overall": 1084, 
  "study": 1085, 
  "joined": 1086, 
  "interview": 1087, 
  "whole": 1088, 
  "unemployment": 1089, 
  "award": 1090, 
  "markets": 1091, 
  "abroad": 1092, 
  "tourists": 1093, 
  "commitment": 1094, 
  "implementing": 1095, 
  "votes": 1096, 
  "East": 1097, 
  "respect": 1098, 
  "agreements": 1099, 
  "Ponte": 1100, 
  "indictees": 1101, 
  "prevent": 1102, 
  "idea": 1103, 
  "opinion": 1104, 
  "lower": 1105, 
  "path": 1106, 
  "un@@": 1107, 
  "elected": 1108, 
  "things": 1109, 
  "launch": 1110, 
  "concerns": 1111, 
  "File": 1112, 
  "15th": 1113, 
  "establish": 1114, 
  "10th": 1115, 
  "welcomed": 1116, 
  "31": 1117, 
  "away": 1118, 
  "Austria": 1119, 
  "series": 1120, 
  "municipalities": 1121, 
  "network": 1122, 
  "compared": 1123, 
  "successful": 1124, 
  "Interior": 1125, 
  "agree": 1126, 
  "Film": 1127, 
  "village": 1128, 
  "failure": 1129, 
  "union": 1130, 
  "everything": 1131, 
  "food": 1132, 
  "charged": 1133, 
  "explained": 1134, 
  "products": 1135, 
  "judges": 1136, 
  "threat": 1137, 
  "often": 1138, 
  "1992": 1139, 
  "seeking": 1140, 
  "7": 1141, 
  "share": 1142, 
  "research": 1143, 
  "something": 1144, 
  "commission": 1145, 
  "enter": 1146, 
  "War": 1147, 
  "signing": 1148, 
  "Podgorica": 1149, 
  "protest": 1150, 
  "calling": 1151, 
  "Gotovina": 1152, 
  "Slobodan": 1153, 
  "session": 1154, 
  "estimated": 1155, 
  "facing": 1156, 
  "basis": 1157, 
  "Hungary": 1158, 
  "little": 1159, 
  "Cypriots": 1160, 
  "starting": 1161, 
  "strategic": 1162, 
  "ever": 1163, 
  "amount": 1164, 
  "management": 1165, 
  "paid": 1166, 
  "turn": 1167, 
  "polls": 1168, 
  "works": 1169, 
  "stand": 1170, 
  "play": 1171, 
  "fighting": 1172, 
  "attack": 1173, 
  "Djindjic": 1174, 
  "criticised": 1175, 
  "documents": 1176, 
  "movement": 1177, 
  "victory": 1178, 
  "response": 1179, 
  "leave": 1180, 
  "weapons": 1181, 
  "evidence": 1182, 
  "reduce": 1183, 
  "5th": 1184, 
  "act": 1185, 
  "accept": 1186, 
  "speaking": 1187, 
  "suspects": 1188, 
  "ongoing": 1189, 
  "participation": 1190, 
  "hours": 1191, 
  "Committee": 1192, 
  "continues": 1193, 
  "participate": 1194, 
  "re@@": 1195, 
  "Stabilisation": 1196, 
  "effect": 1197, 
  "fair": 1198, 
  "faces": 1199, 
  "schools": 1200, 
  "17th": 1201, 
  "firm": 1202, 
  "ic": 1203, 
  "prospects": 1204, 
  "Mesic": 1205, 
  "arrived": 1206, 
  "SAA": 1207, 
  "rejected": 1208, 
  "lawmakers": 1209, 
  "entire": 1210, 
  "requirements": 1211, 
  "exchange": 1212, 
  "owned": 1213, 
  "using": 1214, 
  "8": 1215, 
  "3rd": 1216, 
  "finance": 1217, 
  "risk": 1218, 
  "technical": 1219, 
  "Federation": 1220, 
  "policies": 1221, 
  "Solana": 1222, 
  "framework": 1223, 
  "20th": 1224, 
  "rules": 1225, 
  "presence": 1226, 
  "21st": 1227, 
  "achieve": 1228, 
  "internet": 1229, 
  "Islamic": 1230, 
  "message": 1231, 
  "invest": 1232, 
  "becoming": 1233, 
  "indicted": 1234, 
  "technology": 1235, 
  "aims": 1236, 
  "parts": 1237, 
  "Ashdown": 1238, 
  "passed": 1239, 
  "Luka": 1240, 
  "offered": 1241, 
  "throughout": 1242, 
  "football": 1243, 
  "reason": 1244, 
  "created": 1245, 
  "seats": 1246, 
  "rise": 1247, 
  "Britain": 1248, 
  "influence": 1249, 
  "language": 1250, 
  "6th": 1251, 
  "territory": 1252, 
  "quality": 1253, 
  "recognise": 1254, 
  "longer": 1255, 
  "chance": 1256, 
  "suggested": 1257, 
  "doing": 1258, 
  "Director": 1259, 
  "structures": 1260, 
  "strengthen": 1261, 
  "exports": 1262, 
  "families": 1263, 
  "built": 1264, 
  "obligations": 1265, 
  "death": 1266, 
  "Banja": 1267, 
  "Department": 1268, 
  "2000": 1269, 
  "package": 1270, 
  "anniversary": 1271, 
  "believes": 1272, 
  "cut": 1273, 
  "Affairs": 1274, 
  "goods": 1275, 
  "Italian": 1276, 
  "armed": 1277, 
  "always": 1278, 
  "Games": 1279, 
  "minorities": 1280, 
  "rates": 1281, 
  "worth": 1282, 
  "performance": 1283, 
  "man": 1284, 
  "Olli": 1285, 
  "survey": 1286, 
  "planning": 1287, 
  "Criminal": 1288, 
  "thus": 1289, 
  "growing": 1290, 
  "closer": 1291, 
  "promote": 1292, 
  "remaining": 1293, 
  "1990s": 1294, 
  "11th": 1295, 
  "Dayton": 1296, 
  "crucial": 1297, 
  "murder": 1298, 
  "York": 1299, 
  "actions": 1300, 
  "themselves": 1301, 
  "Papandreou": 1302, 
  "supported": 1303, 
  "divided": 1304, 
  "specific": 1305, 
  "stop": 1306, 
  "businesses": 1307, 
  "60": 1308, 
  "e": 1309, 
  "poor": 1310, 
  "field": 1311, 
  "4th": 1312, 
  "funding": 1313, 
  "tender": 1314, 
  "19th": 1315, 
  "increasing": 1316, 
  "resources": 1317, 
  "demand": 1318, 
  "8th": 1319, 
  "Ohrid": 1320, 
  "pro": 1321, 
  "gold": 1322, 
  "recognised": 1323, 
  "closed": 1324, 
  "Socialist": 1325, 
  "borders": 1326, 
  "shows": 1327, 
  "s": 1328, 
  "7th": 1329, 
  "Sea": 1330, 
  "neighbouring": 1331, 
  "course": 1332, 
  "Rights": 1333, 
  "Mitrovica": 1334, 
  "kind": 1335, 
  "century": 1336, 
  "Orthodox": 1337, 
  "achieved": 1338, 
  "declared": 1339, 
  "Radovan": 1340, 
  "equipment": 1341, 
  "indictment": 1342, 
  "greater": 1343, 
  "in@@": 1344, 
  "genocide": 1345, 
  "land": 1346, 
  "analyst": 1347, 
  "protect": 1348, 
  "seek": 1349, 
  "decide": 1350, 
  "recognition": 1351, 
  "house": 1352, 
  "decisions": 1353, 
  "popular": 1354, 
  "officially": 1355, 
  "Olympics": 1356, 
  "involvement": 1357, 
  "Slovenian": 1358, 
  "experience": 1359, 
  "immediately": 1360, 
  "9th": 1361, 
  "mobile": 1362, 
  "consider": 1363, 
  "either": 1364, 
  "claims": 1365, 
  "matter": 1366, 
  "28th": 1367, 
  "Iran": 1368, 
  "concrete": 1369, 
  "Moscow": 1370, 
  "operating": 1371, 
  "allowed": 1372, 
  "stable": 1373, 
  "fiscal": 1374, 
  "figures": 1375, 
  "leadership": 1376, 
  "age": 1377, 
  "inflation": 1378, 
  "existing": 1379, 
  "levels": 1380, 
  "Annan": 1381, 
  "interior": 1382, 
  "light": 1383, 
  "implemented": 1384, 
  "Cup": 1385, 
  "Tomislav": 1386, 
  "13th": 1387, 
  "labour": 1388, 
  "gave": 1389, 
  "Tribunal": 1390, 
  "transport": 1391, 
  "re": 1392, 
  "unit": 1393, 
  "try": 1394, 
  "benefit": 1395, 
  "chairman": 1396, 
  "citing": 1397, 
  "Culture": 1398, 
  "forum": 1399, 
  "2nd": 1400, 
  "particular": 1401, 
  "nothing": 1402, 
  "establishment": 1403, 
  "approach": 1404, 
  "lives": 1405, 
  "14th": 1406, 
  "approval": 1407, 
  "Dodik": 1408, 
  "costs": 1409, 
  "protests": 1410, 
  "authority": 1411, 
  "submitted": 1412, 
  "improved": 1413, 
  "release": 1414, 
  "concerning": 1415, 
  "Sejdiu": 1416, 
  "employees": 1417, 
  "look": 1418, 
  "Crvenkovski": 1419, 
  "Abdullah": 1420, 
  "S@@": 1421, 
  "showed": 1422, 
  "courts": 1423, 
  "front": 1424, 
  "Energy": 1425, 
  "climate": 1426, 
  "improving": 1427, 
  "ovic": 1428, 
  "stage": 1429, 
  "challenge": 1430, 
  "opportunities": 1431, 
  "prepared": 1432, 
  "account": 1433, 
  "16th": 1434, 
  "communist": 1435, 
  "fall": 1436, 
  "VOA": 1437, 
  "holds": 1438, 
  "Eastern": 1439, 
  "positions": 1440, 
  "professor": 1441, 
  "Co": 1442, 
  "mostly": 1443, 
  "Dragan": 1444, 
  "takes": 1445, 
  "financing": 1446, 
  "Djukanovic": 1447, 
  "southern": 1448, 
  "ing": 1449, 
  "30th": 1450, 
  "25th": 1451, 
  "amid": 1452, 
  "partner": 1453, 
  "effective": 1454, 
  "focused": 1455, 
  "mid": 1456, 
  "benefits": 1457, 
  "match": 1458, 
  "compromise": 1459, 
  "died": 1460, 
  "enlargement": 1461, 
  "praised": 1462, 
  "secure": 1463, 
  "programmes": 1464, 
  "happen": 1465, 
  "meetings": 1466, 
  "zone": 1467, 
  "council": 1468, 
  "drug": 1469, 
  "providing": 1470, 
  "Human": 1471, 
  "believed": 1472, 
  "Fund": 1473, 
  "registered": 1474, 
  "develop": 1475, 
  "23rd": 1476, 
  "expects": 1477, 
  "critical": 1478, 
  "possibility": 1479, 
  "visitors": 1480, 
  "charge": 1481, 
  "promised": 1482, 
  "contract": 1483, 
  "American": 1484, 
  "EP": 1485, 
  "modern": 1486, 
  "22nd": 1487, 
  "Ali": 1488, 
  "record": 1489, 
  "SEE": 1490, 
  "establishing": 1491, 
  "Spain": 1492, 
  "phase": 1493, 
  "staff": 1494, 
  "municipality": 1495, 
  "care": 1496, 
  "aim": 1497, 
  "resolve": 1498, 
  "18th": 1499, 
  "shown": 1500, 
  "hit": 1501, 
  "art": 1502, 
  "stay": 1503, 
  "Adriatic": 1504, 
  "partners": 1505, 
  "Fatmir": 1506, 
  "upcoming": 1507, 
  "hundreds": 1508, 
  "forced": 1509, 
  "Afghanistan": 1510, 
  "rest": 1511, 
  "heads": 1512, 
  "ways": 1513, 
  "negative": 1514, 
  "committee": 1515, 
  "makes": 1516, 
  "serve": 1517, 
  "9": 1518, 
  "avoid": 1519, 
  "professional": 1520, 
  "discussions": 1521, 
  "o": 1522, 
  "negotiating": 1523, 
  "27th": 1524, 
  "mainly": 1525, 
  "sale": 1526, 
  "continuing": 1527, 
  "traditional": 1528, 
  "ones": 1529, 
  "host": 1530, 
  "allegedly": 1531, 
  "Assembly": 1532, 
  "Libya": 1533, 
  "huge": 1534, 
  "movie": 1535, 
  "sought": 1536, 
  "Vladimir": 1537, 
  "cities": 1538, 
  "available": 1539, 
  "Czech": 1540, 
  "affairs": 1541, 
  "strengthening": 1542, 
  "spending": 1543, 
  "Scheffer": 1544, 
  "car": 1545, 
  "Police": 1546, 
  "Hoop": 1547, 
  "institution": 1548, 
  "Middle": 1549, 
  "Economy": 1550, 
  "send": 1551, 
  "Vienna": 1552, 
  "tried": 1553, 
  "turned": 1554, 
  "finally": 1555, 
  "moment": 1556, 
  "poll": 1557, 
  "voting": 1558, 
  "mean": 1559, 
  "35": 1560, 
  "headed": 1561, 
  "Greeks": 1562, 
  "employment": 1563, 
  "facilities": 1564, 
  "priorities": 1565, 
  "Sali": 1566, 
  "economies": 1567, 
  "rating": 1568, 
  "everyone": 1569, 
  "music": 1570, 
  "personal": 1571, 
  "26th": 1572, 
  "urging": 1573, 
  "active": 1574, 
  "Goran": 1575, 
  "procedures": 1576, 
  "1991": 1577, 
  "2012": 1578, 
  "Israel": 1579, 
  "RFE": 1580, 
  "poverty": 1581, 
  "ground": 1582, 
  "caused": 1583, 
  "era": 1584, 
  "request": 1585, 
  "agencies": 1586, 
  "supply": 1587, 
  "goals": 1588, 
  "Vuk": 1589, 
  "reasons": 1590, 
  "lot": 1591, 
  "conflicts": 1592, 
  "Austrian": 1593, 
  "resolved": 1594, 
  "loans": 1595, 
  "cross": 1596, 
  "developments": 1597, 
  "persons": 1598, 
  "Nikolic": 1599, 
  "changed": 1600, 
  "assessment": 1601, 
  "contribute": 1602, 
  "looking": 1603, 
  "census": 1604, 
  "residents": 1605, 
  "internal": 1606, 
  "letter": 1607, 
  "interested": 1608, 
  "RL": 1609, 
  "affected": 1610, 
  "condition": 1611, 
  "helping": 1612, 
  "Economic": 1613, 
  "settlement": 1614, 
  "liberalisation": 1615, 
  "attend": 1616, 
  "NGOs": 1617, 
  "board": 1618, 
  "currency": 1619, 
  "concluded": 1620, 
  "raise": 1621, 
  "1998": 1622, 
  "ban": 1623, 
  "places": 1624, 
  "suspected": 1625, 
  "transition": 1626, 
  "Hashim": 1627, 
  "attempt": 1628, 
  "basic": 1629, 
  "tourist": 1630, 
  "raised": 1631, 
  "70": 1632, 
  "SFOR": 1633, 
  "edition": 1634, 
  "served": 1635, 
  "affect": 1636, 
  "spent": 1637, 
  "via": 1638, 
  "principles": 1639, 
  "quickly": 1640, 
  "attention": 1641, 
  "offers": 1642, 
  "Museum": 1643, 
  "individuals": 1644, 
  "hosted": 1645, 
  "traffic": 1646, 
  "criminals": 1647, 
  "Croats": 1648, 
  "self": 1649, 
  "follow": 1650, 
  "threats": 1651, 
  "noting": 1652, 
  "statements": 1653, 
  "territorial": 1654, 
  "decades": 1655, 
  "carried": 1656, 
  "200": 1657, 
  "personnel": 1658, 
  "cited": 1659, 
  "environmental": 1660, 
  "track": 1661, 
  "bringing": 1662, 
  "Speaker": 1663, 
  "Karamanlis": 1664, 
  "invitation": 1665, 
  "criticism": 1666, 
  "backed": 1667, 
  "sure": 1668, 
  "FT": 1669, 
  "stake": 1670, 
  "pre": 1671, 
  "body": 1672, 
  "29th": 1673, 
  "person": 1674, 
  "amendments": 1675, 
  "transfer": 1676, 
  "Muslims": 1677, 
  "television": 1678, 
  "II": 1679, 
  "Democrats": 1680, 
  "Milorad": 1681, 
  "4@@": 1682, 
  "ed": 1683, 
  "represent": 1684, 
  "individual": 1685, 
  "adoption": 1686, 
  "1,000": 1687, 
  "historic": 1688, 
  "incident": 1689, 
  "Jeremic": 1690, 
  "figure": 1691, 
  "taxes": 1692, 
  "questions": 1693, 
  "China": 1694, 
  "refugees": 1695, 
  "voted": 1696, 
  "Traian": 1697, 
  "provides": 1698, 
  "sites": 1699, 
  "speech": 1700, 
  "turnout": 1701, 
  "journalist": 1702, 
  "tensions": 1703, 
  "tells": 1704, 
  "export": 1705, 
  "24th": 1706, 
  "book": 1707, 
  "partnership": 1708, 
  "placed": 1709, 
  "Black": 1710, 
  "Croat": 1711, 
  "Trade": 1712, 
  "monitoring": 1713, 
  "speed": 1714, 
  "task": 1715, 
  "fourth": 1716, 
  "named": 1717, 
  "youth": 1718, 
  "separate": 1719, 
  "theatre": 1720, 
  "Democracy": 1721, 
  "neighbours": 1722, 
  "formed": 1723, 
  "bill": 1724, 
  "initial": 1725, 
  "sectors": 1726, 
  "80": 1727, 
  "feel": 1728, 
  "Paul": 1729, 
  "imports": 1730, 
  "emergency": 1731, 
  "visits": 1732, 
  "Bosniak": 1733, 
  "es": 1734, 
  "supporters": 1735, 
  "outcome": 1736, 
  "target": 1737, 
  "medical": 1738, 
  "Barroso": 1739, 
  "numerous": 1740, 
  "dis@@": 1741, 
  "peaceful": 1742, 
  "located": 1743, 
  "worst": 1744, 
  "accepted": 1745, 
  "phone": 1746, 
  "buildings": 1747, 
  "participated": 1748, 
  "fire": 1749, 
  "prosecution": 1750, 
  "values": 1751, 
  "Georgi": 1752, 
  "revenues": 1753, 
  "indicated": 1754, 
  "hands": 1755, 
  "stance": 1756, 
  "concerned": 1757, 
  "massacre": 1758, 
  "Partnership": 1759, 
  "MPs": 1760, 
  "participating": 1761, 
  "i": 1762, 
  "SE": 1763, 
  "London": 1764, 
  "creating": 1765, 
  "homes": 1766, 
  "HDZ": 1767, 
  "eventually": 1768, 
  "gathered": 1769, 
  "treatment": 1770, 
  "fans": 1771, 
  "Netherlands": 1772, 
  "peacekeeping": 1773, 
  "sold": 1774, 
  "Ahmet": 1775, 
  "essential": 1776, 
  "entities": 1777, 
  "Antonio": 1778, 
  "Branko": 1779, 
  "sell": 1780, 
  "prior": 1781, 
  "nor": 1782, 
  "supports": 1783, 
  "systems": 1784, 
  "warning": 1785, 
  "artists": 1786, 
  "fear": 1787, 
  "allowing": 1788, 
  "houses": 1789, 
  "alone": 1790, 
  "civilians": 1791, 
  "expert": 1792, 
  "income": 1793, 
  "films": 1794, 
  "giving": 1795, 
  "Linda": 1796, 
  "determined": 1797, 
  "safety": 1798, 
  "gain": 1799, 
  "agriculture": 1800, 
  "industrial": 1801, 
  "entertainment": 1802, 
  "simply": 1803, 
  "players": 1804, 
  "above": 1805, 
  "units": 1806, 
  "night": 1807, 
  "A@@": 1808, 
  "damage": 1809, 
  "thing": 1810, 
  "tour": 1811, 
  "consensus": 1812, 
  "buy": 1813, 
  "EBRD": 1814, 
  "incidents": 1815, 
  "Milan": 1816, 
  "stations": 1817, 
  "favour": 1818, 
  "OHR": 1819, 
  "model": 1820, 
  "therefore": 1821, 
  "supporting": 1822, 
  "Mediterranean": 1823, 
  "Tariceanu": 1824, 
  "really": 1825, 
  "Radic": 1826, 
  "Bush": 1827, 
  "facility": 1828, 
  "firms": 1829, 
  "visiting": 1830, 
  "Integration": 1831, 
  "newly": 1832, 
  "decade": 1833, 
  "connection": 1834, 
  "executive": 1835, 
  "90": 1836, 
  "command": 1837, 
  "Natasa": 1838, 
  "Karadaku": 1839, 
  "Roundup": 1840, 
  "got": 1841, 
  "let": 1842, 
  "institutional": 1843, 
  "developed": 1844, 
  "played": 1845, 
  "salaries": 1846, 
  "readiness": 1847, 
  "managed": 1848, 
  "creation": 1849, 
  "intelligence": 1850, 
  "maintain": 1851, 
  "Special": 1852, 
  "deadline": 1853, 
  "fugitive": 1854, 
  "demands": 1855, 
  "Beta": 1856, 
  "C@@": 1857, 
  "Mayor": 1858, 
  "application": 1859, 
  "cover": 1860, 
  "Dutch": 1861, 
  "Ivan": 1862, 
  "Schengen": 1863, 
  "block": 1864, 
  "Turks": 1865, 
  "Poland": 1866, 
  "carry": 1867, 
  "approximately": 1868, 
  "headquarters": 1869, 
  "resolving": 1870, 
  "assets": 1871, 
  "decentralisation": 1872, 
  "talk": 1873, 
  "acts": 1874, 
  "newspaper": 1875, 
  "encourage": 1876, 
  "commercial": 1877, 
  "produce": 1878, 
  "Christmas": 1879, 
  "discovered": 1880, 
  "largely": 1881, 
  "overcome": 1882, 
  "consequences": 1883, 
  "Parvanov": 1884, 
  "marked": 1885, 
  "assassination": 1886, 
  "moving": 1887, 
  "controversial": 1888, 
  "contribution": 1889, 
  "relationship": 1890, 
  "republic": 1891, 
  "administrative": 1892, 
  "mark": 1893, 
  "NGO": 1894, 
  "limited": 1895, 
  "beyond": 1896, 
  "division": 1897, 
  "treaty": 1898, 
  "running": 1899, 
  "addressing": 1900, 
  "quarter": 1901, 
  "discussion": 1902, 
  "saw": 1903, 
  "annually": 1904, 
  "image": 1905, 
  "getting": 1906, 
  "solve": 1907, 
  "electoral": 1908, 
  "Macedonians": 1909, 
  "trust": 1910, 
  "5@@": 1911, 
  "appointed": 1912, 
  "commitments": 1913, 
  "port": 1914, 
  "Chief": 1915, 
  "completely": 1916, 
  "complex": 1917, 
  "strike": 1918, 
  "FBiH": 1919, 
  "Georgiev": 1920, 
  "Novi": 1921, 
  "3@@": 1922, 
  "plants": 1923, 
  "structure": 1924, 
  "returned": 1925, 
  "Javier": 1926, 
  "Stipe": 1927, 
  "reiterated": 1928, 
  "6@@": 1929, 
  "Lajcak": 1930, 
  "sovereignty": 1931, 
  "delay": 1932, 
  "t": 1933, 
  "source": 1934, 
  "permanent": 1935, 
  "himself": 1936, 
  "pass": 1937, 
  "anything": 1938, 
  "Law": 1939, 
  "autonomy": 1940, 
  "highly": 1941, 
  "race": 1942, 
  "West": 1943, 
  "clearly": 1944, 
  "dropped": 1945, 
  "weekend": 1946, 
  "introduced": 1947, 
  "range": 1948, 
  "observers": 1949, 
  "Moldova": 1950, 
  "banking": 1951, 
  "missions": 1952, 
  "Research": 1953, 
  "Syria": 1954, 
  "arrests": 1955, 
  "station": 1956, 
  "ancient": 1957, 
  "winning": 1958, 
  "Paris": 1959, 
  "Day": 1960, 
  "&apos;m": 1961, 
  "respectively": 1962, 
  "leaving": 1963, 
  "House": 1964, 
  "wrote": 1965, 
  "nationalist": 1966, 
  "allegations": 1967, 
  "reconstruction": 1968, 
  "Romanians": 1969, 
  "bad": 1970, 
  "primary": 1971, 
  "airport": 1972, 
  "push": 1973, 
  "prominent": 1974, 
  "mass": 1975, 
  "finding": 1976, 
  "developing": 1977, 
  "Chamber": 1978, 
  "offices": 1979, 
  "reconciliation": 1980, 
  "paper": 1981, 
  "representing": 1982, 
  "operational": 1983, 
  "increasingly": 1984, 
  "player": 1985, 
  "Technology": 1986, 
  "require": 1987, 
  "T@@": 1988, 
  "reaching": 1989, 
  "Martti": 1990, 
  "helped": 1991, 
  "diplomats": 1992, 
  "worked": 1993, 
  "requires": 1994, 
  "moved": 1995, 
  "safe": 1996, 
  "Movement": 1997, 
  "bridge": 1998, 
  "ability": 1999, 
  "woman": 2000, 
  "practice": 2001, 
  "score": 2002, 
  "details": 2003, 
  "resignation": 2004, 
  "Buckovski": 2005, 
  "ts": 2006, 
  "Thessaloniki": 2007, 
  "procedure": 2008, 
  "lines": 2009, 
  "eastern": 2010, 
  "medal": 2011, 
  "numbers": 2012, 
  "directly": 2013, 
  "activity": 2014, 
  "widely": 2015, 
  "story": 2016, 
  "streets": 2017, 
  "functioning": 2018, 
  "stands": 2019, 
  "Theatre": 2020, 
  "restrictions": 2021, 
  "Church": 2022, 
  "fund": 2023, 
  "rising": 2024, 
  "Hungarian": 2025, 
  "Embassy": 2026, 
  "Iraqi": 2027, 
  "differences": 2028, 
  "student": 2029, 
  "hospital": 2030, 
  "Ukraine": 2031, 
  "adopt": 2032, 
  "civilian": 2033, 
  "probably": 2034, 
  "seat": 2035, 
  "mutual": 2036, 
  "diplomat": 2037, 
  "ask": 2038, 
  "secret": 2039, 
  "season": 2040, 
  "heritage": 2041, 
  "ers": 2042, 
  "addressed": 2043, 
  "base": 2044, 
  "doesn": 2045, 
  "born": 2046, 
  "Liberal": 2047, 
  "strongly": 2048, 
  "code": 2049, 
  "opposed": 2050, 
  "seems": 2051, 
  "remained": 2052, 
  "ministries": 2053, 
  "cars": 2054, 
  "Free": 2055, 
  "friends": 2056, 
  "owner": 2057, 
  "measure": 2058, 
  "teams": 2059, 
  "eurozone": 2060, 
  "claimed": 2061, 
  "300": 2062, 
  "I@@": 2063, 
  "Talat": 2064, 
  "suggest": 2065, 
  "unless": 2066, 
  "cause": 2067, 
  "value": 2068, 
  "reduced": 2069, 
  "hoping": 2070, 
  "table": 2071, 
  "regulations": 2072, 
  "regular": 2073, 
  "granted": 2074, 
  "improvement": 2075, 
  "31st": 2076, 
  "test": 2077, 
  "filed": 2078, 
  "officer": 2079, 
  "internationally": 2080, 
  "refused": 2081, 
  "offering": 2082, 
  "holding": 2083, 
  "reality": 2084, 
  "substantial": 2085, 
  "university": 2086, 
  "verdict": 2087, 
  "describing": 2088, 
  "alternative": 2089, 
  "People": 2090, 
  "IT": 2091, 
  "trip": 2092, 
  "owners": 2093, 
  "Ottoman": 2094, 
  "claim": 2095, 
  "O@@": 2096, 
  "Constitutional": 2097, 
  "historical": 2098, 
  "Forces": 2099, 
  "sentence": 2100, 
  "rotating": 2101, 
  "athletes": 2102, 
  "&apos;re": 2103, 
  "reduction": 2104, 
  "ranked": 2105, 
  "scientists": 2106, 
  "retired": 2107, 
  "Danube": 2108, 
  "Ivica": 2109, 
  "factory": 2110, 
  "difficulties": 2111, 
  "prove": 2112, 
  "River": 2113, 
  "Independent": 2114, 
  "P@@": 2115, 
  "tonnes": 2116, 
  "meant": 2117, 
  "pace": 2118, 
  "Christofias": 2119, 
  "designed": 2120, 
  "anyone": 2121, 
  "formal": 2122, 
  "attract": 2123, 
  "involving": 2124, 
  "linked": 2125, 
  "Ban": 2126, 
  "subject": 2127, 
  "roads": 2128, 
  "VMRO": 2129, 
  "chapters": 2130, 
  "apply": 2131, 
  "PSD": 2132, 
  "exercise": 2133, 
  "Costas": 2134, 
  "ambassador": 2135, 
  "Telekom": 2136, 
  "Hasani": 2137, 
  "option": 2138, 
  "intended": 2139, 
  "blocked": 2140, 
  "represented": 2141, 
  "stressing": 2142, 
  "sentenced": 2143, 
  "Blic": 2144, 
  "winner": 2145, 
  "parents": 2146, 
  "assist": 2147, 
  "imposed": 2148, 
  "finished": 2149, 
  "ranking": 2150, 
  "abuse": 2151, 
  "thought": 2152, 
  "B@@": 2153, 
  "initially": 2154, 
  "cuts": 2155, 
  "equal": 2156, 
  "factors": 2157, 
  "conduct": 2158, 
  "opens": 2159, 
  "hour": 2160, 
  "7@@": 2161, 
  "ordered": 2162, 
  "duties": 2163, 
  "Investment": 2164, 
  "church": 2165, 
  "destroyed": 2166, 
  "break": 2167, 
  "highway": 2168, 
  "Berlin": 2169, 
  "remarks": 2170, 
  "proposals": 2171, 
  "municipal": 2172, 
  "salary": 2173, 
  "Miroslav": 2174, 
  "fell": 2175, 
  "direction": 2176, 
  "invited": 2177, 
  "threatened": 2178, 
  "guarantee": 2179, 
  "Vice": 2180, 
  "North": 2181, 
  "risks": 2182, 
  "double": 2183, 
  "solutions": 2184, 
  "smaller": 2185, 
  "door": 2186, 
  "austerity": 2187, 
  "space": 2188, 
  "Action": 2189, 
  "views": 2190, 
  "F@@": 2191, 
  "Sports": 2192, 
  "unable": 2193, 
  "concert": 2194, 
  "drop": 2195, 
  "mayor": 2196, 
  "regions": 2197, 
  "contributed": 2198, 
  "Petersen": 2199, 
  "Education": 2200, 
  "enforcement": 2201, 
  "lose": 2202, 
  "2@@": 2203, 
  "attempts": 2204, 
  "sales": 2205, 
  "decline": 2206, 
  "welcome": 2207, 
  "son": 2208, 
  "killing": 2209, 
  "depends": 2210, 
  "seriously": 2211, 
  "slow": 2212, 
  "easy": 2213, 
  "Carla": 2214, 
  "Rugova": 2215, 
  "neither": 2216, 
  "adds": 2217, 
  "faced": 2218, 
  "rose": 2219, 
  "&apos;ve": 2220, 
  "words": 2221, 
  "fugitives": 2222, 
  "street": 2223, 
  "powers": 2224, 
  "Jessen": 2225, 
  "assembly": 2226, 
  "Libyan": 2227, 
  "previously": 2228, 
  "aware": 2229, 
  "boycott": 2230, 
  "battle": 2231, 
  "denied": 2232, 
  "prepare": 2233, 
  "500": 2234, 
  "Mostar": 2235, 
  "trend": 2236, 
  "dealing": 2237, 
  "DPMNE": 2238, 
  "represents": 2239, 
  "missing": 2240, 
  "K@@": 2241, 
  "detained": 2242, 
  "sustainable": 2243, 
  "preparing": 2244, 
  "obtain": 2245, 
  "crossing": 2246, 
  "arms": 2247, 
  "injured": 2248, 
  "child": 2249, 
  "transferred": 2250, 
  "preparations": 2251, 
  "choice": 2252, 
  "computer": 2253, 
  "ordination": 2254, 
  "discrimination": 2255, 
  "Public": 2256, 
  "external": 2257, 
  "8@@": 2258, 
  "understand": 2259, 
  "Laura": 2260, 
  "2,000": 2261, 
  "Merkel": 2262, 
  "SDP": 2263, 
  "setting": 2264, 
  "Christian": 2265, 
  "CNN": 2266, 
  "ruled": 2267, 
  "determine": 2268, 
  "spokesperson": 2269, 
  "statistics": 2270, 
  "south": 2271, 
  "significantly": 2272, 
  "insisted": 2273, 
  "fields": 2274, 
  "generally": 2275, 
  "happened": 2276, 
  "identified": 2277, 
  "sponsored": 2278, 
  "arrangement": 2279, 
  "ted": 2280, 
  "ranks": 2281, 
  "politically": 2282, 
  "enterprises": 2283, 
  "contest": 2284, 
  "Academy": 2285, 
  "dead": 2286, 
  "goes": 2287, 
  "operator": 2288, 
  "wide": 2289, 
  "understanding": 2290, 
  "supplies": 2291, 
  "sense": 2292, 
  "identity": 2293, 
  "appeal": 2294, 
  "promoting": 2295, 
  "medals": 2296, 
  "failing": 2297, 
  "E@@": 2298, 
  "association": 2299, 
  "obstacle": 2300, 
  "extended": 2301, 
  "Davutoglu": 2302, 
  "secretary": 2303, 
  "primarily": 2304, 
  "wing": 2305, 
  "entered": 2306, 
  "DSS": 2307, 
  "promises": 2308, 
  "targets": 2309, 
  "powerful": 2310, 
  "EUFOR": 2311, 
  "initiatives": 2312, 
  "G@@": 2313, 
  "founded": 2314, 
  "appeared": 2315, 
  "Gazprom": 2316, 
  "appear": 2317, 
  "Borisov": 2318, 
  "marking": 2319, 
  "Chairman": 2320, 
  "voter": 2321, 
  "Japan": 2322, 
  "networks": 2323, 
  "Stanishev": 2324, 
  "witness": 2325, 
  "stronger": 2326, 
  "upon": 2327, 
  "comments": 2328, 
  "critics": 2329, 
  "boosting": 2330, 
  "Socialists": 2331, 
  "seeks": 2332, 
  "spend": 2333, 
  "Israeli": 2334, 
  "Dinkic": 2335, 
  "obstacles": 2336, 
  "accord": 2337, 
  "Paddy": 2338, 
  "D@@": 2339, 
  "regardless": 2340, 
  "Forum": 2341, 
  "efficiency": 2342, 
  "standing": 2343, 
  "pensions": 2344, 
  "Policy": 2345, 
  "Studies": 2346, 
  "Jose": 2347, 
  "Ministers": 2348, 
  "fuel": 2349, 
  "Force": 2350, 
  "agricultural": 2351, 
  "unacceptable": 2352, 
  "honour": 2353, 
  "Josipovic": 2354, 
  "Supreme": 2355, 
  "expectations": 2356, 
  "true": 2357, 
  "showing": 2358, 
  "pension": 2359, 
  "Kurds": 2360, 
  "handed": 2361, 
  "room": 2362, 
  "VAT": 2363, 
  "factor": 2364, 
  "integrity": 2365, 
  "game": 2366, 
  "purchase": 2367, 
  "ensuring": 2368, 
  "Split": 2369, 
  "Bloomberg": 2370, 
  "Vojvodina": 2371, 
  "violations": 2372, 
  "PASOK": 2373, 
  "names": 2374, 
  "chances": 2375, 
  "Jaap": 2376, 
  "spoke": 2377, 
  "ate": 2378, 
  "profit": 2379, 
  "sanctions": 2380, 
  "Organisation": 2381, 
  "links": 2382, 
  "insists": 2383, 
  "Dnevnik": 2384, 
  "heavy": 2385, 
  "relevant": 2386, 
  "lawyer": 2387, 
  "Milo": 2388, 
  "Board": 2389, 
  "Georgia": 2390, 
  "structural": 2391, 
  "en@@": 2392, 
  "guilty": 2393, 
  "Foundation": 2394, 
  "scientific": 2395, 
  "website": 2396, 
  "closely": 2397, 
  "suggests": 2398, 
  "restructuring": 2399, 
  "N@@": 2400, 
  "below": 2401, 
  "PfP": 2402, 
  "envisions": 2403, 
  "transparency": 2404, 
  "fulfil": 2405, 
  "Vujanovic": 2406, 
  "waiting": 2407, 
  "spring": 2408, 
  "appears": 2409, 
  "normal": 2410, 
  "asylum": 2411, 
  "Draskovic": 2412, 
  "losses": 2413, 
  "receiving": 2414, 
  "expansion": 2415, 
  "Switzerland": 2416, 
  "invested": 2417, 
  "efficient": 2418, 
  "certainly": 2419, 
  "existence": 2420, 
  "&amp;": 2421, 
  "awards": 2422, 
  "Africa": 2423, 
  "Nicosia": 2424, 
  "users": 2425, 
  "scale": 2426, 
  "acting": 2427, 
  "shares": 2428, 
  "Mehmet": 2429, 
  "determination": 2430, 
  "Stream": 2431, 
  "search": 2432, 
  "smuggling": 2433, 
  "optimistic": 2434, 
  "refugee": 2435, 
  "Mediapool": 2436, 
  "tennis": 2437, 
  "consumers": 2438, 
  "presidents": 2439, 
  "books": 2440, 
  "consortium": 2441, 
  "exist": 2442, 
  "flag": 2443, 
  "considering": 2444, 
  "fraud": 2445, 
  "Stefan": 2446, 
  "45": 2447, 
  "centres": 2448, 
  "ICJ": 2449, 
  "reducing": 2450, 
  "willing": 2451, 
  "loss": 2452, 
  "Diary": 2453, 
  "immediate": 2454, 
  "150": 2455, 
  "broad": 2456, 
  "resort": 2457, 
  "&apos;ll": 2458, 
  "red": 2459, 
  "star": 2460, 
  "Contact": 2461, 
  "moves": 2462, 
  "produced": 2463, 
  "bids": 2464, 
  "convicted": 2465, 
  "whom": 2466, 
  "extradition": 2467, 
  "department": 2468, 
  "speak": 2469, 
  "occurred": 2470, 
  "sparked": 2471, 
  "fifth": 2472, 
  "demanding": 2473, 
  "suspect": 2474, 
  "Nabucco": 2475, 
  "enjoy": 2476, 
  "Islam": 2477, 
  "Championship": 2478, 
  "perspective": 2479, 
  "someone": 2480, 
  "republics": 2481, 
  "principle": 2482, 
  "9@@": 2483, 
  "signal": 2484, 
  "M@@": 2485, 
  "marks": 2486, 
  "e@@": 2487, 
  "Michael": 2488, 
  "mine": 2489, 
  "wait": 2490, 
  "Ante": 2491, 
  "Belgium": 2492, 
  "wartime": 2493, 
  "writer": 2494, 
  "protected": 2495, 
  "CHP": 2496, 
  "transit": 2497, 
  "scene": 2498, 
  "acknowledged": 2499, 
  "L@@": 2500, 
  "damaged": 2501, 
  "wife": 2502, 
  "educational": 2503, 
  "otherwise": 2504, 
  "effects": 2505, 
  "Ciocoiu": 2506, 
  "hiding": 2507, 
  "Commander": 2508, 
  "Ceku": 2509, 
  "de@@": 2510, 
  "becomes": 2511, 
  "i@@": 2512, 
  "considerable": 2513, 
  "Government": 2514, 
  "Marina": 2515, 
  "55": 2516, 
  "enable": 2517, 
  "communication": 2518, 
  "constructive": 2519, 
  "combat": 2520, 
  "announcement": 2521, 
  "impossible": 2522, 
  "submit": 2523, 
  "suspended": 2524, 
  "route": 2525, 
  "insurance": 2526, 
  "vowed": 2527, 
  "transportation": 2528, 
  "kept": 2529, 
  "Science": 2530, 
  "generals": 2531, 
  "serving": 2532, 
  "nevertheless": 2533, 
  "competitive": 2534, 
  "silver": 2535, 
  "y": 2536, 
  "paying": 2537, 
  "ting": 2538, 
  "er": 2539, 
  "Slovakia": 2540, 
  "UNESCO": 2541, 
  "prize": 2542, 
  "bodies": 2543, 
  "dangerous": 2544, 
  "Stability": 2545, 
  "Protection": 2546, 
  "achieving": 2547, 
  "Bulgarians": 2548, 
  "deputies": 2549, 
  "Press": 2550, 
  "software": 2551, 
  "didn": 2552, 
  "removed": 2553, 
  "Qaeda": 2554, 
  "Zaman": 2555, 
  "completion": 2556, 
  "Ivanov": 2557, 
  "Health": 2558, 
  "satisfied": 2559, 
  "carrying": 2560, 
  "ends": 2561, 
  "candidacy": 2562, 
  "Alexander": 2563, 
  "UNDP": 2564, 
  "Pact": 2565, 
  "collection": 2566, 
  "requirement": 2567, 
  "green": 2568, 
  "Blerta": 2569, 
  "entering": 2570, 
  "widespread": 2571, 
  "Arab": 2572, 
  "reunification": 2573, 
  "Kosor": 2574, 
  "Spanish": 2575, 
  "viewed": 2576, 
  "wins": 2577, 
  "villages": 2578, 
  "organisers": 2579, 
  "argues": 2580, 
  "split": 2581, 
  "ideas": 2582, 
  "resident": 2583, 
  "holiday": 2584, 
  "performed": 2585, 
  "unilateral": 2586, 
  "gets": 2587, 
  "meets": 2588, 
  "camp": 2589, 
  "objective": 2590, 
  "citizenship": 2591, 
  "DS": 2592, 
  "losing": 2593, 
  "museum": 2594, 
  "acceptable": 2595, 
  "eventual": 2596, 
  "witnesses": 2597, 
  "monthly": 2598, 
  "title": 2599, 
  "towns": 2600, 
  "gives": 2601, 
  "hosts": 2602, 
  "manner": 2603, 
  "vehicles": 2604, 
  "10,000": 2605, 
  "adviser": 2606, 
  "vice": 2607, 
  "surrender": 2608, 
  "effectively": 2609, 
  "doctors": 2610, 
  "except": 2611, 
  "EurActiv": 2612, 
  "grant": 2613, 
  "wages": 2614, 
  "Foniqi": 2615, 
  "!": 2616, 
  "os": 2617, 
  "wish": 2618, 
  "applied": 2619, 
  "Manuel": 2620, 
  "investigations": 2621, 
  "obligation": 2622, 
  "governance": 2623, 
  "comprehensive": 2624, 
  "competitiveness": 2625, 
  "A": 2626, 
  "square": 2627, 
  "multiethnic": 2628, 
  "Haradinaj": 2629, 
  "5,000": 2630, 
  "aside": 2631, 
  "coast": 2632, 
  "proved": 2633, 
  "rural": 2634, 
  "DUI": 2635, 
  "Programme": 2636, 
  "larger": 2637, 
  "Nikolovski": 2638, 
  "lowest": 2639, 
  "Sad": 2640, 
  "Popescu": 2641, 
  "representation": 2642, 
  "awareness": 2643, 
  "confident": 2644, 
  "2013": 2645, 
  "choose": 2646, 
  "happy": 2647, 
  "destination": 2648, 
  "facilitate": 2649, 
  "Nastase": 2650, 
  "Service": 2651, 
  "delayed": 2652, 
  "Ivanovic": 2653, 
  "tasks": 2654, 
  "drugs": 2655, 
  "Asia": 2656, 
  "shared": 2657, 
  "distribution": 2658, 
  "trials": 2659, 
  "worldwide": 2660, 
  "teachers": 2661, 
  "Tourism": 2662, 
  "recommendations": 2663, 
  "fundamental": 2664, 
  "inside": 2665, 
  "minimum": 2666, 
  "deployment": 2667, 
  "d@@": 2668, 
  "Markovic": 2669, 
  "400": 2670, 
  "apart": 2671, 
  "LDK": 2672, 
  "club": 2673, 
  "backing": 2674, 
  "arguing": 2675, 
  "Babacan": 2676, 
  "Guardian": 2677, 
  "keeping": 2678, 
  "quite": 2679, 
  "changing": 2680, 
  "features": 2681, 
  "Luxembourg": 2682, 
  "performances": 2683, 
  "extremely": 2684, 
  "initiated": 2685, 
  "killings": 2686, 
  "preliminary": 2687, 
  "Staff": 2688, 
  "violent": 2689, 
  "Makfax": 2690, 
  "League": 2691, 
  "asking": 2692, 
  "Radical": 2693, 
  "argue": 2694, 
  "City": 2695, 
  "replace": 2696, 
  "shortly": 2697, 
  "fail": 2698, 
  "medium": 2699, 
  "shot": 2700, 
  "Rexhepi": 2701, 
  "unique": 2702, 
  "universities": 2703, 
  "ated": 2704, 
  "Internet": 2705, 
  "terror": 2706, 
  "g@@": 2707, 
  "ending": 2708, 
  "Relations": 2709, 
  "sovereign": 2710, 
  "ation": 2711, 
  "c@@": 2712, 
  "farmers": 2713, 
  "allies": 2714, 
  "famous": 2715, 
  "alliance": 2716, 
  "estate": 2717, 
  "ANA": 2718, 
  "quick": 2719, 
  "humanitarian": 2720, 
  "suffered": 2721, 
  "topics": 2722, 
  "Dusan": 2723, 
  "Art": 2724, 
  "Society": 2725, 
  "Prosecutor": 2726, 
  "greatest": 2727, 
  "Kofi": 2728, 
  "expand": 2729, 
  "Ljajic": 2730, 
  "signs": 2731, 
  "detention": 2732, 
  "sentences": 2733, 
  "judge": 2734, 
  "duty": 2735, 
  "passports": 2736, 
  "respondents": 2737, 
  "Ibrahim": 2738, 
  "directed": 2739, 
  "demonstrate": 2740, 
  "pointed": 2741, 
  "Robert": 2742, 
  "circumstances": 2743, 
  "awarded": 2744, 
  "delivered": 2745, 
  "Best": 2746, 
  "tournament": 2747, 
  "s@@": 2748, 
  "sea": 2749, 
  "agrees": 2750, 
  "Airlines": 2751, 
  "western": 2752, 
  "Open": 2753, 
  "Aleksandar": 2754, 
  "dominated": 2755, 
  "Kurdistan": 2756, 
  "1996": 2757, 
  "Chinese": 2758, 
  "W@@": 2759, 
  "extend": 2760, 
  "Rama": 2761, 
  "Summer": 2762, 
  "expression": 2763, 
  "Plus": 2764, 
  "accounts": 2765, 
  "read": 2766, 
  "Election": 2767, 
  "Business": 2768, 
  "processes": 2769, 
  "bronze": 2770, 
  "monetary": 2771, 
  "tradition": 2772, 
  "accompanied": 2773, 
  "deep": 2774, 
  "voicing": 2775, 
  "elements": 2776, 
  "editor": 2777, 
  "improvements": 2778, 
  "crossings": 2779, 
  "counts": 2780, 
  "covering": 2781, 
  "English": 2782, 
  "cards": 2783, 
  "singer": 2784, 
  "protocol": 2785, 
  "urges": 2786, 
  "Eurovision": 2787, 
  "scandal": 2788, 
  "reaction": 2789, 
  "father": 2790, 
  "1m": 2791, 
  "knowledge": 2792, 
  "parallel": 2793, 
  "over@@": 2794, 
  "rich": 2795, 
  "producer": 2796, 
  "1.5": 2797, 
  "raising": 2798, 
  "resulted": 2799, 
  "remove": 2800, 
  "Bosniaks": 2801, 
  "massive": 2802, 
  "metres": 2803, 
  "endorsed": 2804, 
  "accusations": 2805, 
  "size": 2806, 
  "Dacic": 2807, 
  "R@@": 2808, 
  "Davor": 2809, 
  "flights": 2810, 
  "percentage": 2811, 
  "Euobserver": 2812, 
  "1993": 2813, 
  "attending": 2814, 
  "chosen": 2815, 
  "returns": 2816, 
  "Mustafa": 2817, 
  "allows": 2818, 
  "turning": 2819, 
  "contracts": 2820, 
  "Parliamentary": 2821, 
  "career": 2822, 
  "titled": 2823, 
  "multi": 2824, 
  "purpose": 2825, 
  "prompted": 2826, 
  "65": 2827, 
  "organise": 2828, 
  "estimates": 2829, 
  "terrorists": 2830, 
  "district": 2831, 
  "irregularities": 2832, 
  "Inzko": 2833, 
  "Award": 2834, 
  "leads": 2835, 
  "replaced": 2836, 
  "Canada": 2837, 
  "tough": 2838, 
  "stepped": 2839, 
  "ordinator": 2840, 
  "provisions": 2841, 
  "Fair": 2842, 
  "drew": 2843, 
  "Daniel": 2844, 
  "Sweden": 2845, 
  "argued": 2846, 
  "appointment": 2847, 
  "type": 2848, 
  "sufficient": 2849, 
  "patients": 2850, 
  "besides": 2851, 
  "Information": 2852, 
  "notes": 2853, 
  "fast": 2854, 
  "enhance": 2855, 
  "mind": 2856, 
  "written": 2857, 
  "1990": 2858, 
  "band": 2859, 
  "waste": 2860, 
  "responsibilities": 2861, 
  "u": 2862, 
  "telling": 2863, 
  "original": 2864, 
  "ski": 2865, 
  "Milososki": 2866, 
  "doubt": 2867, 
  "fears": 2868, 
  "actually": 2869, 
  "Financial": 2870, 
  "DP": 2871, 
  "elsewhere": 2872, 
  "businessmen": 2873, 
  "nature": 2874, 
  "spread": 2875, 
  "immunity": 2876, 
  "Charter": 2877, 
  "Milovanovic": 2878, 
  "actual": 2879, 
  "indictee": 2880, 
  "draw": 2881, 
  "proceedings": 2882, 
  "H@@": 2883, 
  "Nebojsa": 2884, 
  "revenue": 2885, 
  "MP": 2886, 
  "capture": 2887, 
  "p@@": 2888, 
  "inter": 2889, 
  "winter": 2890, 
  "economist": 2891, 
  "accordance": 2892, 
  "wrong": 2893, 
  "balance": 2894, 
  "wage": 2895, 
  "100,000": 2896, 
  "instance": 2897, 
  "successfully": 2898, 
  "insist": 2899, 
  "an@@": 2900, 
  "gained": 2901, 
  "Re@@": 2902, 
  "Putin": 2903, 
  "listed": 2904, 
  "location": 2905, 
  "rally": 2906, 
  "chapter": 2907, 
  "visas": 2908, 
  "SDSM": 2909, 
  "protesters": 2910, 
  "3,000": 2911, 
  "gap": 2912, 
  "severe": 2913, 
  "none": 2914, 
  "integrated": 2915, 
  "formally": 2916, 
  "Durres": 2917, 
  "legislative": 2918, 
  "page": 2919, 
  "beat": 2920, 
  "advantage": 2921, 
  "Clinton": 2922, 
  "120": 2923, 
  "Echo": 2924, 
  "drawn": 2925, 
  "ally": 2926, 
  "sending": 2927, 
  "maintaining": 2928, 
  "covered": 2929, 
  "railway": 2930, 
  "heart": 2931, 
  "millions": 2932, 
  "USAID": 2933, 
  "moreover": 2934, 
  "guarantees": 2935, 
  "declined": 2936, 
  "song": 2937, 
  "advance": 2938, 
  "forming": 2939, 
  "seized": 2940, 
  "increases": 2941, 
  "incumbent": 2942, 
  "degree": 2943, 
  "Chancellor": 2944, 
  "explains": 2945, 
  "deals": 2946, 
  "link": 2947, 
  "removal": 2948, 
  "32": 2949, 
  "Armenian": 2950, 
  "HINA": 2951, 
  "John": 2952, 
  "formation": 2953, 
  "100m": 2954, 
  "America": 2955, 
  "prosperity": 2956, 
  "assured": 2957, 
  "ac@@": 2958, 
  "destruction": 2959, 
  "manager": 2960, 
  "repeatedly": 2961, 
  "protecting": 2962, 
  "easier": 2963, 
  "convinced": 2964, 
  "controlled": 2965, 
  "Bakoyannis": 2966, 
  "atmosphere": 2967, 
  "archaeologists": 2968, 
  "rescue": 2969, 
  "5m": 2970, 
  "3m": 2971, 
  "online": 2972, 
  "secular": 2973, 
  "Sarkozy": 2974, 
  "displaced": 2975, 
  "selected": 2976, 
  "category": 2977, 
  "elect": 2978, 
  "practical": 2979, 
  "celebrated": 2980, 
  "stock": 2981, 
  "train": 2982, 
  "humanity": 2983, 
  "unity": 2984, 
  "easily": 2985, 
  "founder": 2986, 
  "Hurriyet": 2987, 
  "analysis": 2988, 
  "drafted": 2989, 
  "clashes": 2990, 
  "Valentin": 2991, 
  "defined": 2992, 
  "friendly": 2993, 
  "depend": 2994, 
  "emphasised": 2995, 
  "scores": 2996, 
  "announcing": 2997, 
  "contact": 2998, 
  "Airport": 2999, 
  "regard": 3000, 
  "motion": 3001, 
  "Zivkovic": 3002, 
  "citizen": 3003, 
  "Year": 3004, 
  "immigrants": 3005, 
  "informal": 3006, 
  "dedicated": 3007, 
  "standard": 3008, 
  "kicked": 3009, 
  "colleagues": 3010, 
  "instability": 3011, 
  "Political": 3012, 
  "branch": 3013, 
  "Djelic": 3014, 
  "Tanjug": 3015, 
  "Regional": 3016, 
  "vital": 3017, 
  "comment": 3018, 
  "furthermore": 3019, 
  "insisting": 3020, 
  "bills": 3021, 
  "material": 3022, 
  "consumption": 3023, 
  "demanded": 3024, 
  "spokeswoman": 3025, 
  "smoking": 3026, 
  "danger": 3027, 
  "worse": 3028, 
  "hoped": 3029, 
  "governing": 3030, 
  "Mission": 3031, 
  "Petar": 3032, 
  "Plan": 3033, 
  "hearing": 3034, 
  "panel": 3035, 
  "coach": 3036, 
  "Deutsche": 3037, 
  "shooting": 3038, 
  "compete": 3039, 
  "Cvetkovic": 3040, 
  "modernisation": 3041, 
  "Muhamet": 3042, 
  "Dubrovnik": 3043, 
  "sees": 3044, 
  "mechanism": 3045, 
  "dozens": 3046, 
  "Topi": 3047, 
  "o@@": 3048, 
  "Professor": 3049, 
  "V@@": 3050, 
  "topic": 3051, 
  "Golden": 3052, 
  "audience": 3053, 
  "license": 3054, 
  "ports": 3055, 
  "flu": 3056, 
  "net": 3057, 
  "Calin": 3058, 
  "referring": 3059, 
  "politician": 3060, 
  "lived": 3061, 
  "couple": 3062, 
  "index": 3063, 
  "UK": 3064, 
  "aspects": 3065, 
  "answer": 3066, 
  "correspondent": 3067, 
  "cancer": 3068, 
  "demonstrated": 3069, 
  "withdraw": 3070, 
  "unions": 3071, 
  "sets": 3072, 
  "PDK": 3073, 
  "introduction": 3074, 
  "introduce": 3075, 
  "eligible": 3076, 
  "deliver": 3077, 
  "Microsoft": 3078, 
  "Rice": 3079, 
  "broke": 3080, 
  "celebrate": 3081, 
  "expensive": 3082, 
  "profile": 3083, 
  "CoE": 3084, 
  "requested": 3085, 
  "Kabashi": 3086, 
  "assess": 3087, 
  "hailed": 3088, 
  "Former": 3089, 
  "ar@@": 3090, 
  "amounts": 3091, 
  "lists": 3092, 
  "recovery": 3093, 
  "Transport": 3094, 
  "struggle": 3095, 
  "lies": 3096, 
  "U@@": 3097, 
  "nobody": 3098, 
  "h@@": 3099, 
  "memorandum": 3100, 
  "Freedom": 3101, 
  "twice": 3102, 
  "34": 3103, 
  "telecommunications": 3104, 
  "Prlenda": 3105, 
  "Syrian": 3106, 
  "capable": 3107, 
  "2m": 3108, 
  "closure": 3109, 
  "f@@": 3110, 
  "stated": 3111, 
  "article": 3112, 
  "religion": 3113, 
  "display": 3114, 
  "Ramadan": 3115, 
  "featuring": 3116, 
  "tolerance": 3117, 
  "condemned": 3118, 
  "plays": 3119, 
  "proper": 3120, 
  "selling": 3121, 
  "Gaddafi": 3122, 
  "urgent": 3123, 
  "impose": 3124, 
  "Soviet": 3125, 
  "potentially": 3126, 
  "banned": 3127, 
  "sealed": 3128, 
  "giant": 3129, 
  "donors": 3130, 
  "violation": 3131, 
  "mixed": 3132, 
  "adequate": 3133, 
  "negotiation": 3134, 
  "interim": 3135, 
  "healthcare": 3136, 
  "housing": 3137, 
  "mines": 3138, 
  "morning": 3139, 
  "southeast": 3140, 
  "surprise": 3141, 
  "wave": 3142, 
  "ship": 3143, 
  "wake": 3144, 
  "Crimes": 3145, 
  "admission": 3146, 
  "vision": 3147, 
  "Vlado": 3148, 
  "m": 3149, 
  "mother": 3150, 
  "bought": 3151, 
  "Bajram": 3152, 
  "d": 3153, 
  "dismissed": 3154, 
  "brings": 3155, 
  "achievements": 3156, 
  "gone": 3157, 
  "recommended": 3158, 
  "forms": 3159, 
  "atrocities": 3160, 
  "MIA": 3161, 
  "is@@": 3162, 
  "begun": 3163, 
  "ia": 3164, 
  "ambassadors": 3165, 
  "matters": 3166, 
  "tackle": 3167, 
  "Presidency": 3168, 
  "origin": 3169, 
  "km": 3170, 
  "expressing": 3171, 
  "Finnish": 3172, 
  "Sergey": 3173, 
  "tension": 3174, 
  "Zeljko": 3175, 
  "cast": 3176, 
  "momentum": 3177, 
  "embassy": 3178, 
  "resigned": 3179, 
  "Tribune": 3180, 
  "communications": 3181, 
  "materials": 3182, 
  "blocking": 3183, 
  "Conference": 3184, 
  "preventing": 3185, 
  "practices": 3186, 
  "oppose": 3187, 
  "Beijing": 3188, 
  ".@@": 3189, 
  "peacekeepers": 3190, 
  "1997": 3191, 
  "exclusive": 3192, 
  "limit": 3193, 
  "urban": 3194, 
  "disaster": 3195, 
  "video": 3196, 
  "hotels": 3197, 
  "stopped": 3198, 
  "Great": 3199, 
  "neighbour": 3200, 
  "veto": 3201, 
  "Facebook": 3202, 
  "concerts": 3203, 
  "hotel": 3204, 
  "Constitution": 3205, 
  "33": 3206, 
  "context": 3207, 
  "Mirko": 3208, 
  "deaths": 3209, 
  "intervention": 3210, 
  "contributions": 3211, 
  "counterparts": 3212, 
  "female": 3213, 
  "reactions": 3214, 
  "monitor": 3215, 
  "Resolution": 3216, 
  "difference": 3217, 
  "encouraging": 3218, 
  "perform": 3219, 
  "ships": 3220, 
  "collective": 3221, 
  "conclusion": 3222, 
  "stood": 3223, 
  "Haris": 3224, 
  "polling": 3225, 
  "presents": 3226, 
  "section": 3227, 
  "Stojanovska": 3228, 
  "tell": 3229, 
  "promise": 3230, 
  "Vukovar": 3231, 
  "usually": 3232, 
  "conservative": 3233, 
  "claiming": 3234, 
  "temporary": 3235, 
  "indeed": 3236, 
  "park": 3237, 
  "truth": 3238, 
  "Konjikusic": 3239, 
  "Filip": 3240, 
  "succeed": 3241, 
  "looks": 3242, 
  "grow": 3243, 
  "Z@@": 3244, 
  "Street": 3245, 
  "putting": 3246, 
  "Hadzic": 3247, 
  "0": 3248, 
  "delays": 3249, 
  "Stankovic": 3250, 
  "minute": 3251, 
  "Brajshori": 3252, 
  "generation": 3253, 
  "appropriate": 3254, 
  "ownership": 3255, 
  "relatively": 3256, 
  "wind": 3257, 
  "surrounding": 3258, 
  "G17": 3259, 
  "attracting": 3260, 
  "heard": 3261, 
  "radical": 3262, 
  "commissioner": 3263, 
  "Swedish": 3264, 
  "enormous": 3265, 
  "admitted": 3266, 
  "HIV": 3267, 
  "talking": 3268, 
  "ating": 3269, 
  "feature": 3270, 
  "revealed": 3271, 
  "Moisiu": 3272, 
  "Jean": 3273, 
  "combined": 3274, 
  "torture": 3275, 
  "Community": 3276, 
  "Prize": 3277, 
  "Ki": 3278, 
  "ch@@": 3279, 
  "Herald": 3280, 
  "Obama": 3281, 
  "optimism": 3282, 
  "welcoming": 3283, 
  "favourable": 3284, 
  "Workers": 3285, 
  "Corruption": 3286, 
  "promising": 3287, 
  "Xinhua": 3288, 
  "else": 3289, 
  "bailout": 3290, 
  "express": 3291, 
  "outlook": 3292, 
  "save": 3293, 
  "List": 3294, 
  "laundering": 3295, 
  "Peter": 3296, 
  "decrease": 3297, 
  "launching": 3298, 
  "Marovic": 3299, 
  "wrapped": 3300, 
  "43": 3301, 
  "missile": 3302, 
  "returning": 3303, 
  "reflect": 3304, 
  "Nano": 3305, 
  "publicly": 3306, 
  "doors": 3307, 
  "ease": 3308, 
  "Agim": 3309, 
  "approve": 3310, 
  "connected": 3311, 
  "Dimitris": 3312, 
  "mechanisms": 3313, 
  "Media": 3314, 
  "Swiss": 3315, 
  "Bojana": 3316, 
  "complicated": 3317, 
  "considers": 3318, 
  "In@@": 3319, 
  "autumn": 3320, 
  "telephone": 3321, 
  "interethnic": 3322, 
  "respected": 3323, 
  "function": 3324, 
  "playing": 3325, 
  "communism": 3326, 
  "convince": 3327, 
  "united": 3328, 
  "b@@": 3329, 
  "7,000": 3330, 
  "KLA": 3331, 
  "utility": 3332, 
  "author": 3333, 
  "unfortunately": 3334, 
  "Company": 3335, 
  "Krasniqi": 3336, 
  "Commerce": 3337, 
  "guard": 3338, 
  "Tihic": 3339, 
  "middle": 3340, 
  "artist": 3341, 
  "options": 3342, 
  "encouraged": 3343, 
  "unemployed": 3344, 
  "mosque": 3345, 
  "federal": 3346, 
  "floods": 3347, 
  "collapse": 3348, 
  "diplomacy": 3349, 
  "producers": 3350, 
  "web": 3351, 
  "realistic": 3352, 
  "resume": 3353, 
  "closing": 3354, 
  "75": 3355, 
  "Post": 3356, 
  "Administration": 3357, 
  "platform": 3358, 
  "j@@": 3359, 
  "Croatians": 3360, 
  "opponents": 3361, 
  "UPI": 3362, 
  "concept": 3363, 
  "text": 3364, 
  "spirit": 3365, 
  "recession": 3366, 
  "disputes": 3367, 
  "deployed": 3368, 
  "respond": 3369, 
  "handle": 3370, 
  "Governor": 3371, 
  "hosting": 3372, 
  "learn": 3373, 
  "tic": 3374, 
  "collaboration": 3375, 
  "picture": 3376, 
  "decisive": 3377, 
  "AKI": 3378, 
  "8,000": 3379, 
  "investigate": 3380, 
  "Bozidar": 3381, 
  "Anti": 3382, 
  "600": 3383, 
  "W.": 3384, 
  "ations": 3385, 
  "advanced": 3386, 
  "controversy": 3387, 
  "pending": 3388, 
  "Corridor": 3389, 
  "Barbutov": 3390, 
  "note": 3391, 
  "macroeconomic": 3392, 
  "peoples": 3393, 
  "n@@": 3394, 
  "37": 3395, 
  "ter": 3396, 
  "radio": 3397, 
  "findings": 3398, 
  "mentioned": 3399, 
  "love": 3400, 
  "photo": 3401, 
  "threshold": 3402, 
  "Australia": 3403, 
  "cautioned": 3404, 
  "birth": 3405, 
  "Youth": 3406, 
  "Islamist": 3407, 
  "Trajkovski": 3408, 
  "fellow": 3409, 
  "investor": 3410, 
  "u@@": 3411, 
  "ds": 3412, 
  "halt": 3413, 
  "51": 3414, 
  "undermine": 3415, 
  "outgoing": 3416, 
  "g": 3417, 
  "championship": 3418, 
  "Finland": 3419, 
  "Kovacevic": 3420, 
  "runs": 3421, 
  "isolation": 3422, 
  "corrupt": 3423, 
  "subsidies": 3424, 
  "Arts": 3425, 
  "hospitals": 3426, 
  "recorded": 3427, 
  "skills": 3428, 
  "nearby": 3429, 
  "Belene": 3430, 
  "perhaps": 3431, 
  "India": 3432, 
  "dubbed": 3433, 
  "Marija": 3434, 
  "output": 3435, 
  "voice": 3436, 
  "import": 3437, 
  "Richard": 3438, 
  "feasibility": 3439, 
  "Corporation": 3440, 
  "insufficient": 3441, 
  "highlighted": 3442, 
  "defeated": 3443, 
  "product": 3444, 
  "Marko": 3445, 
  "tripartite": 3446, 
  "prospect": 3447, 
  "Initiative": 3448, 
  "sometimes": 3449, 
  "clean": 3450, 
  "foster": 3451, 
  "Geoana": 3452, 
  "actors": 3453, 
  "debts": 3454, 
  "a@@": 3455, 
  "minutes": 3456, 
  "manage": 3457, 
  "Framework": 3458, 
  "er@@": 3459, 
  "Palestinian": 3460, 
  "Adrian": 3461, 
  "speculation": 3462, 
  "moon": 3463, 
  "warn": 3464, 
  "boys": 3465, 
  "Daily": 3466, 
  "jail": 3467, 
  "Ar@@": 3468, 
  "aspirations": 3469, 
  "cubic": 3470, 
  "bomb": 3471, 
  "pledging": 3472, 
  "Boyko": 3473, 
  "weak": 3474, 
  "activists": 3475, 
  "Telecom": 3476, 
  "unlikely": 3477, 
  "barricades": 3478, 
  "grounds": 3479, 
  "thirds": 3480, 
  "pose": 3481, 
  "Brammertz": 3482, 
  "champion": 3483, 
  "Labus": 3484, 
  "attitude": 3485, 
  "ina": 3486, 
  "directors": 3487, 
  "Dejan": 3488, 
  "migration": 3489, 
  "originally": 3490, 
  "class": 3491, 
  "Wall": 3492, 
  "acquired": 3493, 
  "pushing": 3494, 
  "Faculty": 3495, 
  "covers": 3496, 
  "ratified": 3497, 
  "connections": 3498, 
  "t@@": 3499, 
  "Schilling": 3500, 
  "k": 3501, 
  "Silajdzic": 3502, 
  "electronic": 3503, 
  "ly": 3504, 
  "intention": 3505, 
  "w@@": 3506, 
  "passengers": 3507, 
  "driving": 3508, 
  "Jankovic": 3509, 
  "simple": 3510, 
  "Accords": 3511, 
  "downtown": 3512, 
  "objectives": 3513, 
  "Hellenic": 3514, 
  "proof": 3515, 
  "provisional": 3516, 
  "declare": 3517, 
  "Dimitrova": 3518, 
  "professionals": 3519, 
  "desire": 3520, 
  "tobacco": 3521, 
  "Eurozone": 3522, 
  "Mladjan": 3523, 
  "36": 3524, 
  "David": 3525, 
  "contrast": 3526, 
  "locations": 3527, 
  "Egypt": 3528, 
  "payments": 3529, 
  "posts": 3530, 
  "speaker": 3531, 
  "reserves": 3532, 
  "ic@@": 3533, 
  "Racan": 3534, 
  "250": 3535, 
  "defendants": 3536, 
  "rhetoric": 3537, 
  "Schwarz": 3538, 
  "fails": 3539, 
  "h": 3540, 
  "experienced": 3541, 
  "probe": 3542, 
  "funded": 3543, 
  "emerging": 3544, 
  "compensation": 3545, 
  "on@@": 3546, 
  "Portugal": 3547, 
  "suggesting": 3548, 
  "proceed": 3549, 
  "collected": 3550, 
  "strikes": 3551, 
  "resign": 3552, 
  "waters": 3553, 
  "ka": 3554, 
  "Iranian": 3555, 
  "magazine": 3556, 
  "behalf": 3557, 
  "contacts": 3558, 
  "financed": 3559, 
  "rival": 3560, 
  "customers": 3561, 
  "Cultural": 3562, 
  "fixed": 3563, 
  "ratification": 3564, 
  "k@@": 3565, 
  "drive": 3566, 
  "assume": 3567, 
  "river": 3568, 
  "coastal": 3569, 
  "4m": 3570, 
  "Labour": 3571, 
  "1.@@": 3572, 
  "worry": 3573, 
  "studies": 3574, 
  "2.5": 3575, 
  "arrive": 3576, 
  "policemen": 3577, 
  "Nimetz": 3578, 
  "doctor": 3579, 
  "maximum": 3580, 
  "preparation": 3581, 
  "Red": 3582, 
  "achievement": 3583, 
  "im@@": 3584, 
  "vulnerable": 3585, 
  "organising": 3586, 
  "serves": 3587, 
  "le@@": 3588, 
  "z@@": 3589, 
  "finish": 3590, 
  "Nis": 3591, 
  "movies": 3592, 
  "CEC": 3593, 
  "Industry": 3594, 
  "Biljana": 3595, 
  "digital": 3596, 
  "engagement": 3597, 
  "Report": 3598, 
  "opposes": 3599, 
  "foundation": 3600, 
  "intends": 3601, 
  "retain": 3602, 
  "allocated": 3603, 
  "Demetris": 3604, 
  "co@@": 3605, 
  "solid": 3606, 
  "crowd": 3607, 
  "transparent": 3608, 
  "Assistant": 3609, 
  "Meta": 3610, 
  "friend": 3611, 
  "Aegean": 3612, 
  "kovic": 3613, 
  "card": 3614, 
  "coup": 3615, 
  "Angela": 3616, 
  "burden": 3617, 
  "relatives": 3618, 
  "buying": 3619, 
  "30,000": 3620, 
  "items": 3621, 
  "prevention": 3622, 
  "orders": 3623, 
  "yes": 3624, 
  "dramatic": 3625, 
  "investing": 3626, 
  "responded": 3627, 
  "legally": 3628, 
  "Jadranka": 3629, 
  "churches": 3630, 
  "row": 3631, 
  "attracted": 3632, 
  "Simsek": 3633, 
  "ordinary": 3634, 
  "Lisbon": 3635, 
  "1989": 3636, 
  "Strategic": 3637, 
  "symbol": 3638, 
  "announce": 3639, 
  "exists": 3640, 
  "CEFTA": 3641, 
  "DPS": 3642, 
  "targeted": 3643, 
  "reporting": 3644, 
  "fires": 3645, 
  "broadcast": 3646, 
  "Military": 3647, 
  "profits": 3648, 
  "languages": 3649, 
  "renowned": 3650, 
  "Kemal": 3651, 
  "jazz": 3652, 
  "excellent": 3653, 
  "1244": 3654, 
  "lawyers": 3655, 
  "games": 3656, 
  "watch": 3657, 
  "Tuzla": 3658, 
  "Lebanon": 3659, 
  "objections": 3660, 
  "Nobel": 3661, 
  "en": 3662, 
  "foreigners": 3663, 
  "B": 3664, 
  "dating": 3665, 
  "registration": 3666, 
  "defend": 3667, 
  "archaeological": 3668, 
  "brief": 3669, 
  "Soren": 3670, 
  "SP": 3671, 
  "channel": 3672, 
  "Prizren": 3673, 
  "20,000": 3674, 
  "riots": 3675, 
  "fresh": 3676, 
  "solidarity": 3677, 
  "ID": 3678, 
  "y@@": 3679, 
  "actor": 3680, 
  "Directorate": 3681, 
  "48": 3682, 
  "focusing": 3683, 
  "bigger": 3684, 
  "solved": 3685, 
  "newspapers": 3686, 
  "Ayhan": 3687, 
  "postponed": 3688, 
  "inter@@": 3689, 
  "di@@": 3690, 
  "ro@@": 3691, 
  "4,000": 3692, 
  "seem": 3693, 
  "Irish": 3694, 
  "Dora": 3695, 
  "Turk": 3696, 
  "count": 3697, 
  "fired": 3698, 
  "Mladen": 3699, 
  "thanks": 3700, 
  "diaspora": 3701, 
  "44": 3702, 
  "1,500": 3703, 
  "emerged": 3704, 
  "Book": 3705, 
  "illegally": 3706, 
  "consultations": 3707, 
  "custody": 3708, 
  "at@@": 3709, 
  "felt": 3710, 
  "Papadopoulos": 3711, 
  "shut": 3712, 
  "47": 3713, 
  "functional": 3714, 
  "rapid": 3715, 
  "basketball": 3716, 
  "Jusuf": 3717, 
  "42": 3718, 
  "veteran": 3719, 
  "unrest": 3720, 
  "cash": 3721, 
  "secondary": 3722, 
  "calm": 3723, 
  "identify": 3724, 
  "holidays": 3725, 
  "requests": 3726, 
  "blame": 3727, 
  "sensitive": 3728, 
  "al@@": 3729, 
  "fulfilled": 3730, 
  "aircraft": 3731, 
  "con@@": 3732, 
  "negotiate": 3733, 
  "10m": 3734, 
  "associations": 3735, 
  "chain": 3736, 
  "GERB": 3737, 
  "properties": 3738, 
  "Women": 3739, 
  "Dnevnik.bg": 3740, 
  "Air": 3741, 
  "warns": 3742, 
  "strongest": 3743, 
  "ratings": 3744, 
  "Roman": 3745, 
  "preserve": 3746, 
  "limits": 3747, 
  "dance": 3748, 
  "Catholic": 3749, 
  "6m": 3750, 
  "unprecedented": 3751, 
  "evening": 3752, 
  "thinks": 3753, 
  "caught": 3754, 
  "sixth": 3755, 
  "word": 3756, 
  "Treaty": 3757, 
  "SRS": 3758, 
  "conducting": 3759, 
  "wine": 3760, 
  "researchers": 3761, 
  "obtained": 3762, 
  "centuries": 3763, 
  "trained": 3764, 
  "PIC": 3765, 
  "consideration": 3766, 
  "bases": 3767, 
  "regulation": 3768, 
  "nurses": 3769, 
  "begins": 3770, 
  "payment": 3771, 
  "Tetovo": 3772, 
  "savings": 3773, 
  "purposes": 3774, 
  "BSP": 3775, 
  "informed": 3776, 
  "Norway": 3777, 
  "telecom": 3778, 
  "Congress": 3779, 
  "sharing": 3780, 
  "reflects": 3781, 
  "guests": 3782, 
  "honoured": 3783, 
  "carrier": 3784, 
  "White": 3785, 
  "Journal": 3786, 
  "monuments": 3787, 
  "featured": 3788, 
  "contrary": 3789, 
  "slightly": 3790, 
  "messages": 3791, 
  "SNSD": 3792, 
  "Lukic": 3793, 
  "gaining": 3794, 
  "capacities": 3795, 
  "ran": 3796, 
  "inaugurated": 3797, 
  "pact": 3798, 
  "7m": 3799, 
  "black": 3800, 
  "comply": 3801, 
  "competing": 3802, 
  "complaints": 3803, 
  "Sciences": 3804, 
  "Future": 3805, 
  "latter": 3806, 
  "celebrations": 3807, 
  "rebels": 3808, 
  "jointly": 3809, 
  "Executive": 3810, 
  "dozen": 3811, 
  "discussing": 3812, 
  "bus": 3813, 
  "influential": 3814, 
  "es@@": 3815, 
  "lasting": 3816, 
  "possibilities": 3817, 
  "gender": 3818, 
  "Rasim": 3819, 
  "renewed": 3820, 
  "campaigns": 3821, 
  "nominated": 3822, 
  "Rome": 3823, 
  "rock": 3824, 
  "1,@@": 3825, 
  "Assad": 3826, 
  "map": 3827, 
  "welcomes": 3828, 
  "staged": 3829, 
  "prisoners": 3830, 
  "sharp": 3831, 
  "envisioned": 3832, 
  "KSF": 3833, 
  "everybody": 3834, 
  "We": 3835, 
  "sharply": 3836, 
  "arrangements": 3837, 
  "Anadolu": 3838, 
  "attacked": 3839, 
  "Selimaj": 3840, 
  "counter": 3841, 
  "van": 3842, 
  "Sandzak": 3843, 
  "Coalition": 3844, 
  "King": 3845, 
  "doubts": 3846, 
  "willingness": 3847, 
  "transformation": 3848, 
  "perpetrators": 3849, 
  "engaged": 3850, 
  "sound": 3851, 
  "Article": 3852, 
  "opinions": 3853, 
  "presenting": 3854, 
  "Al@@": 3855, 
  "10@@": 3856, 
  "Network": 3857, 
  "Papoulias": 3858, 
  "SDA": 3859, 
  "200m": 3860, 
  "version": 3861, 
  "bird": 3862, 
  "Ireland": 3863, 
  "visible": 3864, 
  "gather": 3865, 
  "grew": 3866, 
  "employers": 3867, 
  "outstanding": 3868, 
  "trends": 3869, 
  "Northern": 3870, 
  "investigators": 3871, 
  "follows": 3872, 
  "shift": 3873, 
  "Process": 3874, 
  "investigated": 3875, 
  "weekly": 3876, 
  "attractive": 3877, 
  "amended": 3878, 
  "drivers": 3879, 
  "defeat": 3880, 
  "200,000": 3881, 
  "performers": 3882, 
  "2014": 3883, 
  "fine": 3884, 
  "Ljubljana": 3885, 
  "realise": 3886, 
  "guaranteed": 3887, 
  "46": 3888, 
  "computers": 3889, 
  "finds": 3890, 
  "Polish": 3891, 
  "barriers": 3892, 
  "Club": 3893, 
  "Euronews": 3894, 
  "equality": 3895, 
  "Crime": 3896, 
  "speaks": 3897, 
  "core": 3898, 
  "School": 3899, 
  "Terzic": 3900, 
  "employed": 3901, 
  "whatever": 3902, 
  "ri@@": 3903, 
  "significance": 3904, 
  "upgrade": 3905, 
  "afford": 3906, 
  "triggered": 3907, 
  "lacks": 3908, 
  "projected": 3909, 
  "possibly": 3910, 
  "legislature": 3911, 
  "Heritage": 3912, 
  "Welle": 3913, 
  "Novak": 3914, 
  "ti@@": 3915, 
  "ar": 3916, 
  "arrival": 3917, 
  "consumer": 3918, 
  "it@@": 3919, 
  "seekers": 3920, 
  "uses": 3921, 
  "haven": 3922, 
  "eye": 3923, 
  "apartment": 3924, 
  "causing": 3925, 
  "laid": 3926, 
  "destinations": 3927, 
  "Ramadanovic": 3928, 
  "sugar": 3929, 
  "behaviour": 3930, 
  "Web": 3931, 
  "Kostov": 3932, 
  "18@@": 3933, 
  "chamber": 3934, 
  "relief": 3935, 
  "questioned": 3936, 
  "economists": 3937, 
  "Civil": 3938, 
  "fulfilling": 3939, 
  "contributing": 3940, 
  "ultimately": 3941, 
  "ology": 3942, 
  "Simeon": 3943, 
  "producing": 3944, 
  "harm": 3945, 
  "ambitious": 3946, 
  "style": 3947, 
  "compliance": 3948, 
  "monopoly": 3949, 
  "Predrag": 3950, 
  "Ilic": 3951, 
  "extension": 3952, 
  "definitely": 3953, 
  "inclusion": 3954, 
  "passing": 3955, 
  "Moldovan": 3956, 
  "arguments": 3957, 
  "Frattini": 3958, 
  "murders": 3959, 
  "credibility": 3960, 
  "41": 3961, 
  "linking": 3962, 
  "r@@": 3963, 
  "divisions": 3964, 
  "worried": 3965, 
  "ad@@": 3966, 
  "or@@": 3967, 
  "suffering": 3968, 
  "bars": 3969, 
  "plastic": 3970, 
  "turmoil": 3971, 
  "investigating": 3972, 
  "St.": 3973, 
  "8m": 3974, 
  "Armed": 3975, 
  "continuation": 3976, 
  "outlined": 3977, 
  "file": 3978, 
  "frozen": 3979, 
  "exhibitions": 3980, 
  "expanded": 3981, 
  "situations": 3982, 
  "drawing": 3983, 
  "types": 3984, 
  "collect": 3985, 
  "businessman": 3986, 
  "demonstrations": 3987, 
  "strength": 3988, 
  "victim": 3989, 
  "operators": 3990, 
  "monitors": 3991, 
  "maturity": 3992, 
  "Djokovic": 3993, 
  "extraordinary": 3994, 
  "blamed": 3995, 
  "ethnically": 3996, 
  "controls": 3997, 
  "Reconstruction": 3998, 
  "maintained": 3999, 
  "UNICEF": 4000, 
  "retail": 4001, 
  "Svetla": 4002, 
  "immigration": 4003, 
  "Vlora": 4004, 
  "restaurants": 4005, 
  "Fuele": 4006, 
  "threatening": 4007, 
  "accelerate": 4008, 
  "broadcasting": 4009, 
  "introducing": 4010, 
  "Strasbourg": 4011, 
  "Ergenekon": 4012, 
  "economics": 4013, 
  "tank": 4014, 
  "J@@": 4015, 
  "specifically": 4016, 
  "resistance": 4017, 
  "connect": 4018, 
  "Bitola": 4019, 
  "unclear": 4020, 
  "proud": 4021, 
  "troika": 4022, 
  "James": 4023, 
  "li@@": 4024, 
  "survive": 4025, 
  "presentation": 4026, 
  "BDP": 4027, 
  "girls": 4028, 
  "airports": 4029, 
  "fees": 4030, 
  "Rohan": 4031, 
  "contingent": 4032, 
  "supervised": 4033, 
  "Republican": 4034, 
  "fled": 4035, 
  "technologies": 4036, 
  "Palace": 4037, 
  "wider": 4038, 
  "meat": 4039, 
  "promotion": 4040, 
  "Denmark": 4041, 
  "D": 4042, 
  "negotiator": 4043, 
  "flags": 4044, 
  "overhaul": 4045, 
  "older": 4046, 
  "economically": 4047, 
  "enjoyed": 4048, 
  "Banka": 4049, 
  "stalled": 4050, 
  "alcohol": 4051, 
  "Grand": 4052, 
  "suicide": 4053, 
  "partition": 4054, 
  "ap@@": 4055, 
  "multiple": 4056, 
  "Alfred": 4057, 
  "chose": 4058, 
  "succeeded": 4059, 
  "processing": 4060, 
  "precondition": 4061, 
  "militants": 4062, 
  "zones": 4063, 
  "tasked": 4064, 
  "remember": 4065, 
  "chairmanship": 4066, 
  "strict": 4067, 
  "ice": 4068, 
  "Svetozar": 4069, 
  "coverage": 4070, 
  "Implementation": 4071, 
  "add": 4072, 
  "east": 4073, 
  "bombings": 4074, 
  "Verheugen": 4075, 
  "38": 4076, 
  "c": 4077, 
  "Jelena": 4078, 
  "firmly": 4079, 
  "restore": 4080, 
  "fewer": 4081, 
  "n": 4082, 
  "Operation": 4083, 
  "legitimate": 4084, 
  "ministerial": 4085, 
  "affecting": 4086, 
  "jury": 4087, 
  "struck": 4088, 
  "Seselj": 4089, 
  "ND": 4090, 
  "Gashi": 4091, 
  "explain": 4092, 
  "secured": 4093, 
  "cocaine": 4094, 
  "Con@@": 4095, 
  "engage": 4096, 
  "dates": 4097, 
  "blow": 4098, 
  "extreme": 4099, 
  "freedoms": 4100, 
  "store": 4101, 
  "receives": 4102, 
  "falling": 4103, 
  "62": 4104, 
  "propose": 4105, 
  "treated": 4106, 
  "1994": 4107, 
  "elderly": 4108, 
  "appearance": 4109, 
  "Maria": 4110, 
  "ja": 4111, 
  "households": 4112, 
  "successor": 4113, 
  "ent": 4114, 
  "Burgas": 4115, 
  "earthquake": 4116, 
  "ding": 4117, 
  "ist": 4118, 
  "physical": 4119, 
  "husband": 4120, 
  "fish": 4121, 
  "Erlis": 4122, 
  "blood": 4123, 
  "pressing": 4124, 
  "southeastern": 4125, 
  "authors": 4126, 
  "teacher": 4127, 
  "provision": 4128, 
  "actively": 4129, 
  "Kostelic": 4130, 
  "violated": 4131, 
  "ous": 4132, 
  "1@@": 4133, 
  "penalties": 4134, 
  "isn": 4135, 
  "Global": 4136, 
  "grave": 4137, 
  "os@@": 4138, 
  "apparent": 4139, 
  "Sulejman": 4140, 
  "variety": 4141, 
  "beautiful": 4142, 
  "obvious": 4143, 
  "fulfill": 4144, 
  "write": 4145, 
  "finalised": 4146, 
  "Azerbaijan": 4147, 
  "managing": 4148, 
  "Montenegrins": 4149, 
  "medics": 4150, 
  "fines": 4151, 
  "6,000": 4152, 
  "Ashton": 4153, 
  "mountain": 4154, 
  "happens": 4155, 
  "Komsic": 4156, 
  "Armenia": 4157, 
  "testimony": 4158, 
  "intellectuals": 4159, 
  "indicate": 4160, 
  "ded": 4161, 
  "800": 4162, 
  "congress": 4163, 
  "out@@": 4164, 
  "Kathimerini": 4165, 
  "freely": 4166, 
  "observed": 4167, 
  "mayors": 4168, 
  "ova": 4169, 
  "broader": 4170, 
  "educated": 4171, 
  "0.@@": 4172, 
  "categories": 4173, 
  "withdrawal": 4174, 
  "ov": 4175, 
  "thermal": 4176, 
  "safeguard": 4177, 
  "FDI": 4178, 
  "stalemate": 4179, 
  "credits": 4180, 
  "expanding": 4181, 
  "placing": 4182, 
  "as@@": 4183, 
  "C": 4184, 
  "Y@@": 4185, 
  "Project": 4186, 
  "pursue": 4187, 
  "shortages": 4188, 
  "zero": 4189, 
  "expecting": 4190, 
  "exhibit": 4191, 
  "crackdown": 4192, 
  "documentation": 4193, 
  "migrants": 4194, 
  "demonstration": 4195, 
  "MPA": 4196, 
  "nationals": 4197, 
  "sake": 4198, 
  "m@@": 4199, 
  "tied": 4200, 
  "backs": 4201, 
  "deeply": 4202, 
  "undertaken": 4203, 
  "welfare": 4204, 
  "breaking": 4205, 
  "ballots": 4206, 
  "documentary": 4207, 
  "hectares": 4208, 
  "injuries": 4209, 
  "shop": 4210, 
  "demonstrators": 4211, 
  "legacy": 4212, 
  "satisfaction": 4213, 
  "Boc": 4214, 
  "Mar@@": 4215, 
  "Fena": 4216, 
  "disappointment": 4217, 
  "50m": 4218, 
  "extent": 4219, 
  "oldest": 4220, 
  "excessive": 4221, 
  "Bogdanovic": 4222, 
  "farm": 4223, 
  "venture": 4224, 
  "exit": 4225, 
  "la@@": 4226, 
  "equally": 4227, 
  "medieval": 4228, 
  "eyes": 4229, 
  "der": 4230, 
  "gains": 4231, 
  "monument": 4232, 
  "Burns": 4233, 
  "2.@@": 4234, 
  "poses": 4235, 
  "ballot": 4236, 
  "proven": 4237, 
  "passport": 4238, 
  "uncertainty": 4239, 
  "starts": 4240, 
  "pollution": 4241, 
  "Southeastern": 4242, 
  "isolated": 4243, 
  "traditionally": 4244, 
  "shops": 4245, 
  "contain": 4246, 
  "liberal": 4247, 
  "l@@": 4248, 
  "als": 4249, 
  "confirm": 4250, 
  "matches": 4251, 
  "ise": 4252, 
  "&apos;@@": 4253, 
  "academic": 4254, 
  "binding": 4255, 
  "warrant": 4256, 
  "extending": 4257, 
  "shopping": 4258, 
  "rounds": 4259, 
  "ages": 4260, 
  "handover": 4261, 
  "signals": 4262, 
  "respective": 4263, 
  "Summit": 4264, 
  "Television": 4265, 
  "adopting": 4266, 
  "unveiled": 4267, 
  "seeing": 4268, 
  "Holkeri": 4269, 
  "motivated": 4270, 
  "register": 4271, 
  "Simic": 4272, 
  "records": 4273, 
  "moderate": 4274, 
  "absolutely": 4275, 
  "hikes": 4276, 
  "occur": 4277, 
  "Pope": 4278, 
  "v@@": 4279, 
  "ordinated": 4280, 
  "Square": 4281, 
  "procurement": 4282, 
  "renewable": 4283, 
  "Transparency": 4284, 
  "Armenians": 4285, 
  "steel": 4286, 
  "ex@@": 4287, 
  "flow": 4288, 
  "white": 4289, 
  "friendship": 4290, 
  "afterwards": 4291, 
  "repeat": 4292, 
  "recommend": 4293, 
  "obtaining": 4294, 
  "branches": 4295, 
  "statistical": 4296, 
  "Prague": 4297, 
  "applications": 4298, 
  "suspension": 4299, 
  "pleased": 4300, 
  "stabilisation": 4301, 
  "methods": 4302, 
  "reputation": 4303, 
  "prevented": 4304, 
  "distance": 4305, 
  "determining": 4306, 
  "attempted": 4307, 
  "amounted": 4308, 
  "milk": 4309, 
  "District": 4310, 
  "Gallery": 4311, 
  "solar": 4312, 
  "assumed": 4313, 
  "cutting": 4314, 
  "bear": 4315, 
  "ised": 4316, 
  "trouble": 4317, 
  "extremist": 4318, 
  "Mediafax": 4319, 
  "monitored": 4320, 
  "unearthed": 4321, 
  "frequently": 4322, 
  "ec@@": 4323, 
  "unlike": 4324, 
  "ranging": 4325, 
  "pensioners": 4326, 
  "stemming": 4327, 
  "Pamuk": 4328, 
  "85": 4329, 
  "connecting": 4330, 
  "disappointed": 4331, 
  "2,500": 4332, 
  "helps": 4333, 
  "pre@@": 4334, 
  "airline": 4335, 
  "writers": 4336, 
  "virus": 4337, 
  "Kosova": 4338, 
  "Geneva": 4339, 
  "reading": 4340, 
  "cic": 4341, 
  "afraid": 4342, 
  "ammunition": 4343, 
  "Limaj": 4344, 
  "expenditures": 4345, 
  "thinking": 4346, 
  "Emil": 4347, 
  "driven": 4348, 
  "grown": 4349, 
  "sort": 4350, 
  "700": 4351, 
  "crises": 4352, 
  "ling": 4353, 
  "An@@": 4354, 
  "absence": 4355, 
  "extra": 4356, 
  "9m": 4357, 
  "Sezer": 4358, 
  "ates": 4359, 
  "enjoys": 4360, 
  "53": 4361, 
  "suit": 4362, 
  "Children": 4363, 
  "T": 4364, 
  "neighbourhood": 4365, 
  "Spiric": 4366, 
  "Agriculture": 4367, 
  "drafting": 4368, 
  "unresolved": 4369, 
  "toll": 4370, 
  "mediator": 4371, 
  "Joint": 4372, 
  "Mircea": 4373, 
  "bi@@": 4374, 
  "repeated": 4375, 
  "enterprise": 4376, 
  "gathering": 4377, 
  "securing": 4378, 
  "nomination": 4379, 
  "NIS": 4380, 
  "tens": 4381, 
  "Reform": 4382, 
  "Al": 4383, 
  "Japanese": 4384, 
  "finals": 4385, 
  "accusing": 4386, 
  "gang": 4387, 
  "Rompres": 4388, 
  "l": 4389, 
  "contains": 4390, 
  "flight": 4391, 
  "surprised": 4392, 
  "travelled": 4393, 
  "39": 4394, 
  "49": 4395, 
  "capabilities": 4396, 
  "des": 4397, 
  "falls": 4398, 
  "strengthened": 4399, 
  "perceived": 4400, 
  "realised": 4401, 
  "younger": 4402, 
  "poetry": 4403, 
  "wars": 4404, 
  "carefully": 4405, 
  "Belgian": 4406, 
  "literature": 4407, 
  "Lake": 4408, 
  "eliminate": 4409, 
  "principal": 4410, 
  "reject": 4411, 
  "Bureau": 4412, 
  "el": 4413, 
  "ex": 4414, 
  "supposed": 4415, 
  "lift": 4416, 
  "arresting": 4417, 
  "bombing": 4418, 
  "popularity": 4419, 
  "CEO": 4420, 
  "daughter": 4421, 
  "camps": 4422, 
  "obliged": 4423, 
  "sized": 4424, 
  "INA": 4425, 
  "Copenhagen": 4426, 
  "Andy": 4427, 
  "ism": 4428, 
  "aiming": 4429, 
  "extremists": 4430, 
  "Ljiljana": 4431, 
  "weather": 4432, 
  "ag@@": 4433, 
  "settle": 4434, 
  "valid": 4435, 
  "detailed": 4436, 
  "corporate": 4437, 
  "reforming": 4438, 
  "mining": 4439, 
  "temperatures": 4440, 
  "Korea": 4441, 
  "technological": 4442, 
  "industries": 4443, 
  "th@@": 4444, 
  "mountains": 4445, 
  "Dimitrov": 4446, 
  "Condoleezza": 4447, 
  "siege": 4448, 
  "fought": 4449, 
  "rare": 4450, 
  "ine": 4451, 
  "EIB": 4452, 
  "piracy": 4453, 
  "Oliver": 4454, 
  "Kosumi": 4455, 
  "combating": 4456, 
  "Ivana": 4457, 
  "oglu": 4458, 
  "suffer": 4459, 
  "broken": 4460, 
  "wounded": 4461, 
  "performing": 4462, 
  "pave": 4463, 
  "oriented": 4464, 
  "4.@@": 4465, 
  "500m": 4466, 
  "explosion": 4467, 
  "restoration": 4468, 
  "nationalism": 4469, 
  "Boskovski": 4470, 
  "Wisner": 4471, 
  "consists": 4472, 
  "describes": 4473, 
  "deficits": 4474, 
  "operated": 4475, 
  "delegations": 4476, 
  "bonds": 4477, 
  "issuing": 4478, 
  "maybe": 4479, 
  "runoff": 4480, 
  "tes": 4481, 
  "ant": 4482, 
  "revised": 4483, 
  "awaiting": 4484, 
  "Frank": 4485, 
  "dependence": 4486, 
  "Customs": 4487, 
  "scored": 4488, 
  "faster": 4489, 
  "Environment": 4490, 
  "appealed": 4491, 
  "governor": 4492, 
  "impasse": 4493, 
  "Saxe": 4494, 
  "charging": 4495, 
  "slowly": 4496, 
  "Tito": 4497, 
  "tests": 4498, 
  "Rupel": 4499, 
  "associate": 4500, 
  "Coburg": 4501, 
  "Index": 4502, 
  "50,000": 4503, 
  "retirement": 4504, 
  "paramilitary": 4505, 
  "Ahmeti": 4506, 
  "concessions": 4507, 
  "targeting": 4508, 
  "surveillance": 4509, 
  "Estonia": 4510, 
  "posted": 4511, 
  "marketing": 4512, 
  "les": 4513, 
  "Ruecker": 4514, 
  "Kermabon": 4515, 
  "exercises": 4516, 
  "finances": 4517, 
  "opposing": 4518, 
  "Bamir": 4519, 
  "hear": 4520, 
  "files": 4521, 
  "amendment": 4522, 
  "Liberation": 4523, 
  "raises": 4524, 
  "40,000": 4525, 
  "content": 4526, 
  "nationwide": 4527, 
  "O": 4528, 
  "14@@": 4529, 
  "faith": 4530, 
  "bridges": 4531, 
  "trading": 4532, 
  "resulting": 4533, 
  "openly": 4534, 
  "95": 4535, 
  "publishing": 4536, 
  "cancelled": 4537, 
  "bin": 4538, 
  "ve": 4539, 
  "specialists": 4540, 
  "bottom": 4541, 
  "ICG": 4542, 
  "20m": 4543, 
  "helm": 4544, 
  "SDS": 4545, 
  "Lazarova": 4546, 
  "apartments": 4547, 
  "1.2": 4548, 
  "Lithuania": 4549, 
  "driver": 4550, 
  "properly": 4551, 
  "pressures": 4552, 
  "heroin": 4553, 
  "volume": 4554, 
  "Europeans": 4555, 
  "investigative": 4556, 
  "flat": 4557, 
  "ce": 4558, 
  "clubs": 4559, 
  "BTA": 4560, 
  "constant": 4561, 
  "Vetevendosje": 4562, 
  "Statistics": 4563, 
  "pull": 4564, 
  "organ": 4565, 
  "heading": 4566, 
  "3.5": 4567, 
  "ourselves": 4568, 
  "EUobserver": 4569, 
  "Sekerinska": 4570, 
  "chemical": 4571, 
  "experiences": 4572, 
  "to@@": 4573, 
  "rapidly": 4574, 
  "Djordjevic": 4575, 
  "predicted": 4576, 
  "ists": 4577, 
  "ica": 4578, 
  "Budapest": 4579, 
  "postpone": 4580, 
  "pieces": 4581, 
  "ons": 4582, 
  "ors": 4583, 
  "struggling": 4584, 
  "ity": 4585, 
  "facts": 4586, 
  "forget": 4587, 
  "protestors": 4588, 
  "Steiner": 4589, 
  "regularly": 4590, 
  "ings": 4591, 
  "knows": 4592, 
  "Strategy": 4593, 
  "il@@": 4594, 
  "vehicle": 4595, 
  "Convention": 4596, 
  "Crisis": 4597, 
  "conclusions": 4598, 
  "travelling": 4599, 
  "am@@": 4600, 
  "fate": 4601, 
  "designated": 4602, 
  "ethnicity": 4603, 
  "poet": 4604, 
  "associated": 4605, 
  "functions": 4606, 
  "purchased": 4607, 
  "donor": 4608, 
  "musicians": 4609, 
  "conclude": 4610, 
  "Struga": 4611, 
  "spot": 4612, 
  "stages": 4613, 
  "Canadian": 4614, 
  "Brazil": 4615, 
  "indictments": 4616, 
  "grade": 4617, 
  "Unit": 4618, 
  "managers": 4619, 
  "scope": 4620, 
  "UNHCR": 4621, 
  "Privatisation": 4622, 
  "causes": 4623, 
  "milestone": 4624, 
  "entirely": 4625, 
  "African": 4626, 
  "scandals": 4627, 
  "SPS": 4628, 
  "acquire": 4629, 
  "Lieutenant": 4630, 
  "licenses": 4631, 
  "bo@@": 4632, 
  "deadlock": 4633, 
  "portion": 4634, 
  "cleared": 4635, 
  "personally": 4636, 
  "instruments": 4637, 
  "answers": 4638, 
  "52": 4639, 
  "Ion": 4640, 
  "selection": 4641, 
  "feeling": 4642, 
  "refusal": 4643, 
  "Kar@@": 4644, 
  "ECB": 4645, 
  "mis@@": 4646, 
  "statehood": 4647, 
  "puts": 4648, 
  "Elections": 4649, 
  "earmarked": 4650, 
  "2020": 4651, 
  "worker": 4652, 
  "15,000": 4653, 
  "routes": 4654, 
  "imported": 4655, 
  "actress": 4656, 
  "initiate": 4657, 
  "earn": 4658, 
  "x": 4659, 
  "hike": 4660, 
  "recommendation": 4661, 
  "commit": 4662, 
  "destroy": 4663, 
  "ad": 4664, 
  "Focus": 4665, 
  "te": 4666, 
  "54": 4667, 
  "raids": 4668, 
  "2015": 4669, 
  "uncertain": 4670, 
  "completing": 4671, 
  "regret": 4672, 
  "solving": 4673, 
  "tight": 4674, 
  "praising": 4675, 
  "odds": 4676, 
  "journalism": 4677, 
  "handling": 4678, 
  "ultranationalist": 4679, 
  "Rasmussen": 4680, 
  "benchmarks": 4681, 
  "Exchange": 4682, 
  "ha@@": 4683, 
  "Edi": 4684, 
  "seminar": 4685, 
  "fishing": 4686, 
  "Fatos": 4687, 
  "acted": 4688, 
  "useful": 4689, 
  "x@@": 4690, 
  "be@@": 4691, 
  "phenomenon": 4692, 
  "accident": 4693, 
  "rail": 4694, 
  "secularism": 4695, 
  "luxury": 4696, 
  "writes": 4697, 
  "brothers": 4698, 
  "Koha": 4699, 
  "clients": 4700, 
  "capita": 4701, 
  "1974": 4702, 
  "assigned": 4703, 
  "frequent": 4704, 
  "evic": 4705, 
  "stores": 4706, 
  "Brcko": 4707, 
  "Telegraph": 4708, 
  "Daianu": 4709, 
  "granting": 4710, 
  "shall": 4711, 
  "foundations": 4712, 
  "tool": 4713, 
  "channels": 4714, 
  "sidelines": 4715, 
  "shape": 4716, 
  "exactly": 4717, 
  "refuse": 4718, 
  "surveyed": 4719, 
  "unified": 4720, 
  "Diyarbakir": 4721, 
  "4.5": 4722, 
  "react": 4723, 
  "hot": 4724, 
  "belong": 4725, 
  "happening": 4726, 
  "stress": 4727, 
  "63": 4728, 
  "passage": 4729, 
  "scenario": 4730, 
  "withdrew": 4731, 
  "cinema": 4732, 
  "Nicolas": 4733, 
  "joins": 4734, 
  "plus": 4735, 
  "Communications": 4736, 
  "AIDS": 4737, 
  "winners": 4738, 
  "30m": 4739, 
  "reliable": 4740, 
  "Robertson": 4741, 
  "disabled": 4742, 
  "escape": 4743, 
  "plane": 4744, 
  "nationalists": 4745, 
  "refinery": 4746, 
  "referred": 4747, 
  "attributed": 4748, 
  "Empire": 4749, 
  "knew": 4750, 
  "demonstrates": 4751, 
  "tickets": 4752, 
  "check": 4753, 
  "constitute": 4754, 
  "neighbourly": 4755, 
  "Fiat": 4756, 
  "thanked": 4757, 
  "transmission": 4758, 
  "traditions": 4759, 
  "DNA": 4760, 
  "se": 4761, 
  "heating": 4762, 
  "involve": 4763, 
  "Dink": 4764, 
  "writing": 4765, 
  "enabling": 4766, 
  "72": 4767, 
  "ian": 4768, 
  "Undersecretary": 4769, 
  "transformed": 4770, 
  "Power": 4771, 
  "exceed": 4772, 
  "ch": 4773, 
  "donated": 4774, 
  "se@@": 4775, 
  "hydropower": 4776, 
  "Gabriel": 4777, 
  "character": 4778, 
  "architecture": 4779, 
  "st@@": 4780, 
  "57": 4781, 
  "cope": 4782, 
  "sport": 4783, 
  "wealth": 4784, 
  "brother": 4785, 
  "recognising": 4786, 
  "BC": 4787, 
  "reflected": 4788, 
  "veterans": 4789, 
  "gradually": 4790, 
  "b": 4791, 
  "painful": 4792, 
  "stipulates": 4793, 
  "Pulaj": 4794, 
  "he@@": 4795, 
  "Jazz": 4796, 
  "ticket": 4797, 
  "extradited": 4798, 
  "mention": 4799, 
  "brand": 4800, 
  "Ramush": 4801, 
  "Ardi": 4802, 
  "Bedrana": 4803, 
  "subsequently": 4804, 
  "greatly": 4805, 
  "pointing": 4806, 
  "exchanges": 4807, 
  "evasion": 4808, 
  "Adnan": 4809, 
  "offensive": 4810, 
  "forest": 4811, 
  "rejection": 4812, 
  "Gjorge": 4813, 
  "modernise": 4814, 
  "Mother": 4815, 
  "56": 4816, 
  "tangible": 4817, 
  "Miroljub": 4818, 
  "car@@": 4819, 
  "buried": 4820, 
  "operates": 4821, 
  "De@@": 4822, 
  "Milos": 4823, 
  "whereabouts": 4824, 
  "deadlines": 4825, 
  "0@@": 4826, 
  "mafia": 4827, 
  "surgery": 4828, 
  "governmental": 4829, 
  "tranche": 4830, 
  "design": 4831, 
  "surplus": 4832, 
  "Monitor": 4833, 
  "Assistance": 4834, 
  "implications": 4835, 
  "cell": 4836, 
  "subsequent": 4837, 
  "tive": 4838, 
  "courses": 4839, 
  "bankruptcy": 4840, 
  "Hungarians": 4841, 
  "freeze": 4842, 
  "symbols": 4843, 
  "venues": 4844, 
  "quo": 4845, 
  "inadequate": 4846, 
  "Progress": 4847, 
  "Major": 4848, 
  "indicators": 4849, 
  "anovic": 4850, 
  "fill": 4851, 
  "biometric": 4852, 
  "leaves": 4853, 
  "Basha": 4854, 
  "Authority": 4855, 
  "plea": 4856, 
  "toward": 4857, 
  "Izmir": 4858, 
  "heavily": 4859, 
  "da": 4860, 
  "volunteers": 4861, 
  "Winter": 4862, 
  "expertise": 4863, 
  "interference": 4864, 
  "meaning": 4865, 
  "truly": 4866, 
  "dream": 4867, 
  "Gordana": 4868, 
  "Sutanovac": 4869, 
  "acknowledging": 4870, 
  "Steering": 4871, 
  "me@@": 4872, 
  "acquitted": 4873, 
  "6.@@": 4874, 
  "KESH": 4875, 
  "emphasis": 4876, 
  "Prodi": 4877, 
  "symbolic": 4878, 
  "Kingdom": 4879, 
  "undertake": 4880, 
  "reaffirmed": 4881, 
  "sole": 4882, 
  "jurisdiction": 4883, 
  "taxation": 4884, 
  "king": 4885, 
  "medicine": 4886, 
  "pushed": 4887, 
  "Petrovic": 4888, 
  "Beth": 4889, 
  "penalty": 4890, 
  "Anatolian": 4891, 
  "400m": 4892, 
  "sustained": 4893, 
  "discusses": 4894, 
  "challenging": 4895, 
  "64": 4896, 
  "Democrat": 4897, 
  "66": 4898, 
  "Eroglu": 4899, 
  "pop": 4900, 
  "confiscated": 4901, 
  "Music": 4902, 
  "Albert": 4903, 
  "prestigious": 4904, 
  "celebration": 4905, 
  "restored": 4906, 
  "expenses": 4907, 
  "advocates": 4908, 
  "briefed": 4909, 
  "hurdle": 4910, 
  "fledged": 4911, 
  "ur@@": 4912, 
  "trucks": 4913, 
  "--@@": 4914, 
  "plot": 4915, 
  "Communist": 4916, 
  "jeopardise": 4917, 
  "shortcomings": 4918, 
  "factories": 4919, 
  "decreased": 4920, 
  "integrate": 4921, 
  "watching": 4922, 
  "embassies": 4923, 
  "employ": 4924, 
  "element": 4925, 
  "database": 4926, 
  "Days": 4927, 
  "threaten": 4928, 
  "heat": 4929, 
  "negotiators": 4930, 
  "Razvan": 4931, 
  "heated": 4932, 
  "predecessor": 4933, 
  "Jewish": 4934, 
  "truck": 4935, 
  "specialised": 4936, 
  "comprised": 4937, 
  "sit": 4938, 
  "Medvedev": 4939, 
  "blueprint": 4940, 
  "festivals": 4941, 
  "150,000": 4942, 
  "500,000": 4943, 
  "occasion": 4944, 
  "urge": 4945, 
  "predominantly": 4946, 
  "musical": 4947, 
  "species": 4948, 
  "minor": 4949, 
  "sessions": 4950, 
  "careful": 4951, 
  "Trajkov": 4952, 
  "constituent": 4953, 
  "Lavrov": 4954, 
  "Sasa": 4955, 
  "Novosti": 4956, 
  "respects": 4957, 
  "Sava": 4958, 
  "catch": 4959, 
  "planes": 4960, 
  "appeals": 4961, 
  "schedule": 4962, 
  "lifted": 4963, 
  "Holding": 4964, 
  "First": 4965, 
  "financially": 4966, 
  "beating": 4967, 
  "punishment": 4968, 
  "permits": 4969, 
  "intense": 4970, 
  "extradite": 4971, 
  "Covic": 4972, 
  "stem": 4973, 
  "intent": 4974, 
  "Madrid": 4975, 
  "JAT": 4976, 
  "alive": 4977, 
  "wrap": 4978, 
  "testify": 4979, 
  "penal": 4980, 
  "servants": 4981, 
  "Ilir": 4982, 
  "Powell": 4983, 
  "suspend": 4984, 
  "Reporting": 4985, 
  "z": 4986, 
  "el@@": 4987, 
  "Blair": 4988, 
  "disease": 4989, 
  "defeating": 4990, 
  "screening": 4991, 
  "islands": 4992, 
  "Ana": 4993, 
  "Samardzic": 4994, 
  "Poor": 4995, 
  "reference": 4996, 
  "ab@@": 4997, 
  "tion": 4998, 
  "Popovic": 4999, 
  "refusing": 5000, 
  "acknowledge": 5001, 
  "walk": 5002, 
  "chaos": 5003, 
  "removing": 5004, 
  "Petrov": 5005, 
  "democratisation": 5006, 
  "Van": 5007, 
  "sexual": 5008, 
  "settled": 5009, 
  "hydro": 5010, 
  "clause": 5011, 
  "seemed": 5012, 
  "separately": 5013, 
  "Orhan": 5014, 
  "Gates": 5015, 
  "pilot": 5016, 
  "Slovak": 5017, 
  "Victor": 5018, 
  "hi@@": 5019, 
  "mayoral": 5020, 
  "pledge": 5021, 
  "supervision": 5022, 
  "under@@": 5023, 
  "echoed": 5024, 
  "founding": 5025, 
  "S": 5026, 
  "AAK": 5027, 
  "preservation": 5028, 
  "Izetbegovic": 5029, 
  "federation": 5030, 
  "degrees": 5031, 
  "bit": 5032, 
  "define": 5033, 
  "unknown": 5034, 
  "Caspian": 5035, 
  "Radovanovic": 5036, 
  "discovery": 5037, 
  "native": 5038, 
  "En@@": 5039, 
  "belonging": 5040, 
  "dynamic": 5041, 
  "fly": 5042, 
  "assessed": 5043, 
  "Karolos": 5044, 
  "pledges": 5045, 
  "classes": 5046, 
  "seventh": 5047, 
  "learning": 5048, 
  "1980s": 5049, 
  "God": 5050, 
  "secession": 5051, 
  "Cavic": 5052, 
  "stone": 5053, 
  "Hall": 5054, 
  "Zemun": 5055, 
  "anymore": 5056, 
  "characterised": 5057, 
  "breakthrough": 5058, 
  "ans": 5059, 
  "photos": 5060, 
  "funeral": 5061, 
  "et@@": 5062, 
  "monastery": 5063, 
  "snow": 5064, 
  "Franco": 5065, 
  "authorised": 5066, 
  "assistant": 5067, 
  "talked": 5068, 
  "Oz@@": 5069, 
  "rooted": 5070, 
  "rely": 5071, 
  "reserve": 5072, 
  "censorship": 5073, 
  "entitled": 5074, 
  "memorial": 5075, 
  "partial": 5076, 
  "Judge": 5077, 
  "societies": 5078, 
  "F": 5079, 
  "Qatar": 5080, 
  "Pahor": 5081, 
  "Jacques": 5082, 
  "ko": 5083, 
  "+": 5084, 
  "disagreements": 5085, 
  "viable": 5086, 
  "dealt": 5087, 
  "tackling": 5088, 
  "qualified": 5089, 
  "Nicholas": 5090, 
  "infected": 5091, 
  "ir@@": 5092, 
  "ho@@": 5093, 
  "67": 5094, 
  "58": 5095, 
  "newest": 5096, 
  "anticipated": 5097, 
  "Park": 5098, 
  "arena": 5099, 
  "peak": 5100, 
  "Support": 5101, 
  "kg": 5102, 
  "exploration": 5103, 
  "chaired": 5104, 
  "continent": 5105, 
  "roles": 5106, 
  "piece": 5107, 
  "Asian": 5108, 
  "containing": 5109, 
  "recognises": 5110, 
  "je": 5111, 
  "restaurant": 5112, 
  "Bar@@": 5113, 
  "voluntary": 5114, 
  "civic": 5115, 
  "west": 5116, 
  "Intelligence": 5117, 
  "indicates": 5118, 
  "Stefanovic": 5119, 
  "totally": 5120, 
  "voices": 5121, 
  "captured": 5122, 
  "birds": 5123, 
  "vast": 5124, 
  "ill": 5125, 
  "instrument": 5126, 
  "hardly": 5127, 
  "stolen": 5128, 
  "margin": 5129, 
  "Championships": 5130, 
  "budgets": 5131, 
  "roots": 5132, 
  "elementary": 5133, 
  "ca": 5134, 
  "soldier": 5135, 
  "depending": 5136, 
  "kinds": 5137, 
  "bloggers": 5138, 
  "lasted": 5139, 
  "locals": 5140, 
  "learned": 5141, 
  "ies": 5142, 
  "blast": 5143, 
  "engineering": 5144, 
  "underground": 5145, 
  "criticising": 5146, 
  "permission": 5147, 
  "examples": 5148, 
  "attempting": 5149, 
  "boundaries": 5150, 
  "1.6": 5151, 
  "apparently": 5152, 
  "complained": 5153, 
  "electric": 5154, 
  "sh@@": 5155, 
  "p": 5156, 
  "moral": 5157, 
  "resorts": 5158, 
  "jump": 5159, 
  "elite": 5160, 
  "condemning": 5161, 
  "Kampschror": 5162, 
  "obviously": 5163, 
  "earned": 5164, 
  "Pekusic": 5165, 
  "Mitev": 5166, 
  "auspices": 5167, 
  "Valley": 5168, 
  "lay": 5169, 
  "aj": 5170, 
  "hundred": 5171, 
  "Bo@@": 5172, 
  "Colonel": 5173, 
  "thousand": 5174, 
  "prefer": 5175, 
  "voluntarily": 5176, 
  "evaluation": 5177, 
  "SEECP": 5178, 
  "uncovered": 5179, 
  "Capital": 5180, 
  "consistent": 5181, 
  "false": 5182, 
  "phones": 5183, 
  "innovation": 5184, 
  "assisting": 5185, 
  "Tassos": 5186, 
  "purchasing": 5187, 
  "formerly": 5188, 
  "Simitis": 5189, 
  "Miller": 5190, 
  "Vesna": 5191, 
  "1.3": 5192, 
  "equipped": 5193, 
  "Nine": 5194, 
  "Insight": 5195, 
  "extensive": 5196, 
  "survival": 5197, 
  "questioning": 5198, 
  "Beqiri": 5199, 
  "Moody": 5200, 
  "legitimacy": 5201, 
  "ma@@": 5202, 
  "3.@@": 5203, 
  "sends": 5204, 
  "keeps": 5205, 
  "Old": 5206, 
  "FENA": 5207, 
  "reactors": 5208, 
  "acquisition": 5209, 
  "lo@@": 5210, 
  "stories": 5211, 
  "buyers": 5212, 
  "Biden": 5213, 
  "2,@@": 5214, 
  "Martin": 5215, 
  "journey": 5216, 
  "Matthew": 5217, 
  "il": 5218, 
  "turns": 5219, 
  "prompting": 5220, 
  "passenger": 5221, 
  "rebuild": 5222, 
  "timing": 5223, 
  "harder": 5224, 
  "involves": 5225, 
  "defending": 5226, 
  "addresses": 5227, 
  "promoted": 5228, 
  "owns": 5229, 
  "snap": 5230, 
  "Stock": 5231, 
  "shipping": 5232, 
  "practically": 5233, 
  "Opera": 5234, 
  "background": 5235, 
  "ecological": 5236, 
  "advertising": 5237, 
  "regulatory": 5238, 
  "Corps": 5239, 
  "celebrates": 5240, 
  "Fatih": 5241, 
  "lawsuit": 5242, 
  "papers": 5243, 
  "reacted": 5244, 
  "Bridge": 5245, 
  "outbreak": 5246, 
  "Saudi": 5247, 
  "alongside": 5248, 
  "Local": 5249, 
  "fan": 5250, 
  "bound": 5251, 
  "Drazen": 5252, 
  "per@@": 5253, 
  "ta": 5254, 
  "Iliescu": 5255, 
  "78": 5256, 
  "spots": 5257, 
  "strategies": 5258, 
  "electrical": 5259, 
  "folk": 5260, 
  "overnight": 5261, 
  "300m": 5262, 
  "Srdjan": 5263, 
  "intensified": 5264, 
  "shield": 5265, 
  "landmark": 5266, 
  "Mark": 5267, 
  "suggestions": 5268, 
  "Yilmaz": 5269, 
  "favours": 5270, 
  "accepting": 5271, 
  "proclaimed": 5272, 
  "contemporary": 5273, 
  "Mil@@": 5274, 
  "whereas": 5275, 
  "Srbija": 5276, 
  "300,000": 5277, 
  "vessels": 5278, 
  "RTK": 5279, 
  "68": 5280, 
  "deploy": 5281, 
  "highlights": 5282, 
  "deadly": 5283, 
  "advisory": 5284, 
  "69": 5285, 
  "consisting": 5286, 
  "cigarette": 5287, 
  "Karic": 5288, 
  "valuable": 5289, 
  "influx": 5290, 
  "ovski": 5291, 
  "generations": 5292, 
  "observe": 5293, 
  "140": 5294, 
  "decides": 5295, 
  "Er@@": 5296, 
  "professors": 5297, 
  "denies": 5298, 
  "negotiated": 5299, 
  "estimate": 5300, 
  "reasonable": 5301, 
  "incentives": 5302, 
  "virtually": 5303, 
  "Zastava": 5304, 
  "forecast": 5305, 
  "nationality": 5306, 
  "invite": 5307, 
  "Sh@@": 5308, 
  "Novinite": 5309, 
  "articles": 5310, 
  "filled": 5311, 
  "agents": 5312, 
  "metal": 5313, 
  "bread": 5314, 
  "kill": 5315, 
  "regarded": 5316, 
  "Hyseni": 5317, 
  "Accession": 5318, 
  "R": 5319, 
  "northeast": 5320, 
  "deposits": 5321, 
  "ul@@": 5322, 
  "twenty": 5323, 
  "25,000": 5324, 
  "impression": 5325, 
  "passes": 5326, 
  "Management": 5327, 
  "entrepreneurs": 5328, 
  "debates": 5329, 
  "ring": 5330, 
  "undermining": 5331, 
  "parliaments": 5332, 
  "Se@@": 5333, 
  "Velchev": 5334, 
  "balanced": 5335, 
  "Ex@@": 5336, 
  "mounting": 5337, 
  "fruit": 5338, 
  "advice": 5339, 
  "competitors": 5340, 
  "employee": 5341, 
  "guns": 5342, 
  "op@@": 5343, 
  "Kaletovic": 5344, 
  "ordinate": 5345, 
  "Helsinki": 5346, 
  "jobless": 5347, 
  "hunger": 5348, 
  "cheaper": 5349, 
  "Necdet": 5350, 
  "dual": 5351, 
  "&apos;d": 5352, 
  "roughly": 5353, 
  "weight": 5354, 
  "departure": 5355, 
  "tions": 5356, 
  "Radmila": 5357, 
  "maritime": 5358, 
  "prepares": 5359, 
  "yield": 5360, 
  "exception": 5361, 
  "accountability": 5362, 
  "stars": 5363, 
  "rivers": 5364, 
  "default": 5365, 
  "satellite": 5366, 
  "sing": 5367, 
  "Pro@@": 5368, 
  "disappeared": 5369, 
  "It": 5370, 
  "sections": 5371, 
  "Georgievski": 5372, 
  "la": 5373, 
  "forth": 5374, 
  "Center": 5375, 
  "intend": 5376, 
  "belongs": 5377, 
  "transform": 5378, 
  "130": 5379, 
  "posters": 5380, 
  "PNL": 5381, 
  "permit": 5382, 
  "suspicion": 5383, 
  "underlined": 5384, 
  "Mr.": 5385, 
  "interesting": 5386, 
  "tragedy": 5387, 
  "abandoned": 5388, 
  "Accord": 5389, 
  "Alakbar": 5390, 
  "poorest": 5391, 
  "explosives": 5392, 
  "us@@": 5393, 
  "Alexandroupolis": 5394, 
  "classified": 5395, 
  "intensive": 5396, 
  "appoint": 5397, 
  "Latvia": 5398, 
  "strain": 5399, 
  "enhanced": 5400, 
  "rehabilitation": 5401, 
  "Jovan": 5402, 
  "12@@": 5403, 
  "Rompuy": 5404, 
  "Raufoglu": 5405, 
  "clearing": 5406, 
  "om@@": 5407, 
  "exceeded": 5408, 
  "favoured": 5409, 
  "fallen": 5410, 
  "hampered": 5411, 
  "golden": 5412, 
  "hatred": 5413, 
  "bribery": 5414, 
  "Iceland": 5415, 
  "Lukovic": 5416, 
  "Kosanovic": 5417, 
  "fashion": 5418, 
  "spur": 5419, 
  "ana": 5420, 
  "dictator": 5421, 
  "unite": 5422, 
  "declaring": 5423, 
  "paving": 5424, 
  "59": 5425, 
  "inefficient": 5426, 
  "enters": 5427, 
  "fostering": 5428, 
  "erupted": 5429, 
  "fragile": 5430, 
  "opera": 5431, 
  "approves": 5432, 
  "ol@@": 5433, 
  "halted": 5434, 
  "ises": 5435, 
  "budgetary": 5436, 
  "Wolfgang": 5437, 
  "reluctant": 5438, 
  "Radmanovic": 5439, 
  "pro@@": 5440, 
  "clash": 5441, 
  "reveal": 5442, 
  "globalisation": 5443, 
  "mosques": 5444, 
  "relation": 5445, 
  "donations": 5446, 
  "fee": 5447, 
  "Zannier": 5448, 
  "stabilise": 5449, 
  "statue": 5450, 
  "Australian": 5451, 
  "reads": 5452, 
  "buyer": 5453, 
  "mutually": 5454, 
  "Antonela": 5455, 
  "responding": 5456, 
  "Ditore": 5457, 
  "operative": 5458, 
  "exact": 5459, 
  "collecting": 5460, 
  "Darko": 5461, 
  "Kosovars": 5462, 
  "warnings": 5463, 
  "beaches": 5464, 
  "Argentina": 5465, 
  "transactions": 5466, 
  "intellectual": 5467, 
  "Kragujevac": 5468, 
  "81": 5469, 
  "broadcaster": 5470, 
  "rec@@": 5471, 
  "theme": 5472, 
  "prerequisite": 5473, 
  "25m": 5474, 
  "legend": 5475, 
  "H5N1": 5476, 
  "Holbrooke": 5477, 
  "ator": 5478, 
  "Erhard": 5479, 
  "subsidiary": 5480, 
  "intensify": 5481, 
  "rankings": 5482, 
  "raid": 5483, 
  "Market": 5484, 
  "ov@@": 5485, 
  "Petrescu": 5486, 
  "namely": 5487, 
  "excavations": 5488, 
  "Feith": 5489, 
  "TI": 5490, 
  "populated": 5491, 
  "qu@@": 5492, 
  "installed": 5493, 
  "Metohija": 5494, 
  "textile": 5495, 
  "accelerated": 5496, 
  "profitable": 5497, 
  "Nenad": 5498, 
  "aged": 5499, 
  "Milic": 5500, 
  "competencies": 5501, 
  "eliminating": 5502, 
  "Bosnians": 5503, 
  "unanimously": 5504, 
  "mistakes": 5505, 
  "divide": 5506, 
  "Order": 5507, 
  "worries": 5508, 
  "ak": 5509, 
  "ball": 5510, 
  "forecasts": 5511, 
  "Russians": 5512, 
  "rooms": 5513, 
  "partly": 5514, 
  "res": 5515, 
  "attorney": 5516, 
  "productivity": 5517, 
  "asks": 5518, 
  "watchdog": 5519, 
  "Stambolic": 5520, 
  "confirmation": 5521, 
  "angry": 5522, 
  "diversity": 5523, 
  "partially": 5524, 
  "correct": 5525, 
  "Economics": 5526, 
  "translated": 5527, 
  "unnecessary": 5528, 
  "focuses": 5529, 
  "pharmaceutical": 5530, 
  "additionally": 5531, 
  "Obradovic": 5532, 
  "cigarettes": 5533, 
  "persuade": 5534, 
  "Progressive": 5535, 
  "positively": 5536, 
  "Teresa": 5537, 
  "cautious": 5538, 
  "Voice": 5539, 
  "Shala": 5540, 
  "semi": 5541, 
  "Google": 5542, 
  "Hospital": 5543, 
  "Code": 5544, 
  "ceasefire": 5545, 
  "coalitions": 5546, 
  "Serge": 5547, 
  "hurdles": 5548, 
  "honest": 5549, 
  "acknowledges": 5550, 
  "perception": 5551, 
  "distributed": 5552, 
  "institute": 5553, 
  "DTP": 5554, 
  "legality": 5555, 
  "facilitating": 5556, 
  "extremism": 5557, 
  "ter@@": 5558, 
  "dinar": 5559, 
  "Dervis": 5560, 
  "beauty": 5561, 
  "Proeski": 5562, 
  "acceptance": 5563, 
  "bags": 5564, 
  "imposing": 5565, 
  "1984": 5566, 
  "disasters": 5567, 
  "surveys": 5568, 
  "premiere": 5569, 
  "ignored": 5570, 
  "assisted": 5571, 
  "ge": 5572, 
  "j": 5573, 
  "makers": 5574, 
  "Danish": 5575, 
  "impressive": 5576, 
  "affects": 5577, 
  "earthquakes": 5578, 
  "lifting": 5579, 
  "wearing": 5580, 
  "Enver": 5581, 
  "songs": 5582, 
  "Fried": 5583, 
  "tries": 5584, 
  "si@@": 5585, 
  "Watch": 5586, 
  "comparison": 5587, 
  "ge@@": 5588, 
  "arts": 5589, 
  "wasn": 5590, 
  "airspace": 5591, 
  "76": 5592, 
  "Bytyci": 5593, 
  "repair": 5594, 
  "RTS": 5595, 
  "et": 5596, 
  "innocent": 5597, 
  "embargo": 5598, 
  "rejects": 5599, 
  "cheap": 5600, 
  "prisons": 5601, 
  "posed": 5602, 
  "glass": 5603, 
  "84": 5604, 
  "110": 5605, 
  "audiences": 5606, 
  "maintains": 5607, 
  "ters": 5608, 
  "remarkable": 5609, 
  "ordinating": 5610, 
  "narcotics": 5611, 
  "Ataturk": 5612, 
  "belief": 5613, 
  "Rijeka": 5614, 
  "sooner": 5615, 
  "IOC": 5616, 
  "patient": 5617, 
  "favourite": 5618, 
  "98": 5619, 
  "propaganda": 5620, 
  "tense": 5621, 
  "influenced": 5622, 
  "unilaterally": 5623, 
  "exported": 5624, 
  "condemn": 5625, 
  "launches": 5626, 
  "bitter": 5627, 
  "maintenance": 5628, 
  "columnist": 5629, 
  "ev": 5630, 
  "commanders": 5631, 
  "rebuilding": 5632, 
  "Standard": 5633, 
  "15@@": 5634, 
  "helicopters": 5635, 
  "prosecute": 5636, 
  "supporter": 5637, 
  "male": 5638, 
  "Home": 5639, 
  "metre": 5640, 
  "surrendered": 5641, 
  "populations": 5642, 
  "ratify": 5643, 
  "Jordan": 5644, 
  "40m": 5645, 
  "Philip": 5646, 
  "A1": 5647, 
  "detainees": 5648, 
  "Telecommunications": 5649, 
  "cable": 5650, 
  "System": 5651, 
  "evident": 5652, 
  "diseases": 5653, 
  "99": 5654, 
  "Airways": 5655, 
  "collapsed": 5656, 
  "bureau": 5657, 
  "ne@@": 5658, 
  "inform": 5659, 
  "60,000": 5660, 
  "ls": 5661, 
  "70,000": 5662, 
  "le": 5663, 
  "ses": 5664, 
  "Zlatko": 5665, 
  "ness": 5666, 
  "movements": 5667, 
  "examine": 5668, 
  "lic": 5669, 
  "Per@@": 5670, 
  "charter": 5671, 
  "outright": 5672, 
  "900": 5673, 
  "ves": 5674, 
  "Krajina": 5675, 
  "praise": 5676, 
  "punish": 5677, 
  "Charles": 5678, 
  "61": 5679, 
  "Membership": 5680, 
  "disputed": 5681, 
  "searching": 5682, 
  "witnessed": 5683, 
  "Cold": 5684, 
  "policing": 5685, 
  "preserving": 5686, 
  "ty": 5687, 
  "wall": 5688, 
  "Command": 5689, 
  "wishes": 5690, 
  "pe@@": 5691, 
  "&apos;clock": 5692, 
  "segment": 5693, 
  "damages": 5694, 
  "mandates": 5695, 
  "unchanged": 5696, 
  "dark": 5697, 
  "woes": 5698, 
  "boy": 5699, 
  "Kozloduy": 5700, 
  "relative": 5701, 
  "Car@@": 5702, 
  "bar": 5703, 
  "enhancing": 5704, 
  "amend": 5705, 
  "grey": 5706, 
  "Catherine": 5707, 
  "territories": 5708, 
  "hidden": 5709, 
  "flee": 5710, 
  "consolidation": 5711, 
  "deemed": 5712, 
  "man@@": 5713, 
  "admit": 5714, 
  "tri@@": 5715, 
  "downturn": 5716, 
  "websites": 5717, 
  "inauguration": 5718, 
  "rapporteur": 5719, 
  "alike": 5720, 
  "1,200": 5721, 
  "listen": 5722, 
  "theft": 5723, 
  "requiring": 5724, 
  "literary": 5725, 
  "intimidation": 5726, 
  "ary": 5727, 
  "0.5": 5728, 
  "pleaded": 5729, 
  "organs": 5730, 
  "violating": 5731, 
  "approaching": 5732, 
  "dismissal": 5733, 
  "Hoxha": 5734, 
  "Byzantine": 5735, 
  "marathon": 5736, 
  "Ak@@": 5737, 
  "generate": 5738, 
  "persecution": 5739, 
  "constantly": 5740, 
  "li": 5741, 
  "residence": 5742, 
  "concession": 5743, 
  "soccer": 5744, 
  "73": 5745, 
  "Technical": 5746, 
  "viewing": 5747, 
  "Norwegian": 5748, 
  "ks": 5749, 
  "Senate": 5750, 
  "Dnevni": 5751, 
  "Leakey": 5752, 
  "KPC": 5753, 
  "delivery": 5754, 
  "Popovski": 5755, 
  "privatise": 5756, 
  "G": 5757, 
  "Ukrainian": 5758, 
  "flood": 5759, 
  "deny": 5760, 
  "stepping": 5761, 
  "Ivanic": 5762, 
  "Cristian": 5763, 
  "bi": 5764, 
  "steady": 5765, 
  "regards": 5766, 
  "athlete": 5767, 
  "violate": 5768, 
  "um": 5769, 
  "manufacturing": 5770, 
  "tone": 5771, 
  "mo@@": 5772, 
  "hence": 5773, 
  "ESM": 5774, 
  "74": 5775, 
  "England": 5776, 
  "Petkovic": 5777, 
  "brutal": 5778, 
  "replacing": 5779, 
  "cycle": 5780, 
  "Barack": 5781, 
  "animal": 5782, 
  "marred": 5783, 
  "ising": 5784, 
  "explaining": 5785, 
  "terminal": 5786, 
  "Ad@@": 5787, 
  "ideal": 5788, 
  "Passy": 5789, 
  "Laden": 5790, 
  "County": 5791, 
  "Gracanica": 5792, 
  "Dabilis": 5793, 
  "ra@@": 5794, 
  "Nesovski": 5795, 
  "avoided": 5796, 
  "creates": 5797, 
  "bearing": 5798, 
  "projections": 5799, 
  "Ghana": 5800, 
  "outlets": 5801, 
  "separatist": 5802, 
  "method": 5803, 
  "enforce": 5804, 
  "ac": 5805, 
  "ms": 5806, 
  "bribes": 5807, 
  "na": 5808, 
  "prosperous": 5809, 
  "overcoming": 5810, 
  "aspect": 5811, 
  "confirming": 5812, 
  "bar@@": 5813, 
  "amnesty": 5814, 
  "hide": 5815, 
  "Jarinje": 5816, 
  "Competition": 5817, 
  "With": 5818, 
  "sub@@": 5819, 
  "execution": 5820, 
  "constructed": 5821, 
  "artefacts": 5822, 
  "importantly": 5823, 
  "Shkullaku": 5824, 
  "Gent": 5825, 
  "Tripoli": 5826, 
  "flooding": 5827, 
  "SNS": 5828, 
  "traffickers": 5829, 
  "declining": 5830, 
  "Zenica": 5831, 
  "generated": 5832, 
  "12,000": 5833, 
  "composed": 5834, 
  "emphasising": 5835, 
  "Co@@": 5836, 
  "considerably": 5837, 
  "dependent": 5838, 
  "Online": 5839, 
  "campaigning": 5840, 
  "Milenkovic": 5841, 
  "abolished": 5842, 
  "Rocen": 5843, 
  "fairly": 5844, 
  "upgraded": 5845, 
  "150m": 5846, 
  "Hillary": 5847, 
  "60m": 5848, 
  "rejecting": 5849, 
  "tested": 5850, 
  "reciprocity": 5851, 
  "counting": 5852, 
  "celebrating": 5853, 
  "timetable": 5854, 
  "discipline": 5855, 
  "MEPs": 5856, 
  "expense": 5857, 
  "proposing": 5858, 
  "girl": 5859, 
  "sceptical": 5860, 
  "severely": 5861, 
  "prostitution": 5862, 
  "blockade": 5863, 
  "curb": 5864, 
  "confirms": 5865, 
  "quoting": 5866, 
  "revolution": 5867, 
  "-@@": 5868, 
  "longstanding": 5869, 
  "Organised": 5870, 
  "somewhat": 5871, 
  "troubled": 5872, 
  "Sibenik": 5873, 
  "teaching": 5874, 
  "remittances": 5875, 
  "enclaves": 5876, 
  "77": 5877, 
  "textbooks": 5878, 
  "Tanja": 5879, 
  "blue": 5880, 
  "anywhere": 5881, 
  "Borislav": 5882, 
  "survived": 5883, 
  "differ": 5884, 
  "Against": 5885, 
  "Patriarch": 5886, 
  "stones": 5887, 
  "Thracian": 5888, 
  "lowered": 5889, 
  "exploitation": 5890, 
  "15m": 5891, 
  "letters": 5892, 
  "deeper": 5893, 
  "unfair": 5894, 
  "82": 5895, 
  "delegates": 5896, 
  "fo@@": 5897, 
  "St": 5898, 
  "altogether": 5899, 
  "ou@@": 5900, 
  "Top": 5901, 
  "Svilanovic": 5902, 
  "Pierre": 5903, 
  "unification": 5904, 
  "crowds": 5905, 
  "Un@@": 5906, 
  "isation": 5907, 
  "Tose": 5908, 
  "choosing": 5909, 
  "complaint": 5910, 
  "coal": 5911, 
  "accountable": 5912, 
  "demarcation": 5913, 
  "Koci": 5914, 
  "easing": 5915, 
  "museums": 5916, 
  "Man@@": 5917, 
  "proves": 5918, 
  "graves": 5919, 
  "Fitch": 5920, 
  "scrutiny": 5921, 
  "ance": 5922, 
  "Sergei": 5923, 
  "resumed": 5924, 
  "cameras": 5925, 
  "ment": 5926, 
  "hurt": 5927, 
  "Avaz": 5928, 
  "Milanovic": 5929, 
  "ambitions": 5930, 
  "KPS": 5931, 
  "UDF": 5932, 
  "flexibility": 5933, 
  "endangered": 5934, 
  "Library": 5935, 
  "freezing": 5936, 
  "regain": 5937, 
  "flexible": 5938, 
  "Pula": 5939, 
  "Eide": 5940, 
  "conditional": 5941, 
  "fierce": 5942, 
  "pipelines": 5943, 
  "devices": 5944, 
  "storage": 5945, 
  "bombs": 5946, 
  "trees": 5947, 
  "models": 5948, 
  "ments": 5949, 
  "Dis@@": 5950, 
  "theory": 5951, 
  "publish": 5952, 
  "Talks": 5953, 
  "incomes": 5954, 
  "Week": 5955, 
  "narrow": 5956, 
  "deepening": 5957, 
  "districts": 5958, 
  "punished": 5959, 
  "frustration": 5960, 
  "necessarily": 5961, 
  "Alina": 5962, 
  "draws": 5963, 
  "Be@@": 5964, 
  "ISAF": 5965, 
  "tenders": 5966, 
  "absolute": 5967, 
  "damaging": 5968, 
  "inspired": 5969, 
  "Latin": 5970, 
  "provider": 5971, 
  "explore": 5972, 
  "kids": 5973, 
  "fighters": 5974, 
  "71": 5975, 
  "paintings": 5976, 
  "Petroleum": 5977, 
  "Bildt": 5978, 
  "concludes": 5979, 
  "handball": 5980, 
  "maker": 5981, 
  "autonomous": 5982, 
  "Troika": 5983, 
  "cold": 5984, 
  "Borders": 5985, 
  "undergo": 5986, 
  "sed": 5987, 
  "No": 5988, 
  "Securitate": 5989, 
  "Interpol": 5990, 
  "Ac@@": 5991, 
  "unofficial": 5992, 
  "Federal": 5993, 
  "studying": 5994, 
  "Res@@": 5995, 
  "Inter@@": 5996, 
  "so@@": 5997, 
  "affirmed": 5998, 
  ".com": 5999, 
  "slowdown": 6000, 
  "deliveries": 6001, 
  "Branislav": 6002, 
  "Fouere": 6003, 
  "Pakistan": 6004, 
  "Yves": 6005, 
  "stakes": 6006, 
  "missed": 6007, 
  "warm": 6008, 
  "cyber": 6009, 
  "controlling": 6010, 
  "Budva": 6011, 
  "questionnaire": 6012, 
  "norms": 6013, 
  "disagree": 6014, 
  "lessons": 6015, 
  "ni@@": 6016, 
  "vacation": 6017, 
  "attitudes": 6018, 
  "evade": 6019, 
  "ani": 6020, 
  "83": 6021, 
  "globe": 6022, 
  "viewers": 6023, 
  "reformist": 6024, 
  "abolish": 6025, 
  "Says": 6026, 
  "for@@": 6027, 
  "harsh": 6028, 
  "predict": 6029, 
  "professionalism": 6030, 
  "describe": 6031, 
  "shock": 6032, 
  "spreading": 6033, 
  "der@@": 6034, 
  "Marty": 6035, 
  "wireless": 6036, 
  "occasions": 6037, 
  "walls": 6038, 
  "interpreted": 6039, 
  "poets": 6040, 
  "Dan": 6041, 
  "breach": 6042, 
  "Express": 6043, 
  "touch": 6044, 
  "Mihajlovic": 6045, 
  "folklore": 6046, 
  "id": 6047, 
  "registry": 6048, 
  "titles": 6049, 
  "facto": 6050, 
  "intervene": 6051, 
  "UEFA": 6052, 
  "capability": 6053, 
  "ha": 6054, 
  "simultaneously": 6055, 
  "testing": 6056, 
  "devastating": 6057, 
  "ders": 6058, 
  "Shkodra": 6059, 
  "thrown": 6060, 
  "component": 6061, 
  "plates": 6062, 
  "finalise": 6063, 
  "venue": 6064, 
  "Lukoil": 6065, 
  "tra@@": 6066, 
  "identification": 6067, 
  "ARM": 6068, 
  "Egyptian": 6069, 
  "sum": 6070, 
  "swimming": 6071, 
  "stretch": 6072, 
  "busy": 6073, 
  "hostage": 6074, 
  "mer": 6075, 
  "accounting": 6076, 
  "hired": 6077, 
  "preconditions": 6078, 
  "bidder": 6079, 
  "protested": 6080, 
  "experiencing": 6081, 
  "Life": 6082, 
  "boom": 6083, 
  "Pavkovic": 6084, 
  "advocate": 6085, 
  "te@@": 6086, 
  "Vlatko": 6087, 
  "trigger": 6088, 
  "disagrees": 6089, 
  "th": 6090, 
  "thorough": 6091, 
  "Li@@": 6092, 
  "lawmaker": 6093, 
  "tape": 6094, 
  "invitations": 6095, 
  "sustain": 6096, 
  "Lehne": 6097, 
  "gross": 6098, 
  "existed": 6099, 
  "onto": 6100, 
  "1.4": 6101, 
  "forcing": 6102, 
  "ik": 6103, 
  "Anagnostopoulos": 6104, 
  "postponement": 6105, 
  "Steel": 6106, 
  "Taleski": 6107, 
  "dangers": 6108, 
  "boxes": 6109, 
  "di": 6110, 
  "donation": 6111, 
  "stadium": 6112, 
  "approaches": 6113, 
  "reporter": 6114, 
  "Official": 6115, 
  "consent": 6116, 
  "architect": 6117, 
  "refuses": 6118, 
  "tear": 6119, 
  "hits": 6120, 
  "Transylvania": 6121, 
  "tomb": 6122, 
  "Jews": 6123, 
  "guest": 6124, 
  "BNN": 6125, 
  "household": 6126, 
  "manufacturer": 6127, 
  "shake": 6128, 
  "socialist": 6129, 
  "Romano": 6130, 
  "chiefs": 6131, 
  "fortress": 6132, 
  "ovo": 6133, 
  "NMS": 6134, 
  "Baran": 6135, 
  "Radicals": 6136, 
  "19@@": 6137, 
  "defendant": 6138, 
  "normalisation": 6139, 
  "Study": 6140, 
  "Joachim": 6141, 
  "precedent": 6142, 
  "images": 6143, 
  "bu@@": 6144, 
  "ative": 6145, 
  "ins": 6146, 
  "designate": 6147, 
  "Citizens": 6148, 
  "Stadium": 6149, 
  "ats": 6150, 
  "circles": 6151, 
  "Gordon": 6152, 
  "ot@@": 6153, 
  "workshop": 6154, 
  "pictures": 6155, 
  "gasoline": 6156, 
  "poultry": 6157, 
  "Mon@@": 6158, 
  "steadily": 6159, 
  "M": 6160, 
  "Beqaj": 6161, 
  "P": 6162, 
  "portfolio": 6163, 
  "pursuing": 6164, 
  "acquis": 6165, 
  "risen": 6166, 
  "fleet": 6167, 
  "briefing": 6168, 
  "Kurti": 6169, 
  "handled": 6170, 
  "polo": 6171, 
  "defended": 6172, 
  "ignoring": 6173, 
  "solely": 6174, 
  "protesting": 6175, 
  "rivals": 6176, 
  "sex": 6177, 
  "Countries": 6178, 
  "Malta": 6179, 
  "Monitoring": 6180, 
  "consequence": 6181, 
  "indication": 6182, 
  "shelter": 6183, 
  "gu@@": 6184, 
  "executed": 6185, 
  "applies": 6186, 
  "opponent": 6187, 
  "FIFA": 6188, 
  "vowing": 6189, 
  "lie": 6190, 
  "congratulated": 6191, 
  "mistake": 6192, 
  "charity": 6193, 
  "understood": 6194, 
  "sp@@": 6195, 
  "couldn": 6196, 
  "refrain": 6197, 
  "tly": 6198, 
  "notably": 6199, 
  "swift": 6200, 
  "smoke": 6201, 
  "MESS": 6202, 
  "youngest": 6203, 
  "expelled": 6204, 
  "za": 6205, 
  "5,@@": 6206, 
  "PD": 6207, 
  "El@@": 6208, 
  "empty": 6209, 
  "inhabitants": 6210, 
  "editorial": 6211, 
  "decree": 6212, 
  "ators": 6213, 
  "reviewed": 6214, 
  "dignity": 6215, 
  "flying": 6216, 
  "Tahiri": 6217, 
  "genuine": 6218, 
  "reiterating": 6219, 
  "complain": 6220, 
  "Kuci": 6221, 
  "Rumsfeld": 6222, 
  "Shantek": 6223, 
  "armies": 6224, 
  "periods": 6225, 
  "PTK": 6226, 
  "mandatory": 6227, 
  "drought": 6228, 
  "eliminated": 6229, 
  "Kalfin": 6230, 
  "root": 6231, 
  "shouldn": 6232, 
  "wouldn": 6233, 
  "Bay": 6234, 
  "prosecuted": 6235, 
  "ler": 6236, 
  "enjoying": 6237, 
  "devoted": 6238, 
  "dropping": 6239, 
  "productive": 6240, 
  "ner": 6241, 
  "Kumanovo": 6242, 
  "competed": 6243, 
  "har@@": 6244, 
  "est": 6245, 
  "Tatlises": 6246, 
  "Jonilda": 6247, 
  "Muammar": 6248, 
  "ru@@": 6249, 
  "7.@@": 6250, 
  "slight": 6251, 
  "convention": 6252, 
  "sustainability": 6253, 
  "Benedict": 6254, 
  "healthy": 6255, 
  "creditors": 6256, 
  "arm": 6257, 
  "slated": 6258, 
  "ci": 6259, 
  "everywhere": 6260, 
  "courage": 6261, 
  "entrance": 6262, 
  "imprisonment": 6263, 
  "feels": 6264, 
  "cultures": 6265, 
  "temporarily": 6266, 
  "systematic": 6267, 
  "emissions": 6268, 
  "pressed": 6269, 
  "Veles": 6270, 
  "gangs": 6271, 
  "belonged": 6272, 
  "technically": 6273, 
  "Camp": 6274, 
  "id@@": 6275, 
  "Venizelos": 6276, 
  "miners": 6277, 
  "Visegrad": 6278, 
  "elimination": 6279, 
  "accomplished": 6280, 
  "Without": 6281, 
  "Di@@": 6282, 
  "premises": 6283, 
  "checks": 6284, 
  "pays": 6285, 
  "1.7": 6286, 
  "checkpoint": 6287, 
  "Besa": 6288, 
  "alisation": 6289, 
  "commenting": 6290, 
  "Bill": 6291, 
  "forests": 6292, 
  "WHO": 6293, 
  "beaten": 6294, 
  "Andrija": 6295, 
  "lacking": 6296, 
  "sight": 6297, 
  "mon@@": 6298, 
  "grenades": 6299, 
  "totalling": 6300, 
  "Persons": 6301, 
  "retrial": 6302, 
  "readers": 6303, 
  "50th": 6304, 
  "essence": 6305, 
  "Josip": 6306, 
  "democracies": 6307, 
  "hub": 6308, 
  "allocate": 6309, 
  "footage": 6310, 
  "Pliva": 6311, 
  "applying": 6312, 
  "harmful": 6313, 
  "Droutsas": 6314, 
  "smokers": 6315, 
  "Mihai": 6316, 
  "breakaway": 6317, 
  "Zarko": 6318, 
  "clinic": 6319, 
  "militant": 6320, 
  "buses": 6321, 
  "ki": 6322, 
  "undergoing": 6323, 
  "capitals": 6324, 
  "county": 6325, 
  "signatures": 6326, 
  "associates": 6327, 
  "ish": 6328, 
  "Misko": 6329, 
  "Warsaw": 6330, 
  "sat": 6331, 
  "tend": 6332, 
  "Delta": 6333, 
  "contracted": 6334, 
  "coffee": 6335, 
  "deciding": 6336, 
  "PACE": 6337, 
  "Vukcevic": 6338, 
  "abandon": 6339, 
  "Miodrag": 6340, 
  "uprising": 6341, 
  "ological": 6342, 
  "objects": 6343, 
  "lingering": 6344, 
  "Sydney": 6345, 
  "beneficial": 6346, 
  "workshops": 6347, 
  "continuous": 6348, 
  "married": 6349, 
  "neutral": 6350, 
  "shocked": 6351, 
  "referenda": 6352, 
  "promotes": 6353, 
  "DOS": 6354, 
  "flows": 6355, 
  "meantime": 6356, 
  "EXIT": 6357, 
  "formula": 6358, 
  "preserved": 6359, 
  "1.5m": 6360, 
  "Polt": 6361, 
  "absorption": 6362, 
  "5.@@": 6363, 
  "kick": 6364, 
  "Janica": 6365, 
  "costly": 6366, 
  "Patten": 6367, 
  "greeted": 6368, 
  "convincing": 6369, 
  "Jones": 6370, 
  "E": 6371, 
  "Mer@@": 6372, 
  "wrestling": 6373, 
  "privileged": 6374, 
  "Gaza": 6375, 
  "bond": 6376, 
  "San@@": 6377, 
  "sitting": 6378, 
  "notorious": 6379, 
  "graphic": 6380, 
  "rank": 6381, 
  "dramatically": 6382, 
  "boycotted": 6383, 
  "Ser@@": 6384, 
  "iron": 6385, 
  "Journalists": 6386, 
  "Miss": 6387, 
  "grants": 6388, 
  "portal": 6389, 
  "Le@@": 6390, 
  "revive": 6391, 
  "dam": 6392, 
  "discontent": 6393, 
  "borrowing": 6394, 
  "alert": 6395, 
  "arbitration": 6396, 
  "murdered": 6397, 
  "Cicek": 6398, 
  "excise": 6399, 
  "301": 6400, 
  "Nokia": 6401, 
  "Indian": 6402, 
  "tor": 6403, 
  "res@@": 6404, 
  "wood": 6405, 
  "dollars": 6406, 
  "psychological": 6407, 
  "Trafficking": 6408, 
  "amounting": 6409, 
  "Scotsman": 6410, 
  "mediated": 6411, 
  "fix": 6412, 
  "em@@": 6413, 
  "drinking": 6414, 
  "combination": 6415, 
  "rumours": 6416, 
  "par@@": 6417, 
  "gun": 6418, 
  "Varna": 6419, 
  "Ch@@": 6420, 
  "junior": 6421, 
  "Djurovic": 6422, 
  "researcher": 6423, 
  "Colin": 6424, 
  "400,000": 6425, 
  "profession": 6426, 
  "transported": 6427, 
  "ours": 6428, 
  "ges": 6429, 
  "residential": 6430, 
  "delaying": 6431, 
  "Mountain": 6432, 
  "replacement": 6433, 
  "Zadar": 6434, 
  "observer": 6435, 
  "Bal@@": 6436, 
  "explosive": 6437, 
  "castle": 6438, 
  "reductions": 6439, 
  "denying": 6440, 
  "Jansa": 6441, 
  "Genc": 6442, 
  "lengthy": 6443, 
  "credible": 6444, 
  "13@@": 6445, 
  "composer": 6446, 
  "remote": 6447, 
  "Q@@": 6448, 
  "usual": 6449, 
  "1,800": 6450, 
  "subjects": 6451, 
  "Oil": 6452, 
  "rent": 6453, 
  "precise": 6454, 
  "anger": 6455, 
  "ful": 6456, 
  "birthday": 6457, 
  "disagreement": 6458, 
  "In": 6459, 
  "pan": 6460, 
  "regulate": 6461, 
  "unpaid": 6462, 
  "volleyball": 6463, 
  "sun": 6464, 
  "can@@": 6465, 
  "exclusively": 6466, 
  "contained": 6467, 
  "demonstrating": 6468, 
  "taxi": 6469, 
  "sworn": 6470, 
  "Caucasus": 6471, 
  "excluded": 6472, 
  "soft": 6473, 
  "Vatican": 6474, 
  "OECD": 6475, 
  "components": 6476, 
  "Marian": 6477, 
  "usage": 6478, 
  "86": 6479, 
  "Hasan": 6480, 
  "roundup": 6481, 
  "Jandrokovic": 6482, 
  "evaluate": 6483, 
  "9,000": 6484, 
  "Team": 6485, 
  "justified": 6486, 
  "anti@@": 6487, 
  "Dogan": 6488, 
  "ci@@": 6489, 
  "agreeing": 6490, 
  "assuming": 6491, 
  "guide": 6492, 
  "legendary": 6493, 
  "electorate": 6494, 
  "Ocalan": 6495, 
  "Zdravko": 6496, 
  "assurances": 6497, 
  "unusual": 6498, 
  "tomorrow": 6499, 
  "registering": 6500, 
  "scientist": 6501, 
  "emerge": 6502, 
  "Contemporary": 6503, 
  "350": 6504, 
  "integral": 6505, 
  "1.1": 6506, 
  "shed": 6507, 
  "du@@": 6508, 
  "predicts": 6509, 
  "commentator": 6510, 
  "hopeful": 6511, 
  "abuses": 6512, 
  "appreciation": 6513, 
  "gallery": 6514, 
  "essentially": 6515, 
  "screened": 6516, 
  "accidents": 6517, 
  "Par@@": 6518, 
  "ninth": 6519, 
  "ignore": 6520, 
  "chair": 6521, 
  "ombudsman": 6522, 
  "Kristina": 6523, 
  "rebel": 6524, 
  "construct": 6525, 
  "crash": 6526, 
  "Nedjeljko": 6527, 
  "Sljivancanin": 6528, 
  "cr@@": 6529, 
  "88": 6530, 
  "beach": 6531, 
  "petrol": 6532, 
  "quit": 6533, 
  "MOL": 6534, 
  "bands": 6535, 
  "Denktash": 6536, 
  "apprehended": 6537, 
  "Daci": 6538, 
  "16@@": 6539, 
  "waves": 6540, 
  "stagnation": 6541, 
  "do@@": 6542, 
  "Mile": 6543, 
  "Kadare": 6544, 
  "shakes": 6545, 
  "unhappy": 6546, 
  "spite": 6547, 
  "academics": 6548, 
  "library": 6549, 
  "Papademos": 6550, 
  "provoked": 6551, 
  "sweeping": 6552, 
  "resumption": 6553, 
  "communicate": 6554, 
  "Blue": 6555, 
  "Manager": 6556, 
  "EUPM": 6557, 
  "scheme": 6558, 
  "Christos": 6559, 
  "Bi@@": 6560, 
  "Borissov": 6561, 
  "goodwill": 6562, 
  "boasts": 6563, 
  "petition": 6564, 
  "WTO": 6565, 
  "cafes": 6566, 
  "myself": 6567, 
  "modest": 6568, 
  "250m": 6569, 
  "Com@@": 6570, 
  "ma": 6571, 
  "burned": 6572, 
  "equivalent": 6573, 
  "Monastery": 6574, 
  "privatised": 6575, 
  "Damir": 6576, 
  "signalled": 6577, 
  "harmonisation": 6578, 
  "renovation": 6579, 
  "renovated": 6580, 
  "Gen": 6581, 
  "utilities": 6582, 
  "suspicious": 6583, 
  "tenure": 6584, 
  "setback": 6585, 
  "box": 6586, 
  "Olympiad": 6587, 
  "Giorgos": 6588, 
  "Credit": 6589, 
  "villagers": 6590, 
  "com@@": 6591, 
  "argument": 6592, 
  "Topalli": 6593, 
  "trilateral": 6594, 
  "slogan": 6595, 
  "Sibiu": 6596, 
  "disclosed": 6597, 
  "publication": 6598, 
  "Renewal": 6599, 
  "consulting": 6600, 
  "lowering": 6601, 
  "reward": 6602, 
  "Osijek": 6603, 
  "tools": 6604, 
  "Land": 6605, 
  "challenged": 6606, 
  "75m": 6607, 
  "separation": 6608, 
  "Barbu": 6609, 
  "cargo": 6610, 
  "Antalya": 6611, 
  "Piraeus": 6612, 
  "anonymous": 6613, 
  "seaside": 6614, 
  "trains": 6615, 
  "Donald": 6616, 
  "boosted": 6617, 
  "Storm": 6618, 
  "accommodation": 6619, 
  "blocks": 6620, 
  "Rudovic": 6621, 
  "BH": 6622, 
  "partnerships": 6623, 
  "separated": 6624, 
  "graduate": 6625, 
  "impressed": 6626, 
  "flotilla": 6627, 
  "Plavsic": 6628, 
  "floor": 6629, 
  "fulfillment": 6630, 
  "competent": 6631, 
  "mediation": 6632, 
  "the@@": 6633, 
  "caution": 6634, 
  "quest": 6635, 
  "segments": 6636, 
  "cites": 6637, 
  "Dimitar": 6638, 
  "Macovei": 6639, 
  "staying": 6640, 
  "Tony": 6641, 
  "Arhin": 6642, 
  "avoiding": 6643, 
  "televised": 6644, 
  "scoring": 6645, 
  "imply": 6646, 
  "regimes": 6647, 
  "shale": 6648, 
  "highways": 6649, 
  "MW": 6650, 
  "spectators": 6651, 
  "pages": 6652, 
  "Mitreva": 6653, 
  "Fest": 6654, 
  "Europol": 6655, 
  "char@@": 6656, 
  "conversation": 6657, 
  "Anna": 6658, 
  "Ibar": 6659, 
  "occupied": 6660, 
  "proliferation": 6661, 
  "awaits": 6662, 
  "Gu@@": 6663, 
  "lake": 6664, 
  "Gjirokastra": 6665, 
  "fi@@": 6666, 
  "negatively": 6667, 
  "Clark": 6668, 
  "abolition": 6669, 
  "destabilise": 6670, 
  "arrives": 6671, 
  "Employment": 6672, 
  "infection": 6673, 
  "ou": 6674, 
  "suppliers": 6675, 
  "Dimitrij": 6676, 
  "Jocic": 6677, 
  "ultimate": 6678, 
  "assault": 6679, 
  "conviction": 6680, 
  "soil": 6681, 
  "seconds": 6682, 
  "Maja": 6683, 
  "Denis": 6684, 
  "painter": 6685, 
  "insulting": 6686, 
  "Eurasian": 6687, 
  "adequately": 6688, 
  "skiing": 6689, 
  "ECHR": 6690, 
  "bureaucracy": 6691, 
  "threatens": 6692, 
  "carriers": 6693, 
  "conferences": 6694, 
  "For": 6695, 
  "comparatively": 6696, 
  "afternoon": 6697, 
  "Joseph": 6698, 
  "aggressive": 6699, 
  "Or@@": 6700, 
  "affair": 6701, 
  "committees": 6702, 
  "troop": 6703, 
  "ODIHR": 6704, 
  "Poetry": 6705, 
  "ICC": 6706, 
  "attendance": 6707, 
  "Representatives": 6708, 
  "ul": 6709, 
  "hall": 6710, 
  "incentive": 6711, 
  "kov": 6712, 
  "Acropolis": 6713, 
  "Dr": 6714, 
  "overthrow": 6715, 
  "air@@": 6716, 
  "device": 6717, 
  "cement": 6718, 
  "headscarves": 6719, 
  "disbanded": 6720, 
  "Lulzim": 6721, 
  "po@@": 6722, 
  "Pre@@": 6723, 
  "eighth": 6724, 
  "Portuguese": 6725, 
  "meters": 6726, 
  "engine": 6727, 
  "tree": 6728, 
  "Ossetia": 6729, 
  "bankrupt": 6730, 
  "Envoy": 6731, 
  "Sadiku": 6732, 
  "defining": 6733, 
  "exposed": 6734, 
  "silent": 6735, 
  "Im@@": 6736, 
  "roadmap": 6737, 
  "lu@@": 6738, 
  "automatically": 6739, 
  "MHP": 6740, 
  "civilisation": 6741, 
  "17@@": 6742, 
  "revision": 6743, 
  "lustration": 6744, 
  "awaited": 6745, 
  "enabled": 6746, 
  "Mobile": 6747, 
  "su@@": 6748, 
  "vis": 6749, 
  "Oslo": 6750, 
  "ce@@": 6751, 
  "1,0@@": 6752, 
  "landscape": 6753, 
  "Eurostat": 6754, 
  "Internal": 6755, 
  "Investments": 6756, 
  "ality": 6757, 
  "f": 6758, 
  "everyday": 6759, 
  "stick": 6760, 
  "artistic": 6761, 
  "Stephen": 6762, 
  "pick": 6763, 
  "Tehran": 6764, 
  "attraction": 6765, 
  "forever": 6766, 
  "window": 6767, 
  "brokered": 6768, 
  "Tudjman": 6769, 
  "undertaking": 6770, 
  "perceptions": 6771, 
  "Gun@@": 6772, 
  "IPA": 6773, 
  "resource": 6774, 
  "Mo@@": 6775, 
  "Be": 6776, 
  "Investigative": 6777, 
  "die": 6778, 
  "refer": 6779, 
  "Bernard": 6780, 
  "Control": 6781, 
  "Kouchner": 6782, 
  "Services": 6783, 
  "Anders": 6784, 
  "Ceausescu": 6785, 
  "um@@": 6786, 
  "restitution": 6787, 
  "Dick": 6788, 
  "cleansing": 6789, 
  "mentality": 6790, 
  "firefighters": 6791, 
  "9.@@": 6792, 
  "policeman": 6793, 
  "Direct": 6794, 
  "Kal@@": 6795, 
  "tops": 6796, 
  "helicopter": 6797, 
  "badly": 6798, 
  "watched": 6799, 
  "Plovdiv": 6800, 
  "Alkalaj": 6801, 
  "laboratory": 6802, 
  "sic": 6803, 
  "inevitable": 6804, 
  "possession": 6805, 
  "EVN": 6806, 
  "adjustment": 6807, 
  "Downer": 6808, 
  "taxpayers": 6809, 
  "10.@@": 6810, 
  "Emir": 6811, 
  "looked": 6812, 
  "stems": 6813, 
  "Ford": 6814, 
  "ber@@": 6815, 
  "enforced": 6816, 
  "20@@": 6817, 
  "destroying": 6818, 
  "av@@": 6819, 
  "reminded": 6820, 
  "relationships": 6821, 
  "istic": 6822, 
  "Vlasic": 6823, 
  "impetus": 6824, 
  "Baghdad": 6825, 
  "strictly": 6826, 
  "surprising": 6827, 
  "stabilising": 6828, 
  "Easter": 6829, 
  "distant": 6830, 
  "beer": 6831, 
  "dinars": 6832, 
  "ra": 6833, 
  "weaknesses": 6834, 
  "headscarf": 6835, 
  "philosophy": 6836, 
  "Cor@@": 6837, 
  "reserved": 6838, 
  "overwhelmingly": 6839, 
  "Marin": 6840, 
  "mood": 6841, 
  "rift": 6842, 
  "robust": 6843, 
  "ed@@": 6844, 
  "sion": 6845, 
  "grand": 6846, 
  "proposes": 6847, 
  "7.5": 6848, 
  "Herman": 6849, 
  "Sch@@": 6850, 
  "ble": 6851, 
  "apprehend": 6852, 
  "jic": 6853, 
  "satisfactory": 6854, 
  "Sreten": 6855, 
  "Matic": 6856, 
  "poised": 6857, 
  "highlight": 6858, 
  "radar": 6859, 
  "stamp": 6860, 
  "Markac": 6861, 
  "Alpha": 6862, 
  "acquiring": 6863, 
  "totalled": 6864, 
  "slim": 6865, 
  "Christians": 6866, 
  "prohibited": 6867, 
  "slowed": 6868, 
  "animals": 6869, 
  "Zukorlic": 6870, 
  "Hrant": 6871, 
  "ig@@": 6872, 
  "ities": 6873, 
  "limiting": 6874, 
  "expires": 6875, 
  "5.5": 6876, 
  "realisation": 6877, 
  "unstable": 6878, 
  "6.5": 6879, 
  "memory": 6880, 
  "ven@@": 6881, 
  "debut": 6882, 
  "irreversible": 6883, 
  "travellers": 6884, 
  "Scepanovic": 6885, 
  "Bu@@": 6886, 
  "Selimi": 6887, 
  "bTV": 6888, 
  "Janez": 6889, 
  "bas@@": 6890, 
  "ev@@": 6891, 
  "verdicts": 6892, 
  "loose": 6893, 
  "patrols": 6894, 
  "treat": 6895, 
  "Managing": 6896, 
  "handing": 6897, 
  "180": 6898, 
  "produces": 6899, 
  "Football": 6900, 
  "doubled": 6901, 
  "successes": 6902, 
  "clashed": 6903, 
  "patience": 6904, 
  "brain": 6905, 
  "Remikovic": 6906, 
  "rarely": 6907, 
  "smooth": 6908, 
  "ion": 6909, 
  "reflecting": 6910, 
  "Americans": 6911, 
  "ideology": 6912, 
  "effectiveness": 6913, 
  "91": 6914, 
  "northeastern": 6915, 
  "Schook": 6916, 
  "DiCarlo": 6917, 
  "Country": 6918, 
  "forgotten": 6919, 
  "recommends": 6920, 
  "thank": 6921, 
  "Mt": 6922, 
  "length": 6923, 
  "composition": 6924, 
  "gen@@": 6925, 
  "demographic": 6926, 
  "Short": 6927, 
  "af@@": 6928, 
  "filmmakers": 6929, 
  "takeover": 6930, 
  "Bar": 6931, 
  "93": 6932, 
  "Freedoms": 6933, 
  "www.@@": 6934, 
  "ik@@": 6935, 
  "tanks": 6936, 
  "Skender": 6937, 
  "peacefully": 6938, 
  "ska": 6939, 
  "cave": 6940, 
  "rain": 6941, 
  "MAP": 6942, 
  "advantages": 6943, 
  "hi": 6944, 
  "Guler": 6945, 
  "documentaries": 6946, 
  "Philharmonic": 6947, 
  "tiny": 6948, 
  "Mail": 6949, 
  "MRF": 6950, 
  "eat": 6951, 
  "guards": 6952, 
  "packed": 6953, 
  "Cannes": 6954, 
  "Ro@@": 6955, 
  "Nova": 6956, 
  "liquidity": 6957, 
  "resignations": 6958, 
  "crew": 6959, 
  "withdrawn": 6960, 
  "stays": 6961, 
  "Nicolae": 6962, 
  "missiles": 6963, 
  "advised": 6964, 
  "forged": 6965, 
  "Statistical": 6966, 
  "layoffs": 6967, 
  "percent": 6968, 
  "Nazi": 6969, 
  "stresses": 6970, 
  "col@@": 6971, 
  "longest": 6972, 
  "Insurance": 6973, 
  "Refugees": 6974, 
  "Kotor": 6975, 
  "returnees": 6976, 
  "justify": 6977, 
  "PDL": 6978, 
  "pair": 6979, 
  "3.6": 6980, 
  "tragic": 6981, 
  "blaming": 6982, 
  "wear": 6983, 
  "Man": 6984, 
  "Vodafone": 6985, 
  "geographical": 6986, 
  "indicating": 6987, 
  "ging": 6988, 
  "drink": 6989, 
  "trafficked": 6990, 
  "aftermath": 6991, 
  "XVI": 6992, 
  "Dialogue": 6993, 
  "slalom": 6994, 
  "supplier": 6995, 
  "Cluj": 6996, 
  "Prix": 6997, 
  "motto": 6998, 
  "Miranda": 6999, 
  "regulated": 7000, 
  "forthcoming": 7001, 
  "proportion": 7002, 
  "satisfy": 7003, 
  "torn": 7004, 
  "thereby": 7005, 
  "This": 7006, 
  "activist": 7007, 
  "ry": 7008, 
  "announces": 7009, 
  "tariffs": 7010, 
  "transferring": 7011, 
  "ton": 7012, 
  "Marshall": 7013, 
  "Kosovar": 7014, 
  "windows": 7015, 
  "burning": 7016, 
  "suspicions": 7017, 
  "forums": 7018, 
  "difficulty": 7019, 
  "counted": 7020, 
  "guidelines": 7021, 
  "Samir": 7022, 
  "cohesion": 7023, 
  "Basbug": 7024, 
  "mainstream": 7025, 
  "arguably": 7026, 
  "prosecuting": 7027, 
  "3,@@": 7028, 
  "inspectors": 7029, 
  "wonder": 7030, 
  "govern": 7031, 
  "Kyprianou": 7032, 
  "modernising": 7033, 
  "feet": 7034, 
  "alarm": 7035, 
  "br@@": 7036, 
  "ire": 7037, 
  "250,000": 7038, 
  "hand@@": 7039, 
  "Momcilo": 7040, 
  "Second": 7041, 
  "object": 7042, 
  "tactics": 7043, 
  "harmonise": 7044, 
  "barrier": 7045, 
  "92": 7046, 
  "enthusiasm": 7047, 
  "gradual": 7048, 
  "problematic": 7049, 
  "Ranko": 7050, 
  "novel": 7051, 
  "photographs": 7052, 
  "Nuclear": 7053, 
  "persistent": 7054, 
  "warming": 7055, 
  "analyse": 7056, 
  "History": 7057, 
  "Elena": 7058, 
  "picked": 7059, 
  "Civilian": 7060, 
  "mere": 7061, 
  "commerce": 7062, 
  "weapon": 7063, 
  "Awards": 7064, 
  "dissatisfaction": 7065, 
  "Evenings": 7066, 
  "sufficiently": 7067, 
  "cor@@": 7068, 
  "biological": 7069, 
  "sur@@": 7070, 
  "Mal@@": 7071, 
  "merely": 7072, 
  "Mechanism": 7073, 
  "asset": 7074, 
  "assessing": 7075, 
  "precisely": 7076, 
  "Change": 7077, 
  "Presidential": 7078, 
  "consolidate": 7079, 
  "Angel": 7080, 
  "Su@@": 7081, 
  "applicants": 7082, 
  "surrounded": 7083, 
  "Zone": 7084, 
  "Voulgarakis": 7085, 
  "Saric": 7086, 
  "unrealistic": 7087, 
  "hearings": 7088, 
  "tapped": 7089, 
  "echoing": 7090, 
  "bidding": 7091, 
  "Cedomir": 7092, 
  "barracks": 7093, 
  "enables": 7094, 
  "loyal": 7095, 
  "Fogh": 7096, 
  "gratitude": 7097, 
  "quake": 7098, 
  "tors": 7099, 
  "perfect": 7100, 
  "Maric": 7101, 
  "regulator": 7102, 
  "Turkishness": 7103, 
  "triumph": 7104, 
  "classical": 7105, 
  "ICO": 7106, 
  "Headquarters": 7107, 
  "ie": 7108, 
  "gesture": 7109, 
  "8.@@": 7110, 
  "AD": 7111, 
  "opposite": 7112, 
  "Baykal": 7113, 
  "Literature": 7114, 
  "abused": 7115, 
  "ged": 7116, 
  "lagging": 7117, 
  "Time": 7118, 
  "indirect": 7119, 
  "Rus@@": 7120, 
  "wild": 7121, 
  "kicks": 7122, 
  "Milutinovic": 7123, 
  "midnight": 7124, 
  "Borut": 7125, 
  "Ischinger": 7126, 
  "Belarus": 7127, 
  "Veselin": 7128, 
  "NBS": 7129, 
  "honours": 7130, 
  "renewal": 7131, 
  "Eve": 7132, 
  "keen": 7133, 
  "ri": 7134, 
  "qualify": 7135, 
  "ballet": 7136, 
  "situated": 7137, 
  "87": 7138, 
  "Road": 7139, 
  "Davinic": 7140, 
  "Orchestra": 7141, 
  "Kazakhstan": 7142, 
  "alising": 7143, 
  "unanimous": 7144, 
  "aviation": 7145, 
  "mothers": 7146, 
  "Terrorism": 7147, 
  "Afghan": 7148, 
  "Economist": 7149, 
  "explanation": 7150, 
  "Star": 7151, 
  "presiding": 7152, 
  "ini": 7153, 
  "eased": 7154, 
  "Busek": 7155, 
  "enemy": 7156, 
  "550": 7157, 
  "ously": 7158, 
  "owed": 7159, 
  "standby": 7160, 
  "dominant": 7161, 
  "guaranteeing": 7162, 
  "qualifying": 7163, 
  "Mexico": 7164, 
  "stayed": 7165, 
  "Guenter": 7166, 
  "urgently": 7167, 
  "furniture": 7168, 
  "Operations": 7169, 
  "lending": 7170, 
  "saved": 7171, 
  "packages": 7172, 
  "Mirjana": 7173, 
  "landslide": 7174, 
  "rallies": 7175, 
  "farewell": 7176, 
  "min@@": 7177, 
  "captain": 7178, 
  "Dmitry": 7179, 
  "familiar": 7180, 
  "Ko@@": 7181, 
  "Vlahovic": 7182, 
  "carries": 7183, 
  "adults": 7184, 
  "Food": 7185, 
  "ologists": 7186, 
  "Benghazi": 7187, 
  "recovered": 7188, 
  "Self": 7189, 
  "logical": 7190, 
  "Ne@@": 7191, 
  "workforce": 7192, 
  "parade": 7193, 
  "Over": 7194, 
  "ite": 7195, 
  "auction": 7196, 
  "Jan": 7197, 
  "unnamed": 7198, 
  "Tzanis": 7199, 
  "resolutions": 7200, 
  "Min@@": 7201, 
  "Hotel": 7202, 
  "virtual": 7203, 
  "eve": 7204, 
  "escalation": 7205, 
  "manipulation": 7206, 
  "cease": 7207, 
  "bribe": 7208, 
  "hate": 7209, 
  "Hollywood": 7210, 
  "print": 7211, 
  "spiritual": 7212, 
  "Venice": 7213, 
  "striking": 7214, 
  "Chris": 7215, 
  "inspection": 7216, 
  "policymakers": 7217, 
  "secularists": 7218, 
  "followers": 7219, 
  "Amariei": 7220, 
  "ver@@": 7221, 
  "Greater": 7222, 
  "couples": 7223, 
  "themes": 7224, 
  "Ionian": 7225, 
  "marriage": 7226, 
  "understands": 7227, 
  "crossed": 7228, 
  "clarify": 7229, 
  "deserve": 7230, 
  "4,@@": 7231, 
  "Arabia": 7232, 
  "q@@": 7233, 
  "Admiral": 7234, 
  "back@@": 7235, 
  "ns": 7236, 
  "lobbying": 7237, 
  "no@@": 7238, 
  "accurate": 7239, 
  "leg": 7240, 
  "accommodate": 7241, 
  "Harri": 7242, 
  "Frankfurt": 7243, 
  "CNA": 7244, 
  "preferred": 7245, 
  "cruise": 7246, 
  "outlines": 7247, 
  "album": 7248, 
  "arriving": 7249, 
  "intentions": 7250, 
  "pride": 7251, 
  "roundtable": 7252, 
  "ir": 7253, 
  "Ballet": 7254, 
  "Tax": 7255, 
  "2.9": 7256, 
  "rocket": 7257, 
  "JNA": 7258, 
  "necessity": 7259, 
  "Zbogar": 7260, 
  "sad": 7261, 
  "indicator": 7262, 
  "grace": 7263, 
  "orientation": 7264, 
  "settling": 7265, 
  "Pazar": 7266, 
  "concluding": 7267, 
  "aging": 7268, 
  "Mu@@": 7269, 
  "broadband": 7270, 
  "160": 7271, 
  "signatories": 7272, 
  "Kukes": 7273, 
  "filling": 7274, 
  "quantities": 7275, 
  "dimension": 7276, 
  "ak@@": 7277, 
  "bolster": 7278, 
  "ked": 7279, 
  "privileges": 7280, 
  "11@@": 7281, 
  "panic": 7282, 
  "imagine": 7283, 
  "ars": 7284, 
  "regulating": 7285, 
  "threw": 7286, 
  "employs": 7287, 
  "confront": 7288, 
  "blog": 7289, 
  "Lazarevic": 7290, 
  "rings": 7291, 
  "upgrading": 7292, 
  "proving": 7293, 
  "garnered": 7294, 
  "Savings": 7295, 
  "Arena": 7296, 
  "phases": 7297, 
  "Bonn": 7298, 
  "tech": 7299, 
  "crude": 7300, 
  "contractors": 7301, 
  "96": 7302, 
  "Srpske": 7303, 
  "Constanta": 7304, 
  "coastline": 7305, 
  "upset": 7306, 
  "preferential": 7307, 
  "bans": 7308, 
  "religions": 7309, 
  "abide": 7310, 
  "outlining": 7311, 
  "Sahin": 7312, 
  "Sar@@": 7313, 
  "convoy": 7314, 
  "frustrated": 7315, 
  "up@@": 7316, 
  "historians": 7317, 
  "35,000": 7318, 
  "plenty": 7319, 
  "Schroeder": 7320, 
  "ning": 7321, 
  "Oscar": 7322, 
  "OMV": 7323, 
  "inherited": 7324, 
  "One": 7325, 
  "Johnson": 7326, 
  "Water": 7327, 
  "emphasises": 7328, 
  "Andreas": 7329, 
  "deliberately": 7330, 
  "blackmail": 7331, 
  "YouTube": 7332, 
  "Butmir": 7333, 
  "Mandic": 7334, 
  "opoulos": 7335, 
  "quiet": 7336, 
  "secondly": 7337, 
  "Moon": 7338, 
  "gr@@": 7339, 
  "topped": 7340, 
  "noticed": 7341, 
  "inquiry": 7342, 
  "Christie": 7343, 
  "privacy": 7344, 
  "Safet": 7345, 
  "bidders": 7346, 
  "jevic": 7347, 
  "outdated": 7348, 
  "Presevo": 7349, 
  "insistence": 7350, 
  "Claude": 7351, 
  "ob@@": 7352, 
  "Ljube": 7353, 
  "Electoral": 7354, 
  "riot": 7355, 
  "Jakup": 7356, 
  "Zeri": 7357, 
  "runner": 7358, 
  "strained": 7359, 
  "emphasise": 7360, 
  "2.2": 7361, 
  "Evenimentul": 7362, 
  "Gordan": 7363, 
  "bureaucratic": 7364, 
  "uranium": 7365, 
  "Do@@": 7366, 
  "anonymity": 7367, 
  "defense": 7368, 
  "committing": 7369, 
  "measuring": 7370, 
  "machine": 7371, 
  "consistently": 7372, 
  "precautionary": 7373, 
  "gift": 7374, 
  "walked": 7375, 
  "hinges": 7376, 
  "Viktor": 7377, 
  "surface": 7378, 
  "umbrella": 7379, 
  "Tesla": 7380, 
  "corner": 7381, 
  "annulled": 7382, 
  "royal": 7383, 
  "Luksic": 7384, 
  "fixing": 7385, 
  "explosions": 7386, 
  "Bojan": 7387, 
  "Ti@@": 7388, 
  "CARDS": 7389, 
  "parliamentarians": 7390, 
  "foot": 7391, 
  "med": 7392, 
  "efficiently": 7393, 
  "flooded": 7394, 
  "advocating": 7395, 
  "Hari": 7396, 
  "squad": 7397, 
  "independently": 7398, 
  "Trajkovic": 7399, 
  "ent@@": 7400, 
  "consulate": 7401, 
  "Mitic": 7402, 
  "7,@@": 7403, 
  "Zilei": 7404, 
  "allocation": 7405, 
  "ay": 7406, 
  "integrating": 7407, 
  "enacted": 7408, 
  "occupation": 7409, 
  "misuse": 7410, 
  "Holy": 7411, 
  "Krivokapic": 7412, 
  "factions": 7413, 
  "Guard": 7414, 
  "indirectly": 7415, 
  "poster": 7416, 
  "plagued": 7417, 
  "academy": 7418, 
  "feasible": 7419, 
  "hasn": 7420, 
  "Declaration": 7421, 
  "chairs": 7422, 
  "glad": 7423, 
  "Snezana": 7424, 
  "endanger": 7425, 
  "William": 7426, 
  "Ivanovski": 7427, 
  "pulled": 7428, 
  "Zupljanin": 7429, 
  "angered": 7430, 
  "ned": 7431, 
  "unconstitutional": 7432, 
  "promotional": 7433, 
  "bed": 7434, 
  "ATP": 7435, 
  "Av@@": 7436, 
  "envisioning": 7437, 
  "spectacular": 7438, 
  "Photos": 7439, 
  "historian": 7440, 
  "Gheorghe": 7441, 
  "irresponsible": 7442, 
  "inability": 7443, 
  "suggestion": 7444, 
  "clauses": 7445, 
  "Packett": 7446, 
  "appealing": 7447, 
  "r": 7448, 
  "her@@": 7449, 
  "providers": 7450, 
  "gymnastics": 7451, 
  "fearing": 7452, 
  "gates": 7453, 
  "permanently": 7454, 
  "advancing": 7455, 
  "fatal": 7456, 
  "reconsider": 7457, 
  "exposure": 7458, 
  "condolences": 7459, 
  "breakup": 7460, 
  "Bujar": 7461, 
  "Evangelos": 7462, 
  "Cuk": 7463, 
  "Mladenov": 7464, 
  "sacrifice": 7465, 
  "shadow": 7466, 
  "3.8": 7467, 
  "geopolitical": 7468, 
  "Moratinos": 7469, 
  "Planning": 7470, 
  "drama": 7471, 
  "replaces": 7472, 
  "exceeds": 7473, 
  "trans@@": 7474, 
  "judgment": 7475, 
  "Bas@@": 7476, 
  "ti": 7477, 
  "Brigade": 7478, 
  "Ber@@": 7479, 
  "alarming": 7480, 
  "Cap@@": 7481, 
  "sub": 7482, 
  "responses": 7483, 
  "mourning": 7484, 
  "Broadcasting": 7485, 
  "detail": 7486, 
  "N": 7487, 
  "mar@@": 7488, 
  "Mediu": 7489, 
  "shocks": 7490, 
  "comprising": 7491, 
  "Interim": 7492, 
  "Young": 7493, 
  "pm": 7494, 
  "ten@@": 7495, 
  "RECOM": 7496, 
  "circulation": 7497, 
  "KADEK": 7498, 
  "1.8": 7499, 
  "pain": 7500, 
  "revival": 7501, 
  "exceptional": 7502, 
  "select": 7503, 
  "forwarded": 7504, 
  "Bakir": 7505, 
  "1980": 7506, 
  "6,@@": 7507, 
  "socially": 7508, 
  "ordering": 7509, 
  "leftist": 7510, 
  "rated": 7511, 
  "shortage": 7512, 
  "Divac": 7513, 
  "Export": 7514, 
  "deserves": 7515, 
  "swimmer": 7516, 
  "shareholders": 7517, 
  "roadblocks": 7518, 
  "cells": 7519, 
  "sa@@": 7520, 
  "war@@": 7521, 
  "Sector": 7522, 
  "rebuilt": 7523, 
  "sponsors": 7524, 
  "denounced": 7525, 
  "Hilmi": 7526, 
  "Song": 7527, 
  "speculate": 7528, 
  "Men": 7529, 
  "typical": 7530, 
  "Brigadier": 7531, 
  "smoothly": 7532, 
  "affordable": 7533, 
  "Age": 7534, 
  "dire": 7535, 
  "recycling": 7536, 
  "singers": 7537, 
  "departments": 7538, 
  "go@@": 7539, 
  "pupils": 7540, 
  "ians": 7541, 
  "finishing": 7542, 
  "Crete": 7543, 
  "surge": 7544, 
  "proceeds": 7545, 
  "Saranda": 7546, 
  "Sven": 7547, 
  "stir": 7548, 
  "violates": 7549, 
  "ut@@": 7550, 
  "Jankulovska": 7551, 
  "expired": 7552, 
  "races": 7553, 
  "timely": 7554, 
  "harmony": 7555, 
  "Pan": 7556, 
  "unaware": 7557, 
  "monasteries": 7558, 
  "artificial": 7559, 
  "await": 7560, 
  "neo": 7561, 
  "transplants": 7562, 
  "firing": 7563, 
  "240": 7564, 
  "relating": 7565, 
  "gi@@": 7566, 
  "studied": 7567, 
  "Gulf": 7568, 
  "14,000": 7569, 
  "testified": 7570, 
  "Bel@@": 7571, 
  "automatic": 7572, 
  "2.6": 7573, 
  "machines": 7574, 
  "utmost": 7575, 
  "substantially": 7576, 
  "sister": 7577, 
  "tunnel": 7578, 
  "den": 7579, 
  "faculty": 7580, 
  "CERN": 7581, 
  "inmates": 7582, 
  "Erwan": 7583, 
  "Prince": 7584, 
  "consequently": 7585, 
  "commissioned": 7586, 
  "eager": 7587, 
  "lawsuits": 7588, 
  "statute": 7589, 
  "jailed": 7590, 
  "naval": 7591, 
  "Prosper": 7592, 
  "boat": 7593, 
  "Ozkok": 7594, 
  "sting": 7595, 
  "800,000": 7596, 
  "Holocaust": 7597, 
  "commended": 7598, 
  "IBM": 7599, 
  "Har@@": 7600, 
  "disagreed": 7601, 
  "Dulic": 7602, 
  "stops": 7603, 
  "Allied": 7604, 
  "prayer": 7605, 
  "pool": 7606, 
  "consecutive": 7607, 
  "You": 7608, 
  "counties": 7609, 
  "multinational": 7610, 
  "Earth": 7611, 
  "councils": 7612, 
  "Bancroft": 7613, 
  "ched": 7614, 
  "pianist": 7615, 
  "Tri@@": 7616, 
  "auto": 7617, 
  "deepen": 7618, 
  "Together": 7619, 
  "Dra@@": 7620, 
  "organiser": 7621, 
  "respecting": 7622, 
  "Micic": 7623, 
  "warrants": 7624, 
  "Contest": 7625, 
  "5km": 7626, 
  "Hoxhaj": 7627, 
  "reinforce": 7628, 
  "Gregorian": 7629, 
  "populist": 7630, 
  "Communication": 7631, 
  "Mount": 7632, 
  "treasures": 7633, 
  "Trandafir": 7634, 
  "harmonised": 7635, 
  "minimal": 7636, 
  "attached": 7637, 
  "normally": 7638, 
  "drilling": 7639, 
  "mail": 7640, 
  "accomplish": 7641, 
  "Property": 7642, 
  "Val@@": 7643, 
  "mental": 7644, 
  "coincided": 7645, 
  "Ab@@": 7646, 
  "Zealand": 7647, 
  "stimulate": 7648, 
  "trans": 7649, 
  "97": 7650, 
  "lands": 7651, 
  "advisers": 7652, 
  "internally": 7653, 
  "protocols": 7654, 
  "sq": 7655, 
  "contention": 7656, 
  "ultra": 7657, 
  "spare": 7658, 
  "sky": 7659, 
  "sentiment": 7660, 
  "Independence": 7661, 
  "Tarculovski": 7662, 
  "Surroi": 7663, 
  "rape": 7664, 
  "9,@@": 7665, 
  "tune": 7666, 
  "Cermak": 7667, 
  "3.2": 7668, 
  "roof": 7669, 
  "aren": 7670, 
  "audit": 7671, 
  "tr@@": 7672, 
  "transitional": 7673, 
  "evil": 7674, 
  "gifts": 7675, 
  "3.3": 7676, 
  "repayment": 7677, 
  "dic": 7678, 
  "concentration": 7679, 
  "tightening": 7680, 
  "item": 7681, 
  "Town": 7682, 
  "individually": 7683, 
  "stopping": 7684, 
  "anthem": 7685, 
  "graduates": 7686, 
  "mountainous": 7687, 
  "External": 7688, 
  "PDP": 7689, 
  "Urges": 7690, 
  "feelings": 7691, 
  "Task": 7692, 
  "notable": 7693, 
  "Sal@@": 7694, 
  "instructions": 7695, 
  "ped": 7696, 
  "overwhelming": 7697, 
  "suburb": 7698, 
  "incoming": 7699, 
  "undoubtedly": 7700, 
  "commented": 7701, 
  "Border": 7702, 
  "Humanitarian": 7703, 
  "sociologist": 7704, 
  "homeland": 7705, 
  "ws": 7706, 
  "hackers": 7707, 
  "Tokyo": 7708, 
  "zi": 7709, 
  "contents": 7710, 
  "Clan": 7711, 
  "sticking": 7712, 
  "Butler": 7713, 
  "Appeals": 7714, 
  "prolonged": 7715, 
  "acquittal": 7716, 
  "cm": 7717, 
  "boats": 7718, 
  "ads": 7719, 
  "baby": 7720, 
  "commissions": 7721, 
  "escaped": 7722, 
  "consultation": 7723, 
  "BIRN": 7724, 
  "ratio": 7725, 
  "interpretation": 7726, 
  "Korean": 7727, 
  "BB": 7728, 
  "4.4": 7729, 
  "Ge@@": 7730, 
  "OTE": 7731, 
  "criticise": 7732, 
  "Stojkovic": 7733, 
  "contractor": 7734, 
  "Tobacco": 7735, 
  "convergence": 7736, 
  "skilled": 7737, 
  "questionable": 7738, 
  "discover": 7739, 
  "Tomic": 7740, 
  "engineers": 7741, 
  "screen": 7742, 
  "absentia": 7743, 
  "annul": 7744, 
  "parameters": 7745, 
  "pillars": 7746, 
  "limbo": 7747, 
  "Carl": 7748, 
  "implies": 7749, 
  "unidentified": 7750, 
  "Mi@@": 7751, 
  "worship": 7752, 
  "small-": 7753, 
  "CEZ": 7754, 
  "SMEs": 7755, 
  "insult": 7756, 
  "cy@@": 7757, 
  "Estonian": 7758, 
  "800m": 7759, 
  "comfortable": 7760, 
  "wrapping": 7761, 
  "bishop": 7762, 
  "Vecernje": 7763, 
  "scholars": 7764, 
  "reunite": 7765, 
  "gar@@": 7766, 
  "restricted": 7767, 
  "Osama": 7768, 
  "tolerate": 7769, 
  "Pan@@": 7770, 
  "170": 7771, 
  "kWh": 7772, 
  "Th@@": 7773, 
  "RIA": 7774, 
  "Hala": 7775, 
  "brigade": 7776, 
  "provinces": 7777, 
  "Nikolay": 7778, 
  "chev": 7779, 
  "purchases": 7780, 
  "inaugural": 7781, 
  "pretty": 7782, 
  "raw": 7783, 
  "Radu": 7784, 
  "ceremonies": 7785, 
  "deteriorated": 7786, 
  "vows": 7787, 
  "circle": 7788, 
  "undermined": 7789, 
  "Manjola": 7790, 
  "Ap@@": 7791, 
  "turnover": 7792, 
  "Status": 7793, 
  "opt": 7794, 
  "Archbishop": 7795, 
  "checkpoints": 7796, 
  "typically": 7797, 
  "wraps": 7798, 
  "endorse": 7799, 
  "ailing": 7800, 
  "holders": 7801, 
  "submitting": 7802, 
  "decent": 7803, 
  "Cemil": 7804, 
  "Anatolia": 7805, 
  "Gelu": 7806, 
  "accompanying": 7807, 
  "counterterrorism": 7808, 
  "exporting": 7809, 
  "accords": 7810, 
  "Rajko": 7811, 
  "longtime": 7812, 
  "grid": 7813, 
  "20km": 7814, 
  "locate": 7815, 
  "def@@": 7816, 
  "Franjo": 7817, 
  "Trust": 7818, 
  "dividing": 7819, 
  "indications": 7820, 
  "reverse": 7821, 
  "bail": 7822, 
  "graft": 7823, 
  "prizes": 7824, 
  "X": 7825, 
  "certificates": 7826, 
  "risky": 7827, 
  "conventional": 7828, 
  "ride": 7829, 
  "dependency": 7830, 
  "administered": 7831, 
  "Ilija": 7832, 
  "treasure": 7833, 
  "ack": 7834, 
  "eco": 7835, 
  "Col@@": 7836, 
  "exclude": 7837, 
  "ro": 7838, 
  "atrocity": 7839, 
  "admitting": 7840, 
  "universal": 7841, 
  "Ungureanu": 7842, 
  "600,000": 7843, 
  "hal@@": 7844, 
  "ze": 7845, 
  "northwest": 7846, 
  "Big": 7847, 
  "cu@@": 7848, 
  "Promotion": 7849, 
  "deterioration": 7850, 
  "similarly": 7851, 
  "crack": 7852, 
  "commemorate": 7853, 
  "GSM": 7854, 
  "Antic": 7855, 
  "imprisoned": 7856, 
  "adoptions": 7857, 
  "den@@": 7858, 
  "unlawful": 7859, 
  "holder": 7860, 
  "preparedness": 7861, 
  "repercussions": 7862, 
  "Amnesty": 7863, 
  "700m": 7864, 
  "inflow": 7865, 
  "Pas@@": 7866, 
  "scenarios": 7867, 
  "tip": 7868, 
  "sions": 7869, 
  "dev@@": 7870, 
  "telephony": 7871, 
  "successive": 7872, 
  "Judiciary": 7873, 
  "attends": 7874, 
  "Annual": 7875, 
  "specialist": 7876, 
  "Permanent": 7877, 
  "Turkmenistan": 7878, 
  "College": 7879, 
  "calculated": 7880, 
  "Channel": 7881, 
  "Dr.": 7882, 
  "wrongdoing": 7883, 
  "Nations": 7884, 
  "treaties": 7885, 
  "somewhere": 7886, 
  "decreasing": 7887, 
  "fined": 7888, 
  "breaches": 7889, 
  "secularist": 7890, 
  "han@@": 7891, 
  "60th": 7892, 
  "lira": 7893, 
  "froze": 7894, 
  "Marnhac": 7895, 
  "3G": 7896, 
  "interviews": 7897, 
  "speeding": 7898, 
  "competitions": 7899, 
  "signaled": 7900, 
  "fit": 7901, 
  "Vukovic": 7902, 
  "expenditure": 7903, 
  "mar": 7904, 
  "singing": 7905, 
  "inf@@": 7906, 
  "client": 7907, 
  "apology": 7908, 
  "im": 7909, 
  "reflection": 7910, 
  "Brazilian": 7911, 
  ".The": 7912, 
  "Reforms": 7913, 
  "ved": 7914, 
  "liberalising": 7915, 
  "upper": 7916, 
  "Rad@@": 7917, 
  "Green": 7918, 
  "Gas": 7919, 
  "rid": 7920, 
  "accuse": 7921, 
  "JSO": 7922, 
  "league": 7923, 
  "qualifications": 7924, 
  "mediate": 7925, 
  "closest": 7926, 
  "cheese": 7927, 
  "tu@@": 7928, 
  "attacking": 7929, 
  "deportation": 7930, 
  "ical": 7931, 
  "Monetary": 7932, 
  "hamper": 7933, 
  "NTV": 7934, 
  "wounds": 7935, 
  "delivering": 7936, 
  "proclamation": 7937, 
  "1.9": 7938, 
  "Ra@@": 7939, 
  "prejudice": 7940, 
  "bri@@": 7941, 
  "samples": 7942, 
  "contributes": 7943, 
  "Lutovska": 7944, 
  "Murat": 7945, 
  "Stojan": 7946, 
  "appointments": 7947, 
  "exceeding": 7948, 
  "wooden": 7949, 
  "teenagers": 7950, 
  "Kostic": 7951, 
  "overseeing": 7952, 
  "deteriorating": 7953, 
  "courtroom": 7954, 
  "aide": 7955, 
  "teach": 7956, 
  "Her@@": 7957, 
  "All": 7958, 
  "Thomas": 7959, 
  "80m": 7960, 
  "Br@@": 7961, 
  "master": 7962, 
  "Prosecution": 7963, 
  "bullets": 7964, 
  "12m": 7965, 
  "joy": 7966, 
  "Arben": 7967, 
  "Janjic": 7968, 
  "spark": 7969, 
  "saving": 7970, 
  "Electronic": 7971, 
  "bloody": 7972, 
  "recipient": 7973, 
  "illicit": 7974, 
  "weakened": 7975, 
  "choices": 7976, 
  "rush": 7977, 
  "advances": 7978, 
  "Is": 7979, 
  "Gallup": 7980, 
  "presentations": 7981, 
  "Sami": 7982, 
  "Davis": 7983, 
  "quotas": 7984, 
  "audio": 7985, 
  "Ismail": 7986, 
  "ek@@": 7987, 
  "oath": 7988, 
  "2.7": 7989, 
  "2.3": 7990, 
  "scepticism": 7991, 
  "olive": 7992, 
  "Mountains": 7993, 
  "Chisinau": 7994, 
  "Steven": 7995, 
  "meter": 7996, 
  "Kovac": 7997, 
  "shorter": 7998, 
  "hometown": 7999, 
  "eleven": 8000, 
  "Hajredin": 8001, 
  "programming": 8002, 
  "tenth": 8003, 
  "eva": 8004, 
  "Pukanic": 8005, 
  "motives": 8006, 
  "Bulletin": 8007, 
  "innocence": 8008, 
  "happiness": 8009, 
  "tures": 8010, 
  "subjected": 8011, 
  "lights": 8012, 
  "15.@@": 8013, 
  "recover": 8014, 
  "maps": 8015, 
  "Mat@@": 8016, 
  "tics": 8017, 
  "exporter": 8018, 
  "affiliated": 8019, 
  "dominate": 8020, 
  "fake": 8021, 
  "Under": 8022, 
  "Mungiu": 8023, 
  "ologist": 8024, 
  "EUSR": 8025, 
  "scenes": 8026, 
  "requesting": 8027, 
  "fault": 8028, 
  "70m": 8029, 
  "supplied": 8030, 
  "Samaras": 8031, 
  "Go@@": 8032, 
  "searched": 8033, 
  "defines": 8034, 
  "hydroelectric": 8035, 
  "hiring": 8036, 
  "ets": 8037, 
  "Me@@": 8038, 
  "interfere": 8039, 
  "emigrants": 8040, 
  "consultant": 8041, 
  "logistics": 8042, 
  "inappropriate": 8043, 
  "contested": 8044, 
  "Veton": 8045, 
  "contributor": 8046, 
  "offences": 8047, 
  "Dance": 8048, 
  "opted": 8049, 
  "twin": 8050, 
  "crowded": 8051, 
  "Child": 8052, 
  "machinery": 8053, 
  "Todorovic": 8054, 
  "barred": 8055, 
  "wherever": 8056, 
  "Ulemek": 8057, 
  "OIC": 8058, 
  "parks": 8059, 
  "Act": 8060, 
  "pas@@": 8061, 
  "implicated": 8062, 
  "distrust": 8063, 
  "Germans": 8064, 
  "notch": 8065, 
  "Jolie": 8066, 
  "evacuated": 8067, 
  "termed": 8068, 
  "13.@@": 8069, 
  "Ger@@": 8070, 
  "Kai": 8071, 
  "Krstic": 8072, 
  "Bechtel": 8073, 
  "valued": 8074, 
  "Fischer": 8075, 
  "somebody": 8076, 
  "waited": 8077, 
  "Yildiz": 8078, 
  "patrol": 8079, 
  "Issues": 8080, 
  "Bashar": 8081, 
  "Po@@": 8082, 
  "Pacolli": 8083, 
  "Meron": 8084, 
  "bright": 8085, 
  "stating": 8086, 
  "Review": 8087, 
  "dams": 8088, 
  "ners": 8089, 
  "Opposition": 8090, 
  "Il@@": 8091, 
  "mall": 8092, 
  "transforming": 8093, 
  "foods": 8094, 
  "Broz": 8095, 
  "distributor": 8096, 
  "dilemma": 8097, 
  "worsening": 8098, 
  "Perisic": 8099, 
  "ur": 8100, 
  "vegetables": 8101, 
  "enclave": 8102, 
  "steep": 8103, 
  "safer": 8104, 
  "spoken": 8105, 
  "festivities": 8106, 
  "ATHOC": 8107, 
  "capitalism": 8108, 
  "Vukotic": 8109, 
  "hearts": 8110, 
  "VRS": 8111, 
  "Baconschi": 8112, 
  "winds": 8113, 
  "Pack": 8114, 
  "drain": 8115, 
  "shelling": 8116, 
  "ga": 8117, 
  "Southern": 8118, 
  "refers": 8119, 
  "Tar@@": 8120, 
  "literacy": 8121, 
  "archives": 8122, 
  "Raiffeisen": 8123, 
  "Exit": 8124, 
  "resist": 8125, 
  "assure": 8126, 
  "examined": 8127, 
  "barely": 8128, 
  "ot": 8129, 
  "Regulatory": 8130, 
  "detection": 8131, 
  "edge": 8132, 
  "Grossman": 8133, 
  "leaked": 8134, 
  "79": 8135, 
  "ban@@": 8136, 
  "fights": 8137, 
  "pervasive": 8138, 
  "reunify": 8139, 
  "innovative": 8140, 
  "ist@@": 8141, 
  "aspiring": 8142, 
  "ium": 8143, 
  "sophisticated": 8144, 
  "Kat@@": 8145, 
  "fastest": 8146, 
  "concentrate": 8147, 
  "exaggerated": 8148, 
  "gunned": 8149, 
  "fa@@": 8150, 
  "flowers": 8151, 
  "adopts": 8152, 
  "super@@": 8153, 
  "Prijedor": 8154, 
  "Agenda": 8155, 
  "adapt": 8156, 
  "inhumane": 8157, 
  "architectural": 8158, 
  "Ver@@": 8159, 
  "stances": 8160, 
  "Georgian": 8161, 
  "highlighting": 8162, 
  "examination": 8163, 
  "treasury": 8164, 
  "distinguished": 8165, 
  "shots": 8166, 
  "3,500": 8167, 
  "pl@@": 8168, 
  "Night": 8169, 
  "120m": 8170, 
  "networking": 8171, 
  "Antonescu": 8172, 
  "hinge": 8173, 
  "struggles": 8174, 
  "dedication": 8175, 
  "As@@": 8176, 
  "outrage": 8177, 
  "blames": 8178, 
  "underpin": 8179, 
  "Deniz": 8180, 
  "accordingly": 8181, 
  "da@@": 8182, 
  "Yasar": 8183, 
  "Buyukanit": 8184, 
  "enthusiastic": 8185, 
  "substance": 8186, 
  "strive": 8187, 
  "Gora": 8188, 
  "dissolution": 8189, 
  "exporters": 8190, 
  "accepts": 8191, 
  "Marathon": 8192, 
  "ying": 8193, 
  "restoring": 8194, 
  "theatres": 8195, 
  "un": 8196, 
  "Bajrami": 8197, 
  "smugglers": 8198, 
  "sincere": 8199, 
  "counter@@": 8200, 
  "billions": 8201, 
  "DSB": 8202, 
  "Mobtel": 8203, 
  "Steinberg": 8204, 
  "anticipates": 8205, 
  "jan": 8206, 
  "signature": 8207, 
  "Bologna": 8208, 
  "printing": 8209, 
  "ming": 8210, 
  "repay": 8211, 
  "80,000": 8212, 
  "reshuffle": 8213, 
  "negotiable": 8214, 
  "directorate": 8215, 
  "standoff": 8216, 
  "our@@": 8217, 
  "Stavrevski": 8218, 
  "specify": 8219, 
  "multilateral": 8220, 
  "motorway": 8221, 
  "ol": 8222, 
  "ics": 8223, 
  "thirty": 8224, 
  "inc@@": 8225, 
  "businesspeople": 8226, 
  "quantity": 8227, 
  "Vasile": 8228, 
  "stipulated": 8229, 
  "mortality": 8230, 
  "slogans": 8231, 
  "Theodor": 8232, 
  "dictatorship": 8233, 
  "socio": 8234, 
  "alleviate": 8235, 
  "Stan@@": 8236, 
  "confusion": 8237, 
  "clinics": 8238, 
  "alism": 8239, 
  "Rogge": 8240, 
  "Samuel": 8241, 
  "paved": 8242, 
  "facilitation": 8243, 
  "Kusturica": 8244, 
  "banning": 8245, 
  "Peres": 8246, 
  "updated": 8247, 
  "Petkov": 8248, 
  "Nezavisne": 8249, 
  "Veljovic": 8250, 
  "somehow": 8251, 
  "crops": 8252, 
  "motive": 8253, 
  "Mitrovic": 8254, 
  "prompt": 8255, 
  "dismiss": 8256, 
  "twelve": 8257, 
  "trips": 8258, 
  "Railways": 8259, 
  "Klaudija": 8260, 
  "Musliu": 8261, 
  "Renault": 8262, 
  "Cyril": 8263, 
  "unexpected": 8264, 
  "stationed": 8265, 
  "executives": 8266, 
  "macro": 8267, 
  "enforcing": 8268, 
  "unfavourable": 8269, 
  "cur@@": 8270, 
  "seize": 8271, 
  "equ@@": 8272, 
  "Kos": 8273, 
  "engineer": 8274, 
  "EUpolitix": 8275, 
  "tion@@": 8276, 
  "analyses": 8277, 
  "Bulatovic": 8278, 
  "pensioner": 8279, 
  "exceptionally": 8280, 
  "fuelled": 8281, 
  "Velimir": 8282, 
  "repairs": 8283, 
  "sa": 8284, 
  "survivors": 8285, 
  "reservations": 8286, 
  "fun": 8287, 
  "briefly": 8288, 
  "3.4": 8289, 
  "Environmental": 8290, 
  "hero": 8291, 
  "motivation": 8292, 
  "Marie": 8293, 
  "600m": 8294, 
  "X@@": 8295, 
  "rulings": 8296, 
  "Kandic": 8297, 
  "humans": 8298, 
  "Baj@@": 8299, 
  "skiers": 8300, 
  "and@@": 8301, 
  "inciting": 8302, 
  "biased": 8303, 
  "lation": 8304, 
  "evski": 8305, 
  "silence": 8306, 
  "storm": 8307, 
  "quarters": 8308, 
  "handful": 8309, 
  "Sitel": 8310, 
  "accelerating": 8311, 
  "gs": 8312, 
  "impunity": 8313, 
  "Tourist": 8314, 
  "reconstructed": 8315, 
  "Topic": 8316, 
  "ber": 8317, 
  "triple": 8318, 
  "Peoples": 8319, 
  "ore": 8320, 
  "switch": 8321, 
  "Standart": 8322, 
  "photography": 8323, 
  "Brown": 8324, 
  "Fule": 8325, 
  "suffers": 8326, 
  "brands": 8327, 
  "lifestyle": 8328, 
  "vi@@": 8329, 
  "identities": 8330, 
  "logic": 8331, 
  "appreciate": 8332, 
  "16.@@": 8333, 
  "agent": 8334, 
  "Alogoskoufis": 8335, 
  "Lazar": 8336, 
  "Wahhabi": 8337, 
  "tariff": 8338, 
  "indebted": 8339, 
  "IOM": 8340, 
  "colony": 8341, 
  "babies": 8342, 
  "anticipate": 8343, 
  "Trial": 8344, 
  "ovska": 8345, 
  "consult": 8346, 
  "sorts": 8347, 
  "disastrous": 8348, 
  "ens": 8349, 
  "CPI": 8350, 
  "extends": 8351, 
  "differing": 8352, 
  "cruel": 8353, 
  "underworld": 8354, 
  "Fullani": 8355, 
  "lenders": 8356, 
  "cre@@": 8357, 
  "reduces": 8358, 
  "Inter": 8359, 
  "Emergency": 8360, 
  "constituted": 8361, 
  "Ma@@": 8362, 
  "reminder": 8363, 
  "Minority": 8364, 
  "UNIFIL": 8365, 
  "ash@@": 8366, 
  "striving": 8367, 
  "colleague": 8368, 
  "separatists": 8369, 
  "Scientific": 8370, 
  "Marmara": 8371, 
  "Roland": 8372, 
  "clarified": 8373, 
  "tolerated": 8374, 
  "sue": 8375, 
  "poorer": 8376, 
  "Barcelona": 8377, 
  "ep@@": 8378, 
  "toxic": 8379, 
  "Ljubicic": 8380, 
  "Memorandum": 8381, 
  "25@@": 8382, 
  "ering": 8383, 
  "sculpture": 8384, 
  "continuity": 8385, 
  "volatile": 8386, 
  "college": 8387, 
  "generating": 8388, 
  "constraints": 8389, 
  "crossroads": 8390, 
  "Bur@@": 8391, 
  "notice": 8392, 
  "volunteer": 8393, 
  "Today": 8394, 
  "Cetinje": 8395, 
  "fuels": 8396, 
  "patriarch": 8397, 
  "LDP": 8398, 
  "Spring": 8399, 
  "unify": 8400, 
  "Klaus": 8401, 
  "Jozefina": 8402, 
  "hinted": 8403, 
  "Solomon": 8404, 
  "100th": 8405, 
  "honouring": 8406, 
  "mini": 8407, 
  "L": 8408, 
  "stumbling": 8409, 
  "Agron": 8410, 
  "reintegration": 8411, 
  "endorsement": 8412, 
  "stricter": 8413, 
  "st": 8414, 
  "bs": 8415, 
  "120,000": 8416, 
  "oversee": 8417, 
  "touched": 8418, 
  "Chirac": 8419, 
  "Cinema": 8420, 
  "Missing": 8421, 
  "Elektroprivreda": 8422, 
  "iti@@": 8423, 
  "tribute": 8424, 
  "disposal": 8425, 
  "ence": 8426, 
  "reactor": 8427, 
  "pope": 8428, 
  "Navy": 8429, 
  "Understanding": 8430, 
  "aided": 8431, 
  "ups": 8432, 
  "tw@@": 8433, 
  "pragmatic": 8434, 
  "wheat": 8435, 
  "Queen": 8436, 
  "Jan@@": 8437, 
  "importing": 8438, 
  "partitioning": 8439, 
  "feed": 8440, 
  "reciprocal": 8441, 
  "casualties": 8442, 
  "privatising": 8443, 
  "credited": 8444, 
  "attorneys": 8445, 
  "adjust": 8446, 
  "ably": 8447, 
  "debated": 8448, 
  "1986": 8449, 
  "leverage": 8450, 
  "diplomas": 8451, 
  "Famagusta": 8452, 
  "kidney": 8453, 
  "printed": 8454, 
  "concentrated": 8455, 
  "aiding": 8456, 
  "Celsius": 8457, 
  "Bor@@": 8458, 
  "pen@@": 8459, 
  "Novine": 8460, 
  "envision": 8461, 
  "reviewing": 8462, 
  "Memija": 8463, 
  "laying": 8464, 
  "ve@@": 8465, 
  "Bourgas": 8466, 
  "faithful": 8467, 
  "photographers": 8468, 
  "wary": 8469, 
  "load": 8470, 
  "dollar": 8471, 
  "Exhibition": 8472, 
  "translate": 8473, 
  "Dimitrijevic": 8474, 
  "bargaining": 8475, 
  "tackled": 8476, 
  "vo@@": 8477, 
  "Migration": 8478, 
  "Strpce": 8479, 
  "benchmark": 8480, 
  "paves": 8481, 
  "notion": 8482, 
  "Ben@@": 8483, 
  "poorly": 8484, 
  "condemnation": 8485, 
  "cantons": 8486, 
  "ita": 8487, 
  "Politika": 8488, 
  "likewise": 8489, 
  "disclose": 8490, 
  "inhabited": 8491, 
  "incomplete": 8492, 
  "rushed": 8493, 
  "complaining": 8494, 
  "dragging": 8495, 
  "expulsion": 8496, 
  "SNA": 8497, 
  "planted": 8498, 
  "Kusari": 8499, 
  "licence": 8500, 
  "underwater": 8501, 
  "Proxima": 8502, 
  "RTRS": 8503, 
  "accounted": 8504, 
  "Potocari": 8505, 
  "slipped": 8506, 
  "109": 8507, 
  "advocated": 8508, 
  "harassment": 8509, 
  "minds": 8510, 
  "ture": 8511, 
  "munitions": 8512, 
  "swap": 8513, 
  "cancel": 8514, 
  "administrator": 8515, 
  "occurs": 8516, 
  "GNP": 8517, 
  "shaken": 8518, 
  "Si@@": 8519, 
  "ren": 8520, 
  "Pet@@": 8521, 
  "Vi@@": 8522, 
  "outlawed": 8523, 
  "ati@@": 8524, 
  "ren@@": 8525, 
  "throw": 8526, 
  "Niksic": 8527, 
  "ija": 8528, 
  "recalled": 8529, 
  "tougher": 8530, 
  "approached": 8531, 
  "suburbs": 8532, 
  "medicines": 8533, 
  "anticorruption": 8534, 
  "non@@": 8535, 
  "micro@@": 8536, 
  "litre": 8537, 
  "fighter": 8538, 
  "Municipality": 8539, 
  "Island": 8540, 
  "uniting": 8541, 
  "rises": 8542, 
  "Technologies": 8543, 
  "Milosavljevic": 8544, 
  "30@@": 8545, 
  "ceiling": 8546, 
  "3.7": 8547, 
  "Straw": 8548, 
  "sells": 8549, 
  "domain": 8550, 
  "2.1": 8551, 
  "hailing": 8552, 
  "Plamen": 8553, 
  "50@@": 8554, 
  "retailer": 8555, 
  "publishers": 8556, 
  "wrestler": 8557, 
  "Berets": 8558, 
  "constitutes": 8559, 
  "Tr@@": 8560, 
  "embezzlement": 8561, 
  "spaces": 8562, 
  "Kos@@": 8563, 
  "My": 8564, 
  "administrations": 8565, 
  "2.8": 8566, 
  "breaks": 8567, 
  "Walter": 8568, 
  "Can@@": 8569, 
  "Sol@@": 8570, 
  "dissatisfied": 8571, 
  "Bagis": 8572, 
  "sculptures": 8573, 
  "Kor@@": 8574, 
  "From": 8575, 
  "graphy": 8576, 
  "ek": 8577, 
  "painting": 8578, 
  "graduated": 8579, 
  "march": 8580, 
  "seizure": 8581, 
  "catalyst": 8582, 
  "shrink": 8583, 
  "drill": 8584, 
  "Bekim": 8585, 
  "miss": 8586, 
  "obstructing": 8587, 
  "Lamberto": 8588, 
  "legalisation": 8589, 
  "Dragoljub": 8590, 
  "assessments": 8591, 
  "peninsula": 8592, 
  "disbursement": 8593, 
  "instruction": 8594, 
  "encourages": 8595, 
  "H": 8596, 
  "Ay@@": 8597, 
  "Asselborn": 8598, 
  "hed": 8599, 
  "sick": 8600, 
  "believers": 8601, 
  "liberalise": 8602, 
  "Trans": 8603, 
  "panels": 8604, 
  "18.@@": 8605, 
  "conventions": 8606, 
  "Kr@@": 8607, 
  "bre@@": 8608, 
  "Djankov": 8609, 
  "sporting": 8610, 
  "alised": 8611, 
  "8,@@": 8612, 
  "provoke": 8613, 
  "illustration": 8614, 
  "Transportation": 8615, 
  "Pol@@": 8616, 
  "nationalistic": 8617, 
  "racial": 8618, 
  "SEEMO": 8619, 
  "Natural": 8620, 
  "mes": 8621, 
  "Menekse": 8622, 
  "protectorate": 8623, 
  "Hussein": 8624, 
  "raided": 8625, 
  "transnational": 8626, 
  "disappointing": 8627, 
  "Plevneliev": 8628, 
  "throwing": 8629, 
  "spurred": 8630, 
  "Berat": 8631, 
  "Carlos": 8632, 
  "conf@@": 8633, 
  "staunch": 8634, 
  "schooling": 8635, 
  "wealthy": 8636, 
  "organisational": 8637, 
  "ches": 8638, 
  "logistical": 8639, 
  "Milliyet": 8640, 
  "collections": 8641, 
  "spectrum": 8642, 
  "applicable": 8643, 
  "quota": 8644, 
  "identifying": 8645, 
  "mourners": 8646, 
  "loved": 8647, 
  "Site": 8648, 
  "Zubin": 8649, 
  "Besimi": 8650, 
  "hardest": 8651, 
  "boycotting": 8652, 
  "catastrophic": 8653, 
  "inflationary": 8654, 
  "compatible": 8655, 
  "unsuccessful": 8656, 
  "Babic": 8657, 
  "Left": 8658, 
  "1970s": 8659, 
  "Cal@@": 8660, 
  "assassinated": 8661, 
  "Prevention": 8662, 
  "educate": 8663, 
  "polled": 8664, 
  "U": 8665, 
  "San": 8666, 
  "Hong": 8667, 
  "encouragement": 8668, 
  "Kong": 8669, 
  "jeopardised": 8670, 
  "publisher": 8671, 
  "Singapore": 8672, 
  "sluggish": 8673, 
  "differently": 8674, 
  "shifts": 8675, 
  "Cross": 8676, 
  "ya": 8677, 
  "Santa": 8678, 
  "impartial": 8679, 
  "mix": 8680, 
  "Berlusconi": 8681, 
  "HK": 8682, 
  "boundary": 8683, 
  "gaps": 8684, 
  "Concordia": 8685, 
  "EU@@": 8686, 
  "organized": 8687, 
  "whenever": 8688, 
  "victories": 8689, 
  "Lebanese": 8690, 
  "realities": 8691, 
  "transaction": 8692, 
  "guarantor": 8693, 
  "chi@@": 8694, 
  "16,000": 8695, 
  "basically": 8696, 
  "taught": 8697, 
  "Baltic": 8698, 
  "sal@@": 8699, 
  "discriminatory": 8700, 
  "bio@@": 8701, 
  "restructure": 8702, 
  "So@@": 8703, 
  "transfers": 8704, 
  "nicknamed": 8705, 
  "ideological": 8706, 
  "Stip": 8707, 
  "750": 8708, 
  "lan@@": 8709, 
  "inflows": 8710, 
  "Family": 8711, 
  "tents": 8712, 
  "physically": 8713, 
  "clock": 8714, 
  "designer": 8715, 
  "magnitude": 8716, 
  "Tsvetanov": 8717, 
  "lasts": 8718, 
  "Legal": 8719, 
  "restraint": 8720, 
  "corridor": 8721, 
  "anxiety": 8722, 
  "underlying": 8723, 
  "mature": 8724, 
  "smuggled": 8725, 
  "Pale": 8726, 
  "scholarships": 8727, 
  "Cooper": 8728, 
  "archaeologist": 8729, 
  "consist": 8730, 
  "farmer": 8731, 
  "bag": 8732, 
  "Kuzmanovic": 8733, 
  "advisor": 8734, 
  "KCK": 8735, 
  "privatisations": 8736, 
  "Rade": 8737, 
  "tele@@": 8738, 
  "mount": 8739, 
  "nominate": 8740, 
  "installation": 8741, 
  "critic": 8742, 
  "Miletic": 8743, 
  "anxious": 8744, 
  "Mac@@": 8745, 
  "Lu@@": 8746, 
  "railways": 8747, 
  "Cos@@": 8748, 
  "consolidated": 8749, 
  "detected": 8750, 
  "ran@@": 8751, 
  "derail": 8752, 
  "Jahjaga": 8753, 
  "helpful": 8754, 
  "arise": 8755, 
  "gh@@": 8756, 
  "Filipovic": 8757, 
  "Is@@": 8758, 
  "underwent": 8759, 
  "Travel": 8760, 
  "exhausted": 8761, 
  "locked": 8762, 
  "normalise": 8763, 
  "intergovernmental": 8764, 
  "southwest": 8765, 
  "dogs": 8766, 
  "hunt": 8767, 
  "functionality": 8768, 
  "Can": 8769, 
  "concerted": 8770, 
  "depth": 8771, 
  "Reporters": 8772, 
  "memories": 8773, 
  "catastrophe": 8774, 
  "naming": 8775, 
  "domestically": 8776, 
  "Nikos": 8777, 
  "Hatay": 8778, 
  "ethnicities": 8779, 
  "ni": 8780, 
  "criticises": 8781, 
  "runners": 8782, 
  "homeless": 8783, 
  "manages": 8784, 
  "1987": 8785, 
  "az@@": 8786, 
  "Royal": 8787, 
  "450": 8788, 
  "Legija": 8789, 
  "attractions": 8790, 
  "More": 8791, 
  "sacked": 8792, 
  "Communities": 8793, 
  "cuisine": 8794, 
  "imminent": 8795, 
  "commemoration": 8796, 
  "ea": 8797, 
  "weakening": 8798, 
  "grenade": 8799, 
  "elusive": 8800, 
  "fatigue": 8801, 
  "mi@@": 8802, 
  "staging": 8803, 
  "outdoor": 8804, 
  "advise": 8805, 
  "HRW": 8806, 
  "establishes": 8807, 
  "ensured": 8808, 
  "protective": 8809, 
  "rapprochement": 8810, 
  "undergone": 8811, 
  "speakers": 8812, 
  "weaken": 8813, 
  "Lagumdzija": 8814, 
  "troupes": 8815, 
  "carmaker": 8816, 
  "fin@@": 8817, 
  "pri@@": 8818, 
  "Kelmendi": 8819, 
  "Most": 8820, 
  "Investigation": 8821, 
  "Daskalaki": 8822, 
  "boss": 8823, 
  "ess": 8824, 
  "lobby": 8825, 
  "productions": 8826, 
  "pillar": 8827, 
  "Riga": 8828, 
  "invasion": 8829, 
  "ward": 8830, 
  "accessible": 8831, 
  "overturned": 8832, 
  "settlements": 8833, 
  "nice": 8834, 
  "Barrot": 8835, 
  "dynamics": 8836, 
  "Organising": 8837, 
  "torch": 8838, 
  "bulk": 8839, 
  "workplace": 8840, 
  "flew": 8841, 
  "evaluated": 8842, 
  "Electricity": 8843, 
  "mal@@": 8844, 
  "35m": 8845, 
  "combine": 8846, 
  "Steinmeier": 8847, 
  "herself": 8848, 
  "travels": 8849, 
  "elaborate": 8850, 
  "bias": 8851, 
  "thorny": 8852, 
  "RWE": 8853, 
  "IFC": 8854, 
  "interrupted": 8855, 
  "veterinary": 8856, 
  "men@@": 8857, 
  "Sa@@": 8858, 
  "manufacturers": 8859, 
  "Brezovica": 8860, 
  "curriculum": 8861, 
  "Hal@@": 8862, 
  "Pi@@": 8863, 
  "Bocevski": 8864, 
  "ile": 8865, 
  "Dow": 8866, 
  "suddenly": 8867, 
  "charities": 8868, 
  "Mir@@": 8869, 
  "lesson": 8870, 
  "closes": 8871, 
  "centralised": 8872, 
  "Lutfi": 8873, 
  "ced": 8874, 
  "650": 8875, 
  "reception": 8876, 
  "Kuwait": 8877, 
  "Bogdan": 8878, 
  "Tier": 8879, 
  "northwestern": 8880, 
  "authentic": 8881, 
  "disturbing": 8882, 
  "reviews": 8883, 
  "Kuneva": 8884, 
  "swiftly": 8885, 
  "mediating": 8886, 
  "wise": 8887, 
  "Mufti": 8888, 
  "Higher": 8889, 
  "stuck": 8890, 
  "Bil@@": 8891, 
  "laureate": 8892, 
  "clothing": 8893, 
  "alternatives": 8894, 
  "3.9": 8895, 
  "mandated": 8896, 
  "landmines": 8897, 
  "champions": 8898, 
  "Tokyay": 8899, 
  "chambers": 8900, 
  "ORA": 8901, 
  "Ivaylo": 8902, 
  "III": 8903, 
  "surely": 8904, 
  "FBI": 8905, 
  "Joe": 8906, 
  "costing": 8907, 
  "displayed": 8908, 
  "jumped": 8909, 
  "ically": 8910, 
  "adjustments": 8911, 
  "donate": 8912, 
  "Radulovic": 8913, 
  "Austin": 8914, 
  "Teodor": 8915, 
  "magistrates": 8916, 
  "Unity": 8917, 
  "exert": 8918, 
  "Pavel": 8919, 
  "summoned": 8920, 
  "pon@@": 8921, 
  "Fajon": 8922, 
  "Pavle": 8923, 
  "chronic": 8924, 
  "AMBO": 8925, 
  "EPS": 8926, 
  "anybody": 8927, 
  "plenary": 8928, 
  "confrontation": 8929, 
  "Foca": 8930, 
  "Antonis": 8931, 
  "Serbians": 8932, 
  "sided": 8933, 
  "oc@@": 8934, 
  "advancement": 8935, 
  "curbing": 8936, 
  "provincial": 8937, 
  "tic@@": 8938, 
  "speeches": 8939, 
  "bickering": 8940, 
  "slashed": 8941, 
  "Mirror": 8942, 
  "abstentions": 8943, 
  "palace": 8944, 
  "Makedonija": 8945, 
  "commissioners": 8946, 
  "C.": 8947, 
  "observing": 8948, 
  "pursuit": 8949, 
  "Super": 8950, 
  "compensate": 8951, 
  "Gazette": 8952, 
  "12.@@": 8953, 
  "dinner": 8954, 
  "ps": 8955, 
  "Powers": 8956, 
  "icic": 8957, 
  "recognitions": 8958, 
  "gre@@": 8959, 
  "ruins": 8960, 
  "counterfeit": 8961, 
  "belt": 8962, 
  "hinder": 8963, 
  "Saddam": 8964, 
  "talent": 8965, 
  "5.2": 8966, 
  "preventive": 8967, 
  "staunchly": 8968, 
  "battling": 8969, 
  "vaccine": 8970, 
  "Ljubomir": 8971, 
  "arranged": 8972, 
  "suits": 8973, 
  "tor@@": 8974, 
  "ef@@": 8975, 
  "excluding": 8976, 
  "weighed": 8977, 
  "coupled": 8978, 
  "HDI": 8979, 
  "Mak@@": 8980, 
  "knowing": 8981, 
  "barrels": 8982, 
  "abolishing": 8983, 
  "ferry": 8984, 
  "Ioan": 8985, 
  "measured": 8986, 
  "reaches": 8987, 
  "Erol": 8988, 
  "ash": 8989, 
  "Wimbledon": 8990, 
  "Markos": 8991, 
  "codes": 8992, 
  "owes": 8993, 
  "Pieter": 8994, 
  "Atomic": 8995, 
  "Andric": 8996, 
  "Clinical": 8997, 
  "stocks": 8998, 
  "restart": 8999, 
  "Lila": 9000, 
  "sparks": 9001, 
  "sorry": 9002, 
  "sounds": 9003, 
  "Morina": 9004, 
  "gate": 9005, 
  "fiercely": 9006, 
  "Tu@@": 9007, 
  "clothes": 9008, 
  "Gal@@": 9009, 
  "coins": 9010, 
  "Mag@@": 9011, 
  "lacked": 9012, 
  "bankers": 9013, 
  "Orban": 9014, 
  "reopening": 9015, 
  "lab": 9016, 
  "17,000": 9017, 
  "Pla@@": 9018, 
  "Decani": 9019, 
  "retained": 9020, 
  "broadcasters": 9021, 
  "Jo@@": 9022, 
  "Hamza": 9023, 
  "parking": 9024, 
  "Kur@@": 9025, 
  "pping": 9026, 
  "Harry": 9027, 
  "sums": 9028, 
  "Jelasic": 9029, 
  "traveling": 9030, 
  "Mine": 9031, 
  "Memeti": 9032, 
  "absorb": 9033, 
  "disbursed": 9034, 
  "Sp@@": 9035, 
  "Medical": 9036, 
  "observatory": 9037, 
  "atic": 9038, 
  "convene": 9039, 
  "Gostivar": 9040, 
  "founders": 9041, 
  "advising": 9042, 
  "downsizing": 9043, 
  "unsustainable": 9044, 
  "postponing": 9045, 
  "Blanka": 9046, 
  "els": 9047, 
  "ne": 9048, 
  "ley": 9049, 
  "Ku@@": 9050, 
  "alise": 9051, 
  "Castle": 9052, 
  "Elizabeth": 9053, 
  "gers": 9054, 
  "enemies": 9055, 
  "ational": 9056, 
  "rains": 9057, 
  "Gonul": 9058, 
  "battalion": 9059, 
  "Show": 9060, 
  "Somalia": 9061, 
  "terrible": 9062, 
  "rifle": 9063, 
  "minimise": 9064, 
  "Delegation": 9065, 
  "bul@@": 9066, 
  "refuge": 9067, 
  "embarked": 9068, 
  "Ljubisa": 9069, 
  "Mosque": 9070, 
  "verbal": 9071, 
  "climbed": 9072, 
  "ving": 9073, 
  "clears": 9074, 
  "AS": 9075, 
  "sights": 9076, 
  "expedition": 9077, 
  "Tunisia": 9078, 
  "4.6": 9079, 
  "tremendous": 9080, 
  "Pen@@": 9081, 
  "contestants": 9082, 
  "Kaczynski": 9083, 
  "nowadays": 9084, 
  "remembered": 9085, 
  "Stojanovski": 9086, 
  "flock": 9087, 
  "infantry": 9088, 
  "procedural": 9089, 
  "fl@@": 9090, 
  "marched": 9091, 
  "Polancec": 9092, 
  "formidable": 9093, 
  "defuse": 9094, 
  "till": 9095, 
  "exploit": 9096, 
  "globally": 9097, 
  "downgraded": 9098, 
  "Technological": 9099, 
  "harbour": 9100, 
  "checked": 9101, 
  "libraries": 9102, 
  "beds": 9103, 
  "tracks": 9104, 
  "democratically": 9105, 
  "Sil@@": 9106, 
  "Ceric": 9107, 
  "Vasic": 9108, 
  "dist@@": 9109, 
  "exploded": 9110, 
  "Aleksander": 9111, 
  "authoritarian": 9112, 
  "corporation": 9113, 
  "systemic": 9114, 
  "Brdo": 9115, 
  "scrap": 9116, 
  "declares": 9117, 
  "gra@@": 9118, 
  "Roganovic": 9119, 
  "iz@@": 9120, 
  "minors": 9121, 
  "Deputies": 9122, 
  "Pantic": 9123, 
  "diminish": 9124, 
  "ordnance": 9125, 
  "MJAFT": 9126, 
  "architects": 9127, 
  "Jerusalem": 9128, 
  "Space": 9129, 
  "copies": 9130, 
  "Savic": 9131, 
  "Harvest": 9132, 
  "weakness": 9133, 
  "ese": 9134, 
  "sentencing": 9135, 
  "ides": 9136, 
  "disciplinary": 9137, 
  "ade": 9138, 
  "pyramid": 9139, 
  "yearly": 9140, 
  "fifteen": 9141, 
  "transplant": 9142, 
  "confronting": 9143, 
  "offset": 9144, 
  "ethical": 9145, 
  "Key": 9146, 
  "Albena": 9147, 
  "conspiracy": 9148, 
  "hills": 9149, 
  "ck": 9150, 
  "Sur@@": 9151, 
  "Barrett": 9152, 
  "tycoon": 9153, 
  "hole": 9154, 
  "dar@@": 9155, 
  "drastic": 9156, 
  "roll": 9157, 
  "Rec@@": 9158, 
  "premature": 9159, 
  "hor@@": 9160, 
  "tsunami": 9161, 
  "swept": 9162, 
  "ized": 9163, 
  "Tra@@": 9164, 
  "dirty": 9165, 
  "attendees": 9166, 
  "discourage": 9167, 
  "communists": 9168, 
  "ović": 9169, 
  "tolerant": 9170, 
  "leasing": 9171, 
  "Vlach": 9172, 
  "adhere": 9173, 
  "ele@@": 9174, 
  "Coast": 9175, 
  "45m": 9176, 
  "dismantling": 9177, 
  "gunmen": 9178, 
  "Tur@@": 9179, 
  "ric": 9180, 
  "of@@": 9181, 
  "subscribers": 9182, 
  "PHARE": 9183, 
  "contests": 9184, 
  "For@@": 9185, 
  "por@@": 9186, 
  "Los": 9187, 
  "compulsory": 9188, 
  "battles": 9189, 
  "diversification": 9190, 
  "Treasury": 9191, 
  "translation": 9192, 
  "coin": 9193, 
  "HSBC": 9194, 
  "Stockholm": 9195, 
  "freestyle": 9196, 
  "wines": 9197, 
  "NS": 9198, 
  "Highway": 9199, 
  "Avni": 9200, 
  "custom": 9201, 
  "influences": 9202, 
  "Liaison": 9203, 
  "casts": 9204, 
  "facilitated": 9205, 
  "Uzan": 9206, 
  "semifinals": 9207, 
  "retailers": 9208, 
  "Engineering": 9209, 
  "techniques": 9210, 
  "Memorial": 9211, 
  "sen@@": 9212, 
  "Gen@@": 9213, 
  "transporting": 9214, 
  "totaling": 9215, 
  "ck@@": 9216, 
  "17.@@": 9217, 
  "Batic": 9218, 
  "suitable": 9219, 
  "Mur@@": 9220, 
  "hy@@": 9221, 
  "buffer": 9222, 
  "instrumental": 9223, 
  "electing": 9224, 
  "tables": 9225, 
  "Growth": 9226, 
  "proximity": 9227, 
  "alpine": 9228, 
  "Emirates": 9229, 
  "Haziri": 9230, 
  "Judicial": 9231, 
  "Juncker": 9232, 
  "substantive": 9233, 
  "containers": 9234, 
  "traveled": 9235, 
  "sculptor": 9236, 
  "instances": 9237, 
  "Em@@": 9238, 
  "dar": 9239, 
  "amp@@": 9240, 
  "Damascus": 9241, 
  "confidential": 9242, 
  "Potok": 9243, 
  "collaborated": 9244, 
  "down@@": 9245, 
  "likelihood": 9246, 
  "margins": 9247, 
  "fasting": 9248, 
  "Klan": 9249, 
  "farming": 9250, 
  "delicate": 9251, 
  "2.4": 9252, 
  "Kon@@": 9253, 
  "94": 9254, 
  "tracking": 9255, 
  "commemorating": 9256, 
  "Besim": 9257, 
  "Facility": 9258, 
  "ces": 9259, 
  "inevitably": 9260, 
  "Du@@": 9261, 
  "Feasibility": 9262, 
  "lend": 9263, 
  "championships": 9264, 
  "Ethnic": 9265, 
  "ast": 9266, 
  "reviving": 9267, 
  "cafe": 9268, 
  "cleaning": 9269, 
  "Friendship": 9270, 
  "Herceg": 9271, 
  "Turk@@": 9272, 
  "allotted": 9273, 
  "28.@@": 9274, 
  "hopefuls": 9275, 
  "creative": 9276, 
  "destabilisation": 9277, 
  "worrying": 9278, 
  "trophy": 9279, 
  "Pipeline": 9280, 
  "lighting": 9281, 
  "ents": 9282, 
  "fishermen": 9283, 
  "overhauling": 9284, 
  "sewage": 9285, 
  "bloodshed": 9286, 
  "Javno.hr": 9287, 
  "Courtesy": 9288, 
  "distributors": 9289, 
  "searches": 9290, 
  "Norac": 9291, 
  "Traikov": 9292, 
  "Brankovic": 9293, 
  "spell": 9294, 
  "assesses": 9295, 
  "bosses": 9296, 
  "Isa": 9297, 
  "exchanged": 9298, 
  "Mahmoud": 9299, 
  "impacts": 9300, 
  "assumes": 9301, 
  "deposit": 9302, 
  "conservation": 9303, 
  "boards": 9304, 
  "Kalinic": 9305, 
  "Modern": 9306, 
  "tan@@": 9307, 
  "excess": 9308, 
  "hesitate": 9309, 
  "compare": 9310, 
  "overly": 9311, 
  "Konjanovski": 9312, 
  "Parthenon": 9313, 
  "oversight": 9314, 
  "Vlad": 9315, 
  "Angeles": 9316, 
  "Haj@@": 9317, 
  "exclusion": 9318, 
  "Nexhat": 9319, 
  "Buhler": 9320, 
  "Miro": 9321, 
  "freight": 9322, 
  "deeds": 9323, 
  "35th": 9324, 
  "ath@@": 9325, 
  "implements": 9326, 
  "inspections": 9327, 
  "decorated": 9328, 
  "repression": 9329, 
  "89": 9330, 
  "Construction": 9331, 
  "Violence": 9332, 
  "ize": 9333, 
  "airlines": 9334, 
  "Fenerbahce": 9335, 
  "Mas@@": 9336, 
  "proceeding": 9337, 
  "Char@@": 9338, 
  "judged": 9339, 
  "cru@@": 9340, 
  "posing": 9341, 
  "objected": 9342, 
  "novelist": 9343, 
  "sudden": 9344, 
  "Ste@@": 9345, 
  "Bujanovac": 9346, 
  "conservatives": 9347, 
  "pump": 9348, 
  "interviewed": 9349, 
  "Wreath": 9350, 
  "cl@@": 9351, 
  "Jasenovac": 9352, 
  "Vladan": 9353, 
  "meal": 9354, 
  "bra@@": 9355, 
  "locally": 9356, 
  "Ringas": 9357, 
  "organization": 9358, 
  "ently": 9359, 
  "fortune": 9360, 
  "barring": 9361, 
  "pronounced": 9362, 
  "telecommunication": 9363, 
  "foresees": 9364, 
  "exhibited": 9365, 
  "Valentina": 9366, 
  "Vlastimir": 9367, 
  "marble": 9368, 
  "Alsat": 9369, 
  "liaison": 9370, 
  "han": 9371, 
  "trim": 9372, 
  "Not": 9373, 
  "hardline": 9374, 
  "Drina": 9375, 
  "tabled": 9376, 
  "straight": 9377, 
  "arising": 9378, 
  "relies": 9379, 
  "Hy@@": 9380, 
  "kovski": 9381, 
  "killers": 9382, 
  "setbacks": 9383, 
  "inspect": 9384, 
  "confiscation": 9385, 
  "inspiration": 9386, 
  "surpass": 9387, 
  "groundwork": 9388, 
  "reinforced": 9389, 
  "succession": 9390, 
  "bears": 9391, 
  "systematically": 9392, 
  "copy": 9393, 
  "Koc": 9394, 
  "cannabis": 9395, 
  "diesel": 9396, 
  "Vekaric": 9397, 
  "Prilep": 9398, 
  "Ilazi": 9399, 
  "Fin@@": 9400, 
  "sciences": 9401, 
  "va": 9402, 
  "Pav@@": 9403, 
  "hooligans": 9404, 
  "fence": 9405, 
  "ok@@": 9406, 
  "Miliband": 9407, 
  "mer@@": 9408, 
  "Cur@@": 9409, 
  "underscored": 9410, 
  "Meglena": 9411, 
  "Way": 9412, 
  "governors": 9413, 
  "0km": 9414, 
  "pirated": 9415, 
  "Faruk": 9416, 
  "shipyards": 9417, 
  "Angelopoulos": 9418, 
  "MEP": 9419, 
  "beatings": 9420, 
  "nik": 9421, 
  "demolition": 9422, 
  "California": 9423, 
  "jumping": 9424, 
  "emergence": 9425, 
  "There": 9426, 
  "Gate": 9427, 
  "cancellation": 9428, 
  "seismic": 9429, 
  "Ardian": 9430, 
  "BTC": 9431, 
  "Brothers": 9432, 
  "contempt": 9433, 
  "navy": 9434, 
  "footing": 9435, 
  "ut": 9436, 
  "Dusko": 9437, 
  "unfortunate": 9438, 
  "termination": 9439, 
  "beings": 9440, 
  "exercised": 9441, 
  "turbulent": 9442, 
  "Fashion": 9443, 
  "reconcile": 9444, 
  "alliances": 9445, 
  "ching": 9446, 
  "kic": 9447, 
  "provisionally": 9448, 
  "Slavica": 9449, 
  "finalising": 9450, 
  "aired": 9451, 
  "tel": 9452, 
  "reopened": 9453, 
  "billboards": 9454, 
  "2.5m": 9455, 
  "Lawrence": 9456, 
  "Ilinka": 9457, 
  "neutrality": 9458, 
  "Michalis": 9459, 
  "Strumica": 9460, 
  "St@@": 9461, 
  "conversations": 9462, 
  "etc": 9463, 
  "array": 9464, 
  "complied": 9465, 
  "fication": 9466, 
  "Mis@@": 9467, 
  "Tivat": 9468, 
  "Djukic": 9469, 
  "clan": 9470, 
  "comedy": 9471, 
  "criterion": 9472, 
  "sphere": 9473, 
  "intolerance": 9474, 
  "diverse": 9475, 
  "mixture": 9476, 
  "originated": 9477, 
  "weightlifting": 9478, 
  "PC": 9479, 
  "explicitly": 9480, 
  "tours": 9481, 
  "luck": 9482, 
  "judo": 9483, 
  "Toronto": 9484, 
  "od@@": 9485, 
  "migrant": 9486, 
  "Dan@@": 9487, 
  "Administrative": 9488, 
  "1981": 9489, 
  "impede": 9490, 
  "recalls": 9491, 
  "bilingual": 9492, 
  "DRC": 9493, 
  "Resources": 9494, 
  "Elenovski": 9495, 
  "restrictive": 9496, 
  "Patrick": 9497, 
  "pat@@": 9498, 
  "Drews": 9499, 
  "cal@@": 9500, 
  "KEK": 9501, 
  "uk": 9502, 
  "Marine": 9503, 
  "Vlachs": 9504, 
  "Penal": 9505, 
  "screenings": 9506, 
  "adjusted": 9507, 
  "Basketball": 9508, 
  "5.9": 9509, 
  "offence": 9510, 
  "routine": 9511, 
  "depot": 9512, 
  "4.1": 9513, 
  "CE@@": 9514, 
  "Aviation": 9515, 
  "restricting": 9516, 
  "ining": 9517, 
  "conveyed": 9518, 
  "dishes": 9519, 
  "cornerstone": 9520, 
  "accommodations": 9521, 
  "Telegrafi": 9522, 
  "Zvecan": 9523, 
  "Small": 9524, 
  "blasts": 9525, 
  "reins": 9526, 
  "smallest": 9527, 
  "If": 9528, 
  "4.7": 9529, 
  "Ter@@": 9530, 
  "Dur@@": 9531, 
  "limitations": 9532, 
  "Djuric": 9533, 
  "commentators": 9534, 
  "abstained": 9535, 
  "hopefully": 9536, 
  "affiliation": 9537, 
  "obstruction": 9538, 
  "readmission": 9539, 
  "conflicting": 9540, 
  "troubles": 9541, 
  "Sam@@": 9542, 
  "communal": 9543, 
  "install": 9544, 
  "hotline": 9545, 
  "Reduction": 9546, 
  "upheld": 9547, 
  "reassured": 9548, 
  "Majko": 9549, 
  "answering": 9550, 
  "Cuba": 9551, 
  "streamline": 9552, 
  "trusted": 9553, 
  "100km": 9554, 
  "Alic": 9555, 
  "calendar": 9556, 
  "ger": 9557, 
  "feast": 9558, 
  "Munich": 9559, 
  "Jagodina": 9560, 
  "gala": 9561, 
  "Slavko": 9562, 
  "tering": 9563, 
  "38.@@": 9564, 
  "ata": 9565, 
  "curricula": 9566, 
  "van@@": 9567, 
  "11m": 9568, 
  "banners": 9569, 
  "Pr@@": 9570, 
  "cup": 9571, 
  "Tolimir": 9572, 
  "recipients": 9573, 
  "Papaconstantinou": 9574, 
  "undecided": 9575, 
  "radiation": 9576, 
  "Brnjak": 9577, 
  "cemetery": 9578, 
  "horse": 9579, 
  "provocation": 9580, 
  "fac@@": 9581, 
  "Gyurcsany": 9582, 
  "Laszlo": 9583, 
  "assembled": 9584, 
  "establishments": 9585, 
  "performs": 9586, 
  "Kalmeta": 9587, 
  "merger": 9588, 
  "soul": 9589, 
  "temperature": 9590, 
  "retaining": 9591, 
  "ashes": 9592, 
  "perceive": 9593, 
  "ino": 9594, 
  "Peninsula": 9595, 
  "pluralism": 9596, 
  "failures": 9597, 
  "1963": 9598, 
  "southwestern": 9599, 
  "Syntagma": 9600, 
  "evaluating": 9601, 
  "Trans@@": 9602, 
  "ong": 9603, 
  "yielded": 9604, 
  "convened": 9605, 
  "ousted": 9606, 
  "Anton": 9607, 
  "lately": 9608, 
  "Naim": 9609, 
  "widening": 9610, 
  "cel@@": 9611, 
  "brink": 9612, 
  "verification": 9613, 
  "Dec@@": 9614, 
  "hire": 9615, 
  "complicity": 9616, 
  "inclusive": 9617, 
  "fer@@": 9618, 
  "Gj@@": 9619, 
  "prosecutions": 9620, 
  "skeleton": 9621, 
  "shame": 9622, 
  "unsolved": 9623, 
  "Ru@@": 9624, 
  "ths": 9625, 
  "Ci@@": 9626, 
  "outline": 9627, 
  "9.5": 9628, 
  "connects": 9629, 
  "encountered": 9630, 
  "Gerhard": 9631, 
  "halting": 9632, 
  "fulfils": 9633, 
  "Will": 9634, 
  "Vassilis": 9635, 
  "Region": 9636, 
  "MTV": 9637, 
  "recording": 9638, 
  "Videanu": 9639, 
  "inovic": 9640, 
  "Qu@@": 9641, 
  "conjunction": 9642, 
  "governed": 9643, 
  "verge": 9644, 
  "aboard": 9645, 
  "foremost": 9646, 
  "Methodius": 9647, 
  "ger@@": 9648, 
  "Tom": 9649, 
  "14m": 9650, 
  "Tbilisi": 9651, 
  "ach": 9652, 
  "17m": 9653, 
  "Med@@": 9654, 
  "tortured": 9655, 
  "din@@": 9656, 
  "0.1": 9657, 
  "IAEA": 9658, 
  "Merdare": 9659, 
  "Han@@": 9660, 
  "expectation": 9661, 
  "desired": 9662, 
  "ethno": 9663, 
  "timeframe": 9664, 
  "sw@@": 9665, 
  "lic@@": 9666, 
  "positioned": 9667, 
  "700,000": 9668, 
  "Agreements": 9669, 
  "absurd": 9670, 
  "lung": 9671, 
  "headlines": 9672, 
  "Brasov": 9673, 
  "separating": 9674, 
  "Aid": 9675, 
  "embrace": 9676, 
  "orchestra": 9677, 
  "strides": 9678, 
  "compromises": 9679, 
  "ory": 9680, 
  "publications": 9681, 
  "duo": 9682, 
  "radioactive": 9683, 
  "Nada": 9684, 
  "steering": 9685, 
  "distinction": 9686, 
  "banner": 9687, 
  "pos@@": 9688, 
  "amending": 9689, 
  "EPP": 9690, 
  "editors": 9691, 
  "nationalities": 9692, 
  "pr@@": 9693, 
  "liberalised": 9694, 
  "Mikerevic": 9695, 
  "Seeks": 9696, 
  "rigorous": 9697, 
  "inv@@": 9698, 
  "shoe": 9699, 
  "Plassnik": 9700, 
  "Slavic": 9701, 
  "Municipal": 9702, 
  "Vuckovic": 9703, 
  "offenders": 9704, 
  "Third": 9705, 
  "3.1": 9706, 
  "consular": 9707, 
  "wire": 9708, 
  "leu": 9709, 
  "Silvio": 9710, 
  "Metropolitan": 9711, 
  "painters": 9712, 
  "specified": 9713, 
  "11,000": 9714, 
  "praises": 9715, 
  "Bosna": 9716, 
  "Malovic": 9717, 
  "deficiencies": 9718, 
  "ari": 9719, 
  "Simonovic": 9720, 
  "shareholder": 9721, 
  "Jackson": 9722, 
  "ici": 9723, 
  "Str@@": 9724, 
  "racism": 9725, 
  "quarrel": 9726, 
  "Bri@@": 9727, 
  "ster@@": 9728, 
  "mounted": 9729, 
  "dancers": 9730, 
  "Costa": 9731, 
  "accuses": 9732, 
  "discriminated": 9733, 
  "Mor@@": 9734, 
  "Cengiz": 9735, 
  "walks": 9736, 
  "Cer@@": 9737, 
  "Pe@@": 9738, 
  "Vecernji": 9739, 
  "parent": 9740, 
  "crashed": 9741, 
  "listing": 9742, 
  "compiled": 9743, 
  "lucrative": 9744, 
  "Dj@@": 9745, 
  "au@@": 9746, 
  "ute": 9747, 
  "ph@@": 9748, 
  "pregnant": 9749, 
  "centrist": 9750, 
  "At@@": 9751, 
  "dec@@": 9752, 
  "capitalise": 9753, 
  "Blagojevic": 9754, 
  "dignitaries": 9755, 
  "Nordic": 9756, 
  "reversed": 9757, 
  "flats": 9758, 
  "Pancevo": 9759, 
  "La": 9760, 
  "wished": 9761, 
  "renew": 9762, 
  "Up": 9763, 
  "qualification": 9764, 
  "ko@@": 9765, 
  "ara": 9766, 
  "W": 9767, 
  "offshore": 9768, 
  "Standards": 9769, 
  "flawed": 9770, 
  "fied": 9771, 
  "Vucic": 9772, 
  "patrolling": 9773, 
  "dr@@": 9774, 
  "Senior": 9775, 
  "Stoj@@": 9776, 
  "anchor": 9777, 
  "zic": 9778, 
  "executions": 9779, 
  "perfectly": 9780, 
  "contenders": 9781, 
  "HRT": 9782, 
  "Osman": 9783, 
  "yacht": 9784, 
  "Sighisoara": 9785, 
  "environmentalists": 9786, 
  "wi@@": 9787, 
  "revelations": 9788, 
  "Confederation": 9789, 
  "eg@@": 9790, 
  "yellow": 9791, 
  "lignite": 9792, 
  "rocked": 9793, 
  "aggression": 9794, 
  "Eurobarometer": 9795, 
  "prevail": 9796, 
  "dimensions": 9797, 
  "om": 9798, 
  "farms": 9799, 
  "disciplines": 9800, 
  "crews": 9801, 
  "Hezbollah": 9802, 
  "disperse": 9803, 
  "Baku": 9804, 
  "Azeri": 9805, 
  "Competitiveness": 9806, 
  "unpopular": 9807, 
  "Doha": 9808, 
  "stemmed": 9809, 
  "Hel@@": 9810, 
  "Meeting": 9811, 
  "Pendarovski": 9812, 
  "Mary": 9813, 
  "Hoti": 9814, 
  "mismanagement": 9815, 
  "uncover": 9816, 
  "participant": 9817, 
  "fueled": 9818, 
  "Mrksic": 9819, 
  "complying": 9820, 
  "0.2": 9821, 
  "Brod": 9822, 
  "distribute": 9823, 
  "profound": 9824, 
  "stakeholders": 9825, 
  "sc@@": 9826, 
  "geographic": 9827, 
  "terminals": 9828, 
  "avian": 9829, 
  "tie": 9830, 
  "forensic": 9831, 
  "ron@@": 9832, 
  "liberties": 9833, 
  "observation": 9834, 
  "Atomstroyexport": 9835, 
  "Work": 9836, 
  "Gligorov": 9837, 
  "paths": 9838, 
  "ums": 9839, 
  "burdened": 9840, 
  "Guinness": 9841, 
  "Cheney": 9842, 
  "si": 9843, 
  "4.3": 9844, 
  "Dem@@": 9845, 
  "Tudor": 9846, 
  "Rally": 9847, 
  "protracted": 9848, 
  "Illyrian": 9849, 
  "Niko": 9850, 
  "cautioning": 9851, 
  "matic": 9852, 
  "fe@@": 9853, 
  "thoughts": 9854, 
  "m.": 9855, 
  "Islands": 9856, 
  "telemedicine": 9857, 
  "Diana": 9858, 
  "comprise": 9859, 
  "exile": 9860, 
  "Milica": 9861, 
  "pure": 9862, 
  "environments": 9863, 
  "Selmani": 9864, 
  "electronics": 9865, 
  "string": 9866, 
  "Rumen": 9867, 
  "xes": 9868, 
  "Sandra": 9869, 
  "marketplace": 9870, 
  "soprano": 9871, 
  "lers": 9872, 
  "honorary": 9873, 
  "6.7": 9874, 
  "firstly": 9875, 
  "Pal@@": 9876, 
  "Monuments": 9877, 
  "horses": 9878, 
  "manipulated": 9879, 
  "Pasha": 9880, 
  "Paravantes": 9881, 
  "credentials": 9882, 
  "realising": 9883, 
  "greenhouse": 9884, 
  "Danilo": 9885, 
  "relying": 9886, 
  "aides": 9887, 
  "exchanging": 9888, 
  "0.3": 9889, 
  "provocative": 9890, 
  "Popov": 9891, 
  "Bol@@": 9892, 
  "Ponta": 9893, 
  "Stolojan": 9894, 
  "ESI": 9895, 
  "LAOS": 9896, 
  "Unions": 9897, 
  "Twitter": 9898, 
  "desperate": 9899, 
  "Ademi": 9900, 
  "Athletics": 9901, 
  "Commercial": 9902, 
  "continually": 9903, 
  "BIA": 9904, 
  "counterproductive": 9905, 
  "definition": 9906, 
  "proactive": 9907, 
  "tional": 9908, 
  "Peacekeeping": 9909, 
  "shipyard": 9910, 
  "Gul@@": 9911, 
  "Net": 9912, 
  "Medicine": 9913, 
  "heightened": 9914, 
  "Ram@@": 9915, 
  "Egmont": 9916, 
  "garner": 9917, 
  "Gra@@": 9918, 
  "acceleration": 9919, 
  "Virgil": 9920, 
  "nica": 9921, 
  "revoked": 9922, 
  "Hans": 9923, 
  "Bartholomew": 9924, 
  "sor@@": 9925, 
  "Bondsteel": 9926, 
  "seasonal": 9927, 
  "4.2": 9928, 
  "employing": 9929, 
  "fur@@": 9930, 
  "Borisova": 9931, 
  "please": 9932, 
  "pattern": 9933, 
  "ray": 9934, 
  "ali": 9935, 
  "ization": 9936, 
  "ker": 9937, 
  "revolutionary": 9938, 
  "bonuses": 9939, 
  "convicts": 9940, 
  "totals": 9941, 
  "convictions": 9942, 
  "liberty": 9943, 
  "7.3": 9944, 
  "Leposavic": 9945, 
  "AN@@": 9946, 
  "exhibitors": 9947, 
  "guilt": 9948, 
  "tendency": 9949, 
  "engines": 9950, 
  "Edita": 9951, 
  "emigration": 9952, 
  "sun@@": 9953, 
  "enact": 9954, 
  "instructed": 9955, 
  "emotional": 9956, 
  "shootout": 9957, 
  "lots": 9958, 
  "Smiljanic": 9959, 
  "cevic": 9960, 
  "Pa@@": 9961, 
  "SE@@": 9962, 
  "ethics": 9963, 
  "vary": 9964, 
  "equity": 9965, 
  "Secretariat": 9966, 
  "holy": 9967, 
  "semifinal": 9968, 
  "photographer": 9969, 
  "Franz": 9970, 
  "psychologist": 9971, 
  "blasted": 9972, 
  "organizations": 9973, 
  "dismissing": 9974, 
  "Jovic": 9975, 
  "interpretations": 9976, 
  "U2": 9977, 
  "Agrafiotis": 9978, 
  "slammed": 9979, 
  "Weekly": 9980, 
  "sy@@": 9981, 
  "considerations": 9982, 
  "but@@": 9983, 
  "avis": 9984, 
  "Galicnik": 9985, 
  "Loan": 9986, 
  "declarations": 9987, 
  "compound": 9988, 
  "behavior": 9989, 
  "rewarded": 9990, 
  "lion": 9991, 
  "Liberals": 9992, 
  "deter": 9993, 
  "NEK": 9994, 
  "i.e.": 9995, 
  "Vijesti": 9996, 
  "mes@@": 9997, 
  "verify": 9998, 
  "bur@@": 9999, 
  "Srbije": 10000, 
  "customer": 10001, 
  "scarce": 10002, 
  "Heart": 10003, 
  "tis": 10004, 
  "seemingly": 10005, 
  "trio": 10006, 
  "22m": 10007, 
  "bet": 10008, 
  "bottles": 10009, 
  "Bahrain": 10010, 
  "signatory": 10011, 
  "13,000": 10012, 
  "sizeable": 10013, 
  "musician": 10014, 
  "36@@": 10015, 
  "disappear": 10016, 
  "Tanovic": 10017, 
  "clarification": 10018, 
  "Electric": 10019, 
  "we@@": 10020, 
  "ambition": 10021, 
  "shipments": 10022, 
  "tycoons": 10023, 
  "Must": 10024, 
  "uphold": 10025, 
  "hin@@": 10026, 
  "conceived": 10027, 
  "Darik": 10028, 
  "plotting": 10029, 
  "dj@@": 10030, 
  "ć": 10031, 
  "Fo@@": 10032, 
  "Denkova": 10033, 
  "Leaders": 10034, 
  "Staviski": 10035, 
  "plight": 10036, 
  "kova": 10037, 
  "reopen": 10038, 
  "Ristic": 10039, 
  "Davidovic": 10040, 
  "30km": 10041, 
  "classic": 10042, 
  "exploiting": 10043, 
  "ANI": 10044, 
  "yesterday": 10045, 
  "talented": 10046, 
  "corn": 10047, 
  "forge": 10048, 
  "5.3": 10049, 
  "offs": 10050, 
  "simultaneous": 10051, 
  "spends": 10052, 
  "shipbuilding": 10053, 
  "Sport": 10054, 
  "topple": 10055, 
  "Omer": 10056, 
  "earning": 10057, 
  "excavation": 10058, 
  "UDMR": 10059, 
  "by@@": 10060, 
  "merge": 10061, 
  "SIPA": 10062, 
  "Down": 10063, 
  "Training": 10064, 
  "Zana": 10065, 
  "tired": 10066, 
  "Pre": 10067, 
  "Marc": 10068, 
  "streamlining": 10069, 
  "bust": 10070, 
  "center": 10071, 
  "destructive": 10072, 
  "ingly": 10073, 
  "format": 10074, 
  "unwilling": 10075, 
  "Sky": 10076, 
  "Haxhinasto": 10077, 
  "Don@@": 10078, 
  "akis": 10079, 
  "acute": 10080, 
  "prohibits": 10081, 
  "cul@@": 10082, 
  "Decade": 10083, 
  "nonetheless": 10084, 
  "Severin": 10085, 
  "treating": 10086, 
  "multimedia": 10087, 
  "lovers": 10088, 
  "10km": 10089, 
  "succeeds": 10090, 
  "ishing": 10091, 
  "Kanal": 10092, 
  "depositors": 10093, 
  "disabilities": 10094, 
  "lik@@": 10095, 
  "Bro@@": 10096, 
  "Louis": 10097, 
  "dreams": 10098, 
  "Line": 10099, 
  "obstruct": 10100, 
  "withdrawing": 10101, 
  "las": 10102, 
  "kan": 10103, 
  "ier": 10104, 
  "fulfilment": 10105, 
  "Srna": 10106, 
  "About": 10107, 
  "Agerpres": 10108, 
  "V": 10109, 
  "Alija": 10110, 
  "temple": 10111, 
  "Prvoslav": 10112, 
  "bone": 10113, 
  "Igman": 10114, 
  "Three": 10115, 
  "turbulence": 10116, 
  "relates": 10117, 
  "Sullivan": 10118, 
  "dairy": 10119, 
  "mir": 10120, 
  "ravaged": 10121, 
  "BK": 10122, 
  "lucky": 10123, 
  "ation@@": 10124, 
  "cool": 10125, 
  "SFF": 10126, 
  "wreath": 10127, 
  "Cecilia": 10128, 
  "Munk": 10129, 
  "skating": 10130, 
  "processed": 10131, 
  "chemicals": 10132, 
  "layer": 10133, 
  "canton": 10134, 
  "tuition": 10135, 
  "stripped": 10136, 
  "Ljupco": 10137, 
  "rifles": 10138, 
  "Mr": 10139, 
  "copyright": 10140, 
  "Haiti": 10141, 
  "ard": 10142, 
  "vacuum": 10143, 
  "6.4": 10144, 
  "Nationalist": 10145, 
  "ass@@": 10146, 
  "cal": 10147, 
  "diagnosed": 10148, 
  "hel@@": 10149, 
  "wonderful": 10150, 
  "duration": 10151, 
  "Elbasan": 10152, 
  "beliefs": 10153, 
  "constructing": 10154, 
  "handles": 10155, 
  "RAE": 10156, 
  "Eurobonds": 10157, 
  "Chiarini": 10158, 
  "headquartered": 10159, 
  "conditioned": 10160, 
  "cli@@": 10161, 
  "derailed": 10162, 
  "pla@@": 10163, 
  "contractual": 10164, 
  "refineries": 10165, 
  "inviting": 10166, 
  "guiding": 10167, 
  "Azerbaijani": 10168, 
  "cheapest": 10169, 
  "Dacia": 10170, 
  "standstill": 10171, 
  "lesser": 10172, 
  "user": 10173, 
  "Wilson": 10174, 
  "shoulder": 10175, 
  "Brian": 10176, 
  "Dejanovic": 10177, 
  "1945": 10178, 
  "urgency": 10179, 
  "Vuk@@": 10180, 
  "tin": 10181, 
[...]
