<blank>
<s>
</s>
the
,
.
of
to
in
and
a
&quot;
for
&apos;s
@-@
is
on
that
with
by
/
as
said
will
)
(
be
it
are
has
have
from
at
EU
was
he
Kosovo
--
an
not
this
its
Serbia
European
country
also
which
Minister
government
we
&#91;
&#93;
their
but
his
they
would
year
new
-
been
Turkey
two
were
one
more
countries
all
BiH
after
who
:
Serbian
other
I
Macedonia
Belgrade
political
Southeast
there
Times
about
or
Croatia
according
co
told
first
%
Prime
over
euros
people
last
than
during
SETimes
Turkish
international
up
President
only
years
between
state
operation
can
UN
some
NATO
Albania
should
Bulgaria
Montenegro
if
had
no
economic
former
talks
against
while
Romania
;
Greece
however
time
&apos;
under
police
could
per
most
three
says
US
Europe
now
10
support
11
into
since
public
when
well
our
part
war
out
region
Monday
such
Croatian
process
officials
Greek
foreign
them
many
Albanian
Bosnia
cent
agreement
meeting
do
because
Herzegovina
law
report
so
including
Wednesday
Macedonian
end
member
those
members
party
elections
authorities
what
local
must
Party
she
expected
Tuesday
month
Pristina
among
any
made
09
Getty
crimes
Images
12
security
07
week
05
06
both
these
say
Reuters
take
parliament
Serb
before
04
03
08
work
AFP
issue
day
number
membership
Council
military
The
being
still
project
next
future
parties
business
May
March
Bulgarian
way
visit
June
October
news
Foreign
Thursday
?
through
International
December
citizens
decision
world
leaders
progress
January
media
&apos;t
minister
status
Balkans
very
you
held
announced
important
Romanian
reforms
based
saying
where
November
long
July
accession
corruption
won
leader
institutions
high
Skopje
make
added
April
company
months
independence
Sarajevo
called
system
opposition
Serbs
place
even
president
four
met
relations
towards
efforts
Balkan
integration
Sunday
issues
help
September
national
various
head
plan
Bank
community
chief
energy
situation
power
organised
group
General
sources
February
Commission
regional
Bosnian
need
United
Athens
same
reform
another
him
Cyprus
Democratic
vote
right
around
main
several
second
signed
billion
Union
continue
World
her
policy
crisis
border
negotiations
economy
official
deal
following
measures
States
court
become
without
possible
may
within
20
recent
crime
ethnic
financial
market
EC
ministry
move
see
key
development
five
good
major
set
past
event
August
Friday
statement
until
problems
tribunal
problem
then
Tadic
left
companies
Sofia
programme
election
further
much
Zagreb
due
rights
Brussels
states
conference
case
...
02
how
ruling
15
RS
current
team
join
already
top
Tirana
led
National
did
Russia
sector
AP
level
does
us
Hague
plans
full
01
meet
agreed
meanwhile
trade
representatives
days
use
open
Western
Security
took
budget
down
2004
Ankara
cultural
special
just
30
prime
mission
like
areas
six
Bucharest
far
Istanbul
early
gas
off
back
coalition
women
euro
free
ministers
IMF
role
standards
increase
better
Secretary
start
quoted
forces
investment
clear
want
Mladic
office
earlier
1
construction
opened
each
city
think
conflict
joint
get
results
come
$
order
my
conditions
centre
province
money
solution
children
ten
general
found
25
press
final
growth
used
remains
step
Erdogan
majority
defence
able
interest
go
old
came
although
own
parliamentary
2007
change
together
cases
currently
experts
human
working
area
candidate
fight
Parliament
2008
stability
social
education
Cypriot
State
cannot
given
provide
Germany
ICTY
director
reported
Agency
campaign
best
politicians
term
remain
northern
force
projects
ago
17
legal
life
Albanians
information
daily
whether
counterpart
include
believe
received
urged
later
different
despite
taken
position
every
Association
2006
put
ahead
agency
16
late
strong
hope
building
total
third
27
needs
2005
run
summit
less
positive
peace
13
show
18
soon
festival
face
along
least
capital
democratic
changes
bid
Centre
Yugoslavia
2009
groups
period
large
million
14
administration
Saturday
implementation
name
UNMIK
New
justice
presidency
control
violence
Iraq
funds
town
Russian
tourism
Boris
Montenegrin
serious
making
dialogue
Ministry
lack
few
line
likely
near
result
24
largest
nearly
Court
review
Kostunica
others
Deputy
bring
Agreement
arrest
reached
young
potential
home
2010
bloc
visa
global
oil
yet
laws
though
action
especially
return
ready
family
recently
21
adding
improve
Republika
nation
trial
give
necessary
needed
population
decided
find
goal
organisation
approved
taking
Slovenia
small
aimed
Srpska
independent
non
Italy
freedom
University
began
reports
nations
B92
am
significant
Alliance
diplomatic
tax
discuss
rate
activities
German
established
France
22
KFOR
noted
Karadzic
culture
troops
OSCE
private
Festival
Milosevic
boost
Representative
arrested
launched
seven
fact
eight
pay
health
Commissioner
1995
close
bilateral
again
anti
Washington
19
too
rule
opening
increased
steps
28
whose
domestic
23
point
latest
2003
Rehn
warned
services
today
AKP
adopted
living
de
lead
annual
post
constitution
2
regime
expressed
prosecutor
build
difficult
wants
ties
stressed
ensure
26
production
privatisation
charges
property
assistance
EULEX
analysts
Zoran
road
pressure
3
PKK
minority
News
plant
debt
central
men
seen
BBC
half
students
infrastructure
expect
leading
hold
50
done
real
proposed
proposal
involved
Nikola
means
round
referendum
known
north
film
legislation
strategy
common
reporters
don
Development
focus
committed
Justice
trafficking
voters
protection
higher
customs
school
Ahtisaari
discussed
great
sign
society
prices
asked
initiative
constitutional
Roma
brought
Kurdish
GDP
started
bank
almost
terms
envoy
once
Central
receive
rather
Army
Yugoslav
here
weeks
issued
low
Peace
criminal
resolution
effort
price
history
fully
allow
1999
job
Defence
Republic
cabinet
1st
list
organisations
document
DPA
failed
hopes
reach
begin
Berisha
29
service
ceremony
going
religious
cost
related
Institute
British
know
illegal
High
data
reportedly
investigation
French
voiced
Jovanovic
across
workers
entry
prosecutors
Group
coming
Basescu
date
George
scheduled
similar
included
times
biggest
planned
delegation
enough
considered
includes
present
access
particularly
operate
forward
responsibility
might
behind
democracy
dispute
described
sides
science
5
communities
offer
competition
average
attacks
released
killed
form
Sanader
South
victims
Olympic
senior
electricity
journalists
investors
Social
Euro
attended
addition
address
entity
Office
me
points
investments
terrorism
direct
judicial
pipeline
create
capacity
presented
water
deputy
instead
certain
provided
training
followed
island
officers
army
concern
politics
comes
keep
your
Atlantic
40
previous
sports
never
became
ended
Gul
6
example
call
governments
sent
nuclear
presidential
Thaci
interests
2002
regarding
Ambassador
confidence
published
Tayyip
soldiers
calls
hand
al
Recep
candidates
terrorist
industry
participants
opportunity
Enlargement
loan
natural
4
nine
outside
Radio
win
mandate
importance
air
deficit
success
went
visited
responsible
short
trying
judiciary
impact
Gruevski
beginning
single
TV
side
credit
Srebrenica
events
summer
representative
exhibition
2001
commander
thousands
question
required
accused
live
site
jobs
operations
confirmed
Muslim
declaration
complete
lost
prison
2011
why
12th
having
spokesman
priority
Ivo
conducted
aid
banks
environment
draft
debate
criteria
pledged
Igor
completed
additional
agenda
highest
hard
itself
travel
civil
Finance
Ratko
challenges
alleged
continued
implement
del
big
wanted
100
joining
Vojislav
view
overall
study
joined
whole
interview
unemployment
award
markets
abroad
tourists
implementing
commitment
votes
East
respect
agreements
Ponte
idea
prevent
indictees
lower
opinion
un@@
path
elected
concerns
things
launch
File
10th
15th
establish
welcomed
away
Austria
31
series
network
municipalities
compared
successful
agree
Interior
Film
failure
village
everything
food
union
charged
products
explained
often
threat
judges
1992
seeking
share
7
research
something
enter
War
commission
signing
protest
Podgorica
calling
Gotovina
Slobodan
session
estimated
facing
Hungary
basis
little
Cypriots
management
amount
strategic
ever
starting
polls
turn
paid
works
stand
attack
play
fighting
movement
documents
criticised
Djindjic
victory
leave
response
evidence
5th
weapons
reduce
act
accept
speaking
suspects
ongoing
participation
continues
Committee
hours
re@@
participate
Stabilisation
effect
faces
schools
fair
ic
prospects
17th
firm
Mesic
arrived
SAA
lawmakers
rejected
entire
owned
exchange
requirements
using
risk
8
3rd
finance
technical
policies
Federation
framework
Solana
20th
rules
presence
achieve
Islamic
21st
internet
message
becoming
invest
indicted
aims
technology
parts
Luka
passed
Ashdown
offered
throughout
football
reason
rise
seats
created
Britain
influence
language
longer
territory
6th
recognise
quality
chance
suggested
doing
structures
Director
strengthen
obligations
death
built
exports
families
Department
Banja
believes
2000
package
anniversary
cut
Affairs
goods
Italian
always
minorities
armed
Games
worth
performance
rates
Olli
survey
man
closer
growing
thus
planning
Criminal
promote
1990s
remaining
11th
crucial
murder
Dayton
actions
supported
Papandreou
York
themselves
specific
divided
stop
e
60
businesses
field
poor
4th
funding
19th
tender
demand
increasing
resources
pro
8th
Ohrid
gold
recognised
closed
Socialist
7th
borders
s
shows
Sea
course
Rights
neighbouring
Mitrovica
kind
achieved
declared
century
Orthodox
equipment
Radovan
indictment
greater
land
in@@
analyst
protect
genocide
seek
decide
house
recognition
decisions
popular
involvement
officially
Olympics
experience
immediately
Slovenian
consider
9th
mobile
either
28th
claims
matter
operating
concrete
Moscow
Iran
fiscal
allowed
stable
leadership
figures
age
inflation
interior
existing
levels
Annan
light
implemented
Tomislav
Cup
gave
13th
labour
Tribunal
benefit
try
chairman
re
transport
unit
citing
forum
Culture
nothing
2nd
particular
establishment
approach
lives
14th
approval
costs
Dodik
protests
authority
submitted
improved
employees
Sejdiu
concerning
release
look
Crvenkovski
Abdullah
S@@
front
courts
Energy
improving
climate
showed
challenge
stage
ovic
16th
prepared
opportunities
account
communist
fall
positions
VOA
holds
Eastern
mostly
professor
Co
Dragan
takes
ing
southern
financing
Djukanovic
amid
effective
25th
30th
partner
match
benefits
mid
focused
praised
died
compromise
secure
enlargement
happen
programmes
meetings
drug
council
zone
develop
believed
providing
registered
Human
Fund
critical
possibility
expects
23rd
visitors
charge
promised
contract
American
modern
EP
Ali
22nd
record
establishing
SEE
phase
staff
Spain
municipality
resolve
18th
aim
care
hit
shown
Adriatic
art
stay
Fatmir
partners
forced
upcoming
hundreds
Afghanistan
heads
rest
ways
makes
committee
negative
serve
9
avoid
professional
o
negotiating
discussions
27th
mainly
sale
continuing
ones
traditional
allegedly
Assembly
host
Libya
movie
huge
sought
Vladimir
cities
affairs
strengthening
available
Czech
Scheffer
spending
car
Police
Hoop
Middle
institution
tried
send
Vienna
Economy
turned
finally
moment
35
mean
voting
poll
Greeks
priorities
facilities
employment
headed
personal
Sali
everyone
music
economies
rating
active
urging
26th
Israel
procedures
2012
1991
Goran
poverty
ground
RFE
caused
era
request
supply
agencies
Vuk
conflicts
goals
resolved
lot
reasons
Austrian
changed
contribute
cross
developments
persons
assessment
loans
Nikolic
looking
census
affected
internal
letter
interested
RL
residents
condition
Economic
helping
liberalisation
settlement
attend
concluded
NGOs
raise
board
currency
places
ban
1998
transition
basic
suspected
attempt
tourist
Hashim
raised
70
SFOR
edition
affect
via
served
spent
principles
attention
quickly
individuals
offers
hosted
Museum
traffic
criminals
self
Croats
follow
statements
noting
threats
territorial
Speaker
bringing
track
carried
decades
cited
200
personnel
Karamanlis
environmental
invitation
backed
criticism
FT
sure
stake
pre
29th
body
television
amendments
person
transfer
Muslims
represent
ed
Milorad
Democrats
II
4@@
individual
adoption
historic
incident
1,000
taxes
Jeremic
questions
figure
provides
voted
refugees
China
Traian
speech
sites
turnout
journalist
export
24th
book
tells
partnership
tensions
Trade
Black
placed
Croat
speed
monitoring
task
youth
named
fourth
neighbours
bill
Democracy
formed
theatre
separate
feel
Paul
sectors
initial
80
imports
emergency
supporters
target
es
visits
Bosniak
outcome
Barroso
numerous
medical
dis@@
worst
accepted
located
buildings
peaceful
participated
phone
values
indicated
hands
fire
revenues
Georgi
prosecution
stance
concerned
massacre
participating
MPs
i
SE
Partnership
London
creating
eventually
HDZ
homes
sold
peacekeeping
gathered
fans
Netherlands
treatment
Branko
nor
Ahmet
essential
prior
Antonio
entities
sell
supports
systems
artists
warning
allowing
fear
alone
expert
houses
income
civilians
safety
determined
gain
Linda
giving
films
agriculture
simply
industrial
players
above
entertainment
consensus
A@@
units
Milan
night
tour
damage
incidents
thing
buy
EBRD
stations
favour
therefore
model
OHR
supporting
Mediterranean
really
Tariceanu
decade
firms
Integration
Bush
Radic
visiting
newly
facility
got
executive
90
Karadaku
Natasa
connection
Roundup
command
institutional
played
developed
salaries
let
readiness
maintain
intelligence
managed
creation
Special
deadline
demands
Mayor
C@@
Beta
fugitive
Ivan
block
Dutch
application
Schengen
cover
assets
headquarters
resolving
acts
carry
Poland
approximately
talk
decentralisation
Turks
newspaper
encourage
commercial
produce
overcome
consequences
discovered
Christmas
marked
largely
Parvanov
contribution
controversial
republic
moving
relationship
assassination
beyond
administrative
NGO
mark
limited
division
discussion
quarter
saw
running
addressing
treaty
solve
getting
electoral
annually
Macedonians
image
complex
trust
Chief
5@@
port
commitments
completely
appointed
Georgiev
strike
Novi
FBiH
Javier
Stipe
structure
returned
3@@
plants
sovereignty
reiterated
himself
permanent
source
t
delay
6@@
Lajcak
race
anything
pass
Law
autonomy
highly
weekend
West
clearly
dropped
Moldova
range
observers
introduced
banking
station
missions
arrests
ancient
Research
winning
Syria
Paris
&apos;m
Day
leaving
wrote
respectively
allegations
reconstruction
nationalist
House
prominent
Romanians
push
airport
bad
primary
paper
finding
reconciliation
offices
Chamber
representing
increasingly
developing
operational
mass
require
T@@
player
Technology
reaching
ability
worked
Movement
safe
moved
Martti
helped
requires
bridge
diplomats
eastern
resignation
procedure
ts
lines
Thessaloniki
woman
details
practice
score
Buckovski
activity
streets
story
directly
numbers
widely
medal
functioning
restrictions
stands
Church
Theatre
fund
Embassy
Hungarian
rising
student
differences
Iraqi
Ukraine
adopt
civilian
hospital
secret
ask
mutual
diplomat
probably
addressed
heritage
season
seat
ers
born
strongly
doesn
opposed
base
Liberal
code
seems
cars
ministries
remained
owner
teams
Free
claimed
friends
measure
eurozone
value
unless
300
hoping
Talat
I@@
reduced
table
cause
suggest
improvement
granted
regulations
regular
filed
refused
holding
internationally
substantial
officer
31st
offering
reality
test
verdict
People
university
trip
alternative
describing
IT
owners
claim
Ottoman
sentence
Constitutional
historical
Forces
O@@
Ivica
rotating
&apos;re
reduction
Danube
athletes
ranked
scientists
retired
pace
difficulties
meant
prove
P@@
factory
tonnes
Independent
River
attract
designed
anyone
formal
Christofias
linked
subject
roads
involving
Ban
VMRO
chapters
apply
Costas
PSD
exercise
ambassador
blocked
Hasani
represented
option
intended
Telekom
imposed
sentenced
finished
stressing
assist
winner
Blic
parents
abuse
thought
ranking
B@@
initially
cuts
factors
conduct
equal
ordered
destroyed
7@@
opens
Investment
duties
hour
church
break
remarks
proposals
municipal
highway
Berlin
guarantee
North
salary
invited
threatened
Vice
direction
fell
Miroslav
space
risks
double
solutions
smaller
austerity
door
Action
views
Sports
concert
F@@
unable
contributed
Education
enforcement
welcome
lose
attempts
2@@
regions
decline
mayor
sales
drop
Petersen
depends
son
easy
killing
seriously
slow
Carla
words
neither
adds
faced
&apos;ve
rose
fugitives
Rugova
powers
street
Jessen
aware
previously
boycott
assembly
Libyan
500
trend
dealing
battle
prepare
denied
Mostar
represents
detained
K@@
missing
DPMNE
transferred
injured
obtain
choice
arms
preparing
sustainable
child
preparations
crossing
computer
discrimination
Public
ordination
SDP
understand
Laura
CNN
spokesperson
ruled
external
2,000
8@@
setting
determine
Christian
Merkel
happened
significantly
generally
statistics
insisted
sponsored
fields
south
identified
politically
enterprises
ted
dead
arrangement
contest
Academy
ranks
identity
sense
understanding
wide
goes
operator
supplies
failing
promoting
medals
appeal
secretary
E@@
obstacle
wing
association
promises
DSS
entered
extended
primarily
Davutoglu
powerful
targets
initiatives
G@@
EUFOR
founded
marking
appeared
Chairman
appear
Borisov
Gazprom
critics
witness
upon
networks
comments
Japan
boosting
voter
Stanishev
Socialists
stronger
Israeli
seeks
spend
efficiency
Policy
Forum
standing
Dinkic
D@@
accord
Paddy
regardless
pensions
obstacles
Jose
Force
unacceptable
Josipovic
honour
agricultural
Studies
fuel
Ministers
true
handed
room
showing
Supreme
expectations
pension
Kurds
VAT
integrity
game
Bloomberg
purchase
ensuring
Split
factor
Jaap
spoke
PASOK
profit
violations
ate
names
Vojvodina
chances
relevant
Board
links
Georgia
heavy
Organisation
Dnevnik
lawyer
insists
sanctions
Milo
guilty
closely
Foundation
en@@
website
structural
scientific
fulfil
transparency
envisions
N@@
below
suggests
restructuring
PfP
asylum
appears
spring
waiting
normal
Draskovic
Vujanovic
invested
certainly
existence
efficient
expansion
Switzerland
losses
receiving
Africa
awards
&amp;
scale
users
shares
acting
Nicosia
determination
Mehmet
search
Stream
tennis
Mediapool
refugee
smuggling
optimistic
exist
presidents
45
centres
flag
considering
books
consortium
consumers
Stefan
fraud
ICJ
reducing
moves
immediate
willing
red
resort
broad
&apos;ll
loss
150
star
Diary
Contact
speak
convicted
suspect
whom
occurred
demanding
Islam
fifth
sparked
bids
produced
department
extradition
enjoy
Nabucco
principle
someone
9@@
signal
M@@
marks
Championship
republics
e@@
perspective
CHP
mine
transit
protected
writer
wartime
wait
Michael
Ante
Belgium
otherwise
scene
effects
damaged
Ciocoiu
wife
de@@
Ceku
L@@
educational
Commander
acknowledged
hiding
Marina
becomes
impossible
considerable
55
combat
announcement
i@@
Government
enable
communication
constructive
vowed
route
kept
submit
suspended
transportation
insurance
serving
nevertheless
generals
Science
competitive
paying
er
UNESCO
y
ting
silver
prize
bodies
Slovakia
achieving
deputies
Protection
dangerous
Stability
Press
software
Bulgarians
removed
satisfied
Ivanov
Qaeda
didn
Zaman
completion
Health
carrying
candidacy
entering
Arab
reunification
Alexander
collection
ends
Blerta
requirement
green
widespread
UNDP
Pact
Kosor
organisers
Spanish
wins
villages
argues
viewed
resident
holiday
split
performed
ideas
gets
acceptable
meets
citizenship
losing
museum
objective
camp
unilateral
DS
witnesses
gives
eventual
vehicles
10,000
towns
adviser
manner
title
hosts
monthly
vice
obligation
applied
Manuel
except
os
!
EurActiv
effectively
Foniqi
grant
wish
wages
doctors
surrender
investigations
DUI
larger
Programme
5,000
proved
coast
competitiveness
rural
aside
Haradinaj
comprehensive
square
A
governance
multiethnic
Popescu
confident
2013
representation
Nikolovski
Sad
lowest
awareness
choose
happy
Service
Ivanovic
drugs
Asia
delayed
destination
facilitate
shared
tasks
Nastase
d@@
fundamental
teachers
worldwide
Markovic
club
inside
Tourism
recommendations
apart
trials
distribution
minimum
400
LDK
deployment
keeping
extremely
backing
features
quite
Guardian
performances
arguing
changing
Luxembourg
Babacan
League
Staff
fail
City
preliminary
asking
shortly
violent
Radical
replace
argue
initiated
Makfax
killings
universities
unique
ending
ated
shot
medium
Internet
g@@
terror
Rexhepi
c@@
sovereign
ation
Relations
farmers
alliance
Prosecutor
ANA
humanitarian
topics
Society
suffered
Art
allies
greatest
Dusan
famous
estate
quick
judge
sentences
Kofi
signs
Ljajic
passports
duty
expand
detention
awarded
pointed
respondents
directed
delivered
demonstrate
circumstances
Robert
Ibrahim
agrees
Aleksandar
W@@
tournament
s@@
Chinese
Open
dominated
sea
Best
Summer
Rama
1996
western
Kurdistan
Airlines
extend
voicing
read
accounts
Election
tradition
Business
Plus
expression
elements
processes
deep
bronze
accompanied
monetary
editor
crossings
cards
protocol
covering
Eurovision
urges
improvements
English
scandal
counts
singer
father
reaction
knowledge
resulted
remove
metres
massive
parallel
raising
accusations
1m
producer
endorsed
rich
over@@
1.5
Bosniaks
Mustafa
R@@
chosen
Dacic
1993
returns
Davor
Euobserver
flights
percentage
size
attending
turning
titled
career
allows
Parliamentary
contracts
terrorists
prompted
65
irregularities
organise
multi
district
estimates
Inzko
purpose
Daniel
drew
ordinator
Fair
tough
leads
provisions
stepped
replaced
Award
Canada
1990
argued
type
telling
mind
appointment
band
sufficient
notes
Sweden
original
waste
besides
Information
fast
enhance
responsibilities
patients
u
written
Milososki
doubt
fears
actually
elsewhere
ski
Financial
DP
Charter
H@@
actual
Milovanovic
immunity
Nebojsa
businessmen
spread
revenue
proceedings
nature
draw
indictee
MP
successfully
instance
capture
an@@
p@@
winter
economist
accordance
100,000
insist
wrong
inter
balance
wage
advantage
gained
severe
protesters
legislative
gap
location
Putin
beat
SDSM
page
listed
rally
none
integrated
formally
3,000
Re@@
visas
Durres
chapter
covered
sending
ally
railway
heart
maintaining
millions
Clinton
drawn
120
Echo
guarantees
advance
seized
song
moreover
forming
declined
USAID
increases
manager
removal
John
prosperity
America
deals
explains
32
destruction
incumbent
ac@@
100m
link
assured
degree
Armenian
HINA
formation
Chancellor
easier
5m
convinced
Bakoyannis
online
archaeologists
protecting
Sarkozy
controlled
secular
repeatedly
atmosphere
displaced
3m
rescue
elect
practical
train
category
selected
easily
celebrated
stock
unity
humanity
announcing
defined
depend
drafted
emphasised
clashes
Hurriyet
friendly
Valentin
analysis
founder
scores
regard
citizen
instability
contact
motion
dedicated
kicked
standard
immigrants
informal
Zivkovic
Airport
colleagues
Year
bills
vital
furthermore
Political
branch
insisting
comment
Tanjug
Regional
material
Djelic
consumption
hoped
worse
shooting
Deutsche
hearing
panel
danger
Plan
Cvetkovic
coach
demanded
Petar
Mission
governing
spokeswoman
smoking
compete
Muhamet
V@@
license
Golden
o@@
Professor
modernisation
mechanism
Topi
audience
sees
topic
dozens
Dubrovnik
ports
net
aspects
flu
politician
UK
lived
couple
Calin
answer
index
referring
unions
expensive
deliver
celebrate
profile
withdraw
broke
Rice
requested
demonstrated
Microsoft
correspondent
CoE
sets
assess
Kabashi
introduction
introduce
PDK
cancer
eligible
struggle
nobody
ar@@
amounts
lists
U@@
hailed
Transport
lies
Former
recovery
h@@
Freedom
2m
closure
memorandum
twice
34
Syrian
capable
Prlenda
telecommunications
selling
impose
article
proper
banned
condemned
tolerance
potentially
stated
featuring
urgent
sealed
f@@
display
plays
Soviet
giant
religion
Gaddafi
Ramadan
negotiation
mines
surprise
violation
ship
wake
vision
mixed
morning
admission
adequate
donors
southeast
healthcare
interim
wave
housing
Crimes
bought
dismissed
m
gone
recommended
d
Bajram
brings
Vlado
achievements
mother
tackle
km
MIA
atrocities
Presidency
ambassadors
ia
origin
begun
is@@
forms
matters
Zeljko
resigned
tension
materials
preventing
practices
oppose
Finnish
Beijing
cast
Conference
expressing
Sergey
Tribune
embassy
momentum
blocking
communications
exclusive
neighbour
peacekeepers
veto
stopped
urban
1997
hotel
Great
Facebook
video
hotels
.@@
limit
concerts
disaster
Constitution
33
intervention
monitor
Mirko
context
reactions
female
deaths
contributions
counterparts
perform
section
Stojanovska
conclusion
Resolution
ships
collective
conservative
tell
presents
Haris
stood
promise
usually
encouraging
Vukovar
claiming
difference
polling
looks
temporary
putting
Z@@
0
Filip
Street
succeed
truth
indeed
Konjikusic
delays
Stankovic
Hadzic
grow
park
Brajshori
appropriate
minute
ownership
generation
relatively
commissioner
admitted
revealed
Jean
Moisiu
heard
radical
Swedish
talking
G17
attracting
wind
feature
ating
enormous
surrounding
combined
HIV
Xinhua
else
torture
optimism
ch@@
welcoming
Community
Herald
favourable
promising
Prize
express
Ki
bailout
Workers
Corruption
Obama
laundering
Media
approve
publicly
wrapped
outlook
launching
ease
save
returning
43
Peter
Dimitris
connected
Agim
Marovic
mechanisms
Nano
reflect
doors
decrease
missile
List
function
complicated
In@@
autumn
united
Bojana
communism
Swiss
convince
playing
respected
considers
telephone
interethnic
Krasniqi
Tihic
unfortunately
guard
Commerce
artist
middle
author
7,000
options
KLA
utility
b@@
Company
web
diplomacy
realistic
encouraged
collapse
federal
resume
producers
unemployed
floods
mosque
closing
75
concept
spirit
opponents
Post
platform
recession
deployed
disputes
text
UPI
j@@
Croatians
Administration
W.
controversy
decisive
tic
Anti
learn
ations
advanced
600
hosting
picture
8,000
collaboration
respond
AKI
Bozidar
investigate
Governor
handle
birth
peoples
Australia
findings
n@@
37
radio
photo
note
Corridor
love
mentioned
pending
macroeconomic
ter
cautioned
threshold
Barbutov
u@@
Trajkovski
51
undermine
Islamist
ds
fellow
investor
Youth
outgoing
halt
runs
recorded
g
championship
subsidies
isolation
Finland
Arts
Kovacevic
Belene
hospitals
skills
nearby
perhaps
corrupt
tripartite
import
defeated
product
voice
India
Marija
insufficient
prospect
dubbed
feasibility
highlighted
Marko
Richard
Corporation
output
manage
Palestinian
speculation
Initiative
clean
minutes
er@@
Geoana
actors
debts
sometimes
Adrian
foster
a@@
Framework
thirds
activists
unlikely
Ar@@
grounds
bomb
pledging
aspirations
Daily
weak
barricades
moon
warn
Boyko
cubic
Telecom
jail
boys
Faculty
ratified
t@@
attitude
champion
k
originally
Wall
Silajdzic
covers
Dejan
connections
migration
class
directors
Brammertz
pose
ina
Labus
pushing
acquired
Schilling
desire
ly
electronic
passengers
objectives
downtown
intention
Jankovic
Hellenic
declare
proof
professionals
w@@
Accords
Dimitrova
driving
provisional
simple
compensation
locations
36
ic@@
250
Egypt
payments
David
experienced
Mladjan
on@@
Portugal
suggesting
speaker
posts
tobacco
fails
defendants
rhetoric
proceed
probe
reserves
h
emerging
contrast
Schwarz
funded
Racan
Eurozone
contacts
waters
ka
behalf
resign
Cultural
financed
magazine
fixed
rival
strikes
customers
Iranian
ratification
collected
Nimetz
serves
assume
preparation
4m
Labour
policemen
doctor
river
arrive
k@@
im@@
achievement
worry
organising
1.@@
Red
vulnerable
coastal
maximum
drive
studies
2.5
Biljana
foundation
intends
finish
opposes
Nis
Industry
movies
digital
engagement
z@@
Report
le@@
CEC
coup
Assistant
items
co@@
card
kovic
solid
friend
crowd
dramatic
Aegean
burden
retain
orders
relatives
30,000
prevention
Demetris
transparent
allocated
buying
yes
Meta
Angela
responded
churches
CEFTA
Jadranka
ordinary
attracted
1989
row
Simsek
broadcast
Strategic
symbol
announce
legally
exists
Lisbon
investing
reporting
Military
targeted
DPS
fires
Tuzla
Lebanon
1244
excellent
archaeological
20,000
profits
Kemal
watch
riots
Nobel
dating
brief
channel
registration
renowned
SP
Prizren
jazz
games
B
defend
en
languages
objections
foreigners
Soren
lawyers
newspapers
Dora
y@@
solved
fresh
Irish
Ayhan
bigger
di@@
actor
seem
ro@@
postponed
Turk
focusing
ID
inter@@
4,000
48
solidarity
Directorate
felt
consultations
custody
Papadopoulos
shut
47
Mladen
diaspora
fired
44
thanks
count
1,500
illegally
emerged
Book
at@@
negotiate
veteran
fulfilled
Jusuf
blame
identify
cash
al@@
unrest
basketball
functional
sensitive
associations
42
chain
con@@
aircraft
10m
GERB
calm
rapid
secondary
requests
holidays
strongest
Catholic
unprecedented
Roman
Women
caught
evening
thinks
properties
warns
limits
sixth
dance
Air
Dnevnik.bg
6m
preserve
ratings
begins
consideration
centuries
bases
conducting
SRS
obtained
wine
Treaty
nurses
trained
regulation
word
researchers
PIC
contrary
sharing
honoured
Journal
Tetovo
gaining
messages
SNSD
slightly
purposes
monuments
featured
Lukic
savings
guests
White
Congress
Norway
BSP
informed
reflects
telecom
carrier
payment
capacities
complaints
comply
Sciences
competing
jointly
7m
Future
ran
Executive
dozen
pact
inaugurated
latter
black
rebels
celebrations
gender
discussing
lasting
staged
rock
map
campaigns
Rome
1,@@
Rasim
influential
envisioned
prisoners
sharp
possibilities
renewed
everybody
Assad
nominated
es@@
welcomes
bus
KSF
Sandzak
arrangements
counter
Coalition
attacked
King
sharply
We
Selimaj
doubts
van
Anadolu
willingness
SDA
opinions
Article
follows
Process
grew
weekly
shift
200m
sound
presenting
Ireland
Al@@
investigators
transformation
engaged
employers
Northern
Network
10@@
outstanding
version
perpetrators
trends
investigated
gather
visible
Papoulias
bird
amended
drivers
46
finds
Polish
defeat
Euronews
Ljubljana
performers
Club
fine
realise
2014
computers
guaranteed
200,000
attractive
barriers
employed
speaks
equality
whatever
significance
ri@@
possibly
triggered
afford
lacks
School
core
Crime
projected
legislature
Terzic
upgrade
Ramadanovic
Welle
contributing
haven
it@@
Heritage
ar
behaviour
Civil
eye
Novak
18@@
laid
Web
questioned
uses
economists
fulfilling
apartment
causing
relief
sugar
ti@@
arrival
seekers
Kostov
consumer
destinations
chamber
ultimately
arguments
Moldovan
Predrag
harm
murders
ology
monopoly
Simeon
inclusion
definitely
producing
style
extension
compliance
Ilic
Frattini
ambitious
passing
outlined
expanded
credibility
investigating
or@@
monitors
frozen
ad@@
r@@
bars
exhibitions
businessman
drawing
types
operators
suffering
41
St.
strength
worried
victim
demonstrations
maturity
turmoil
linking
collect
Armed
continuation
file
divisions
plastic
8m
situations
maintained
specifically
tank
retail
J@@
ethnically
threatening
restaurants
Djokovic
extraordinary
broadcasting
immigration
Strasbourg
Fuele
Reconstruction
controls
Svetla
economics
UNICEF
connect
introducing
blamed
Bitola
accelerate
resistance
Ergenekon
Vlora
li@@
Republican
fees
James
proud
presentation
wider
contingent
airports
supervised
Rohan
fled
survive
Palace
meat
BDP
troika
girls
technologies
unclear
ice
flags
enjoyed
tasked
Alfred
Grand
succeeded
alcohol
militants
chose
D
ap@@
chairmanship
zones
partition
Svetozar
Denmark
processing
precondition
strict
overhaul
suicide
economically
Banka
older
promotion
remember
stalled
multiple
negotiator
38
firmly
ND
struck
ministerial
Seselj
Jelena
east
bombings
Verheugen
jury
Gashi
affecting
n
Implementation
restore
legitimate
c
add
explain
coverage
Operation
fewer
treated
falling
Con@@
blow
1994
62
Maria
ding
husband
extreme
dates
store
ent
engage
secured
earthquake
ja
freedoms
Burgas
households
successor
ist
physical
propose
receives
fish
appearance
elderly
cocaine
ous
teacher
Global
Kostelic
violated
os@@
grave
isn
pressing
actively
Erlis
penalties
authors
1@@
provision
blood
southeastern
fulfill
Komsic
Sulejman
obvious
intellectuals
finalised
Montenegrins
managing
out@@
variety
6,000
ded
congress
apparent
happens
Azerbaijan
beautiful
mountain
800
Ashton
freely
Kathimerini
medics
write
indicate
testimony
fines
Armenia
broader
sake
MPA
deeply
stalemate
tied
thermal
documentation
backs
as@@
categories
withdrawal
credits
ov
observed
Project
placing
safeguard
Y@@
educated
crackdown
expanding
zero
nationals
demonstration
shortages
expecting
exhibit
C
m@@
mayors
pursue
ova
migrants
0.@@
FDI
undertaken
welfare
disappointment
demonstrators
ballots
shop
oldest
venture
50m
Mar@@
injuries
exit
legacy
Bogdanovic
breaking
documentary
hectares
Fena
Boc
extent
satisfaction
farm
excessive
proven
uncertainty
poses
equally
l@@
confirm
als
2.@@
ballot
eyes
shops
matches
medieval
passport
starts
pollution
liberal
isolated
traditionally
gains
la@@
Southeastern
contain
der
Burns
monument
Transparency
motivated
Summit
records
Simic
academic
respective
handover
occur
ex@@
Square
v@@
ise
extending
register
friendship
absolutely
warrant
adopting
&apos;@@
binding
seeing
unveiled
ordinated
Pope
steel
white
hikes
flow
Holkeri
shopping
rounds
moderate
signals
ages
Television
procurement
Armenians
renewable
methods
bear
prevented
recommend
reputation
pleased
Gallery
obtaining
applications
suspension
assumed
attempted
District
amounted
stabilisation
determining
repeat
milk
cutting
afterwards
branches
distance
Prague
solar
statistical
helps
ammunition
cic
monitored
85
extremist
writers
reading
frequently
ised
afraid
2,500
pre@@
Pamuk
unearthed
virus
ec@@
trouble
Kosova
unlike
Mediafax
ranging
disappointed
Geneva
connecting
stemming
airline
expenditures
Limaj
pensioners
Sezer
ates
extra
grown
53
neighbourhood
An@@
Mircea
Children
unresolved
drafting
ling
toll
enjoys
T
Joint
thinking
repeated
bi@@
Agriculture
sort
Spiric
Emil
crises
absence
enterprise
driven
suit
9m
700
mediator
realised
Al
accusing
perceived
Belgian
carefully
39
finals
flight
contains
gathering
literature
gang
l
Reform
wars
tens
younger
travelled
falls
securing
des
Rompres
surprised
poetry
49
strengthened
nomination
capabilities
Japanese
NIS
popularity
reject
bombing
INA
sized
aiming
camps
weather
lift
Ljiljana
CEO
ex
Copenhagen
ism
ag@@
Lake
extremists
obliged
supposed
principal
eliminate
settle
arresting
daughter
Bureau
el
Andy
fought
combating
valid
Oliver
Condoleezza
th@@
Korea
wounded
oglu
broken
ine
rare
suffer
Ivana
technological
corporate
Dimitrov
pave
piracy
performing
Kosumi
mountains
detailed
reforming
mining
industries
siege
temperatures
EIB
ant
issuing
operated
Customs
appealed
scored
oriented
explosion
describes
runoff
tes
faster
awaiting
delegations
restoration
revised
Frank
Environment
4.@@
dependence
Wisner
governor
consists
maybe
nationalism
bonds
deficits
500m
Boskovski
Ahmeti
amendment
surveillance
Estonia
les
charging
associate
opposing
posted
retirement
Bamir
concessions
Saxe
Coburg
finances
paramilitary
targeting
marketing
Liberation
slowly
hear
Tito
50,000
impasse
files
tests
exercises
Rupel
Index
Kermabon
Ruecker
content
helm
bin
cancelled
faith
40,000
bridges
SDS
raises
trading
O
ve
bottom
ICG
openly
nationwide
Lazarova
resulting
specialists
14@@
20m
publishing
95
apartments
constant
driver
heading
heroin
Lithuania
Europeans
pull
clubs
EUobserver
to@@
BTA
ce
Djordjevic
volume
Statistics
properly
pressures
experiences
chemical
Vetevendosje
1.2
3.5
rapidly
organ
ourselves
predicted
Sekerinska
investigative
flat
postpone
knows
pieces
ica
vehicle
ons
Budapest
poet
conclude
Strategy
il@@
Convention
am@@
regularly
protestors
Crisis
forget
fate
ity
purchased
ings
travelling
ists
facts
associated
ethnicity
struggling
musicians
designated
conclusions
ors
functions
Struga
Steiner
donor
Privatisation
deadlock
52
licenses
bo@@
milestone
stages
personally
scope
African
grade
Unit
Brazil
refusal
Kar@@
UNHCR
portion
selection
managers
acquire
answers
indictments
cleared
feeling
entirely
Lieutenant
causes
spot
Canadian
SPS
instruments
scandals
Ion
puts
benchmarks
regret
raids
ad
mis@@
imported
statehood
completing
praising
routes
initiate
earn
destroy
ha@@
tight
ultranationalist
54
uncertain
recommendation
Focus
worker
journalism
actress
Edi
te
handling
15,000
x
Elections
Rasmussen
Exchange
solving
commit
odds
hike
2015
2020
earmarked
ECB
frequent
useful
accident
channels
shall
tool
sidelines
be@@
secularism
Telegraph
foundations
granting
1974
rail
acted
x@@
seminar
Brcko
surveyed
clients
evic
phenomenon
Fatos
assigned
fishing
Daianu
shape
luxury
brothers
Koha
unified
exactly
writes
Diyarbakir
refuse
capita
stores
passage
neighbourly
plus
react
Nicolas
withdrew
check
Empire
cinema
constitute
scenario
stress
belong
thanked
30m
nationalists
knew
demonstrates
4.5
attributed
63
refinery
plane
tickets
joins
reliable
Communications
happening
referred
escape
AIDS
hot
disabled
winners
Robertson
Fiat
enabling
involve
recognising
se
Undersecretary
writing
ch
sport
veterans
72
exceed
architecture
gradually
57
reflected
Power
se@@
heating
DNA
st@@
b
wealth
Gabriel
donated
cope
traditions
brother
transformed
ian
BC
hydropower
transmission
character
Dink
evasion
Bedrana
greatly
he@@
exchanges
Gjorge
brand
ticket
painful
mention
tangible
modernise
extradited
stipulates
Ramush
pointing
rejection
forest
subsequently
Adnan
Mother
Ardi
Pulaj
offensive
Jazz
56
operates
Assistance
De@@
freeze
implications
car@@
subsequent
Milos
design
Major
Progress
deadlines
Hungarians
indicators
whereabouts
anovic
courses
tive
Monitor
0@@
surplus
Miroljub
buried
inadequate
surgery
mafia
tranche
bankruptcy
quo
symbols
governmental
venues
cell
symbolic
expertise
6.@@
volunteers
da
sole
undertake
heavily
me@@
Gordana
leaves
Prodi
biometric
acknowledging
acquitted
meaning
Sutanovac
jurisdiction
Izmir
fill
dream
reaffirmed
interference
Basha
emphasis
plea
toward
truly
Kingdom
Steering
Authority
KESH
Winter
64
Communist
penalty
expenses
--@@
celebration
66
Eroglu
medicine
Beth
pop
Democrat
400m
prestigious
plot
restored
trucks
briefed
challenging
Albert
king
advocates
fledged
jeopardise
Anatolian
confiscated
ur@@
Music
Petrovic
discusses
sustained
pushed
taxation
hurdle
shortcomings
decreased
employ
watching
punishment
comprised
respects
sessions
sit
minor
Razvan
financially
schedule
truck
negotiators
threaten
Sava
constituent
heat
urge
planes
Novosti
festivals
factories
database
embassies
predominantly
occasion
blueprint
permits
Jewish
Trajkov
500,000
150,000
Holding
heated
species
specialised
predecessor
careful
First
catch
musical
Sasa
Medvedev
Lavrov
appeals
beating
lifted
integrate
Days
element
Ana
alive
clause
settled
refusing
acknowledge
Samardzic
Blair
penal
Ilir
z
el@@
reference
chaos
walk
extradite
defeating
wrap
Popovic
Petrov
sexual
Reporting
suspend
Madrid
democratisation
Covic
stem
testify
ab@@
tion
disease
screening
JAT
intense
intent
hydro
removing
Poor
Van
islands
servants
Powell
Victor
supervision
echoed
hi@@
preservation
native
seemed
fly
pledges
Caspian
define
under@@
En@@
Orhan
mayoral
separately
S
founding
bit
assessed
AAK
unknown
Radovanovic
belonging
dynamic
Gates
pledge
Karolos
Slovak
pilot
federation
discovery
Izetbegovic
degrees
anymore
rooted
Jacques
disagreements
Zemun
ho@@
seventh
photos
Pahor
qualified
viable
assistant
entitled
F
memorial
et@@
ko
societies
rely
talked
dealt
1980s
characterised
authorised
secession
Judge
ir@@
God
Oz@@
tackling
stone
learning
classes
ans
breakthrough
Franco
+
infected
snow
partial
reserve
Qatar
monastery
Hall
Cavic
funeral
Nicholas
censorship
soldier
Bar@@
Intelligence
Stefanovic
ill
instrument
vast
restaurant
continent
Park
kg
roles
peak
lasted
depending
west
bloggers
Championships
civic
Asian
learned
piece
anticipated
arena
58
newest
exploration
Support
locals
elementary
ca
kinds
voluntary
indicates
totally
captured
hardly
stolen
budgets
margin
birds
je
recognises
ies
roots
voices
containing
chaired
67
formerly
false
auspices
attempting
permission
equipped
Tassos
Insight
hundred
blast
apparently
condemning
obviously
Kampschror
boundaries
Vesna
jump
complained
criticising
Capital
Valley
Pekusic
lay
thousand
Mitev
innovation
aj
purchasing
examples
electric
sh@@
earned
1.3
Bo@@
prefer
voluntarily
evaluation
uncovered
phones
consistent
assisting
SEECP
Miller
Nine
engineering
1.6
elite
p
moral
resorts
Simitis
Colonel
underground
prompting
Matthew
2,@@
il
Martin
timing
rebuild
passenger
journey
harder
turns
survival
keeps
Beqiri
Biden
extensive
ma@@
stories
lo@@
sends
FENA
acquisition
legitimacy
Old
reactors
Moody
questioning
3.@@
buyers
Fatih
suggestions
reacted
bound
shipping
Bridge
defending
Opera
Local
contemporary
folk
strategies
landmark
celebrates
spots
Srdjan
per@@
Saudi
regulatory
favours
300m
Mil@@
addresses
advertising
lawsuit
papers
alongside
background
practically
Stock
snap
promoted
owns
78
ecological
Srbija
outbreak
accepting
overnight
300,000
intensified
Mark
whereas
involves
fan
Corps
Drazen
proclaimed
Iliescu
electrical
Yilmaz
shield
ta
influx
articles
vessels
professors
agents
consisting
observe
valuable
filled
estimate
Novinite
denies
reasonable
incentives
nationality
decides
ovski
Zastava
virtually
Sh@@
invite
68
cigarette
Er@@
Karic
generations
140
highlights
negotiated
deploy
RTK
deadly
advisory
69
forecast
impression
Kaletovic
debates
tions
weight
Necdet
hunger
R
regarded
guns
undermining
passes
departure
&apos;d
competitors
metal
twenty
Ex@@
Helsinki
cheaper
Velchev
Radmila
jobless
Management
Accession
ordinate
25,000
mounting
balanced
Se@@
maritime
op@@
dual
bread
kill
northeast
deposits
ul@@
ring
prepares
employee
parliaments
entrepreneurs
Hyseni
fruit
roughly
advice
Mr.
belongs
appoint
explosives
Center
disappeared
intensive
forth
Latvia
stars
rivers
yield
us@@
posters
Alexandroupolis
Jovan
accountability
sing
la
12@@
intend
Pro@@
poorest
enhanced
abandoned
suspicion
It
exception
interesting
Alakbar
underlined
default
rehabilitation
classified
Rompuy
permit
tragedy
satellite
Georgievski
transform
130
strain
Accord
PNL
sections
relation
mutually
fee
Australian
reluctant
budgetary
opera
erupted
enters
paving
Iceland
spur
unite
buyer
pro@@
bribery
Lukovic
Kosanovic
fashion
ana
dictator
declaring
59
inefficient
hatred
hampered
fragile
approves
ol@@
halted
ises
Wolfgang
globalisation
clash
fostering
clearing
om@@
Raufoglu
favoured
fallen
Kosovars
collecting
Ditore
responding
stabilise
reads
Antonela
operative
mosques
donations
statue
Zannier
exact
Darko
reveal
exceeded
golden
Radmanovic
intensify
raid
Market
transactions
excavations
qu@@
81
intellectual
populated
rec@@
accelerated
Argentina
broadcaster
Bosnians
textile
ator
eliminating
installed
prerequisite
theme
Kragujevac
ov@@
mistakes
Nenad
subsidiary
25m
warnings
Petrescu
Metohija
Holbrooke
beaches
competencies
Milic
Feith
Erhard
namely
legend
rankings
unanimously
profitable
aged
H5N1
TI
legality
additionally
positively
diversity
Voice
Russians
pharmaceutical
Order
persuade
Obradovic
Google
semi
focuses
cautious
acknowledges
translated
cigarettes
hurdles
Code
Hospital
Shala
Serge
Progressive
res
unnecessary
Economics
watchdog
ak
productivity
confirmation
angry
partially
rooms
divide
honest
extremism
DTP
Teresa
worries
attorney
correct
asks
partly
ball
forecasts
perception
facilitating
institute
coalitions
distributed
Stambolic
ceasefire
ter@@
Bytyci
ignored
Enver
acceptance
tries
Fried
et
narcotics
posed
ordinating
glass
prisons
rejects
si@@
premiere
lifting
wearing
cheap
belief
IOC
assisted
embargo
ge@@
ge
repair
dinar
j
remarkable
wasn
surveys
affects
disasters
Ataturk
maintains
innocent
patient
Rijeka
Danish
earthquakes
imposing
110
Dervis
impressive
Proeski
beauty
84
arts
76
RTS
comparison
songs
makers
1984
airspace
audiences
sooner
bags
Watch
ters
A1
examine
Zlatko
ses
supporter
exported
evident
collapsed
lic
ratify
ves
Per@@
le
tense
bitter
columnist
launches
rebuilding
metre
propaganda
cable
inform
70,000
ls
ne@@
Jordan
condemn
98
prosecute
male
commanders
influenced
unilaterally
helicopters
outright
bureau
ness
movements
900
99
Telecommunications
Airways
detainees
diseases
ev
Home
15@@
Standard
maintenance
favourite
surrendered
populations
60,000
40m
Philip
System
charter
ty
man@@
violating
witnessed
enhancing
ary
Membership
downturn
hidden
alike
woes
searching
wall
literary
listen
boy
bar
Car@@
disputed
segment
amend
intimidation
&apos;clock
damages
policing
requiring
relative
territories
deemed
grey
dark
Charles
punish
Command
Cold
1,200
inauguration
unchanged
preserving
praise
wishes
flee
websites
61
Catherine
admit
rapporteur
pe@@
pleaded
mandates
Kozloduy
tri@@
Krajina
0.5
organs
theft
consolidation
manufacturing
ising
li
Byzantine
brutal
replacing
violate
regards
constantly
soccer
viewing
dismissal
persecution
hence
explaining
ks
Dnevni
marred
residence
generate
Hoxha
74
Petkovic
animal
um
stepping
flood
terminal
73
Senate
approaching
ESM
privatise
concession
mo@@
delivery
Ukrainian
tone
Barack
deny
Popovski
steady
Cristian
Ivanic
G
bi
Norwegian
England
Ak@@
cycle
athlete
KPC
Technical
marathon
Leakey
execution
confirming
traffickers
Laden
constructed
artefacts
flooding
declining
generated
enforce
ac
With
emphasising
Passy
Ad@@
Online
Milenkovic
campaigning
considerably
dependent
abolished
creates
bearing
importantly
composed
Competition
outlets
prosperous
avoided
hide
bar@@
aspect
ms
method
Jarinje
Zenica
ra@@
County
Co@@
sub@@
projections
overcoming
amnesty
Tripoli
Gent
Shkullaku
Nesovski
Gracanica
12,000
ideal
separatist
bribes
na
Ghana
SNS
Dabilis
differ
expense
timetable
reciprocity
Borislav
enclaves
blockade
teaching
proposing
stones
counting
77
lowered
Thracian
severely
blue
15m
celebrating
Tanja
Rocen
textbooks
anywhere
sceptical
150m
troubled
girl
remittances
confirms
upgraded
MEPs
prostitution
-@@
discipline
longstanding
rejecting
somewhat
exploitation
revolution
Against
curb
Patriarch
tested
quoting
survived
fairly
Hillary
60m
Organised
Sibenik
scrutiny
proves
Un@@
altogether
Man@@
82
ou@@
KPS
cameras
fo@@
resumed
ment
ance
Sergei
UDF
Avaz
accountable
delegates
isation
graves
hurt
flexibility
deeper
Koci
Top
crowds
unification
Milanovic
St
choosing
unfair
complaint
Fitch
museums
letters
ambitions
easing
Pierre
Tose
Svilanovic
demarcation
coal
storage
deepening
absolute
freezing
Alina
narrow
devices
damaging
maker
pipelines
explore
paintings
No
71
inspired
Library
ments
Troika
Petroleum
publish
fierce
fighters
autonomous
Be@@
Dis@@
Week
frustration
Latin
flexible
concludes
endangered
tenders
provider
kids
undergo
handball
Talks
incomes
Borders
models
Pula
cold
sed
conditional
necessarily
Bildt
ISAF
draws
punished
regain
Eide
trees
theory
districts
bombs
for@@
globe
breach
norms
Federal
stakes
Pakistan
ani
Says
Fouere
affirmed
vacation
UEFA
missed
viewers
professionalism
Budva
der@@
folklore
deliveries
Mihajlovic
ni@@
Branislav
describe
spreading
interpreted
harsh
titles
attitudes
occasions
abolish
reformist
intervene
unofficial
simultaneously
facto
lessons
controlling
devastating
predict
slowdown
Ac@@
Res@@
so@@
Express
id
Dan
Inter@@
shock
registry
studying
poets
questionnaire
Marty
capability
disagree
warm
.com
Securitate
testing
ha
walls
wireless
evade
83
Interpol
Yves
touch
cyber
component
forcing
hostage
preconditions
ik
plates
disagrees
boom
stadium
venue
tape
hired
lawmaker
swimming
Anagnostopoulos
di
busy
Lukoil
Taleski
stretch
Pavkovic
Life
Shkodra
finalise
sum
protested
existed
accounting
experiencing
invitations
trigger
advocate
tra@@
identification
sustain
Egyptian
Vlatko
donation
Steel
te@@
dangers
Lehne
postponement
1.4
bidder
th
onto
ders
thrown
mer
Li@@
gross
thorough
boxes
ARM
indication
Baran
congratulated
pursuing
chiefs
fleet
Citizens
defended
socialist
ins
architect
consequence
briefing
precedent
polo
opponent
workshop
FIFA
Stadium
tear
ovo
Radicals
approaches
hits
shake
ats
rivals
portfolio
handled
BNN
designate
Romano
tomb
Countries
bu@@
ative
refuses
applies
lie
risen
defendant
guest
19@@
Official
reporter
household
fortress
circles
Beqaj
Kurti
steadily
ot@@
protesting
normalisation
sex
Malta
vowing
solely
P
executed
mistake
Mon@@
pictures
ignoring
images
Jews
manufacturer
charity
gu@@
Monitoring
shelter
Transylvania
Gordon
acquis
consent
Study
gasoline
poultry
Joachim
M
NMS
creditors
za
Tahiri
reiterating
cultures
ner
feels
courage
periods
shouldn
everywhere
El@@
eliminated
wouldn
smoke
couldn
ru@@
ators
PD
har@@
competed
empty
ler
prosecuted
complain
arm
genuine
Shantek
editorial
youngest
mandatory
emissions
ci
devoted
productive
imprisonment
decree
root
sp@@
armies
notably
swift
slated
Jonilda
temporarily
Benedict
entrance
convention
Bay
expelled
Muammar
Kalfin
flying
reviewed
understood
drought
slight
refrain
dignity
7.@@
est
inhabitants
dropping
5,@@
sustainability
healthy
tly
Kumanovo
systematic
PTK
MESS
Kuci
enjoying
Rumsfeld
Tatlises
sight
applying
elimination
commenting
harmful
breakaway
Vukcevic
grenades
premises
militant
Josip
footage
belonged
mon@@
Zarko
associates
ological
checks
lacking
democracies
readers
deciding
Misko
objects
technically
Droutsas
allocate
essence
Veles
PACE
Miodrag
1.7
Besa
capitals
Bill
pressed
Visegrad
Delta
buses
Di@@
tend
abandon
beneficial
checkpoint
lingering
Mihai
sat
coffee
WHO
forests
ki
Pliva
hub
Andrija
ish
signatures
Persons
undergoing
Without
uprising
clinic
beaten
smokers
alisation
accomplished
pays
Camp
retrial
gangs
50th
county
totalling
Warsaw
Sydney
contracted
id@@
Venizelos
miners
Cicek
graphic
excise
discontent
Gaza
dollars
dam
notorious
wrestling
5.@@
formula
sitting
Janica
wood
portal
grants
Polt
privileged
Le@@
revive
iron
psychological
Mer@@
Jones
preserved
EXIT
costly
continuous
promotes
kick
arbitration
Indian
borrowing
Trafficking
dramatically
tor
Ser@@
shocked
married
Patten
convincing
greeted
referenda
bond
E
Journalists
neutral
res@@
murdered
Miss
alert
boycotted
rank
workshops
1.5m
meantime
San@@
DOS
flows
301
absorption
Nokia
fix
profession
disagreement
par@@
soft
explosive
Genc
excluded
Scotsman
subjects
1,800
usual
observer
volleyball
rent
birthday
demonstrating
amounting
rumours
precise
Bal@@
Mountain
composer
Djurovic
credible
sworn
lengthy
drinking
anger
ges
castle
replacement
components
reductions
ful
Zadar
regulate
Oil
exclusively
delaying
In
residential
Varna
transported
combination
13@@
gun
sun
junior
remote
Q@@
mediated
taxi
em@@
Vatican
OECD
Colin
Ch@@
researcher
Jansa
400,000
denying
contained
pan
ours
can@@
unpaid
Caucasus
shed
assurances
hopeful
ninth
Jandrokovic
anti@@
tomorrow
cr@@
shakes
abuses
ombudsman
MOL
Mile
beach
16@@
86
Contemporary
Hasan
justified
gallery
350
electorate
Kadare
guide
crash
screened
Team
Marian
assuming
stagnation
integral
apprehended
predicts
do@@
registering
bands
agreeing
accidents
construct
quit
Nedjeljko
evaluate
Par@@
commentator
petrol
1.1
du@@
ci@@
essentially
88
Denktash
usage
roundup
legendary
appreciation
chair
scientist
Zdravko
Ocalan
emerge
unusual
Dogan
Kristina
ignore
9,000
Daci
Sljivancanin
rebel
waves
privatised
petition
challenged
suspicious
setback
Piraeus
Christos
cargo
box
argument
slogan
villagers
Damir
provoked
Giorgos
tenure
Manager
Com@@
75m
myself
disclosed
trains
communicate
publication
boosted
com@@
consulting
Monastery
Sibiu
sweeping
Gen
Bi@@
250m
utilities
modest
Topalli
Rudovic
seaside
anonymous
renovated
renovation
harmonisation
BH
accommodation
separation
Barbu
ma
lowering
cafes
Osijek
blocks
Land
boasts
Renewal
equivalent
trilateral
resumption
signalled
unhappy
spite
Borissov
goodwill
Donald
tools
Credit
Storm
Papademos
academics
reward
library
WTO
burned
scheme
Antalya
Blue
Olympiad
EUPM
cites
threatens
carriers
hall
flotilla
abolition
Anna
troop
Tony
lake
soil
bureaucracy
quest
scoring
painter
fi@@
arrives
the@@
floor
For
conversation
attendance
Acropolis
impressed
conferences
Fest
Or@@
Dimitar
fulfillment
Maja
assault
ODIHR
partnerships
separated
MW
aggressive
incentive
ECHR
regimes
competent
mediation
afternoon
comparatively
adequately
Jocic
Representatives
shale
Dr
ul
Employment
destabilise
ou
Macovei
spectators
Gu@@
Ibar
avoiding
affair
conviction
Poetry
Plavsic
kov
suppliers
skiing
graduate
caution
occupied
committees
televised
staying
imply
ultimate
Eurasian
awaits
insulting
char@@
overthrow
Joseph
proliferation
seconds
Denis
Dimitrij
highways
pages
infection
Mitreva
negatively
Europol
segments
Arhin
Gjirokastra
Clark
ICC
Gun@@
automatically
Control
Envoy
Pre@@
Be
lu@@
Internal
Ossetia
brokered
Bernard
Kouchner
su@@
f
tree
window
headscarves
device
Portuguese
pick
civilisation
um@@
Investigative
meters
IPA
bankrupt
Investments
Sadiku
eighth
enabled
roadmap
mentality
disbanded
tops
Direct
Services
everyday
po@@
silent
cleansing
Anders
ality
resource
refer
attraction
revision
Kal@@
17@@
engine
defining
ce@@
forever
Eurostat
undertaking
Tehran
Mobile
Mo@@
stick
air@@
Lulzim
lustration
Dick
helicopter
9.@@
landscape
awaited
Oslo
perceptions
restitution
Im@@
exposed
Tudjman
MHP
vis
die
artistic
Ceausescu
cement
Stephen
1,0@@
policeman
firefighters
stems
stabilising
impetus
satisfactory
weaknesses
watched
sic
stamp
istic
overwhelmingly
robust
Emir
beer
ven@@
Vlasic
20@@
enforced
badly
acquiring
Sreten
realisation
slowed
memory
dinars
surprising
10.@@
poised
debut
proposes
ig@@
6.5
reminded
Ford
Alkalaj
destroying
possession
animals
travellers
Alpha
Scepanovic
7.5
reserved
sion
unstable
strictly
ber@@
Baghdad
ble
Bu@@
mood
5.5
jic
ra
slim
Matic
ities
Zukorlic
relationships
taxpayers
Plovdiv
inevitable
Cor@@
grand
Herman
Sch@@
Christians
apprehend
highlight
philosophy
distant
rift
ed@@
prohibited
limiting
laboratory
looked
av@@
Downer
totalled
headscarf
Markac
irreversible
EVN
Marin
Hrant
expires
Easter
radar
adjustment
ik@@
verdicts
Nicolae
crew
effectiveness
missiles
ion
reflecting
tanks
ska
Ro@@
clashed
takeover
layoffs
forgotten
successes
gen@@
documentaries
demographic
col@@
treat
brain
length
Skender
Nova
Bar
Short
forged
Nazi
composition
smooth
ideology
Insurance
advantages
eat
peacefully
longest
Football
Philharmonic
guards
withdrawn
www.@@
ev@@
Country
Americans
rarely
patience
bTV
bas@@
advised
af@@
91
packed
rain
handing
Managing
hi
patrols
doubled
northeastern
thank
stays
Mail
loose
MAP
resignations
DiCarlo
cave
93
filmmakers
produces
recommends
tiny
Janez
Guler
percent
180
Mt
Remikovic
Selimi
Freedoms
Statistical
liquidity
Cannes
stresses
Schook
MRF
warming
Dialogue
mainstream
prosecuting
proportion
guidelines
justify
Samir
announces
picked
tactics
analyse
92
novel
3,@@
harmonise
regulated
problematic
returnees
This
Refugees
forthcoming
barrier
persistent
Civilian
weapon
br@@
feet
alarm
gradual
Momcilo
object
wear
ton
ging
counted
windows
arguably
activist
XVI
geographical
burning
motto
ry
transferring
difficulty
indicating
trafficked
aftermath
satisfy
torn
thereby
tragic
drink
Kosovar
3.6
Miranda
suspicions
Ranko
History
hand@@
photographs
govern
Nuclear
wonder
250,000
Elena
commerce
enthusiasm
tariffs
Basbug
Man
PDL
blaming
Prix
Marshall
Kotor
Vodafone
supplier
slalom
forums
cohesion
modernising
Kyprianou
Awards
inspectors
mere
Second
ire
pair
Cluj
87
Rus@@
indirect
Afghan
cor@@
qualify
Time
ri
Orchestra
Cedomir
gesture
Borut
enables
asset
bidding
Road
ously
Economist
Angel
Zone
honours
enemy
8.@@
alising
loyal
Change
perfect
qualifying
explanation
classical
renewal
echoing
Fogh
abused
Belarus
situated
tapped
hearings
AD
Su@@
kicks
Voulgarakis
surrounded
Ischinger
keen
Maric
barracks
ged
Mechanism
unrealistic
quake
assessing
precisely
sufficiently
standby
guaranteeing
Milutinovic
ie
ini
Evenings
550
opposite
Terrorism
Kazakhstan
consolidate
merely
sur@@
Saric
ICO
eased
triumph
Headquarters
aviation
presiding
tors
Turkishness
Baykal
owed
Busek
Presidential
applicants
Eve
dominant
wild
unanimous
ballet
Davinic
midnight
regulator
mothers
biological
Veselin
Mal@@
lagging
dissatisfaction
NBS
Star
Literature
gratitude
workforce
logical
deserve
outlines
captain
Ko@@
resolutions
Tzanis
Amariei
recovered
escalation
cease
ir
q@@
secularists
stayed
parade
rallies
followers
Hollywood
themes
4,@@
hate
Operations
farewell
Ballet
understands
intentions
no@@
Venice
Guenter
back@@
furniture
bribe
landslide
couples
marriage
lending
eve
accurate
min@@
Mirjana
carries
ite
manipulation
Arabia
CNA
familiar
sad
rocket
Admiral
ologists
auction
packages
urgently
Harri
Chris
necessity
Over
clarify
Dmitry
Jan
leg
lobbying
accommodate
Benghazi
unnamed
Self
ns
saved
preferred
virtual
print
Tax
cruise
Vlahovic
crossed
Mexico
Food
roundtable
inspection
arriving
Min@@
Ne@@
album
Frankfurt
adults
striking
Greater
ver@@
policymakers
Ionian
spiritual
2.9
Zbogar
pride
Hotel
JNA
Jakup
quiet
Safet
confront
160
plenty
Gordan
quantities
bureaucratic
dimension
ak@@
upgrading
opoulos
Water
convoy
coastline
bans
11@@
threw
Evenimentul
Electoral
privacy
Claude
crude
blog
insistence
grace
Presevo
outdated
secondly
Lazarevic
Mu@@
abide
outlining
inquiry
inherited
Savings
35,000
Sar@@
imagine
employs
Bonn
riot
Mandic
emphasises
Butmir
gr@@
Pazar
upset
bolster
panic
strained
emphasise
aging
Arena
frustrated
topped
Kukes
privileges
Schroeder
One
rings
regulating
proving
settling
Christie
jevic
ked
ars
tech
deliberately
signatories
broadband
Andreas
noticed
religions
concluding
ning
up@@
2.2
orientation
96
filling
OMV
bidders
ob@@
Oscar
runner
phases
garnered
blackmail
Ljube
Moon
historians
Sahin
Srpske
indicator
Johnson
Constanta
contractors
Zeri
preferential
YouTube
independently
annulled
advancing
Mitic
Trajkovic
Bujar
surface
machine
spectacular
flooded
umbrella
gates
gymnastics
squad
ay
Ti@@
gift
condolences
plagued
promotional
Viktor
ATP
Zilei
poster
angered
Bojan
geopolitical
factions
drama
inability
advocating
clauses
Moratinos
envisioning
feasible
breakup
med
royal
fatal
precautionary
integrating
irresponsible
indirectly
bed
consistently
fixing
suggestion
ned
William
Photos
Tesla
Mladenov
endanger
hasn
unconstitutional
occupation
Luksic
reconsider
Ivanovski
providers
defense
academy
chairs
pulled
permanently
historian
Do@@
Snezana
corner
enacted
committing
Declaration
3.8
Hari
Zupljanin
misuse
shadow
consulate
parliamentarians
her@@
glad
ent@@
Guard
Packett
exposure
7,@@
allocation
foot
appealing
measuring
fearing
explosions
Evangelos
r
uranium
efficiently
anonymity
Holy
Planning
walked
Av@@
Cuk
hinges
Gheorghe
Krivokapic
CARDS
sacrifice
speculate
pupils
1980
leftist
circulation
Pan
Age
swimmer
finishing
replaces
Bas@@
sponsors
select
Men
pm
recycling
Divac
shareholders
smoothly
ordering
firing
proceeds
neo
Young
ut@@
harmony
denounced
unaware
deserves
Sven
war@@
ians
exceeds
comprising
Brigadier
Ber@@
ti
socially
cells
monasteries
Jankulovska
alarming
Brigade
RECOM
pain
expired
races
affordable
departments
trans@@
ten@@
Mediu
roadblocks
Saranda
await
N
revival
KADEK
Broadcasting
gi@@
singers
typical
Song
stir
240
6,@@
sa@@
Cap@@
go@@
rated
shocks
forwarded
dire
Interim
mourning
mar@@
judgment
relating
violates
rebuilt
Bakir
surge
sub
responses
transplants
shortage
Hilmi
Crete
exceptional
detail
1.8
Sector
timely
Export
artificial
testified
harmonised
stops
reinforce
treasures
faculty
internally
machines
Erwan
lawsuits
Dra@@
mail
multinational
consecutive
statute
automatic
97
sq
tr@@
trans
You
consequently
aren
minimal
repayment
Val@@
normally
Bel@@
accomplish
attached
transitional
Mount
Micic
rape
sky
Together
tune
eager
den
Surroi
Tri@@
Dulic
prayer
protocols
3.3
3.2
Har@@
warrants
drilling
coincided
roof
stimulate
commissioned
Prince
sting
naval
14,000
jailed
utmost
Gulf
boat
commended
2.6
800,000
lands
ched
disagreed
5km
Ab@@
spare
Holocaust
Contest
Independence
Hoxhaj
gifts
inmates
evil
auto
mental
contention
substantially
deepen
Allied
sentiment
Property
Cermak
audit
Communication
Gregorian
populist
Earth
organiser
Tarculovski
ultra
advisers
9,@@
respecting
Trandafir
pool
pianist
Ozkok
tunnel
councils
studied
sister
Zealand
counties
Prosper
Bancroft
IBM
CERN
ws
Tomic
reunite
screen
undoubtedly
sticking
unidentified
boats
Mi@@
inaugural
prolonged
Osama
implies
parameters
feelings
provinces
Nikolay
chev
zi
escaped
notable
small-
pillars
Pan@@
Border
RIA
Clan
cm
sociologist
Tobacco
Humanitarian
Ge@@
Vecernje
baby
commissions
170
absentia
Hala
instructions
Appeals
800m
Carl
annul
Sal@@
anthem
Tokyo
ped
questionable
limbo
criticise
discover
interpretation
scholars
ads
consultation
tightening
item
Task
dic
4.4
SMEs
graduates
External
incoming
individually
ratio
Th@@
engineers
gar@@
tolerate
comfortable
restricted
acquittal
PDP
overwhelming
Korean
Town
cy@@
homeland
Butler
stopping
suburb
worship
BIRN
mountainous
Estonian
kWh
BB
concentration
commented
brigade
Stojkovic
convergence
skilled
insult
purchases
OTE
contractor
bishop
Urges
wrapping
contents
CEZ
hackers
longtime
Radu
expenditure
Cemil
commemorate
counterterrorism
Nations
ze
signaled
secularist
cu@@
Big
attends
successive
ack
fined
breaches
reflection
Rajko
liberalising
preparedness
administered
accompanying
locate
holder
circle
exporting
Manjola
opt
Trust
singing
Rad@@
fit
treaties
han@@
Ilija
Permanent
Annual
competitions
Reforms
mar
upper
wrongdoing
Promotion
treasure
dependency
conventional
Channel
deterioration
X
.The
im
ceremonies
def@@
ailing
typically
deteriorated
raw
pretty
indications
Gelu
wraps
apology
ved
crack
hal@@
scenarios
sions
similarly
somewhere
speeding
Col@@
eco
specialist
tip
Pas@@
imprisoned
Turkmenistan
undermined
dividing
vows
Ap@@
Franjo
reverse
Status
decent
admitting
exclude
interviews
atrocity
certificates
dev@@
prizes
endorse
holders
Archbishop
accords
grid
bail
ro
GSM
College
den@@
unlawful
700m
risky
Ungureanu
northwest
inf@@
60th
client
Vukovic
graft
froze
600,000
calculated
inflow
repercussions
Dr.
Antic
ride
decreasing
Marnhac
checkpoints
submitting
20km
Anatolia
turnover
lira
telephony
universal
adoptions
Judiciary
Brazilian
Amnesty
3G
Lutovska
supplied
Chisinau
attacking
searched
maps
affiliated
weakened
All
dominate
fake
Hajredin
ical
teenagers
courtroom
aide
Her@@
audio
Sami
spark
inappropriate
eva
tures
contested
defines
2.3
Ismail
illicit
emigrants
olive
hamper
rush
consultant
2.7
1.9
interfere
presentations
eleven
Arben
quotas
JSO
scenes
Mat@@
Me@@
ets
subjected
recover
Veton
appointments
Stojan
bullets
Kostic
exceeding
league
proclamation
oath
master
qualifications
deteriorating
12m
70m
motives
tics
EUSR
Monetary
mediate
Murat
cheese
Mountains
logistics
Kovac
Ra@@
overseeing
recipient
closest
Is
choices
Green
programming
hometown
scepticism
15.@@
Go@@
NTV
lights
samples
prejudice
Janjic
advances
bri@@
Bulletin
meter
innocence
teach
wooden
accuse
Prosecution
joy
rid
requesting
shorter
tenth
Gas
tu@@
Steven
exporter
deportation
wounds
saving
Electronic
Thomas
80m
Br@@
Davis
Gallup
ek@@
hiring
ologist
happiness
hydroelectric
Samaras
fault
delivering
contributes
Under
bloody
Pukanic
Mungiu
safer
ga
Tar@@
fa@@
Agenda
dams
3,500
Georgian
shots
evacuated
transforming
drain
leaked
aspiring
highlighting
Krstic
Todorovic
ium
architectural
opted
flowers
Ulemek
networking
innovative
Ver@@
ban@@
dilemma
stances
hearts
distributor
barred
Vukotic
valued
Germans
Grossman
79
super@@
examined
gunned
ners
twin
contributor
crowded
bright
spoken
offences
Bashar
Il@@
somebody
literacy
ot
adapt
VRS
Bechtel
Broz
Kat@@
Raiffeisen
pas@@
waited
barely
ist@@
fastest
refers
Ger@@
wherever
mall
Po@@
foods
steep
festivities
implicated
distrust
120m
Night
reunify
shelling
Southern
detection
enclave
distinguished
Prijedor
inhumane
pervasive
sophisticated
notch
Opposition
ur
Fischer
resist
Antonescu
stating
fights
Kai
patrol
adopts
Review
Issues
13.@@
archives
concentrate
treasury
Dance
OIC
Child
Meron
worsening
assure
edge
exaggerated
capitalism
Perisic
machinery
winds
examination
Regulatory
Pacolli
Act
termed
pl@@
parks
vegetables
Exit
Pack
ATHOC
Yildiz
Baconschi
Jolie
600m
Klaudija
dictatorship
dedication
printing
exporters
struggles
billions
smugglers
un
paved
alism
unfavourable
twelve
rulings
and@@
Kusturica
Railways
banning
Veljovic
EUpolitix
skiers
engineer
hero
Petkov
slogans
restoring
Stavrevski
blames
repay
multilateral
jan
somehow
stationed
Kandic
stipulated
Bulatovic
cur@@
mortality
socio
clinics
Baj@@
enforcing
briefly
sa
confusion
survivors
seize
Peres
updated
fuelled
3.4
motivation
inciting
inc@@
dismiss
Cyril
repairs
reservations
humans
standoff
Bajrami
hinge
ying
ming
anticipates
negotiable
Bologna
thirty
enthusiastic
ol
motorway
underpin
accordingly
our@@
ics
As@@
accepts
Steinberg
reshuffle
specify
da@@
80,000
outrage
strive
Mobtel
substance
Deniz
Yasar
Buyukanit
counter@@
sincere
theatres
directorate
Gora
tion@@
analyses
alleviate
Vasile
executives
Renault
prompt
Musliu
unexpected
businesspeople
Nezavisne
pensioner
motive
quantity
fun
Environmental
Velimir
facilitation
Theodor
Kos
X@@
equ@@
exceptionally
Marie
Rogge
macro
trips
Samuel
Stan@@
Marathon
signature
dissolution
Mitrovic
crops
DSB
sorts
ably
Wahhabi
quarters
continuity
cre@@
handful
aided
Spring
generating
Chirac
unify
sue
reminder
consult
poorer
Klaus
Jan@@
vi@@
ash@@
debated
stricter
25@@
silence
colony
sculpture
bs
Solomon
evski
ovska
tribute
underworld
Topic
ups
crossroads
photography
touched
impunity
disastrous
indebted
lenders
Queen
mini
ber
colleague
Inter
Trial
brands
college
switch
ence
Marmara
ep@@
Brown
Today
endorsement
Bur@@
Jozefina
toxic
Peoples
casualties
100th
honouring
appreciate
Emergency
ens
reconstructed
storm
lation
agent
constraints
credited
Agron
tw@@
accelerating
gs
privatising
pragmatic
Missing
attorneys
Tourist
ore
Ma@@
LDP
feed
leverage
clarified
Fullani
ering
anticipate
reduces
notice
volunteer
patriarch
partitioning
reciprocal
volatile
Lazar
identities
Roland
Scientific
Standart
1986
reactor
st
oversee
120,000
Elektroprivreda
disposal
triple
biased
Alogoskoufis
tolerated
extends
tariff
separatists
cruel
Sitel
lifestyle
striving
Barcelona
Understanding
reintegration
hinted
Navy
logic
UNIFIL
constituted
adjust
16.@@
Ljubicic
suffers
importing
Cetinje
wheat
stumbling
iti@@
L
Cinema
babies
differing
fuels
Minority
Memorandum
Fule
pope
IOM
CPI
sells
seizure
shaken
alised
assessments
recalled
ren@@
faithful
Kusari
march
3.7
2.1
Can@@
sculptures
harassment
vo@@
wrestler
slipped
ita
throw
Ben@@
catalyst
ceiling
miss
Bor@@
graphy
spaces
ati@@
painting
Bourgas
ija
rushed
Kr@@
Bekim
diplomas
graduated
micro@@
obstructing
photographers
printed
Migration
minds
envision
Politika
legalisation
liberalise
outlawed
Berets
breaks
ture
sporting
Walter
complaining
poorly
Potocari
hed
anticorruption
Famagusta
Proxima
Pet@@
planted
18.@@
panels
publishers
administrations
Plamen
bre@@
cantons
advocated
Sol@@
litre
medicines
suburbs
Tr@@
Island
laying
aiding
inhabited
rises
From
instruction
SNA
pen@@
ek
hailing
fighter
wary
disbursement
drill
Kor@@
ve@@
cancel
concentrated
2.8
uniting
embezzlement
Technologies
sick
Asselborn
Milosavljevic
believers
paves
Memija
Municipality
munitions
109
domain
Kos@@
Niksic
Lamberto
Si@@
constitutes
non@@
encourages
conventions
My
ren
Djankov
Novine
load
underwater
RTRS
translate
GNP
notion
expulsion
Ay@@
benchmark
incomplete
disclose
tackled
dragging
bargaining
reviewing
approached
kidney
licence
administrator
occurs
Vi@@
H
Bagis
shrink
dissatisfied
likewise
condemnation
Dimitrijevic
tougher
dollar
Straw
50@@
retailer
30@@
peninsula
Trans
swap
Dragoljub
accounted
Celsius
Strpce
Exhibition
discriminatory
critic
nicknamed
encouragement
differently
raided
spurred
EU@@
HK
corridor
mature
installation
protectorate
victories
Pol@@
Hong
Kong
Santa
throwing
staunch
Milliyet
Kuzmanovic
locked
Stip
Hussein
Is@@
Filipovic
unsuccessful
collections
sluggish
compatible
Rade
Legal
designer
nationalistic
Menekse
mes
Cal@@
San
publisher
applicable
catastrophic
inflationary
hardest
Site
loved
mourners
identifying
spectrum
Berat
whenever
boundary
mix
ya
Prevention
Natural
gh@@
underlying
restraint
consist
ideological
bio@@
sal@@
Tsvetanov
advisor
Baltic
restructure
concerted
naming
detected
depth
catastrophe
magnitude
tents
basically
bag
smuggled
Family
intergovernmental
anxiety
transfers
Transportation
educate
Cross
Berlusconi
1970s
logistical
boycotting
ches
Carlos
Left
polled
8,@@
Lu@@
dogs
Pale
derail
lan@@
arise
Jahjaga
memories
physically
taught
farmer
So@@
realities
consolidated
chi@@
functionality
racial
organized
transnational
Besimi
schooling
disappointing
assassinated
illustration
Travel
KCK
16,000
hunt
Cos@@
Mac@@
Can
lasts
privatisations
guarantor
domestically
helpful
scholarships
southwest
archaeologist
tele@@
transaction
clock
nominate
underwent
exhausted
provoke
U
jeopardised
shifts
gaps
Plevneliev
quota
wealthy
conf@@
Concordia
impartial
SEEMO
railways
Miletic
Cooper
mount
ran@@
inflows
750
Reporters
organisational
Lebanese
Babic
Singapore
anxious
normalise
Zubin
Lagumdzija
confrontation
Higher
grenade
reception
plenary
criticises
Bocevski
lesson
Pi@@
sacked
staging
ward
laureate
authentic
Sa@@
ni
outdoor
mal@@
Mir@@
35m
elaborate
closes
Kuneva
reviews
workplace
Unity
wise
fatigue
disturbing
More
troupes
Legija
pon@@
Lutfi
men@@
Joe
Tokyay
ile
ORA
displayed
commemoration
Steinmeier
ess
invasion
pillar
lobby
speakers
EPS
Hal@@
chambers
advise
stuck
Serbians
mediating
clothing
suddenly
Austin
elusive
homeless
IFC
fin@@
veterinary
rapprochement
Barrot
1987
summoned
exert
ced
Bil@@
Mufti
650
Hatay
manages
pri@@
flew
nice
Nikos
Dow
alternatives
jumped
donate
swiftly
centralised
ically
Radulovic
Pavel
Kelmendi
herself
Most
undergone
protective
Ivaylo
northwestern
ethnicities
travels
establishes
bulk
weakening
combine
adjustments
mandated
Foca
Bogdan
Kuwait
ea
imminent
Communities
accessible
productions
weaken
thorny
Electricity
torch
Organising
450
attractions
FBI
Antonis
AMBO
3.9
charities
chronic
landmines
anybody
RWE
Riga
ensured
bias
evaluated
dynamics
runners
Royal
cuisine
magistrates
Teodor
Pavle
manufacturers
costing
oc@@
mi@@
HRW
settlements
Investigation
Tier
az@@
sided
III
Fajon
carmaker
Daskalaki
interrupted
overturned
boss
champions
Brezovica
surely
curriculum
17,000
sorry
Lila
fiercely
ational
marched
Tunisia
Mosque
nowadays
Memeti
ley
els
exploded
dist@@
ruins
Orban
knowing
Andric
belt
Wimbledon
measured
Mak@@
tor@@
arranged
Saddam
barrels
Vasic
Blanka
absorb
minimise
bul@@
verbal
terrible
scrap
Decani
clears
checked
Jo@@
Super
coupled
preventive
Morina
clothes
talent
commissioners
ps
pursuit
Gazette
dinner
staunchly
vaccine
weighed
observing
Powers
Mirror
Ceric
Roganovic
authoritarian
democratically
unsustainable
founders
Castle
Elizabeth
rains
parking
Kur@@
Harry
Jelasic
Somalia
formidable
defuse
downgraded
harbour
beds
tracks
embarked
climbed
ving
refuge
till
procedural
Sp@@
Mine
sums
Sil@@
pping
alise
enemies
lacked
ef@@
reopening
Gal@@
12.@@
speeches
restart
Tu@@
coins
Mag@@
abolishing
Erol
suits
sounds
Atomic
gre@@
slashed
advancement
Makedonija
provincial
Pieter
Clinical
excluding
codes
bickering
curbing
hinder
gate
tic@@
lab
postponing
battalion
Gostivar
atic
traveling
infantry
fl@@
Technological
contestants
Pen@@
tremendous
sights
Ljubisa
remembered
exploit
libraries
globally
flock
Pla@@
Show
observatory
Medical
disbursed
retained
convene
Gonul
gers
Ku@@
ne
downsizing
advising
Aleksander
Brdo
declares
C.
stocks
Markos
bankers
counterfeit
compensate
owes
ash
5.2
Ljubomir
Ioan
reaches
sparks
recognitions
abstentions
battling
palace
corporation
Hamza
Polancec
Kaczynski
Delegation
AS
4.6
expedition
Stojanovski
rifle
broadcasters
gra@@
systemic
ferry
icic
HDI
conspiracy
17.@@
Damascus
commemorating
dismantling
Growth
discourage
Em@@
lighting
Besim
delicate
ides
offset
trophy
Du@@
dirty
transporting
totaling
proximity
semifinals
translation
ric
of@@
Judicial
ese
Pipeline
gunmen
championships
iz@@
ethical
Barrett
45m
tables
Pantic
For@@
Key
ck
hopefuls
collaborated
tracking
worrying
electing
battles
facilitated
freestyle
Stockholm
coin
instrumental
suitable
ck@@
Gen@@
ele@@
weakness
ized
roll
hor@@
swept
bloodshed
ents
Facility
custom
Memorial
confidential
fishermen
sewage
28.@@
ast
cleaning
destabilisation
pyramid
architects
MJAFT
attendees
adhere
Space
hy@@
buffer
Emirates
Juncker
NS
Liaison
Los
containers
Engineering
confronting
minors
diminish
hole
tycoon
Rec@@
fasting
lend
2.4
hills
Tra@@
PHARE
sculptor
premature
creative
Coast
amp@@
drastic
Haziri
influences
casts
Avni
substantive
tsunami
inevitably
94
cafe
Kon@@
Friendship
Herceg
disciplinary
Deputies
ordnance
sen@@
subscribers
por@@
Batic
ade
sentencing
copies
dar@@
dar
retailers
reviving
Ethnic
overhauling
fifteen
Sur@@
transplant
yearly
likelihood
Albena
ces
allotted
Feasibility
down@@
tolerant
leasing
ović
techniques
alpine
Tur@@
contests
HSBC
Highway
diversification
traveled
margins
Jerusalem
communists
Turk@@
Klan
instances
wines
farming
Mur@@
compulsory
Potok
Uzan
Savic
Treasury
Harvest
Vlach
assumes
turbulent
provisionally
Alsat
organization
reinforced
cl@@
tan@@
marble
beatings
inspect
Miliband
Pav@@
Dusko
ath@@
Michalis
cancellation
hooligans
copy
han
Parthenon
excess
decorated
Construction
novelist
bears
billboards
89
killers
freight
inspections
va
Meglena
bosses
deeds
repression
Mas@@
seismic
reconcile
distributors
Vlastimir
spell
implements
pirated
foresees
contempt
exercised
Fashion
ching
inspiration
deposit
governors
trim
Hy@@
neutrality
succession
Not
setbacks
Faruk
ently
hesitate
MEP
kic
St@@
demolition
Ardian
fence
tabled
Gate
ut
impacts
exchanged
compare
Konjanovski
pump
Valentina
Ste@@
telecommunication
bra@@
searches
alliances
beings
Slavica
Angeles
airlines
Mahmoud
assesses
liaison
There
Wreath
Courtesy
underscored
exclusion
Strumica
Koc
interviewed
fortune
jumping
Prilep
termination
sudden
ize
Haj@@
Buhler
unfortunate
finalising
overly
Lawrence
kovski
systematically
mer@@
arising
groundwork
aired
Kalinic
Traikov
barring
locally
nik
Brothers
ok@@
objected
Ringas
Vladan
Violence
Vlad
Norac
tel
0km
hardline
relies
boards
conservatives
exhibited
proceeding
Javno.hr
emergence
Miro
Way
Ilinka
Modern
oversight
pronounced
Nexhat
navy
footing
2.5m
Cur@@
sciences
cannabis
Drina
confiscation
surpass
reopened
BTC
conservation
Brankovic
meal
Fenerbahce
Isa
diesel
judged
straight
Fin@@
cru@@
Angelopoulos
Char@@
Vekaric
California
Ilazi
35th
Bujanovac
Jasenovac
shipyards
posing
upheld
Naim
Gj@@
verification
encountered
complicity
outline
Vassilis
southwestern
Qu@@
0.1
Tbilisi
duo
inovic
Syntagma
Gyurcsany
Region
shame
recording
performs
temperature
ong
radioactive
700,000
cemetery
retaining
ethno
Anton
horse
Ci@@
halting
absurd
timeframe
Agreements
separating
embrace
desired
yielded
evaluating
failures
ashes
ino
unsolved
inclusive
conjunction
fer@@
skeleton
ths
MTV
provocation
assembled
pluralism
Trans@@
Aid
lic@@
headlines
sw@@
foremost
expectation
din@@
positioned
orchestra
compromises
strides
Brasov
aboard
Han@@
17m
14m
ger@@
Methodius
verge
widening
convened
1963
Kalmeta
fac@@
Will
fulfils
Gerhard
connects
prosecutions
Dec@@
brink
hire
Laszlo
merger
soul
ousted
ory
tortured
Brnjak
publications
Med@@
Tom
ach
lung
Peninsula
establishments
lately
Ru@@
cel@@
9.5
perceive
governed
IAEA
luck
intolerance
Djukic
calendar
curricula
cal@@
pat@@
4.7
smallest
accommodations
Patrick
etc
restricting
Dur@@
trusted
Penal
recalls
Elenovski
bilingual
Small
radiation
Slavko
Tolimir
100km
PC
Administrative
tours
mixture
explicitly
impede
Cuba
install
communal
Pr@@
banners
38.@@
tering
ger
Aviation
Basketball
screenings
limitations
reins
11m
Telegrafi
offence
routine
abstained
Alic
obstruction
judo
criterion
sphere
array
conversations
troubles
restrictive
Jagodina
recipients
Reduction
1981
Mis@@
answering
DRC
4.1
CE@@
ining
weightlifting
diverse
originated
affiliation
undecided
gala
Marine
uk
dishes
cornerstone
Zvecan
If
Drews
KEK
adjusted
depot
commentators
ata
feast
Sam@@
reassured
Majko
streamline
od@@
Tivat
Dan@@
fication
Resources
readmission
Djuric
clan
Ter@@
Munich
van@@
hopefully
comedy
Toronto
blasts
cup
complied
5.9
conveyed
Vlachs
Papaconstantinou
conflicting
hotline
migrant
Merdare
Videanu
mismanagement
ron@@
ums
fied
Up
dec@@
environmentalists
perfectly
Stoj@@
aggression
Eurobarometer
qualification
ara
Hoti
Dem@@
Illyrian
disperse
unpopular
Hel@@
shoe
Nada
mounted
racism
Rumen
string
pure
6.7
Bol@@
manipulated
comprise
Milica
discriminated
credentials
Danilo
firstly
Islands
exile
Sandra
soprano
Vuckovic
offenders
Seeks
amending
Costa
11,000
Bri@@
Dj@@
lucrative
compiled
parent
walks
ute
Mor@@
dancers
steering
EPP
liberalised
painters
profound
fueled
protracted
Rally
si
burdened
liberties
farms
ph@@
offshore
ko@@
centrist
La
reversed
dignitaries
At@@
patrolling
dr@@
rocked
yellow
Osman
anchor
HRT
yacht
Confederation
revelations
capitalise
Blagojevic
Nordic
wished
Standards
Vucic
paths
4.3
terminals
sc@@
Baku
Azeri
stemmed
uncover
complying
distribute
pregnant
distinction
Third
Pe@@
listing
Silvio
specified
praises
Malovic
shareholder
Plassnik
Mikerevic
editors
inv@@
desperate
xes
honorary
relying
Popov
0.3
aides
greenhouse
Pasha
Paravantes
Selmani
Monuments
horses
thoughts
marketplace
Str@@
ari
deficiencies
consular
Slavic
Pendarovski
Guinness
Work
W
flats
om
dimensions
Sighisoara
cautioning
zic
executions
wi@@
eg@@
lignite
prevail
renew
Pancevo
flawed
disciplines
crews
avian
tie
Atomstroyexport
Gligorov
Cheney
Tudor
geographic
stakeholders
Doha
Meeting
Niko
Mary
participant
Mrksic
Brod
Senior
nationalities
pr@@
Municipal
accuses
Cer@@
crashed
wire
quarrel
Metropolitan
ici
3.1
Jackson
Simonovic
au@@
Vecernji
Cengiz
ster@@
pos@@
banner
rigorous
Hezbollah
matic
Twitter
Athletics
fe@@
ESI
lers
electronics
environments
Diana
telemedicine
m.
Stolojan
Ponta
provocative
exchanging
Pal@@
LAOS
realising
Ademi
Unions
Bosna
observation
forensic
Competitiveness
leu
0.2
contenders
hin@@
garner
ishing
plotting
Edita
heightened
reopen
liberty
5.3
but@@
ingly
las
vary
dj@@
Omer
akis
Marc
semifinal
compound
seemingly
mes@@
deter
behavior
Must
nica
ethics
emotional
excavation
multimedia
temple
cul@@
format
22m
exploiting
10km
convictions
Smiljanic
interpretations
verify
Borisova
withdrawing
employing
tycoons
talented
Don@@
Haxhinasto
obstruct
spends
earning
emigration
convicts
instructed
ker
proactive
Gra@@
ali
clarification
bottles
considerations
Weekly
lion
bur@@
Vijesti
i.e.
declarations
Bahrain
30km
continually
SE@@
sun@@
revolutionary
shootout
Leposavic
organizations
acceleration
Agerpres
shipyard
ć
totals
destructive
tired
kan
equity
Virgil
please
fur@@
Agrafiotis
tis
yesterday
sy@@
Darik
13,000
signatory
ambition
Gul@@
Net
lots
tendency
fulfilment
merge
by@@
relates
engines
simultaneous
uphold
musician
psychologist
About
Kanal
kova
Fo@@
we@@
lik@@
forge
center
succeeds
shipbuilding
acute
topple
Bro@@
V
offs
turbulence
definition
counterproductive
blasted
U2
Heart
Srbije
bone
avis
Leaders
Tanovic
ization
Prvoslav
Pre
Down
Srna
exhibitors
Medicine
Electric
Loan
conceived
nonetheless
Line
guilt
bonuses
cevic
Secretariat
photographer
slammed
Jovic
scarce
Liberals
bet
Denkova
Staviski
plight
classic
sizeable
disappear
shipments
dismissing
revoked
Hans
sor@@
seasonal
4.2
ray
tional
Peacekeeping
Ram@@
Pa@@
enact
7.3
AN@@
Louis
Alija
corn
treating
Sky
Sport
Zana
ier
lovers
Severin
bust
SIPA
unwilling
streamlining
prohibits
dreams
pattern
disabilities
depositors
Training
UDMR
Igman
holy
Bartholomew
Franz
36@@
Galicnik
rewarded
trio
NEK
Davidovic
Egmont
Three
Decade
Bondsteel
BIA
Commercial
customer
Ristic
ANI
vocal
Fer@@
headquartered
Taseva
IDs
mediators
vacuum
foresee
oning
ff
downward
Abkhazia
Var@@
Ri@@
accomplishments
pla@@
lis
ela
canton
pan@@
sued
excuse
Gr@@
beliefs
headway
lying
blind
Tzvetina
constructing
weigh
contractual
Luis
protects
copyright
formations
celebrities
dy
La@@
ke
pilots
dairy
layer
installment
remedy
cing
Brian
nominee
courageous
hampering
chemicals
sive
stri@@
Jutarnji
guiding
violators
residing
stimulus
Ja@@
Vuk@@
attracts
exacerbated
bold
lesser
Dejanovic
standstill
mas@@
BK
duration
tuition
corporations
cautions
exams
oski
Trajko
handles
Ljupco
wonderful
torturing
circulated
ard
Cecilia
symposium
prehistoric
fies
prone
Azerbaijani
Mr
heels
mir
stripped
Utrinski
guidance
anyway
lucky
ation@@
cal
blogger
alist
Fortress
commanded
presently
cli@@
lethal
shoulder
Gok@@
RAE
processed
capit@@
1960
Ilker
complicating
Ban@@
Elbasan
cheapest
copper
Ham@@
home@@
rifles
Kas@@
Hartmann
simplified
reorganisation
perspectives
Pec
subsidy
user
Nationalist
physicians
prudent
diagnosed
SEC
annulment
interpret
coherent
sen
Dacia
Wilson
derailed
ARMO
seminars
Edward
comprises
agendas
Mining
skating
ass@@
CDs
revenge
0.7
flocked
Djordje
Xavier
5.8
5.6
automobile
Wood
drastically
Catholics
pork
sixty
countering
cu
Eurobonds
lags
Telenor
refineries
ba
1945
6.4
conditioned
Records
Fi@@
ravaged
envoys
Gar@@
Dragisic
eta
urgency
climb
Sullivan
fed
Kyrgyzstan
expectancy
directions
Sultan
flown
tower
forestry
wreath
Haiti
cool
ca@@
inviting
reacting
tin
consulted
Bruno
ori@@
que
ineffective
maternity
rightist
Stara
Homeland
Mubarak
sponsor
visions
Scorpions
Taner
hel@@
SFF
Chiarini
preferences
Veliko
Munk
bly
complicate
Communists
1982
contacted
Mirsad
Mimoza
origins
Let
answered
reassure
archeologists
cite
specifics
courthouse
dawn
yard
predictions
orderly
Homen
outcry
He@@
loaded
outraged
Kol@@
hum@@
ious
Sioufas
ceremonial
Tom@@
Den
frequency
insults
broadcasts
constructively
Tro@@
Euro@@
Rodriguez
replied
von
Edmond
lectures
recall
clearer
amateur
Bala
Bora
insecurity
holdings
textiles
wedding
Jeleva
impoverished
schemes
inflammatory
illness
Civic
readings
To@@
350m
Ian
entrenched
garbage
expire
supreme
examines
dissolved
shore
len@@
competence
Marketing
mortgage
frame
Sabah
naturally
recovering
incursion
Bulent
epidemic
entails
0.6
Adria
Dubai
intensity
normalising
Enterprises
characteristic
update
lag
ail@@
dealings
bypassing
50km
aj@@
taste
bic
stored
Rauf
neglected
ants
surpassed
infecting
jet
vested
tenor
notified
undermines
cheer
Partizan
na@@
Kocijancic
Agricultural
keys
&apos;Clock
gunman
Verhagen
congratulate
len
ham
endeavour
indefinitely
Fatlum
evo
Dz@@
1,400
auto@@
Kedev
remainder
360
Novo
Strauss
seriousness
fruitful
seal
reformers
8.5
privately
dry
megawatt
superior
terminated
Islami
Radikal
Lucas
exhibits
pray
mation
Infrastructure
container
Sub@@
Eric
Ho@@
encounter
absent
Telecommunication
7,500
collaborators
meaningful
Popova
beef
ben@@
certified
ial
Zvornik
Mercedes
guided
benefited
og@@
nominal
picturesque
56th
cab
traces
carbon
lam@@
Cernavoda
NET
Svetlana
Raznatovic
Ovcara
recommending
18m
Bunardzik
renovations
Stojanovic
Pos@@
Captain
predecessors
flour
ias
Hajrullahu
mask
synagogues
Korca
Malaysia
teaches
travelers
Mobilkom
loses
Blaga
Geoffrey
disruptions
therapy
0.8
Religious
app@@
Albtelecom
Bran@@
ACTA
downs
PUR
discount
conquest
enrolled
Guca
Micunovic
grades
Agos
burial
recruitment
Stefanovski
bishops
tent
Atalay
embraced
imperative
Magyar
ruined
grows
entrepreneurship
sincerely
elites
fisheries
certificate
sailing
wishing
gener@@
civilisations
ket
escu
mal
Vaclav
doubles
pi@@
Popular
ping
outskirts
Ju@@
zer
commemorated
Ministerial
shifted
appearing
Gor@@
Documentary
sti@@
immune
Ker@@
Bos@@
prevents
1,300
selecting
lo
foul
mineral
feared
5.7
UNODC
ouster
Sav@@
sits
innovations
personality
des@@
possess
v
libel
expedi@@
scrapped
90m
16m
lunch
unc@@
uniforms
interventions
che
ale
whoever
digit
countryside
infections
cs
evolving
coffers
350,000
alleging
documented
outs
Kir@@
exceptions
modernised
imp@@
Iv@@
WWII
exploited
repatriated
errors
borrow
condemns
slash
lays
Associated
greets
ventures
merged
Bode
Ruli
Officials
reveals
Krushevo
Operational
merits
magic
numbering
evolution
Fe@@
mor@@
occurring
admits
Industrial
Archaeological
Jovicevic
apprehending
Jasna
patriotism
48th
judging
Dim@@
Atifete
withstand
fundamentalism
14.@@
lit
Bosanski
collaborate
Vas@@
Lehtinen
Ob@@
Gjakova
itation
Cyrillic
Holland
cer@@
confronted
miles
ily
Gi@@
orchestrated
openings
che@@
Seks
Cikotic
tical
Institutions
Diaconescu
bel@@
telecoms
Der@@
Mes@@
likes
sec@@
eds
Victoria
Cr@@
oned
earliest
112
Sy@@
pur@@
spotlight
24@@
Common
disrupt
Momir
Rajic
reluctance
pressured
Pentagon
rotation
looming
dailies
9.9
escalating
Ag@@
preceded
ecology
expel
Boucher
Doboj
hostages
punishing
dish
Taliban
revote
ura
chickens
hospitality
strange
landing
sy
bunkers
Milen
Maxim
emotions
prospective
Saint
Officer
Solidarity
ena
Uka
Vucinic
earnings
toppled
fronts
lakes
47th
evacuation
sounded
intervened
escort
tighter
45th
ines
Kenya
El
Yildirim
BBB
Afrim
DA
FYROM
erected
29@@
Jack
Pri@@
relaxed
Finci
Zbanic
recruits
Pardew
wn
read@@
continents
glu
ballistic
Kilicdaroglu
aka
geography
platforms
Calik
Banca
depicting
exploring
1915
abilities
unfairly
rockets
Turin
destiny
Changes
ishes
directives
spheres
reap
sponsoring
videos
climbing
totaled
presided
cap@@
Jokic
alia
ay@@
Fr@@
Imer
debating
guarded
injury
burgeoning
slower
sk@@
ip
magazines
shoes
guitarist
singles
tonne
racist
sil@@
Sen@@
Zivanovic
Invest
Demir
neighboring
entrepreneur
shoot
Vlade
supportive
FOCUS
End
recalling
skier
supervise
bullet
sniper
1967
terminate
designers
Forty
Still
tall
Attack
Bratunac
secede
widow
tically
lined
valley
comfort
rocks
oral
unifying
distinctive
ano
rot@@
fertile
illusion
assaults
defunct
justification
permitted
hon@@
Pres@@
kin
Allies
wa@@
4,500
decisively
midst
halls
Nica
pursued
head@@
recognized
comparable
Vo@@
ays
Wikipedia
identical
Are
Bogoljub
6.3
cop@@
19m
navigation
sparking
46.@@
6.2
tongue
harmonising
spying
delivers
13m
uni@@
Stephanopoulos
Glavas
availability
Tor@@
repaid
Kryeziu
expresses
Gre@@
massacres
Vesnik
revise
Van@@
phenomena
mi
forbidden
unbiased
error
mired
reformed
Kan@@
IKEA
Majlinda
je@@
provocations
issuance
fits
Lord
hoc
detain
bility
unexploded
Rosemary
denial
Bursa
land@@
ora
Ovidiu
125
ug@@
unitary
mentor
ake
bol@@
Ioannis
Instrument
san@@
ke@@
Welfare
moments
environmentally
embark
Gjilan
hol@@
Simon
hygiene
ide
remind
professionally
ely
ery
simplify
neglect
Ur@@
rallied
tas
Hu@@
Muharrem
continental
fold
revived
That
34th
distributing
consolidating
Kre@@
io
aw@@
40th
chains
complexity
affluent
ins@@
overshadowed
mobility
polarisation
Ismet
Cilic
lar
owing
Professional
retire
Arabic
Goati
Almunia
truce
Fight
27.@@
cy
Bakoyanni
cri@@
fiction
Regulation
Ir@@
discouraged
ron
impacted
Stanisic
110m
imbalances
Weapons
Picula
super
shoppers
sheets
liabilities
passive
entail
Andrew
visual
conceded
rubber
Epiphany
Ericsson
Lech
onic
Miscevic
Dvor
shipment
Jahorina
pessimistic
Williamson
stickers
ros@@
uncertainties
Strong
Doris
openness
Port
Naumovski
MRT
Ozgur
Huseyin
arrivals
IC@@
senators
urs
thermo
monarchy
Podravka
ste@@
counterfeiting
Dr@@
playwright
mosaic
soaring
evacuate
Osmanagic
Vetvendosje
Seb
1,700
Senad
topping
vessel
hitting
Bosphorus
gotten
Boskovic
56@@
med@@
din
Bla@@
Ivanko
fifty
jeopardy
defender
Maj@@
sympathy
ath
Mos@@
Pop
apologised
Danas
hip
rep@@
Hill
Vancouver
contentious
ased
heralded
Vseki
adverse
blogs
careers
rampant
Bra@@
completes
behave
aling
raped
Drugs
1,600
Zvezdan
confessed
Yugo
Radoslav
ashing
90,000
metals
dressed
totalitarian
rocky
1985
Integrated
appliances
Tusup
gy
ces@@
relate
reconstruct
shifting
Delic
fruits
characteristics
dered
Albin
4.9
Georgieva
SBiH
bla@@
organic
courtesy
experiment
earth
Vel@@
adapted
Burkay
Boz@@
broaden
symbolises
worrisome
instructors
continuously
Observatory
ensures
Christopher
1988
tighten
confused
Senator
440
cents
Te@@
varied
Handball
Oprea
Tele@@
lax
ish@@
Besnik
Arinc
worsened
losers
Stavros
favouring
ser@@
gun@@
Petrom
HNS
Safety
beneficiaries
ack@@
lar@@
accreditation
planners
accumulated
birthplace
fallout
alleges
stamps
Jelacic
Da@@
breeding
correspondents
armoured
Iron
endured
dem@@
deepened
downplayed
Bronze
2,400
competitor
Aida
Bratislava
Aliyev
Congo
ERT
eb@@
alities
Language
J
chan@@
Pavlovic
engaging
surfaced
repatriation
prisoner
historically
vigorously
vicinity
Governance
fledgling
Josep
Borrell
nights
walking
pistol
Debar
prejudices
De
shadowy
Non
ement
tan
dismantle
lifetime
shaping
Hvar
Directors
automotive
19.@@
Vote
Doing
To
Truth
summary
Peja
akovic
program
persecutions
speedy
utilisation
youths
Four
commodities
vulnerability
Between
Vecdi
obliges
rational
mitigate
230
Aydin
Radovic
dancing
believing
7.8
nowhere
est@@
Den@@
upgrades
30.@@
thieves
unlimited
bunker
Lo@@
fare
Egemen
assassinations
aggressively
auditors
1973
ear@@
Kastrati
artillery
supermarkets
manufacture
paint
vibrant
secrets
surrenders
Ecumenical
mit@@
dies
Smederevo
ranges
minded
renamed
adamant
fleeing
ensuing
ach@@
Am@@
amongst
6.6
merchandise
unfinished
unpredictable
tening
succeeding
dental
commodity
bonus
Ras@@
peers
entries
traded
Jovica
Simatovic
Venezuela
Lions
1960s
Vinko
yourself
Timisoara
RCC
Bak@@
proportional
Monica
Siemens
ure
Paravac
Cairo
ion@@
stunning
Sun
richest
hill
deepest
slopes
Rosen
horizon
stiff
Radomir
fascist
Lupu
Fran@@
eKathimerini
ink
Osmani
Jordanian
jeopardising
mulling
ah@@
WEF
Prespa
overcrowding
Bishop
vendors
Sha@@
Selimovic
nightmare
Jovanovska
Mehmed
Pavlevski
Saleh
UNFICYP
EUCOM
Kirin
Veselinovic
chrome
outcomes
fri@@
rests
s.@@
Lieberman
corps
hur@@
guarantors
compromised
towers
Pakistani
incompatible
BNR
archeological
Division
Theodoros
42nd
Canton
Mel@@
Sti@@
ta@@
surviving
160m
dress
Basic
kov@@
gear
Ognjen
employer
Knezevic
Aj@@
ace
gymnast
owe
postwar
enduring
fever
Ltd
chicken
costumes
tide
ruler
richer
triggering
gan
promptly
drinks
politicised
ades
220m
injustice
betting
Champions
secretariat
Analysis
importers
widened
Shimon
traders
nominees
scholar
pop@@
bleak
stricken
critically
cher
sporadic
Artan
marginalised
As
inception
inclined
debtors
Computer
backgrounds
café
Eid
gic
3km
prevailed
Parivodic
Nacional
ola@@
Businessmen
disadvantaged
Alexei
disappearance
AG
clarity
Ramadani
reiterate
substandard
w
pivotal
renovating
tap
empire
cab@@
ble@@
Ivan@@
zing
underlining
Krstovic
Pero
Muhamed
ures
interoperability
Tan@@
Zuzul
Bozo
dog
Milevska
confessions
Boost
Dragutinovic
flo@@
Morocco
Kremlin
reside
deliberate
pardoned
MSNBC
Sonja
existent
breast
rhythm
EBU
Arifi
deprived
backlog
OTP
campus
surprises
.org
arises
Waldner
Douglas
aries
divers
Gasparovic
55m
bles
contender
deploying
Corner
partisan
1971
The@@
Kurd
Richter
Bandic
Mc@@
Drama
Kiev
Matei
Ran@@
announcements
Mario
Ancic
Monaco
Final
Tower
SA
lj@@
Sisak
Attica
49th
54th
coaches
Bid
curtailed
platoon
megawatts
approving
EC@@
floated
Catalin
sang
Dar@@
20.@@
purely
initi@@
backbone
Raffi
Raf@@
mas
SPO
coincide
intentionally
ICMP
Jeffrey
fantastic
stealing
Drenica
Ljuboten
speculated
reconfiguration
irre@@
Ros@@
3.5m
regaining
viability
congratulations
Our
HQ
BIH
initiating
8.7
rationale
plead
hic
disrupted
Westerwelle
input
incurred
DC
habits
Ceca
Junior
em
commonly
ripe
click
Gerdec
Colak
lecturer
Ombudsman
Banking
favorite
Syrians
Reid
contingents
Dragisa
vs
outbreaks
marriages
consultants
Schuessel
prescribed
PR
exempt
Grabar
Kitarovic
lane
Vasiljevic
Krajisnik
sustaining
reminiscent
posting
Bozic
Leader
Tournament
digging
Reeker
2,0@@
resuming
Benjamin
Ljubljanska
applicant
Ohio
Village
undertook
multi@@
appointing
stimulating
fossil
Jaeger
moratorium
zoo
recruiting
Evros
bore
sentiments
kidnapping
Victory
quarterfinals
Large
chase
Nikolai
Locher
Dalmatian
idis
tos
restrict
dan
guarding
analysed
professions
ined
Havel
ai
Az@@
studio
Forbes
Molyviatis
teenager
securities
TAV
indicative
compatriots
spurring
Yiannis
generous
emp@@
Allan
ordinance
taxed
oz@@
activated
focal
neighbourhoods
waging
Pap@@
Honour
gay
Ferenc
wed
SERDA
Investors
Cox
bargain
Met@@
unconditional
specially
Maastricht
bypass
candles
interruption
apathy
Trebinje
liquidation
subsidiaries
Abdul@@
cen@@
Chicago
Individual
commands
dubious
5.1
robbery
Dublin
Hor@@
Romani
compatibility
Gjergji
attributes
Balaj
pit@@
thirteen
aki
sour
Aktar
Na@@
grand@@
Victims
remembers
sleep
eradicate
transatlantic
yields
Kis@@
newcomers
chess
Ili@@
ky
fairs
stadiums
underlines
mo
Botsan
Kharchenko
fruitless
strives
hid
neighbors
trailing
bor@@
On@@
substitute
Piran
Jer@@
Dell
thesis
slowing
devastated
improper
Sega
slander
wer
disintegration
penetration
Fox
7.2
visibility
stark
hair
45@@
Enterprise
Malev
Kav@@
Dino
ening
hardship
smelter
illiterate
water@@
bo
Sim@@
Bab@@
pollsters
disarmament
Gas@@
Mustafaj
sol@@
texts
Colombia
grateful
tar@@
Ridvan
Tour
uneven
Mem@@
Ursula
No@@
column
Malmstrom
Bir@@
Nemanja
hanging
comeback
explored
Topolanek
Uzbekistan
Eurasia
negligence
landed
invalid
disparities
unprepared
Izmirli
energetic
thoroughly
ali@@
incredible
astronomy
SC@@
Zogiani
assemblies
cat@@
sons
bes@@
Maxime
consumed
Lady
Ferrero
Honey
tale
reply
RTCG
Frckovski
6.1
conscientious
referendums
chanted
uncovering
hesitant
edi@@
alphabet
validity
psychiatric
orphans
Ce@@
plunged
Zurich
diversify
Bulgargaz
manoeuvres
Adam
pulling
formulate
luxurious
drag
Dominique
Ba@@
magnificent
Barkey
Gunter
Gender
130,000
reinforcing
Puscas
Gabriela
Neolithic
physics
liability
Italians
remarked
develops
Le
Faces
arrange
Yusuf
infant
BBB-
ane
Ven@@
golf
rigging
recycled
vacant
examining
Cetin
Anes
tin@@
comparative
MCV
39.@@
weighing
Hays
planting
Mit@@
Hur@@
ah
Millennium
sometime
introduces
Chiefs
sheep
skeptical
Josef
My@@
uk@@
mainland
Pop@@
trail
arose
human@@
determines
Chambers
Andrei
ast@@
excited
7.4
extortion
Luc
beside
inequality
insurgency
singled
Lawyers
HSS
quarterly
legalise
loud
Ni@@
I.
ose
pack
bottle
pockets
extermination
Amsterdam
sensational
Ratings
societal
painted
SARS
Kahn
lyrics
Ski
wisdom
translators
Equality
exam
AK
Gro@@
Zigic
gy@@
After
Arthur
cautiously
Barr
On
Jury
buys
derivatives
gray
Alexandros
Massari
Milena
lifts
Murati
PRM
breached
Chile
casting
barricade
dealers
lin@@
Tun@@
Craiova
SO@@
tea
drove
Redzepova
Iftar
Irinej
pageant
Realitatea
Mass
IM@@
ean
Jonathan
dragged
envisages
Angelina
NBG
alo@@
applauded
aligned
G20
Vilnius
Palme
Netanyahu
Crown
Delevic
Gorani
loopholes
ika
Ramkovski
affirming
Compromise
Rada
thwart
Hamas
inhuman
Matsuura
waning
inked
airplanes
revol@@
6,500
Hamid
Visa
Tina
Cove
submerged
spanning
irrigation
healing
tains
persist
hostilities
retaliation
Lithuanian
tab@@
goalkeeper
5kg
wrestlers
bass
gunfire
rough
Neza
Kil@@
Travnik
Cre@@
Florin
az
Rock
Sup@@
exercising
mu@@
itary
mobilise
uncontrolled
Tel
Traykov
NBA
Miguel
licensed
revealing
probable
chaotic
eding
Approves
mastermind
Works
interfering
Zvonko
understandable
yan
Ig@@
repressive
alter
bow
AKR
Presse
harmed
Kolubara
hungry
Vil@@
diminished
Montana
Bayram
democrat
weaker
stabilised
accomplishing
mistrust
housed
resisting
Salzburg
Es@@
shoulders
ables
1944
1948
Employers
ished
Moldovans
vying
toppling
gin
Menduh
influencing
rig
Persian
Bot
preference
tendencies
thumbs
builds
Medi@@
Lev@@
deteriorate
unauthorised
crying
Solyom
Calls
ba@@
mentally
Leg@@
corridors
10,@@
Response
tered
shaped
Jaksic
Dragana
enactment
interactive
characters
Gru@@
Blerim
verified
tightened
Ivory
uniform
unfounded
Florence
participates
000km
sch@@
22@@
elec@@
contradictory
Andrej
constituencies
apologise
Badinter
adventure
ing@@
Budget
ils
Eurobank
CN@@
HotNews.ro
Men@@
1978
salt
polarised
L.
protections
eni
Harvard
tra
Data
rebellion
Belul
Scandinavian
narrowly
homemade
diving
ened
linguistic
hunting
intact
Sheikh
Mohammed
excitement
masters
dag
cooling
Gormez
1,100
ip@@
Bor
abusing
Jakupi
enlarged
rewards
terrain
hil@@
Efforts
ff@@
bun@@
TRA
wasted
wanting
47.@@
gendarmes
9.2
Ziua
Nor@@
videotape
Arms
tier
shrinking
redundant
AES
Libyans
meals
adult
forefront
Hu
Trivan
pol@@
Cameron
Takes
ulation
encyclopedia
cantonal
vetoed
real@@
Stamboliski
rowing
athletic
oting
29.@@
US@@
hedge
mentions
Poverty
underway
steal
Medium
progressive
rage
650,000
arrears
nets
bil@@
38th
Mun@@
Kabul
fil@@
reliability
etic
responsibly
8.3
Morris
vaccines
Hun@@
slew
unarmed
subsidise
drives
Davos
esti@@
railroad
institutes
collateral
fatalities
Nes@@
7.6
Nic@@
conspicuously
J.
UAE
Eagle
skies
59th
noise
weren
yogurt
synthetic
addiction
beverages
retirees
finalisation
mann
Enel
Matijasevic
Lab@@
SNP
gro@@
Dalmatia
DTT
Podujevo
ditch
Sundays
tant
creativity
nel
vague
Shar@@
paperwork
oke
Cas@@
1970
Transitions
commemorates
Napoca
asa
Muller
Stop
11.@@
biofuels
biodiesel
currencies
alarmed
tre@@
activism
authorisation
Morar
Libera
Constantin
Gregory
specialising
arbitrary
Kaidanow
ritual
Hamad
Maurizio
radically
burn
Adevarul
grouping
Ready
Arta
sweep
precious
Kabashaj
bing
Perceptions
cheering
Nat@@
INSIG
Milovan
Private
collectively
nic@@
colleges
privilege
900,000
recruit
Kohavision
Cardinal
Goethe
graduation
Ahmed
Turkcell
greenfield
detect
Gorazde
Mira
priests
Srbijagas
Qadi
Djogo
Universiade
ISPs
Rhodes
carnival
Zdravkovic
PSI
Shafak
allege
mentioning
Kom@@
branded
coat
enhancement
Flo@@
incompetence
rectors
plots
endangering
shook
Karzai
backdrop
3D
Don
Roman@@
32nd
boxer
cycles
guitar
rioters
Revolutionary
vacationers
Alex
Two
Cul@@
communique
Pro
Dritan
cheered
Kostas
ez@@
photograph
ensembles
ki@@
Sem@@
Jurcic
loads
peer
traction
abstain
mobbing
Johan
Gevgelija
ˈs
cried
programs
repeating
Manchevski
liked
manoeuvre
Gymnastics
Corneliu
forging
Windows
calculations
releases
coping
lure
vicious
Del@@
Sokol
Salihu
Sot
Brahimaj
Bou@@
nominations
Ali@@
taboo
composers
reliance
defamation
appearances
6.9
6.8
Austro
bury
Karel
Sarovic
imposition
Bec@@
declines
fle@@
Tim
eggs
flowing
manipulate
37th
berg
inging
fying
IN@@
swim
micro
Chevron
Bregu
Marcos
ere
Liberty
mufti
contaminated
ref@@
val@@
colour
ect
Sig@@
sample
vigorous
od
inconclusive
Tsvetan
headline
relieved
strengthens
Dragnea
stalling
ju@@
Kam@@
Muamer
Prelec
hes
bal@@
Belgraders
Partners
Ky@@
freed
Ahmadinejad
borrowed
archive
ought
Miomir
Website
Au@@
enthusiasts
Riza
Ol@@
imper@@
DI@@
directive
safeguards
wards
ver
practiced
ty@@
Des@@
Stari
unpunished
gases
ush
boosts
fundamentally
iv@@
chat
Melbourne
Banovic
informing
jubilee
Borko
bet@@
notches
kar@@
trash
Net@@
lim@@
unfolding
quorum
suffice
testifying
Thailand
finger
Acting
Out@@
Algeria
stipulate
atomic
directing
bro@@
lock
oked
Sollaku
Aracinovo
incapable
judgments
cle@@
relax
avoidance
Paralympics
assassins
ey
detrimental
overdue
grandson
Urged
Mustafic
thrilled
dent
shutting
Energoinvest
FIBA
tractors
authorising
forcible
colonel
1979
Sin@@
ZERP
Rapporteur
9.3
Onur
Star@@
Les@@
deported
Pat@@
sixteen
Photo
registers
sel
occasional
moderator
We@@
Skenderaj
disability
Iz@@
Ivanova
dering
KP
safely
backwards
allied
Hristo
cut@@
Sokolovic
145
timeline
conscription
Reserve
AF@@
collectors
Fier
remnants
But
aspirant
inner
dust
expose
trapped
heavyweights
scenery
conductor
Kranjcar
proclaim
deadlocked
quicker
implying
foreseeable
merit
dra@@
Innovation
Vranje
eighty
journalistic
DVDs
rehabilitate
Stevan
ive
Informatics
inventors
Could
Adjustment
Becali
blaze
Ly@@
checking
culprits
fraudulent
locating
IWPR
tives
witnessing
consistency
off@@
Dracula
beans
butter
slots
Air@@
McCormack
contraction
850
Swimming
licences
Althea
Principal
Situations
Nicholl
Sener
Sak@@
antiquity
bride
firefighting
2,200
Vujovic
boxing
Brkic
Case
27@@
blocs
Drag@@
passion
deserved
ji
tel@@
fla@@
motorists
iu
1,4@@
suspending
Cin@@
aric
Banatski
Bear
scared
rac@@
Morning
suicides
0s
adjusting
commemorative
priest
Campaign
pharmacists
fuelling
biomass
newer
Jelic
transcripts
telco
Oswald
relieve
comp@@
pleasant
wells
impeachment
makeup
Filat
Erl
miracle
lamb
Christina
CEI
grandfather
sho@@
sand
hostile
gauge
Sadovic
detailing
Carlo
medalist
predicting
Atlanta
boarding
Dali
IPKO
Francois
Madonna
Samast
dly
sts
euphoria
emergencies
submission
McElhaney
reaffirm
Kesic
performer
Petros
Illyrians
mild
regionally
AIO
Wolfowitz
Lugar
Bentler
shelf
neighborhood
Primorac
CSD
Kap@@
uz@@
Ancient
Controls
Baghdatis
Shell
Slobodanka
Kotooshu
Authorities
foreseen
Isarescu
Alevis
Jung
chemistry
pyramids
franc
Lora
selective
sanction
resigns
culmination
Philosophy
anu
derived
utilised
subordinate
prerequisites
Bugojno
Jazeera
Mlloja
rap@@
giants
originating
supermarket
Emperor
distinct
supplement
Greco
jak
ited
qualifier
ram
devi@@
Islamists
undemocratic
Panathinaikos
stormed
Sliven
Spirit
visitor
fragments
experimental
cinematography
Top@@
riding
relaunch
Alternative
prop@@
ona
bike
speculations
Mala
116
strip
2016
apparatus
Rosatom
assuring
Todor
commemorations
eminent
Fehmiu
nal
births
sociology
marry
intimidate
Bilgi
touring
DJs
begging
rioting
noticeable
shaky
centred
seas
hev
borne
Lan@@
Societe
rushing
cla@@
Habsburg
gri@@
Ries
obey
fre@@
hang
Verica
inic
surgeons
Gaz@@
ented
Reporter.gr
ingredients
policymaking
booming
renovate
defiant
kitchen
Chasa
Siderov
Ataka
olo@@
downsized
ment@@
Engin
Mobiltel
aver@@
struggled
restructured
Liviu
Ivailo
hindering
slavery
fu@@
liquid
ft
Base
Ansip
una
Ivanisevic
bon@@
unjust
Marco
unavoidable
Shi@@
crosses
sank
slump
faculties
Secret
dominance
Bre@@
Soros
arch@@
Risto
brutality
Elizabeta
ette
Kuk@@
Combating
masked
Name
dele@@
Cam@@
stole
misery
Anti@@
Beh@@
Drago
26@@
nurse
aspires
Mik@@
Cri@@
Protocol
aids
1946
enriched
hasty
star@@
ards
faiths
invaded
symbolically
Tak@@
improvised
unspecified
combining
compliant
objectively
Ben
discovering
foreigner
ys
albeit
methodology
malls
Savo
.bg
Riviera
Gardetto
symbolise
treatments
Neretva
regrets
Leonard
heal
dis
Death
faulted
Simovic
unreasonable
Zaev
modify
Chernobyl
racing
Defense
Love
wh@@
laptops
antiquated
What
impeding
Vis@@
destabilising
contend
signalling
Bihac
banker
cit@@
1975
escalated
execute
Stjepan
animated
Puppet
cooking
Kastriot
immigrant
collaborating
reaffirming
dean
desk
minus
Spahic
Cigdem
SETimes.com
anticipation
occupy
Dun@@
recruited
farmland
ots
Plans
habit
Head
communiqué
Marsicanin
1,3@@
rulers
ign@@
Loncar
Hard
deli@@
Ljubco
ide@@
dence
havoc
70th
harvest
swearing
Selo
elling
plate
conscripts
KM
emerges
inexpensive
stream
robot
steer
flu@@
Money
Trajanov
intensively
intensifying
prohibit
subway
camp@@
colours
shouting
conducts
villa
Cha@@
Politics
Ksenija
shortfall
Varazdin
Rumi
tiv@@
Mersin
garden
Climate
Justin
Barac
advocacy
Medojevic
Chi@@
Tennis
retains
unblock
Ka@@
0.4
Nedzad
Ul@@
differs
cular
OSI
Sr@@
boast
Valotto
prefecture
penalised
encro@@
aching
trails
Nik@@
Kanceska
avert
Nitaj
iting
Imamovic
Kolinda
CBBH
warfare
tends
é
flames
payroll
Eurobond
plebiscite
AR@@
Giotopoulos
sn@@
Scotland
desirable
99.@@
lecture
extraction
militaries
Adviser
hurting
eyeing
kilometres
Ljumovic
Irina
Dicle
Puljic
laboratories
book@@
imposes
ZagrebDox
concepts
eling
favor
tionary
embedded
ISPA
aking
ub@@
episode
Tokes
Hakan
stall
Sorin
Sir@@
Ozcan
specifying
disruption
Latifi
CE
newborn
Dev@@
span
Gianna
Yemen
weekends
gel
CD
Khalifa
Has@@
shouted
Dimitrovgrad
Christ
Korac
Hellas
benefiting
spo@@
Iacovou
commen@@
Tuncel
watchdogs
commandos
Mare
53rd
ue
surgeon
counsel
1.3m
MARRI
180,000
contradiction
Sec@@
bailouts
Leka
0.0@@
pressuring
Hosni
Route
Trieste
DM
narrowed
Goshev
Cab@@
ISG
18,000
prayers
tur@@
tactical
Christo
translator
promotions
Ceyhan
altered
Tree
Ari@@
bombers
heroes
SOFA
Universal
Hope
Hayssam
Gursel
Jur@@
23@@
undocumented
Jas@@
IREX
Stanic
Yan@@
biology
Jacev
ensemble
Plant
Ev@@
dynasty
Alevi
Resen
structured
accomplices
faction
removes
activate
Corfu
pit
earns
logo
Boston
1.2m
Dumitru
gi
artifacts
enroll
meltdown
Kou@@
weightlifter
Claus
eri
oking
description
loyalty
disband
Struggle
reign
favourites
Porto
FI@@
5,500
Alexandra
discoveries
mode
caucus
ugly
progressing
Liapis
antiquities
1.6m
fest
Aleksandra
Katic
Deal
safest
slain
abusive
dare
expatriates
burnt
vis@@
Bulgartabac
Ah@@
ovac
Fa@@
Before
Zapatero
Pledges
ner@@
accompany
Point
menu
licensing
paradise
gues
ading
Olldashi
envisaged
Luan
jo@@
remembering
Archive
abortions
22.@@
Idriz
Studio
portfolios
Vassiliou
phrase
orphanages
Ottomanism
Academic
avenue
planet
cry
Schwarzenberg
conscience
ied
sweet
Europa
Agence
Ward
Ulrich
12.5
Anne
loves
15km
ame
ols
ene
Vukelic
Subotica
VIP
equip
rovic
perpetrator
Clinic
constitutive
Reinfeldt
floating
Ses@@
cushion
dim
cattle
Bliznakov
ration
compounded
daunting
101
overarching
staffed
cho
cracking
Dav@@
Land@@
eating
Tarik
leg@@
convey
soared
tag
installments
eli@@
Vreme
Tihomir
vic@@
fore@@
stringent
disarray
countless
precarious
Molotov
fathers
releasing
culminated
ultranationalists
digitalisation
destined
D.
44th
SPE
rein
sensitivity
correctly
daylong
900km
cookies
iti
references
pleas
goalie
troupe
Vahit
drops
dest
numbered
Ashraf
tro@@
lodged
reformer
DJ
Student
Multi@@
challenger
honourable
strapped
Erste
unveiling
gur@@
paramilitaries
Coca
pricing
ken@@
bio
Raskovic
Ivic
thin
certainty
guess
NASA
brilliant
sko
delighted
pardon
Benita
Years
readily
referee
capturing
dable
objection
1,9@@
tracked
radicalisation
ler@@
spate
bombed
horrible
juvenile
vy
Appathurai
Genocide
TRNC
preceding
intra
itate
Conservative
Bodrum
revolt
groundbreaking
Xhe@@
Hus@@
300km
8.9
Kather
Have
Nov@@
46th
Writers
spearheaded
ala
choir
demolished
sim@@
ich
Rule
breathe
organises
Humphreys
cho@@
Olympia
adversely
Henri
captives
Agrokor
midfielder
orchestrating
Building
Danis
wonders
hadn
progressed
CAP
uphill
has@@
Zafer
Oric
Intesa
tears
115
stave
ome
contamination
Inspectorate
Nice
Maritsa
suppress
marginal
charismatic
Sturanovic
reunifying
Palestine
32@@
40km
wildfires
aluminium
ase
lease
gatherings
tarnished
accuracy
Shekulli
certification
meaningless
rivalry
37,000
discrepancies
balances
render
Stoyanov
lia
bells
ney
overs
Parents
Cancer
cycling
swimmers
refrained
equipping
solo
Minorities
Haliti
ulates
awarding
broadly
Challenge
MCC
disarm
Oslobodjenje
downhill
trap
doctrine
brigades
thick
occasionally
ios
mixing
retrospective
agic
ati
Students
warlord
underline
No.
38@@
Steps
switched
denominated
injuring
Arkan
implied
Bat@@
She@@
Relief
chancellor
stereotypes
rented
Minster
Fil@@
scor@@
arson
Vela
Bilkent
Dinamo
Far@@
ries
vow
soci@@
contracting
shrank
5.4
preparatory
abandoning
var
stuffed
barbed
gies
Bajic
28m
congestion
2017
Aristotle
cultivation
fireworks
camera
smart
Mehmeti
complications
1,6@@
Marius
00@@
fas@@
Toni
polluted
enti@@
ung
op
260
durable
waving
showcase
Help
Threat
ly@@
medi@@
utilise
robberies
displays
Digital
8.6
12.7
Uni@@
ania
unregistered
Measures
Musa
Indonesia
uc@@
chron@@
heats
mathematics
signaling
lev@@
2,300
Grbavica
segregation
acity
variable
SAPARD
Enka
pontiff
Velika
Sabanci
pottery
BNT
Djilas
Voj@@
peppers
Eur@@
inger
fan@@
metro
complementary
Brief
Bijeljina
endless
Limani
Humanist
pot
potatoes
flare
Distribution
Transnistria
liberation
Ledra
pertaining
ached
Plan@@
Petrol
Standing
grievances
Step
GAP
wers
incorporated
overlooked
Nature
slaughter
Battle
1961
210
Commonwealth
55th
bou@@
unsafe
NHQSa
MUP
Esma
Ahmad
childhood
assailants
Cacak
4.0
41st
jurisdictions
subcommittee
6.5m
Oresharski
lon@@
Planina
SAP
wo@@
Masters
Karabakh
ES@@
fragmented
mercenaries
guys
Johannesburg
smile
recipe
Bankasi
ther
revoke
Archaeology
tes@@
tomatoes
swine
specialises
lan
Mafia
Front
enting
HEU
Awlaki
RWB
CNSAS
Tarnovo
CIS
Airbus
Ganic
reparations
Nin@@
Aleksic
asbestos
Erbakan
HEP
Sofianski
Glisic
Linden
recurring
4.5m
sely
ate@@
realistically
Degert
elic
Huruglica
explicit
dividends
civilised
ramifications
outspoken
operatives
ass
New@@
cas@@
modified
filing
assert
basin
vouchers
duc@@
Sun@@
gul
qualifiers
grouped
bench
Nigeria
standings
aca
IS
shi@@
circus
iously
mud
55,000
Beach
Trabzon
galleries
cha@@
finalists
adherence
stretching
Century
Bosporus
stra@@
Patras
crunch
ideals
hell
cadastral
Kukan
misused
BAT
Negotino
wives
Sanja
Lat@@
Aviv
Izbasa
versions
lingu@@
IDC
Fiscal
constitutions
versa
Combined
Malaj
queues
Flor@@
manufactured
lin
scattered
unwillingness
sisters
Gorenje
Petrovaradin
downsize
monopolies
lady
FoNet
Koksal
Withers
contrasting
conce@@
War@@
crop
Sek@@
iya
Bran
Konya
Nikica
oo@@
Laj@@
tapping
proponents
asi@@
cultivated
unrelated
evolved
criticized
juncture
divides
Mikhail
Boeing
Naples
fra@@
coloured
Fal@@
imam
spa
complement
Opinion
random
Revenue
wealthiest
By@@
ama@@
Towards
Abu
Globe
improves
126
Milutin
symptoms
inspector
desperately
grad
meddling
squarely
obligatory
warring
sion@@
108
varying
ceased
aluminum
void
Esra
muster
367
disciplined
upward
Bukejlovic
BA
classrooms
Europe.bg
height
Visits
Andrea
Pollo
dre@@
daughters
depicted
adi@@
detentions
200km
Istria
striker
dan@@
Rem@@
hardships
enko
surpassing
cousin
Vulcheva
instituted
Ilham
Cristina
diagnosis
paramount
Maritime
entrusted
Kun@@
Cola
footnote
designation
sis
clergy
Comprehensive
mysterious
poisoning
sacrifices
survivor
classroom
mate
tively
Cen@@
specialties
Keraterm
mobilised
upholding
extraditing
pe
honey
Portal
Ashkali
dro@@
Sev@@
deton@@
Lama
revamp
dismantled
plague
archi@@
guardian
booked
isa
kuna
Good
incorporate
atory
iness
drafts
unexpectedly
Selmo
Churkin
splitting
pumped
Stevo
advertisements
indebtedness
administrators
allay
kidnapped
dogged
hu@@
amazing
multicultural
Mic@@
piano
Makedonski
yachts
Brijuni
spotted
inventory
IDPs
Kle@@
Forestry
Aaron
Stein
enrichment
junta
Wins
Rotterdam
Transylvanian
Santek
akos
135
powered
Area
A.
assaulted
1957
showcased
grain
Tsenkov
Celik
1,7@@
subordinates
mistreatment
340
gar
offended
Elec@@
patterns
repairing
Singh
Besiktas
Mijatovic
airing
dying
Ibrahimi
plaguing
cleaned
rigid
asi
Arrested
Hikmet
unites
Det@@
appreciated
rife
periphery
hing
Vardar
liver
Kiro
obsolete
facilitator
10.5
hash
PhD
plausible
pumping
Editor
tivity
dilemmas
28@@
shutdown
vitro
Nagy
unsatisfactory
interpreter
onal
Hypo
ancestors
Polje
Boro
Giuseppe
Joaquin
Surrender
prediction
roof@@
prevalent
Nuri
interconnection
Visoki
121
mill
brighter
Nedim
Bay@@
Historical
mit
Gri@@
Bey
cabbage
fared
Salvador
controllers
intercep@@
hectare
Picture
Partesh
appropriately
testimonies
fractured
tripled
Obrenovic
tile
shell
ques
addicts
EPCG
orchestras
0.9
expulsions
albums
Shoigu
200@@
gendarmerie
convict
Tonino
Ga@@
motor
analysing
mend
adjacent
1,8@@
screens
Shanghai
Ves@@
hen@@
Taton
versus
treason
Tola
Dor@@
routinely
news@@
supplying
36,000
cap
NRC
chairing
simu@@
Systems
Veljanovski
exciting
barrel
Fourteen
reg@@
Spasov
criminality
bother
Dragomir
0th
Orange
conquer
Citaku
Sto@@
forcibly
wound
fabric
Maliki
Gadhafi
end@@
arevic
ethanol
fairness
surged
Long
ICT
mp@@
Hol@@
makeshift
Patriarchate
OLAF
contingency
Multi
106
Tara
58th
Naf@@
Hadley
detec@@
hear@@
murdering
Selim
Henry
referees
Wedding
underdeveloped
reiterates
Gillian
Transgaz
authenticity
pharmaceuticals
chairperson
evska
Ponos
pression
assumption
lightly
grapes
defensive
2km
tle
Manchester
furthering
endorsing
geothermal
reckless
discounts
Ha@@
Sophia
supervisory
Spiegel
Verdi
Integrity
Jurkovic
5.5m
cake
Ogret
Busatlija
Inclusion
1977
Jim
Ferguson
Kosovareport
Sho@@
pleasure
Mirel
Abbas
winding
ects
Albtelekom
escalate
Enforcement
taekwondo
Cana
devote
exposing
suppression
Synod
38m
Akkuyu
bones
Ixhet
0kg
investigator
Gere
filming
ition
ranged
if@@
Maras
clear@@
molecular
rounded
snow@@
Kucukandonyadis
Jagnjenica
Minsk
MBMD
dump
lobbies
Sorensen
Actress
Guehenno
Carreras
commanding
inventor
Re
evaders
Sredoje
Orden
competes
oni
villas
generators
pandemic
seaport
Georgiou
Endeavour
perpetrated
Mihajlovski
Caglavica
Medieval
Hajduk
pipe
Cemetery
windmill
computerisation
NAM
Rajevac
filigree
Elghandour
shark
zed
mogul
dul@@
abrupt
generator
blockades
inquiries
Vincent
strife
frustrating
23m
sail
ost
Civilisations
indispensable
violin
economical
arsenal
165
Pur@@
pocket
inefficiency
appoints
denouncing
ous@@
dismay
dle
visibly
coaching
AEK
pitch
bay
obligated
les@@
UN@@
speedier
Thrace
..
technique
skepticism
athletics
sla@@
Ljub@@
Vanhanen
worded
AFX
Pra@@
Tserovski
shipped
Adem
multitude
attaches
elaborated
secures
beginnings
viewpoint
warmth
Bul@@
wording
ult
Poposki
ases
Outlook
Documentation
retreat
incidence
butterfly
Petersburg
coun@@
Markets
garde
Fac@@
impacting
secretly
.hr
queen
Dy@@
Por@@
Dacian
grip
quarrels
embracing
exerted
outlet
probability
fi
ap
Should
impatient
gambling
thirdly
dismissals
theoretically
Protec@@
incitement
sacred
forgive
aff@@
Jos@@
par
25km
iled
fertilisation
algae
Thai
FER
socioeconomic
consultancy
po
grass
Greens
trillion
studios
Sebastian
smashed
waged
pains
incorrect
crediting
Cu@@
mouth
58@@
dal
Hristov
Parties
Transition
embarking
vies
cour@@
Naser
reprisals
occupying
prevalence
Crescent
indi@@
lip
storms
Say
Inf@@
Stratfor
Tel@@
originate
ann@@
sin@@
fares
allocating
grounded
cocktails
ros
ately
dried
intru@@
sexually
Cy@@
ails
Tele2
poly@@
catering
Allah
intelligent
humane
Aferdita
Maksim
heed
Tos@@
practicing
Architecture
abducted
zinc
strategically
Pass@@
736
ola
Sis@@
dealer
attain
lanes
Branimir
culturally
complexes
deferred
Valya
gged
DEHAP
stronghold
entr@@
tar
wondering
ai@@
pa@@
provoking
Entry
Apple
punishments
constitutionally
unethical
icon
frescoes
resentment
Proposal
int
Ternava
reig@@
corresponding
hammer
composite
queue
ster
Ljubic
vacations
lessly
gal@@
red@@
izing
revising
restriction
oured
gical
Ruse
NLA
cache
Egyptians
270
excavated
Nea
blackouts
grappling
flaws
Ottomans
Heinz
ashi
ights
bus@@
220
Salih
ues
Celibashi
Idol
Kuwaiti
niche
talents
grim
disclosure
ade@@
toured
priced
oring
craft
Vjetrenica
Ta@@
rehearsal
Actor
mil@@
cos@@
cinemas
bodyguards
Zerihoun
Alpine
Nick
relay
ambush
Stri@@
Telsim
receipts
Stavreski
sav@@
Athanassios
shelters
opting
doubling
Blato
beats
B.
Bradic
Dzidic
Mirza
ceramics
Seoul
disorder
McDonald
Consumer
Agricole
trace
hazard
remark
wanton
abetted
RTTNews
stunned
Wright
oration
pped
Trud
Lidija
Halilovic
motivate
leukemia
4.8
Financing
lija
oppression
markedly
Slobodna
achieves
Soto
Palli
Petralia
dow@@
Slav@@
Ora
Morgan
fa
burdens
Agencies
ered
graffiti
Lipjan
000m
shooter
mentoring
Verification
modifications
ultimatum
ula
fraction
eski
Educational
regulators
defends
unjustified
Sla@@
lis@@
Beyrle
ili
showdown
IFOR
1968
ridden
weighs
repaired
disinflation
aqu@@
anna
ple@@
Vran@@
hem@@
furor
Dani
8.5m
NAC
impressions
jewelry
Una
misunderstandings
tapes
mob
unblocking
oust
ABC
postal
concealed
Constantinos
Sparks
Sveti
Butrint
Face
0MW
seizures
Seventeen
192
Trifunovic
kilowatt
vegetable
hazards
irrespective
steadfast
cally
disadvantage
ej@@
sters
Zoellick
basket
Geographic
prefers
fel@@
discord
Balkans.com
Medenica
Pandeli
exemption
tis@@
Kaz@@
shuttle
Sean
underscores
Opens
Councils
scourge
Sep@@
Michel
tees
Wal@@
indices
proportions
2.3m
patron
jeopardises
sanitary
patriotic
ili@@
Behgjet
ances
reson@@
relevance
Murder
crown
K
invention
Bon@@
Greicevci
Rules
rice
7.5m
Friends
Franko
Ok@@
vers
sel@@
Brice
hammered
pu@@
elects
9.4
7.7
Reconciliation
icons
firearms
log@@
dig
vs.
consulates
Real
san
olds
70@@
ku
ovci
Murad
Bjelasnica
lobbied
Nihat
Girl
Peasant
Gur@@
furious
E.
Skare
Ozbolt
Transitional
330
turnaround
affirmation
Telemedicine
NPP
du
developer
Conservation
definite
submits
alar@@
Vic@@
altitude
8.2
industrialised
Salt
PBS
ences
onions
HVB
Topcagic
separates
Uruguay
1983
conceal
developers
35@@
Monte
Yerevan
aci
Reka
183
Javno
obstructed
denomination
geo@@
tations
finisher
Mullen
USS
relocated
DEI
fearful
Wind
bordering
law@@
oulis
eyebrows
Vojin
interrogation
ES
Bingol
prevailing
embarrassment
hydro@@
mers
Bajramovic
Lovas
censuses
Fine
00
0.05
wholesale
Prijepolje
yn@@
politicisation
Panama
Ferdinand
novels
Titov
migratory
Wrestling
physicist
Neven
ratifying
MGK
Bogosavljevic
characterising
Ball
blun@@
indifferent
filmed
Kokino
enlarge
Ticket
conditioning
Operator
Electrica
Ioannina
Platform
Roger
com
landslides
IP
Harvey
Mila
Body
gestures
das
Pironkova
Kaletović
Registry
pers
Demos
Mugur
Toska
straits
Chess
lay@@
Pejakovic
Sapka
News.bg
Judah
Disaster
developmental
Buzhala
acy
Karatzaferis
Pobjeda
dentist
NTC
EOD
diaries
Christodoulakis
&apos;Hooge
Bazaar
iri
ACR
Guven
Duka
Abdixhiku
autogas
Harxhi
Relja
flagrant
rene@@
Petkovska
shaking
True
tem@@
vendor
buoyed
tankers
laden
oy
prematurely
salvage
DS@@
Had@@
squares
Cat@@
flared
Din@@
Vr@@
scorer
iro
Tal@@
Yang
Sap@@
toys
Cak@@
personalities
facade
Larry
Rossin
Aliu
Yalcinkaya
FC
Pu@@
noon
dock
gen
Janko
scandalous
dissident
Skundric
ada
Mol@@
rainfall
porous
bas
ature
cartoon
novelty
Ljubo
chairwoman
Sudan
Matti
indoor
Kaplanoglu
Nuremberg
zo
shells
Roads
low@@
fame
Now
Olga
virtue
3,200
abortion
rant
Witness
demolish
wrangling
reclaim
bir
Mah@@
cup@@
Salon
Lipponen
sect
Vasil@@
washing
2.4m
accredited
Cioroianu
Radojicic
streamlined
Mothers
discharged
Jovovic
maturing
1972
Cowen
Associations
bets
oxygen
marine
lit@@
Generale
Palestinians
vie
mercy
pac@@
Buzek
oversaw
Sustainable
hip@@
Calislar
hierarchy
Taksim
Guz@@
theoretical
IC
Wahhabis
Adha
sin
illnesses
gaz@@
ella
cam@@
ga@@
brewery
anchored
Industrialists
campaigned
brunt
8km
3.3m
EFSF
publicised
strains
analy@@
Citigroup
distorted
vac@@
Mrkonjic
lu
Barzani
Talabani
Sedat
livestock
epicentre
Raz@@
generic
exemptions
85,000
stranded
Namik
coincides
redouble
subsidised
fundamentalist
fowl
insignificant
MIT
Kerim
inconsistent
omissions
Minic
aded
Ilinden
Dam@@
recreate
shine
woods
roadblock
cies
expedite
philosopher
reacts
watches
Jevric
65th
burst
archaeology
neg@@
uncomfortable
str@@
diminishing
Biljali
Mov@@
odi@@
biodiversity
Vitosha
encompasses
Prepares
school@@
Kristiana
Nenova
Snezhana
ests
gn@@
decreases
Zelen
Over@@
imbalance
Han
Gallach
Je@@
inject
Bukoshi
servant
ule
adamantly
Danilovic
Chan@@
eth@@
treats
Novakovic
Sef@@
Father
Andris
Piebalgs
toughest
noteworthy
vigilant
Virginia
mechanical
spree
http
138
extraditions
cumbersome
torates
Robinson
strengths
manipulations
Vera
Kotevski
Policies
Blood
Sain@@
Mina
positioning
CC
Ty@@
levied
65m
Stars
frustrations
sliding
disadvantages
thering
outsourcing
cated
stagnant
Zogaj
burg
Near
High@@
lighted
electronically
Seeurope.net
eas@@
reversing
hybrid
Pekmezi
liberals
Stuttgart
Spasojevic
Metin
Member
Novinar
seminary
Contin@@
cloud
15,@@
Fire
instalment
Citizen
51st
Choir
seed
Costis
elli
literally
kilometers
Continues
isolate
proceeded
AKEL
Isak
Confidence
dances
waved
matched
33rd
Papandropoulos
105
oes
patriarchal
Discuss
Gran@@
B1
Limassol
Christianity
BHRT
Canakkale
Yordan
Sozen
statesman
triumphed
Canary
Pir@@
abduction
goers
Swoboda
lat@@
tened
intercultural
verse
7.1
untouched
ey@@
Jintao
Sta@@
drum
ark@@
bilaterally
jan@@
downplay
measurement
deportations
attribute
eagerly
Vatan
28,000
sumo
oms
decentralised
rooting
Gray
underestimate
consciousness
Rumyana
mega
Bozhidar
staffing
consisted
Sets
aps
interaction
Us
80th
Films
Tolerance
biography
adaptation
recount
Zi@@
aspire
tombs
revitalise
legislators
cons@@
Early
son@@
Gener@@
Sus@@
mates
dor
hesitation
converted
Ahead
ei@@
Markus
occurrences
griev@@
publicity
144
lauded
Guido
Diaspora
excerpts
manpower
Zarubezhneft
SA@@
competences
physician
rents
Zsolt
shady
aks
masks
loading
Hebrang
HSLS
Casey
dome
Stolac
stein
offerings
Attorney
ridiculous
obliging
consul
dzic
optimist
tendered
dynamism
Bio@@
interstate
cian
Programmatic
outset
Djeric
550m
mortgages
Skoda
Survey
blown
pet@@
reasoning
certify
confer@@
encing
Go
Mus@@
terming
circulating
throne
Ara@@
spectre
newcomer
unease
cathedral
oak
unveil
Spartak
Kukuriku
Right
busiest
Binali
Lushta
deceased
symbolism
deposited
pushes
Questionnaire
brave
overturn
Maliqi
standpoint
ru
tended
alcoholic
ires
132
pause
syn@@
Every
bodyguard
Borovcanin
cin@@
Djuro
Todorov
petroleum
hinting
lier
filters
precautions
depreciation
Ruling
chorus
9.7
substances
Pon@@
Pascoe
downplaying
editions
tist
iko
invisible
Markovski
parenting
victorious
ECAC
Gnjilane
Constantine
hop@@
eless
liber@@
Model
premier
premiered
assistants
expands
hit@@
Antique
Cav@@
Nicholson
Bob
sincerity
Fur@@
similarities
Petkovski
cardiovascular
forensics
Matache
defenders
unicameral
oper@@
volumes
phased
modeled
politi@@
testament
easiest
SMI
Pesic
Vietnam
engulfed
resurgence
Pensioners
empowered
glory
Czechoslovakia
rebuffed
Coun@@
Konrad
1964
ec
audits
Amir
Mures
SIE
calculate
restive
hung
Sejdic
Thani
Dimovska
Fifth
clu@@
hat
Krsmanovic
Dana
letting
Morningstar
broker
Prosecutors
Expo
Silence
Nickolay
Vassilev
SME
recreational
morality
ham@@
Renaissance
metropolitan
1949
PA@@
otic
ther@@
steam
holes
Dal@@
departed
tenants
Cotroceni
fy
labs
Oprescu
Has
Mavi
annex
Cathedral
jets
SI
45.@@
freest
Yasin
Benz
Make
HACCP
Serdar
Smith
ech@@
IV
Lj@@
Trends
Hale
diploma
Enerji
Beara
allocations
Restructuring
quasi
500km
managerial
skin
Emre
confusing
minefield
Cave
ites
anytime
shameful
GfK
Physics
busted
comb@@
occurrence
alling
activation
friendships
eld
inspectorate
Sk@@
choreo@@
militarily
tactic
Vinci
gateway
Light
Cosmote
aku
communes
jewellery
cracks
haul
Sinisa
surpluses
emigrate
Industries
ER@@
neck
align
Vidin
arable
USA
dated
imagin@@
conquered
impending
vehemently
Saljic
trainers
Grigoropoulos
yn
inspire
Lockheed
roc@@
maNga
Hemofarm
Package
feedback
Joksimovic
AB@@
Reding
Erzurum
catching
glo@@
Copic
Recovery
Max
alt@@
resses
sever
Vrajolli
Hentov
hot@@
IR@@
semester
Kurt
ROL
MTI
Dokufest
commentary
Akyol
Slavisa
nationally
Adriean
Better
swans
Sargsyan
Cvjetan
stal@@
Reagan
IMD
Gruda
Picasso
RTL
Moller
Avala
TU
Sambrakos
borrowers
Hutovo
Kurteshi
Valinakis
KONGRA
GEL
COST
uncompromising
Anton@@
recognize
doomed
143
info
prompts
drawings
Bektasevic
tentative
cra@@
Avigdor
PM
flatly
whatsoever
constitutionality
steered
Drug
counters
RTE
Galatasaray
comparisons
Jet
lets
dol@@
Sag@@
teammate
Sm@@
respectable
groundless
rebound
magnet
untapped
Z
Let@@
Inc
killer
Lazic
tainted
leaning
accurately
Ciornei
62nd
masterpiece
overlooking
audi@@
Organisations
gements
Vasil
ital
iq
unanswered
See
tos@@
Leigh
Stevanovic
billboard
sway
enovic
seeds
Shehu
Ki@@
educating
Traycho
Full
Your
Hen@@
Ulcinj
Asylum
ular
uneasy
Katica
necessities
caretaker
purportedly
ust
Observation
ess@@
FTA
Assassination
Motor
icevic
Bistrica
grapher
Dervishi
INSTAT
pregnancy
disburse
centers
nostalgia
rever@@
1936
Os@@
acclaimed
Issue
mapping
hurry
Valjevo
Gacko
updating
oversees
pursuant
monopol@@
walk@@
cro@@
amassed
Ilhan
feder@@
fauna
sul@@
dwindling
installations
gram
woo
despair
Sir
Lynn
Latvian
warmly
torrential
ja@@
1,5@@
relied
procession
Kovachev
unconventional
amidst
TRT
Ekrem
shattered
prestige
resigning
supposedly
disgu@@
Loznica
hostility
wore
1952
sceptics
Kolev
Vesselin
Tanov
supervising
Vision
Viva
Ventures
ough
prostitutes
aches
104
irrelevant
dwellings
troubling
luggage
qualitative
lov@@
Iranians
regulates
fend
bookings
85m
looms
paralysed
Erduran
Nur@@
Traffic
infringement
Wi@@
Komotini
Sulejmani
legalised
maj@@
parliamentarian
Sunni
Bridges
path@@
Eni
Sinan
dir
enacting
turing
stroll
popular@@
atives
Maj
Stobi
ei
Malaysian
Ostojic
Ta
strikers
resembling
Angel@@
ame@@
soar
mess
disturbed
Slavonia
diversifying
3,300km
Results
178
Peloponnese
Up@@
noble
mulls
UBP
tment
Katarina
Beer
sor
robotic
Dol@@
Ve@@
hails
boycotts
Bes@@
Hand@@
HR
formal@@
reminds
surroundings
43rd
48@@
radicals
lek
accomplishment
principled
Librescu
Ton@@
honestly
breakdown
percentages
Chervenyashka
humiliating
disregard
reinforcement
play@@
crystal
Analitika
skill
merging
Agr@@
protectionism
consuming
Back
Massacre
summarily
Begins
script
occup@@
AF
extr@@
eroding
undo
wiretaps
paradigm
Crin
Radisavljevic
cir@@
stint
Traicho
sibility
iste
iz
landline
Die
Achievement
graphers
Medal
Musical
ovich
caves
bikers
Further
communautaire
ister
NEC
TE@@
77th
scrapping
cleric
clout
Panhellenic
vent
ust@@
illustrating
overtime
Mueller
Domestic
kills
grief
Edirne
Sof@@
puppet
zar@@
Wine
Tem@@
neur@@
1930
brokers
grassroots
instigated
Knin
Main
extensively
ić
shortfalls
Bugdayci
Fatma
intervening
inroads
23,000
Vjesnik
inflated
128
inundated
ination
dumps
dispel
Aluminij
cans
dedicate
MC
revitalisation
ution
Ylli
scholarship
stipulating
Son@@
Logoglu
fragmentation
Mesut
Suleyman
pin
far@@
Zvonimir
Hodak
Paralympic
Olivera
blank
unequivocal
judiciaries
corrective
divisive
Zheleva
Margarita
litres
blessing
1966
Katerina
Erkan
irs
leva
Me
omin@@
ret
slipping
trimmed
Krivolak
thefts
Rural
Chiuariu
Perkins
evolve
resisted
ka@@
150km
mos@@
explanations
conscious
overlook
eroded
fringe
culinary
showcases
tasty
sack
eral
Round
72nd
85th
Obilic
Preda
1950s
shut@@
Eruygur
coups
vain
BETA
Municipalities
unearth
sailors
humiliated
Areas
Bac@@
attackers
Iraqis
Repub@@
returnee
concurred
servicemen
boarded
har
ramp
Bozovic
dissolve
Mathematics
afloat
Gvero
200th
Lars
slip
Istog
Clint
tus
listens
stirring
regrettable
inci@@
ila
flash
stor@@
Forest
5.0
Tugluk
chooses
pole
Mad@@
lor@@
č@@
homework
clinical
descent
Lau@@
1954
observes
Jesus
measurable
onslaught
Kra@@
vacancies
Fico
Poci
af
launchers
Cacic
org@@
ef
Konstantin
Allen
Djurisic
disgrace
kindergartens
reorganise
displaying
Koz@@
morally
Cities
acquisitions
10.2
afterward
aspiration
Troops
trauma
Pjer
iPhone
Return
Grbic
accessing
sticks
dic@@
eur@@
Motion
Mihailova
Perovic
distinguish
merchants
Suspects
0,@@
Tupras
vineyards
fortunately
Lin@@
rolls
Advanced
fingerprints
shocking
ruin
WWI
attaché
Seek
thanking
Trend
Bahcesehir
Spe@@
congratulating
motor@@
lively
170m
cooled
commending
Lucian
favorable
kers
Emma
competency
Ren@@
depicts
Mul@@
baton
convicting
rapes
ave
Hos@@
Spatial
stimulated
Silva
allocates
pretext
negligible
Pros@@
nightclubs
depiction
dog@@
forgery
Istrian
norm
spill
Sofronievska
Cotidianul
53@@
Franks
fostered
Volkswagen
Indjija
grandchildren
Italia
Fraud
gu
insignia
Beauty
Kalemegdan
terr@@
nautical
Bajs
Koichiro
Liberia
illustrate
bin@@
Dre@@
underscore
nepotism
farther
dier
courtyard
Ele@@
ees
Gold
podium
Kljajevic
ambiguous
protester
Konjufca
163
BCR
Hak@@
premise
Vadim
guerrillas
Rimet
Trophy
Nazis
Manual
fingers
Vukasin
Estate
smuggle
assists
thro@@
Montreal
B2
Spindelegger
alises
colourful
ok
volatility
educators
renewing
Nikolov
greet
moderately
Liz
Orest
Erzeni
daylight
cate
unsuccessfully
absorbed
vely
congressional
inward
break@@
Koncar
initialled
57@@
intimidated
Puhovski
39@@
GWh
eti
CVM
Konstantinov
kas
tram
slide
shrunk
Killed
Classic
pirates
ker@@
denar
Adlesic
Kresimir
foot@@
email
Medvedja
Institution
ops
Trepca
knock
allegation
Hot
reader
calmed
honesty
Corners
Petrit
circuit
refining
ree
authored
imi
manual
Jug@@
Topkapi
kings
anis
iftar
wounding
Slaven
Bilic
Sinop
Pocket
overview
ioglu
Ismaili
Hon@@
portrayed
pilgrimage
Gopo
win@@
brotherhood
swing
Sergiu
overcrowded
Besir
ambigu@@
Barisic
airplane
fire@@
Artemije
cea
Feral
Shooting
Dom@@
Blues
chats
trumpet
Sledgehammer
Rehabilitation
Stefanov
joblessness
boon
ich@@
Ugljanin
councilors
Lakcevic
Radi@@
Zalica
hies
rescuers
melting
wineries
Otpor
&apos;Or
Berislav
Roncevic
Karl
minefields
Dumitrescu
ević
medallist
Crans
patent
Procedure
Thracians
abundance
Vojvodjanska
Pyramid
Vuco
Everest
Maior
Romtelecom
Blanchard
baking
Banac
Other
Purda
biathlon
Sarachini
Medjugorje
Dzombic
uproar
Preci
Sartid
Rakcevic
Pocitelj
Spahija
Interliber
Anonymous
Pink
Glover
hastily
Morava
eli
Velija
vol@@
ironically
autocratic
inten@@
Oleg
Path
las@@
34@@
inspected
mobilisation
youthful
looting
Azizoglu
entertain
AT@@
ceramic
clay
parallels
111
art@@
31.@@
modification
differed
disguised
murderers
Rehhagel
ful@@
infil@@
invaluable
IB@@
republican
zen
emotion
editing
Stones
Ke@@
152
Mercouri
Calatrava
zan@@
responds
Gunay
Chairmanship
concentrating
constituting
Bangladesh
24m
vals
rituals
Serifovic
profiles
teries
Eduard
transformations
130m
multiculturalism
Conflict
persistence
Entrepreneurship
anic
Miz@@
Milcho
ician
slam
Zeitung
Kok@@
Va@@
2018
databases
Bela
Kula
renegotiate
Liber@@
Nec@@
artefact
glasses
birthrate
persistently
emig@@
soap
worn
Win@@
EL@@
Ciolos
Remzi
webpage
sha@@
Alexandru
Folk
endorses
Mahmut
Stage
Gojkovic
sour@@
Lemierre
anticipating
extract
ordinates
diet
exerting
MK
pouring
patrolled
entrepreneurial
Part@@
Comple@@
geographically
flora
degradation
ecosystem
Paribas
Erato
galvan@@
Trio
falsi@@
ordinators
ims
Zoo
Zorica
270m
janic
impro@@
blew
Xhaferi
ill@@
acres
petitions
insur@@
character@@
Aut@@
Canak
pes
illegitimate
upwards
packaging
uv@@
Za@@
mock
residences
May@@
domin@@
Fredrik
deliberation
Texas
twist
rescued
They
Rou@@
diver@@
comparing
ume
DGIPI
sow
102
strongman
reaping
Jalal
oud
raging
nonexistent
domino
32,000
Andrus
fictitious
coer@@
40@@
progressively
equitable
loom
ids
Vol@@
delta
Quality
Abdulkadir
Aksu
rector
Tale
misunderstanding
rendered
Start
Judges
calculating
crafts
craftsmen
SC
Eco
gle
Pek@@
Krstajic
cles
patronage
ceded
Veljko
setup
Mirek
FO@@
750,000
nes@@
gearing
Receives
isha
rem
ambulances
Nasya
Siropulo
Jakimovski
YSK
Bregovic
lec@@
executing
Tamara
Urban
recognisable
Grad
hardliner
aggres@@
Ergin
illusions
Units
Dimitrios
Slagjana
evidently
hefty
320
funny
smell
wan@@
SF
stuff
Julian
asts
petty
Sasko
abruptly
hem
immense
grams
plurality
beneath
y.@@
detaining
duplication
Ed@@
ton@@
breaching
objectors
Sonmez
Colony
popularly
fortunate
Rushiti
contends
Chad
74m
2.2m
Meet
cellular
Leipzig
knocking
realize
Nu@@
dovic
Vitaly
Curuvija
Eighteen
Fukushima
Oxford
cer
Karlovac
Rompetrol
weaponry
Mam@@
Ned@@
Kut@@
myths
Brook
Jorge
94@@
ž@@
1896
hardliners
Develop@@
CSKA
Konjic
drowning
vo
fes@@
61st
66th
powder
Kyri@@
otis
coffin
ware
uting
exodus
Properties
ow@@
Consulate
forecasting
Ani@@
exposition
Pin@@
Broad@@
Cisco
fig@@
Laboratory
Demir@@
radi@@
Caglayan
wears
Slovene
spelled
righ@@
codenamed
Ovcharov
resorted
blu@@
statesmen
Trichet
Bulldozer
translates
feminist
Rukavina
marrow
shootings
137
Dest@@
chanting
brochure
brochures
road@@
ota
Zrenjanin
Biscevic
springboard
sad@@
Stanley
closeness
insurgents
discus
Nak@@
alluding
Pusic
mobil@@
unreliable
picking
reuniting
arduous
Kin@@
EMportal
Tsacheva
angrily
191
radicalism
Cro@@
tak@@
sman
Topalov
ound
Terry
12,@@
crippled
battalions
ousting
ogy
Tech@@
Lagarde
bed@@
anos
violinist
work@@
asing
Lac@@
legends
Orpheus
mated
Tre@@
Australians
cede
artificially
66m
brawl
ual
predictable
Tolon
Chemical
45,000
76m
warships
switching
mun@@
23.@@
Sab@@
mirror
hindered
Milivoje
Konushefci
Aff@@
43m
Mart@@
deem
disapproval
gul@@
mockery
sorely
matching
TUBITAK
Exchanges
Electronics
15.5
doses
Tusk
tho@@
Rab@@
jur@@
Classical
Mevlana
Hagi
Steaua
revisit
tentatively
oted
punishable
RC
refuted
jana
Steve
averted
curator
lav@@
worsen
ada@@
heir
Zog
Bell
Stanko
bot@@
labor
tying
infusion
Access
lashed
620,000
OK
adap@@
interact
beleaguered
57th
ints
submissions
manipulating
Vla@@
emigrated
sign@@
Willing
tam@@
identi@@
Import
Document
1878
frontier
Eugen
assassin
frigates
detainee
32m
Af@@
tee
insight
dant
fielded
24.5
groom
bled
fascism
Naz@@
theirs
stockpile
batteries
Mihal@@
Leon
Railway
é@@
Organization
sively
lur@@
ero
adapting
lea
genuinely
rest@@
Matters
jumper
nes
Blagoja
ira
fusion
parental
Fitzgerald
faltering
Larnaca
TV@@
hacker
Table
Kevin
Mines
forestall
dov
pec@@
Strait
Kandil
Hatip
Kemalist
Carnival
Logan
selec@@
postgraduate
Literary
Mobimak
ant@@
bulletin
explores
characterise
undercover
USKOK
appetite
ethno@@
AC@@
atop
conc@@
nearest
saints
touted
pegged
gging
Nineteen
nearing
prosecutorial
amphitheatre
pres@@
corresponds
230m
orphanage
upbeat
Stam@@
Jolevski
Botas
presumed
flame
reunited
someday
Cel@@
Khal@@
spreads
Guantanamo
Bosic
Lucic
pie
struc@@
halfway
Meimarakis
Wesley
landmarks
dri@@
rav@@
upheaval
rogue
Lazar@@
bud@@
industri@@
terrorising
Sre@@
affirm
shelves
Returns
280
mented
pepper
Merrill
Camp@@
Domin@@
nic
19,@@
Wor@@
tionist
acceding
Investig@@
cardboard
appreciates
volunteered
Martens
Lip@@
Stanojevic
consume
Snow
Dragutin
lear@@
Gaziantep
Dimovski
kilos
rosy
tal@@
lings
dening
Zawahiri
Census
defeats
resilience
Drvengrad
preserves
Lazarevski
susceptible
mel
renaming
24.@@
Live
trademark
cks
intermediary
Zagorec
Anastasijevic
vir@@
ially
bitterly
37@@
Koehler
tally
versi@@
eavesdropping
Litvinenko
Lak@@
Hamburg
infancy
foil
Begovic
Kalin
Francop@@
Parnassus
Efes
memor@@
Tru@@
catastrophes
ght
bread@@
3.2m
cares
formulated
DEA
Haramain
Brajic
1.1m
EFG
thwarted
PRC
Semneby
legisla@@
13.6
convenience
Tucic
temp@@
Irene
cep@@
Dab@@
opium
Astra
spe@@
shorten
lus@@
cultivating
GMF
Trpceski
fragility
Acquis
Radanova
revisions
Ceylan
som@@
rental
stirred
Kukic
puzzle
Nagorno
ojevic
autics
internationals
180m
8.8
Lesok
Alexandrov
flocking
Mentor
bacteria
Priebe
Shalom
applause
Lilic
warehouses
drawbacks
Swedmilk
confrontational
Vakifli
UAW
screenplay
Bin@@
fair@@
alistic
Elif
Neum
Serban
viewpoints
Audience
Beka
Sher@@
Antarctic
makeover
Mehmedovic
Wen
Vis
premium
summers
lations
separatism
Fir@@
....
opoulou
invented
29m
astronomers
Shiroka
sorrow
compile
Slavs
Rwanda
Displaced
terminating
Beirut
Globus
ho
Fatah
Vogel
Zorana
ladies
assemble
Miskovic
202
ye@@
Movie
mur@@
spike
Critics
Orizari
Story
bomber
Palic
Anastassiades
Boxing
Hawton
assigning
MANU
uniquely
Choice
Tomica
Arvizu
tility
380
clin@@
Wainwright
SANU
correspond
pumps
wings
Statehood
Sum@@
applaud
technicians
Coskun
initiation
Elshani
theatrical
Spahiu
chocolate
Rep@@
Silk
Wolfensohn
handicap
GCI
compiling
Anonimul
Medak
Alka
Visocica
0.7@@
Gallipoli
are@@
Uzans
Kubis
Gaz
Dus@@
deserted
Dobrovoljacka
Sloan
Stojkovski
Luk@@
Kraounakis
alists
Xhema
Fishing
diver
KAP
Laiki
Purko
MedOil
lynx
Bojaxhi
Ridge
PTSD
betrayal
ored
Popa
Tat@@
listening
elevated
DYP
Courts
Audit
33.@@
departing
vigour
assurance
discre@@
Diamantopoulou
mistaken
plan@@
Nishani
375
sings
ency
dial
prominence
therap@@
eu@@
insu@@
Trials
Torture
tible
bite
Georgi@@
dou
Bah@@
1kg
festive
Fuad
plaque
adjective
bang
Panayiotis
Diego
Argentine
misleading
scre@@
cannons
Do
Ina
elle
teen
manuscripts
Ages
disgruntled
Aligrudic
Dinu
Rolling
archery
Karak@@
materialised
Sac@@
000@@
eze
chi
Zec
xenophobia
usa
Rosneft
Pole
Petkanov
Respon@@
Hodzic
modelled
anno@@
yed
severity
Cad@@
bureaus
impaired
Ec@@
BT
tunnels
lent
rom
Woman
admire
Shmatko
lender
amen
Registration
Securities
Standartnews
Shuleva
secretaries
Dragulescu
39th
kel
frank
fications
Past
Back@@
Mr@@
Folklore
grips
egg
calculation
EUobserver.com
contr@@
cou@@
tance
Bandila
blend
Türkiye
haber
locking
Gazeta
universe
H1N1
ans@@
Len@@
illustrated
Ena
clerks
elled
luence
jure
relocation
inland
devoid
dumping
catches
dumped
hat@@
nit@@
Peugeot
41m
Mitsubishi
BNP
Kozakou
Shpend
But@@
Jerzy
fon@@
Pejovic
pos
spin
tales
garnering
Kondovo
risking
layers
experiments
debacle
vandalism
mad@@
a.@@
prelude
pullout
year@@
spiral
2,5@@
basics
Centar
var@@
tackles
relocate
Brdjani
displeasure
astron@@
broad@@
eable
preclude
Hotnews.ro
Poll
Strategies
Xhavit
1938
1943
ambi@@
mush@@
instituting
drills
ress
chart
102m
Holdings
lement
ong@@
sle@@
3,600
abiding
176
Visit
brucellosis
nervous
begovic
alize
saga
dormitory
Oc@@
Problem
Examiner
ges@@
snowfall
state@@
drum@@
PE@@
lodge
bloodiest
rou@@
uncommon
Marfin
stun
exc@@
bloated
comple@@
short@@
resurfaced
cybercrime
edin
151
Slaveski
spared
cream
1962
poems
Members
Their
criticisms
proclaiming
not@@
kicking
Eth@@
Vasko
Shaban
wr@@
dam@@
Nerma
67@@
Ethnos
Maxi
Plavi
Dragoslav
Vidic
Andorra
34m
elin
Miljevic
periodic
climbers
Cher@@
Wolves
Alex@@
reconstructing
Saif
Production
leather
Call
Meetings
countered
mati@@
Gan@@
trailed
embezzled
ep
Mate
Cle@@
Kyoto
miserable
rim
apologising
compassion
133
Shahini
changeover
Prosperity
Taci
iqi
Protestant
Teuta
*
Cohu
horrific
politicise
123
Cobankovic
mistreated
Sanda
conceptual
stan@@
logs
missionaries
candle
portrait
Ale@@
cescu
Balkanblogs
ories
17,@@
democrats
Kourkoulas
Marjan
ample
degrading
centr@@
bribed
asserted
touching
Trav@@
concep@@
recipes
stranger
picks
junk
corners
Ek@@
riches
indifference
complicates
motivating
livelihood
seller
orange
Venetian
Mihajlo
recess
Ties
ental
Patri@@
reminding
Kilic
Seremb
pluralistic
cooperation
Meth@@
Spas@@
ula@@
Opti@@
Magdalena
Infantry
blackmailing
gathers
eded
Johannes
Pirinski
EUROPA
9.8
250km
Guenther
Downing
quartet
IP@@
ool
improperly
circumstance
genres
net@@
Montgomery
Jak@@
breathtaking
trout
Taye
occupancy
SS
25.@@
suburban
Metro
anska
Sey@@
concede
indict
cadastre
Arrest
Artists
spontaneous
laugh
Run@@
175
tran@@
75th
92nd
contrasts
vet@@
asymmetric
650m
Konjukusic
ris@@
Gospic
Philippe
Bebic
rov@@
persuaded
ING
š@@
Bubalo
whereby
elu@@
Hannes
budge
2.7m
irrational
instruc@@
imagined
author@@
alized
genetic
apparel
Milj@@
53.@@
35.@@
chip
doubtful
ump
240m
Pledge
enter@@
bicycle
pies
vi
beg
arbitr@@
softened
tore
curtail
Erhan
Vuletic
cheva
Oguz
wheelchair
tedly
DP@@
borderless
dignified
dysfunctional
Maltese
surprisingly
correspon@@
cher@@
Veterinary
CTP
ITAR
orous
Mumcu
Slovenes
regained
Working
eh@@
outages
builders
Goals
Nights
nik@@
235
ections
dispatch
Varujan
Sport@@
Sz@@
infighting
Wants
How
120km
pools
fortunes
discredit
cluster
Lalova
alic
naive
Tomas
submarine
perished
backward
fences
Chania
amenities
Timor
alis@@
90th
depart
Glas
33m
embarrassing
Stu@@
Ener@@
Yushchenko
patri@@
accusation
Sor@@
liners
affiliate
inherent
shorts
shirts
waterfalls
parked
cleanest
igh@@
dispatched
Mosul
Y
sellers
Bijelo
partnering
prescription
accumulation
Month
motions
unblocked
phil@@
Virtual
Kazakh
sey
-22
invests
ote
60km
bulldozers
math
20,@@
ond
advertisement
debris
heav@@
iest
blazes
News@@
onia
resi@@
person@@
robbed
impres@@
Slam
Cli@@
Boban
AL@@
Kaya
Marxist
ensued
fundraising
embr@@
prefectures
hotly
magn@@
Finley
liturgy
sar@@
boil
Antakya
relinquish
immovable
36th
Karlovic
pairs
AT
simplifying
lowers
Laundering
stre@@
amed
escaping
Anja
iling
canceled
sizable
mat@@
overseen
Platini
Cem
Gymnasium
attac@@
Discrimination
Gjergj
Suker
Elektrostopanstvo
persuading
fiable
Smilenski
wrongly
Vetevendosja
swollen
Shkoder
Emg.rs
Thaler
Ernst
STA
liable
healed
superiors
anin
SRI
1950
Bugsy
ain
Learning
12.3
spilled
liner
atur@@
penitentiary
Zeljka
Vrsac
Qehaja
calming
LNG
dictate
156
noti@@
airstrikes
researching
Us@@
averaged
schoolchildren
hun@@
rightful
Nis@@
rash
Forests
tumultuous
assign
notwithstanding
Fisher@@
Vujic
idi@@
varieties
cons
instantly
Kroes
ticking
Rifat
Gramoz
AEI
Initiatives
satis@@
Katrina
Jubanka
displacement
gue
drags
rectify
Gazmend
Oketa
Wing
declassified
App@@
hindrance
crazy
Sierra
sword
oma
21m
Goncz
filmmaker
MOST
Chair
Opportunities
civil@@
Micha@@
acquainted
Karamarko
HFP
Sik
differentials
ME@@
scratch
leaking
13.5
paints
untouchable
orship
ignores
gol@@
Pension
equals
excuses
abundant
qualities
Manasievski
GONG
senate
caseload
lecturers
Engineers
shortlisted
Sic@@
servers
simmering
psychologically
Maslarova
140m
EAR
4.3m
mails
sos
bearer
infrin@@
Mand@@
Krstimir
euros@@
Bari
Vlore
1941
depression
harbours
Aims
spirits
bake
Take
instalments
seated
myriad
Troy
besieged
creations
restarting
wiretapping
nonsense
residency
infer@@
Anticorruption
Iasi
Mladenovska
Fini
chest
Screenplay
tev
gan@@
Def@@
Arad
Lynch
requisite
kingdom
complains
Rat@@
Cafe
Engagement
Peru
Pic@@
Last
brakes
Lambert
Athenians
1976
Cozma
sealing
projection
complexities
exemplary
hostels
steep@@
teamed
ballooning
informally
Suva
Presence
anthology
Tasovac
ENEMO
profitability
42m
Kri@@
tangle
remedies
sensible
Determination
lated
Sah@@
disobedience
Jihad
Mahmud
Psomiadis
grap@@
2050
fertility
Upper
tantamount
confiscate
2019
Olivier
ret@@
Emporiki
basement
irregular
117
entrants
het
Ristovski
infuriated
Dimitri
stakeholder
pardons
CBC
doping
deployments
quantitative
cus@@
rerun
starring
apple
Advisory
161
nu@@
nanotechnology
carved
Vid@@
Poz@@
Smaj@@
persona
Remi
Margaret
sanctuary
sanctioned
hes@@
Associate
controversies
DISY
kindergarten
Paskaljevic
premieres
Bokova
cot@@
peaks
gor@@
evaluations
Marcie
13,@@
2,800
graphics
1km
optimists
Metallica
Demi
Filchev
Zagora
blacklist
Gypsy
pul@@
Track
Towers
ian@@
materialise
Punto
Panag@@
Amfilohije
mak@@
overseas
Multinational
hospitalised
OM
Mali
dial@@
contraband
weightlifters
banknotes
TL
Veliaj
Igli
Virgin
rer
domains
Baia
possessing
cling
landmine
Xiros
Pajaziti
burns
Borce
Davitkovski
Provi@@
Abdul
Sar
lev
remorse
forested
smoked
lessen
Indictees
unthinkable
sev
Regions
Challenges
academies
Lefkada
Eli@@
Electrical
technocrat
900m
Tas@@
Ejup
Scheele
plunge
Muammer
backers
Alternate
Leterme
ard@@
iles
Astronomy
Kadir
Atanasiu
clar@@
Errico
intrigue
ail
Medic
Nadal
Lego
haun@@
Referendum
criminalise
marching
Eleftherotypia
Toma
Alexis
anov
dioxide
fro@@
medications
keynote
Beyoglu
208
strictest
agony
Tan
jobseekers
invites
Pandurevic
clouded
9.1
forgiveness
honourary
1453
.net
contributors
erratic
JTI
Shah
eurocents
Meteorological
izes
scar@@
depict
Hariri
happiest
FIC
Packaging
brass
nickname
Krusha
Sol
Israelis
Patterson
Beli
Mitsotakis
Koptas
Rene
skaters
RSF
millennium
luckily
Voronin
morale
famed
emotionally
ij@@
Jenkins
Lange
VoIP
Barak
adinovic
pay@@
Wu
Strati
Karatzas
hyperinflation
USEUCOM
CO2
evic@@
undergoes
Vino
Beronov
let@@
traumatic
Arslan
berries
Guda
Dik@@
Selcuk
illustrates
Kapusuz
penalise
depreci@@
repetition
Era
Dragic
deregulation
Pfizer
Leyla
recreation
pa
Magyars
TNC
cosmetic
Intensified
Poortman
6km
0.9@@
Awad
Divjak
Milisavljevic
Visoko
Donato
Chrysostomos
Auditor
Novic
cradle
Zebari
defused
deadliest
AOB
OXFAM
Arandjelovac
Bulqiza
Zef
OSBiH
Crnadak
defaulting
Vidishiqi
Idrizovo
Dabene
volcanic
Stoichkov
Terim
Vidatox
Godinac
Gorbachev
Matka
Papadimitropoulos
Cenacolo
SPC
Sazdov
Natali
irresponsibility
betrayed
Tul@@
precedence
prevails
61m
campaigners
Observer
jac@@
possesses
Europolitics
CIA
commerci@@
Rapid
oj@@
tas@@
oun@@
lovic
roun@@
Gypsies
coached
til@@
retake
ripped
academia
162
Koran
Cemal
Chryso@@
sweets
Otto
harassed
drums
Usce
advises
antique
Hil@@
footwear
tyranny
Kolundzija
esti
Democratia
Ric@@
139
dz@@
Melina
Santiago
enclosed
ection
caric@@
Ertugrul
Thre@@
Manevski
cev
Refugee
congested
shortest
BP
goat
Blace
phy@@
Semih
asevic
Puhalo
pragmatism
.com.
IN
narrowing
dos
harming
insolvency
Nikolova
Kapija
54m
overpasses
Natasha
Veliu
Marjanovic
Info
Rain
siding
auditing
Tsonev
conferred
unsure
When
Ahern
Rho@@
EB@@
Porumboiu
IS@@
qualms
analytical
factual
atten@@
Imp@@
unwavering
FIS
inski
Course
Kicevo
Himara
Shen@@
Alban
slaying
Aco
bracket
avant
transcen@@
divorce
child@@
needy
emphas@@
Cic@@
Gab@@
groupings
Rumiana
multiparty
Ramiz
lish
injustices
ilgili
özel
sitesi
geliyor
Foun@@
Cakir
discriminating
Photography
weeklong
administer
tica
techno
photographed
endeavours
fluctu@@
Stamenkovic
Bajec
Tomo
lou@@
Salmi
reformists
dissidents
ratifies
iner
conspir@@
hydrogen
purification
syndicated
extensions
Gani
vin
Slovenians
Srecko
Angelov
loving
lam
teeth
stagnating
tac@@
DTK
Saakashvili
clues
WAZ
Paphos
upro@@
Dok@@
avljevic
platoons
Pacific
Abdel
magnate
river@@
blankets
elj@@
Kot@@
Zen@@
tremendously
Ardelean
Sand@@
anski
strongholds
rubble
aftershocks
tremor
ascen@@
salesman
spouses
concurrently
liquids
ams
sou@@
cabin
bag@@
rendering
reimbur@@
protector
accountant
earners
Low
Prospects
Ze@@
ama
rak@@
flagship
Programmes
confrontations
lightweight
Euros@@
foes
blos@@
triggers
Milchin
collaborator
poison
pup@@
iy@@
Buk@@
nur@@
Rudare
ential
Neighbourhood
summits
ville
Volleyball
ema
Terror
complies
Curtain
itinerary
sco@@
conserve
topoulos
Out
mak
cos
spanned
hir
vig@@
hikers
breakfast
convenient
170,000
extracted
predated
Qaddafi
null
styles
fractious
64th
harshly
donating
Granic
impress
rum@@
spans
ference
time@@
superpower
luring
SETE
criminalised
erase
cumulative
Dzaferovic
cath@@
mystery
E.ON
Ylber
Shkrbina
And@@
deci@@
cyber@@
blo@@
72@@
eries
Skop@@
Ensemble
Juma
Prison
journal
osis
cook
dou@@
scars
Bosch
Hajdari
bra
attributing
dil@@
Daniela
gloomy
glorious
Ulpiana
Comp@@
Anglo
spin@@
revamping
mus@@
slaughtered
reshaping
firsthand
18.3
dder
1.8m
Ilirian
exhumed
bear@@
GmbH
Belkic
echo
Say@@
Band
Adil
Naj@@
enmity
Nadia
extinction
connectivity
Tass
pipes
Sanctions
tigh@@
syndrome
Oettinger
unequivocally
Lon@@
centered
Complex
Bono
Mate@@
ADSL
wit@@
Lipkovo
Rouvas
Cinemato@@
func@@
Seventy
mos
speci@@
Nicole
sultan
scaled
Che@@
ples
sacrificing
zonal
conver@@
Fuentes
00km
inka
Prepar@@
deplo@@
lawlessness
outreach
rethink
ris
Ronald
Carter
presumably
intractable
abetting
Alexand@@
Smil@@
Possible
censure
Player
Kavala
multiethnicity
pastures
wil@@
romantic
SMS
82nd
straightforward
summing
ater@@
discretion
outbursts
assimil@@
marginalisation
MPC
eradication
SCG
attained
innovators
initialed
registries
tracing
tism
Predoiu
plunder
1955
sighted
Legion
auditor
Post@@
Friedrich
anom@@
relaxation
brigh@@
Nikol@@
eness
Immigration
chem@@
exemp@@
Marks
113
litter
Meg@@
Fani
ecting
backfire
isic
Zu@@
aker
asser@@
Ces@@
Deloitte
servicing
tolerating
masses
Hold
MPI
synonymous
inde@@
balcony
Decan
Iulia
harshest
Fandukova
institutionalised
females
Gjoni
influenza
observance
plummeted
ball@@
TASS
AWACS
Kara@@
acrob@@
Tsetska
socialists
ulic
adversaries
interfaith
Ecevit
onja
manifestation
procurements
Vosganian
carols
simpler
av
Scen@@
definitive
tailored
drowned
Udovicki
govern@@
trade@@
gene@@
resolutely
lottery
deepens
gears
alled
Mari@@
fiasco
derive
unforgettable
Sou@@
Moore
lured
mindset
channelled
taxis
pin@@
discrepancy
1.4m
assu@@
toy
dge
Orie
acqu@@
payback
exacerb@@
Thought
Ground
relic
107
Gandhi
transi@@
75,000
DIV
DIN
coasts
practitioners
threefold
lio
regimen
Fon@@
flies
afoul
NT@@
Ferhadija
haj
Adri@@
Tigers
Little
Alberto
corrupted
Meksi
informa@@
fet@@
Meho
Gel
traitors
Mandela
Sufi
div@@
reinstate
Mid@@
artwork
ership
Komercijalna
Mediapool.bg
iri@@
eties
hail
infrastructural
370
collapsing
Lohan
Erdem
outrageous
kon@@
adj@@
pronoun@@
pun@@
Identi@@
Jar@@
ijevic
subordinated
efficacy
AC
Anthony
Altun
Seven
feuding
polar@@
cadre
sics
symbolising
synagogue
cakes
pig
ax@@
pointless
Honduras
Stoychev
2025
Pod@@
Morine
disrupting
27m
Cuban
ain@@
Ple@@
Yannis
Pad@@
Danilovgrad
190
Eleni
legiti@@
Bis@@
Candi@@
projecting
itations
26m
Lagendijk
Suk@@
Elek@@
associating
Onasa
kilometre
1956
Aligned
acknowledgment
Lubomir
leaded
Djur@@
interoperable
Tutui
Nalbandian
Werner
rations
Funds
homogenous
Lazarov
portraying
RSNA
forecasted
Sixth
undersea
ification
yo
mayoralty
descen@@
Koumoutsakos
distanced
sigh@@
fountain
ped@@
withhold
ority
Py@@
Geroulanos
insulted
Lazovic
militi@@
boasted
Tajikistan
teamwork
diametrically
alternate
Snjezana
Tes@@
shelve
Ziarul
Ilias
Saunders
verifying
au
alignment
ign
enormously
tragedies
pros
Sn@@
Doda
400@@
falsified
Francisco
CB@@
devastation
animosity
cessation
pits
Jun@@
Klasnic
incompetent
disappearing
posthumously
aming
On.net
Turkmen
Streng@@
sacking
ius
lowing
Giorgio
repertoire
cured
counseling
1925
NLB
escorted
Ot@@
blessed
He
Jakob
Again
Ign@@
deterrent
stiffer
newborns
presumption
Anto
favourably
arranging
Curri
budgeting
forbids
Consultative
Suleiman
summed
G.
disturb
Bruce
Ust@@
disp@@
footsteps
tabloid
Sts
Spec@@
bec@@
balancing
resting
rejuven@@
injected
Mjaft
figured
cking
beforehand
grids
bis
tour@@
souvenirs
ader
supplementary
153
PNA
channeled
Lt
dispose
Evgenia
excellence
preoccupied
lap@@
Romans
Austrians
Karadjordjevic
Boat
Ken@@
Run
uprisings
statues
expropri@@
betraying
Poettering
interceptors
Penescu
getaway
ior
mortar
Metodi
Alp@@
frequencies
Pais
Transdniestr
condi@@
Hadjicostis
saint
Donors
residual
flower
Banks
collects
glit@@
Ilievski
identifies
authorise
rejoin
assi
4kg
tuberculosis
condolence
GE
reinstated
asha
27,000
lineup
indignation
Hitler
tou@@
Nuhanovic
ffs
levy
Feller
realism
enrich
proudly
alis
EM@@
Ten@@
renting
leak
Owners
laptop
Value
Added
Resident
IHH
Faik
380m
Poly@@
Veterans
Florida
Skating
Krueger
Making
tonnage
Wild
syndicates
traps
Autumn
Ibra@@
gymnasium
multiplied
Talent
storied
68th
Dean
aled
Liverpool
cav@@
intercepted
foreg@@
Housing
turers
Mike
masterminds
70km
Vitanov
disproportionate
Jouyet
azar@@
Neprosteno
EN@@
scrambling
IVZ
Beton
Halil
withdraws
nor@@
Geo@@
Mohamed
acces@@
lamented
frameworks
4,100
Europeanisation
roster
electives
e.@@
Illustration
squabbling
52nd
WTA
recap@@
Delphi
Rowing
vetting
tonight
Launches
unpleasant
Kole
Beq@@
Janjevo
Mercator
168
Lim@@
14.5
Efendija
Saban
Limak
PIA
botched
pilgrims
rumoured
125m
Manchin
84th
alan@@
ction
ico
Erion
Brace
Pillar
Cvikl
irovic
Alternati@@
counterfeiters
quietly
Kiril
OC
sors
426
Bankers
Makpetrol
iev
fortified
downgrade
Di
MacShane
fatally
McGuffie
Grigor
lick
Marcoullis
textbook
Uzice
195
78th
ove
interdependence
Moussa
Krisztina
placement
virtuoso
industrialists
Karab@@
conducive
Rev@@
Weightlifting
cervical
Vejvoda
Loz@@
Minutes
encompass
Zagrebacka
discriminates
Syndrome
casinos
motorways
Engel
IHD
coexistence
chers
Cancun
ON
darkest
Io@@
Stoyan
tioned
breakthroughs
girl@@
EFT
Next
Mekic
disappointments
narrative
Ustashe
pleading
Kitov
EA
Motorway
Mihail
71st
cardiologists
Gorica
Consul
storey
cartel
hinders
deprivation
Sark@@
underage
shores
Africans
xed
Motovun
explo@@
ket@@
lieutenant
Peljesac
gravit@@
Hay@@
Pay@@
ELEM
Bag@@
holidaymakers
dismal
disclosing
hak
motiv@@
sl@@
apping
EEC
plain
Nigerian
widows
aggregate
Makarska
presses
cook@@
don@@
TA@@
Nem@@
Georgescu
soup
Reinhard
88th
Jel@@
PSOTC
IPP
feuds
stifle
inalienable
Remes
speculative
Vukojevic
insi@@
Lena
Politicians
Kliment
Ohridski
protestor
-16
barbar@@
taj
palm
Sarajlic
prejudge
Trp@@
Phil@@
Leb
Cir@@
olig@@
Mancevski
Tarom
Dream
surgeries
Miljenko
resistant
near@@
TA
lop@@
spec@@
Erdal
Factory
Osman@@
kop@@
acic
tournaments
pinch
wheel
Weeks
practise
utilising
2,8@@
Giurgiu
Safe
157
Albpetrol
Franjic
Pajtic
Rash@@
2030
SCOPES
BHMAC
mausoleum
Maral
bothered
Saimir
fanati@@
privatization
evictions
Fallujah
IA
shedding
Djogovic
TransConflict
Statute
unovic
Assets
MgW
Grubisic
Teoctist
Kab@@
Petrovac
Akrata
Taraf
ovici
Weber
CPT
uninominal
Scekic
Radoncic
fictional
Care
Callas
Ignjatovic
stabbed
Roh
leaderships
guerrilla
fundamentalists
castration
Oktar
Mustafi
Play
Fraser
Scheveningen
gravest
Jens
Sharia
Imar
Ozel
erup@@
mem@@
ABA
forestland
oto
UNOSEK
mic@@
Nikolaos
designing
Zepa
Welles
Zitiste
Pavicevic
Zobel
Gojko
tri
shelled
Bonomy
MB
Fabris
Virtue
Siirt
Flower
IMC
Federer
START
Cadikovski
Pajic
Whyte
demographics
Malatya
Peci
correctional
transplantation
PA
Stada
Mihailovic
Drino
Skatche
Depich
IVF
canyon
Vermont
SMYLE
Moeller
ADL
Vinca
Gjonbalaj
PAL
Klara
Saftoiu
Kosaner
KEC
MANS
Hizballah
hafnium
detergents
Kadijevic
unused
fav@@
Selma
validated
aru
distinc@@
behaving
achievable
Its
implicit
untrue
Strip
flagged
Among
Appeal
embattled
campuses
boulevard
encompassing
penet@@
portions
etta
outsiders
debit
wallets
OS
ressed
Ther@@
oded
Allianoi
Dam
sacrificed
inflict
mosaics
Alfa
bodily
ye
Kuqi
isolating
Galenika
Dincer
66kg
iou
Ef@@
Vuj@@
Tanir
77@@
breaststroke
Master
parcel
Maradona
oric
Buenos
Aires
Parade
1389
incubator
Kurir
chin
demobil@@
Prifti
Tez@@
inaugurates
Marbles
Zam@@
Architects
perf@@
decorations
Temple
Biennale
Mongolia
Commit@@
itism
Iseni
oska
Rah@@
1951
Aziz
Urosevac
Valencia
communic@@
rides
Tsvetkov
Pleven
esi
Blakaj
Reg@@
ambassadorial
Abdu@@
quits
ys@@
Avi@@
eing
Svinarov
Ful@@
Jovtchev
Florian
thers
Bushati
Tokaca
HLC
restor@@
Participation
Bour@@
Pun@@
Laureate
commits
wipe
Indicted
ironic
advertised
trustworthy
Zelen@@
Bloc
interfered
Lahi
aston@@
Sever@@
designs
Garden
Irena
Stal@@
academicians
evolves
Deposit
expelling
Massimo
&apos;Alema
Holds
conspicuous
delegate
universally
Nicos
pluralist
exp@@
coffins
Toptan
Alban@@
cler@@
dging
jewel
inher@@
nutri@@
discharge
conten@@
Dominic
Mut@@
Ann
Intellectual
keeper
hay
roman@@
idle
reconsideration
laun@@
explode
usable
Petko
leaks
seismological
ert
militar@@
propelled
Tuzmen
dominates
facilitates
ine@@
Experts
Faz@@
preventative
circulate
Rados@@
frightened
hood
restarted
reas@@
ophy@@
sum@@
immov@@
shor@@
signifies
foe
articulate
overcame
incorporating
deliber@@
eline
cadets
Galeb
117m
sunk
bor
cure
bracing
69@@
450m
DANS
Journalism
kidnappings
tari
mm
CA
attaining
interrupt
rebuke
shines
ancy
hampers
erupt
rov
kingmaker
phoned
saddened
alty
profoundly
Kebo
rup@@
plug
inaugurate
haggling
thorniest
approximation
Duvnjak
serv@@
Combat
dead@@
aving
impedes
lements
publishes
225
demar@@
prohibiting
Hadzipasic
burdensome
Nex@@
endangers
pal@@
Zup@@
impartiality
herald
watershed
Herschbach
HR@@
thir@@
Leskaj
greeting
Biskupic
Pat
spy
his@@
punitive
infamous
Gol@@
sk
Ozturk
USAK
amal
1903
manifesto
summoning
unwise
miniature
him@@
Gradiska
210m
60@@
tren@@
installing
overwhelmed
Nadj
loc@@
Sop@@
refor@@
windmills
radiological
Lajmanovska
accessibility
tiles
squ@@
constrained
haj@@
resolves
Zletovo
prognosis
OKTA
AD@@
evenings
Pavarotti
autochth@@
Reis
ffed
conceding
fundamentals
These
Hrvoje
Stavileci
Zenun
tele
limitless
Loverdos
Economides
rebranding
UNSC
Arber
Stand
entar@@
rebalance
ë@@
Arabian
Hysa
sink
cand@@
espo@@
convert
Lovrin
Paolo
ramp@@
1953
dose
.ro
hypothe@@
Senten@@
Eight
offender
cared
democrati@@
stabil@@
repeats
crimin@@
circumvent
Halimi
Gowing
Edith
ignorance
abri@@
depen@@
expedited
amplified
Ozan
gus
disbanding
antagonism
continual
erosion
Saxon
eastward
abandonment
Jiri
menting
ingu@@
Lutz
captive
asting
underestimated
intimidating
inflicted
loos@@
Bash@@
paw@@
mism
Explosive
Ordnance
Disposal
bows
graphical
mach@@
inations
gled
Miljko
smear
leveled
Itar
Jordanovski
scheduling
Priorities
Cameroon
Halki
mid@@
2.8m
redirected
TAK
Ploce
counselor
dear
motorcade
subscriptions
Potter
starred
tro
dossier
Vaksince
Halili
aman
wellbeing
urban@@
Oman
tain@@
Alps
ih@@
affirms
nis@@
avenues
Audi
invalidated
dow
Guards
repor@@
KO@@
Haradin
Lap@@
3.6m
carriages
Milco
Vucetic
Concerned
GSEE
stoppages
Begic
accede
Govern@@
unanimity
vastly
Vima
ple
atively
Sisecam
iser
P.
Trajkovska
decommissioning
Rom@@
260m
itis
conspiring
Kamenica
oph@@
HT
Supervis@@
wind@@
decisiveness
invoke
technologically
341
Noble
tearing
gru@@
denounce
stig@@
test@@
legitimise
Dukagjin
tacit
refu@@
resumes
ballo@@
tract
14.2
independents
Motherland
Oymen
comm@@
deceived
Intercultural
housewife
Muhammad
akin
reintroduction
6,9@@
slaves
countrywide
incremental
Alvaro
Denktas
equestrian
Cologne
hazardous
Pango
Liridona
inhabi@@
Statement
Amen@@
brotherly
dictionary
decrees
ained
exhumations
dictated
cherished
Clauses
Drenas
sprinter
Peric
cyclists
bell
culprit
irregularity
Role
dramati@@
coinciding
batch
Dobr@@
quarantine
hunters
Ministries
Op@@
anka
Warlick
photographic
Drak@@
Criminals
profiting
His@@
ear
Wa@@
ole
Voiculescu
railroads
hideouts
80km
Perception
Provide
Sekulovski
Derek
cript
culminating
Comman@@
Seman
tir
nightclub
dispar@@
scrutinised
fairer
Christine
direc@@
Grozdeva
Athos
disbursements
my@@
fak@@
jo
hoisted
ashed
conversion
smoker
males
Helen
inertia
Ss
fabricated
169
interruptions
litigation
crafted
Bosko
chairmen
50.@@
los@@
construc@@
tiveness
attach
ison
Ark
gelical
frigate
atri@@
relaxing
Sul@@
constraint
Churches
inhibi@@
commando
62m
untenable
airmen
kilogram
netted
Wi
Fi
Ciric
Sos@@
proponent
disillusioned
Jasmina
Guy
filter
compact
3.75
invoked
GPS
Potocnik
16.5
Budimir
proposition
Kongra
workplaces
sical
emble@@
envisage
Nelson
Rate
sculptors
Jovicic
uninterrupted
Pozarevac
eligibility
builder
Traj@@
Panel
tornado
show@@
pour
inspects
reli@@
tectonic
1939
Helmut
leaflets
sheltered
eping
Rasic
gam@@
9.6
spearheading
defrau@@
Deli@@
Fugitive
vide@@
Kim
stro@@
Diseases
With@@
AI@@
Lezha
Dragon
Vjekoslav
incorporates
MO@@
kin@@
billed
quakes
Earthquake
Supervision
IHT
staff@@
unaffected
fir@@
Groups
additions
Solaja
soften
quarterfinal
Span@@
Ret@@
Hax@@
Pljevlja
HSP
waits
va@@
professionalisation
syste@@
48kg
Neykova
ITU
matology
Bogazici
Compla@@
Centres
pictured
hec@@
pom@@
projec@@
precipit@@
exiled
nursing
Pren@@
muja@@
2021
Fighting
Hina
reconfirmed
Supply
Mitar
Filip@@
Fieri
Fehmi
endure
Rog@@
Here
adversary
rin@@
immoral
Suspect
Hadise
submarines
Seb@@
animation
reimbursement
guides
Kozaric
2,4@@
Um@@
Duk@@
ambience
Antunovic
physi@@
tec@@
Biocina
main@@
Dru@@
enlarging
BB-
dimensional
synchronised
lum
sensation
consortia
subcontractors
Financiarul
theater
Ca@@
extinguished
35km
rehabilitated
igns
warplanes
engagements
Rambouillet
Companies
Dobre
Voicu
Fatuloiu
scam
bogus
ulated
Vanackere
compre@@
clampdown
rhythmic
Juli@@
mic
Krassimir
Barri@@
gymnasts
Revival
polar
underpinnings
Telekomunikacii
safeguarding
Burzan
Tallinn
log
overheating
Ala@@
58m
Kovac@@
line@@
diz@@
Batajnica
overloaded
jer@@
caring
compounding
unveils
repaying
Boy@@
ARBiH
replies
freeing
withdrawals
periodically
stymied
sni@@
veiled
Podstrana
replica
bumpy
sponsorship
Who
diagnostics
tanker
Straits
massacred
aris
iter
Ulker
Kinga
22,000
IK@@
cardinal
S.
emperor
Sok@@
174
Vc
Jasmila
Stanka
maz@@
deceler@@
Kyrgyz
lateral
Criss
brutally
cheaply
4,7@@
domination
Eg@@
Critical
productively
ava
Facing
auxiliary
Marios
IPAP
portrays
monarch
chased
Revolution
ears
hugely
Lalic
Alcatel
restrained
squads
anarchists
sto@@
Rodic
Equ@@
150th
evolutionary
importer
lord
glimpse
tipped
scales
potato
Fed
exter@@
capped
snag
plo@@
mel@@
tery
Mitrea
IVeH
Oper@@
Michele
Liu
key@@
Avea
Auto
Bruner
faults
Mujahid
Andreea
SRF
Mini
renders
Pensions
ventions
Mihalis
symbol@@
Kamberi
Theater
auctions
locomotives
Omar
corporal
kle
roasted
cloth
metropolis
buffs
yp@@
Conservatives
Lapusnik
Cornel
descendants
pinning
Paerson
downfall
chips
locks
Craig
MiG
aster@@
IT@@
hydraulic
Meri
Consortium
Moldavian
secessionist
ije
Czechs
communicated
Prcevski
Monument
cooked
illa
pow@@
Suisse
ib@@
Mohammad
Istrefi
Boroume
Dennis
Ehud
Manole
flourished
jams
Seas
ued
Jules
9.0
Bozinovic
Brajovic
cation
44@@
jihadist
socialise
Jagland
Comaneci
ener@@
Karin
fic@@
classi@@
warmed
ulating
allowance
insure
Naval
normal@@
reasonably
recourse
83rd
Sle@@
Ep@@
calmer
flavour
Alb
52@@
Damjanovic
dor@@
parcels
Figure
lob@@
Minxhozi
Legacy
pharmacy
Aleksov
inex@@
Zajecar
shirt
WSJ
deregula@@
Barisa
Dobrivoje
Modrica
Der
Columbia
Drnovsek
racks
Juan
Shaqiri
lifestyles
formulating
absorbing
vulnerabilities
Alexey
Resol@@
lics
oft
rif@@
franch@@
12km
Canyon
ori
Sat
ras
Zlatibor
sian
Prud
450,000
142
aug@@
Ds
wre@@
idi
Lek@@
Guaran@@
3.4m
purview
oz
Fuere
Maiziere
distort
Sabri
incite
adver@@
wi
Aliti
copyrights
humiliation
103
Tit@@
Seminar
precede
lav
parole
nativity
generates
minerals
harmon@@
Kacin
grata
colonial
doctoral
mono
Additional
lance
Taiwan
bubble
mark@@
Tatjana
slip@@
pristine
liquid@@
Buc@@
tap@@
ome@@
Romas
Athle@@
Rose
Fra@@
Tonci
quotes
geological
diligent
zy
denars
impeach
Biology
registrations
abound
tuna
quar@@
Radom@@
charitable
retiree
correction
bank@@
cheques
adjourned
Ugur
Promises
surround
horrors
confes@@
approximating
Section
Producers
dampen
Burim
sympath@@
billionaire
informers
inconceivable
creators
Charge
rones
1959
sleeping
97th
footballer
Schools
nj@@
Prokopijevic
entren@@
zer@@
rar@@
youngsters
BTK
mud@@
inaccessible
Francis
Feder@@
wat@@
Tok@@
Mesa
collapses
nominating
KIM
enshrined
Kodra
frigh@@
rescu
Livno
Maine
underdevelopment
1,000m
According
conformity
mourns
Bekiri
unt
Pascal
Fieschi
Sequi
ez
Capljina
Bryza
confined
10,500
fueling
IFIs
PET
fluctuations
ehir
mania
ovation
afflic@@
geared
Lead
unambiguous
Greenpeace
list@@
Nedeljko
recycle
360m
acquain@@
Dimas
Krstevski
Jov@@
hin
power@@
reshuffled
Burak
reconciling
Neve
commercials
Manjaca
Paj@@
hment
plunging
undisclosed
Trac@@
quet
Voices
swamped
Dac@@
Marijan
dissent
Milovic
sensors
corrections
unleaded
speeds
Pancev
Rafael
Angus
bricks
mobilising
clim@@
Interreg
Counter
Vasiljkovic
LP
retaliatory
Silviu
pistols
Mazreku
accomplice
arch
Trajanovski
Automobile
Indic@@
FIPRESCI
aste
Shock
Williams
tolls
Hr@@
flourishing
Kars
aroused
edited
Per
Tacheva
146
jackets
Georgios
resides
phan@@
Rojs
belongings
fat@@
troublesome
Nuland
superficial
.gov
siz
Oras@@
Ziv@@
eye@@
unequal
reconfirms
Hot@@
manning
Books
Vrancea
Boj@@
orts
Onassis
seating
raspberry
FINA
desp@@
Dalmacija
cates
140,000
severed
Krasimir
passersby
Konstantinos
frames
Ethiopia
eradicating
tling
Regina
financier
Trumpet
bek
mage
Hamiti
Planet
Bacau
3.0
Projects
185
Months
regression
21.@@
prosper
TAI
hurts
alle@@
smiling
harvesting
devotion
annexes
Suto
abstention
Judo
sov
Risk
stak@@
Andov
haircut
Gazela
B-
Slovenije
palpable
Murphy
Hoon
assembling
Mato
unsealed
ina@@
prov@@
lifelong
Likely
Nikopol
MRTV
prey
reversal
Christ@@
47m
Zarqawi
alovic
Rac@@
Roddick
Equal
Kultur
sunken
Crucial
Robben
Dushan
iler
Gareth
Popijac
crowned
Bullard
Haraszti
Dragicevic
boring
Governing
Khalilzad
Sv@@
Software
asic
Archives
Reshat
reservoir
Grujic
magnetic
FAB
UXO
Walker
candidacies
feud
Talovic
corp@@
vski
Dead
packs
sulphur
kayak
Chrys@@
insights
29,@@
Morin
Avramov
MMA
hypermarkets
Kyrtsos
Evans
Iliev
urbanisation
initials
Winery
Ljubuski
winery
entitling
Scottish
receptive
Westin
Ivankovic
Muj@@
Primary
Serzh
Rahim
Fazlagica
Kreshnik
Bey@@
Kovachki
mium
flourish
Yugos@@
SDSS
0.8@@
Leone
ploy
Chart
baked
PEOP
Arch@@
Dawkins
leks
ith@@
apples
Jurisic
sheet
Anniversary
Divic
owning
Motorola
Ash@@
Preziosi
gent
Tours
ACTMedia
sausage
feminists
Topola
RO@@
Metal
Rakic
oglou
PP
Orson
indigenous
Thaçi
triangle
Ladies
Ajvatovica
osa
BuskerFest
RON
BoA
Petrovec
VWP
Vasilis
Dracevac
Haggadah
Koljevic
20.9
Hacettepe
southernmost
Jazexhi
Surgery
redress
Sky@@
Amber
intern@@
Dragojevic
NNSA
MIM
Folias
roadmaps
Fojnica
Residual
Badnjak
WEO
Vrelo
veil
Lakicevic
Pantelic
Minikes
Veszprem
LeBeau
Laciner
Ster
AAEF
RAAS
Petrusic
Muslibegovic
Cig
SEESAC
Enyeart
Taneski
Igric
Dardan
chilling
Cob@@
desires
Timofti
liance
relinqu@@
cohabitation
YOK
131
Chechnya
detonators
undeclared
Bond
ouras
Quartet
successors
lian
staggering
hijacked
Kerchove
sophistication
Maur@@
Prendergast
summon
ATM
cele@@
Hellen@@
unreported
discouraging
unprofessional
tractor
Stubb
dispatching
racked
Kaloyan
Dil@@
uten@@
Workshop
Shy@@
Jani
Abdurrahman
Vassilakis
terror@@
lean
shower
haf@@
outburst
navigate
conglomerate
portals
blows
computerised
induce
disclosures
Murray
oli
locality
Ik@@
cranes
precision
insured
yan@@
columns
tural
Nike
Dukat
Sign
pip@@
port@@
scape@@
financiers
Idri@@
Sever
IAAF
Indoor
Jashari
energ@@
OP
Kenan
preoccupation
Bukumiric
stat@@
statutes
tomato
Orahovac
Ladislav
Atanas
andz@@
capitalisation
sheltering
Antonijevic
Stojan@@
Exercise
opes
fisherman
rati@@
Rele@@
denominator
documenting
dak
gangsters
Eurimages
Alek@@
oy@@
Congres@@
confederation
consultative
hen
enraged
Sekulic
ken
bare
Lec@@
restricts
missible
knowingly
meticulously
eternal
Grahovac
coveted
cult
bum@@
Cassation
Democr@@
senator
Success
Emerson
tiv
72m
Job
264
shelved
ford
iring
graves@@
sins
funerals
socialism
widest
rested
inefficiencies
depended
redirect
freer
Yılmaz
Need
statesmanship
wastewater
depths
rotten
sli@@
insufficiently
slid
Privredna
laz@@
Barenboim
50kg
pen
dness
arians
distances
aves
ezic
verses
rattled
gran@@
SM@@
commenter
useless
introductory
automobiles
preach
ima@@
teachings
ind
Commis@@
Peaceful
ision
Tepsic
prolifer@@
animosities
thaw
entangled
Punishment
moder@@
sails
Nasser
omed
TIM
oti@@
notification
battered
78m
hepatitis
omir
Gog@@
Clean
Bot@@
progresses
doorstep
blog@@
caps
leng@@
decidedly
Ramazanoglu
Commitment
Marta
Icelandic
equilibrium
emin@@
prol@@
Enes
Lejla
tration
harbouring
thrive
Bru@@
swe@@
Dukic
kitchens
lows
Kutlay
whopping
unimaginable
defences
TAP
und
Hemus
Fushe
Enough
AGRI
differentiate
dismis@@
rol@@
Comanescu
Petro@@
&apos;affaires
extrajudicial
unlawfully
weakest
reassuring
wrec@@
allowances
asp@@
Cevik
fulfills
Block
excessively
evapor@@
constituency
Excellence
pornography
viruses
min
rek
Luc@@
ime
Thursdays
Saturdays
Ada
bustling
Recica
hall@@
overlap
cepticism
translations
bach
Ray
Cabinet
Cikuli
transparently
Tome
labeled
secrecy
cleanse
mounts
Ayse
uring
Doctors
Krusevo
need@@
stretches
Geci
jails
Fam@@
Kid@@
cautionary
Hear@@
practi@@
tioner
Blaz@@
Nafthemporiki
rivalries
Dudic
Albi@@
exqu@@
Kezman
midfield
alk@@
awhile
zi@@
Brazilians
Philippines
Motors
Water@@
Saf@@
categor@@
pursues
hibi@@
deer
Season
Atilla
Ruz@@
pessimism
hygienic
Stablisation
ell
upsetting
hop
scant
cin
corrup@@
weighted
Djer@@
Zuk@@
Vanco
motherland
poin@@
Rebraca
saleswoman
Gy@@
shuffle
Nekibe
neglecting
Misic
eza
vivid
Image
alerted
endeav@@
Mom@@
Parliam@@
deforestation
teens
Sylejmani
prized
relaunched
discrimin@@
unbundling
leap
inate
cad@@
frac@@
ghetto
ero@@
swear
inti@@
Calea
Victoriei
magical
2,7@@
protec@@
Brewery
devised
ordeal
gravity
Horizon
FOR@@
zation
alization
label
spurs
Andoni
Mec@@
bal
landscapes
centennial
Pcnen
forcefully
rays
Zhang
1923
downside
odd
Profit
unreformed
AII
Spasenovski
citizen@@
fraught
itable
age@@
hier@@
candi@@
annuls
portraits
walled
scuba
sunny
bl@@
necessitated
hesion
attributable
Saltzman
contra@@
stock@@
redefined
Diplomatic
Dou@@
Watson
Red@@
anovski
intermit@@
Platoon
familiarity
Petrova
there@@
Evan@@
Set
shortened
geo
functioned
Deb@@
sal
11.5
kaya
Emportal
fun@@
deployable
squeezed
Dubravka
graphs
Bjelovar
Aleksandr
400km
RTB
Theodhori
ignite
balk@@
hak@@
EURO@@
finale
siveness
tionally
playground
royalty
Kidman
Said
preferring
swir@@
Moun@@
Rocky
Uros
inspiring
settlers
Suc@@
unimplemented
Lov@@
Lillikas
Philip@@
Basin
Pribicevic
Kraljevica
Carnegie
Ble@@
Albright
deflec@@
Murtezi
anny
Ramic
publicist
rat
recurrence
Administ@@
Cine@@
comic
surpasses
forbid
95th
Investor
Gross
lagged
severance
Mor
tim@@
bolstering
plaintiffs
Paschal@@
Pel@@
Paskas
Ores@@
Shu@@
drained
jevo
ort@@
instructor
Thessaly
FEST
Cumhuriyet
terrestrial
Regula@@
Unakitan
20.3
commonplace
uplo@@
informality
luk
Edi@@
Sut@@
notify
Roberto
Sej@@
hia
assignment
umbled
Charges
Eagles
Ebert
14.1
ANAP
Çok
yakında
Daha
fazla
bilgi
almak
için
önümüzdeki
haftalarda
&apos;u
ziyaret
ediniz
ui
lif@@
ratios
127
varies
tat@@
surrounds
Inc.
esses
leased
greener
Mura
arisen
Lyon
Fourth
Shiite
sional
obstructionism
affin@@
anxieties
adultery
ry@@
exhumation
Dizdarevic
iner@@
cartoons
sleigh
Patients
guardi@@
KIPRED
lica
javelin
testifies
new@@
juridical
Gendarmerie
a-
Svil@@
Stone
parti@@
Zo@@
Protestants
Lence
black@@
166
lah
populism
Zlatan
sert
flurry
desks
3,300
1.3@@
Grigoriadis
vani
Through
Taubman
17.7
precursor
Chappell
Transfer
regim@@
regiments
appease
ump@@
macro@@
bolstered
gasification
cion
Panayotova
Ivet
atovic
misplaced
Negotiations
prerogatives
tious
footballers
Puccini
yo@@
Pletikosa
saves
hass@@
Panagiotis
irony
Srsp@@
havens
ected
suited
Naftogaz
acquittals
dared
Criteria
subj@@
Ranka
Gon@@
embroiled
Industrija
intensification
66.@@
cians
nec@@
gov@@
regatta
Sana
gion
Mla@@
AIMR
dissemination
Ferhat
backpack
organiz@@
forceful
entice
2,700
temptation
justifying
Muallem
ruthless
dment
NP
Shakespeare
Performance
scr@@
EU10
Ermelinda
Codrut
Seres
recal@@
EMCDDA
reinforcements
agri@@
dling
appropri@@
arti@@
tably
Soci@@
truc@@
diu
Aysel
rapporteurs
Kale
Nenadic
misconduct
loophole
spor@@
Emerging
Soccer
enjoyment
boo@@
Bernjak
madness
aya
148
isian
Impaler
spokes@@
Kaklamanis
rites
kes
boiled
Nibens
Drobnjak
authorized
iger
zz@@
Senegal
Sam
acies
Fris@@
Navigation
Remains
thwarting
blan@@
oulos
refur@@
pedestrian
ements
deser@@
Ralston
Nancy
aes@@
erode
Gram@@
happenings
Bun@@
traitor
apprehension
spectacle
crushed
utionaries
eman@@
principals
39m
unleashed
37m
Carpathian
Maz@@
stray
Counterfe@@
accessories
Abraham
infectious
exhaus@@
Vittrup
arac
unaccounted
vic
opts
rat@@
Tam@@
Poslovni
evacuations
persecuted
Gandul
liquor
Nicolaescu
sectarian
Worldwide
750m
soured
Rus
fal@@
ration@@
Tz@@
combines
Raj@@
ough@@
gram@@
Beograd
rallying
reorganised
Imerisia
Haxhi
kets
brief@@
63rd
sympathetic
Pande
Matav
hinged
147
friend@@
middle@@
psychology
11.6
ired
Oracle
cere@@
duced
Laws
Djokic
Milankovic
fulness
95m
marrying
ornaments
spirituality
sidewalks
defying
Cla@@
tru@@
Alkaios
ayed
Sunny
kis
tou
peaked
Pavlos
1,900
Kavadarci
sidelined
diary
redundan@@
Settlement
CFR
Sala
Ajvazi
day@@
Malic
arbitrarily
Frenchman
kick@@
akov
à
vit@@
1701
kw
migrated
kilo
malicious
harness
IK
Cag@@
phenomenal
wel@@
34.@@
130th
usha
summar@@
starvation
Izet
Prso
memorable
teammates
Kaj@@
F.
langu@@
wracked
variables
valu@@
lessness
8.4
recordings
expo
atric
porters
Nisic
peti@@
breath
recounted
Baris
manageable
concedes
Clarke
Papantoniou
warrior
researched
Come
Bozinovski
Wo@@
behavi@@
Oncology
psych@@
remarkably
compares
Hakkari
Closer
standardisation
automaker
Leonardo
Silver
unusually
jin
Paraguay
Serbi@@
Stories
touches
exploratory
green@@
Ferid
Marcus
Opatija
atan@@
belated
sanc@@
tioning
commun@@
Valentine
Zej@@
masterminding
MI@@
Hi@@
tability
Bled
Guterres
Stakic
discriminate
Rej@@
rev@@
1930s
distor@@
osi
B3
faulty
yi
mist@@
Meh@@
manifested
modern@@
A.@@
skeptics
angle
receipt
MVR
Vala
Pharmaceuticals
Lou@@
10.6
scare
Kac@@
Darwin
6.7m
sadness
Directive
5.75
abated
bru@@
deriving
debtor
enrollment
liquidated
Miron
Cop@@
Plav
Initi@@
okes
risked
bel
kil@@
Adenauer
eme
donates
Gokceada
H.K.
Theodore
booth
Prices
Hermann
administ@@
Adamantios
Sel@@
Hadzihasanovic
Kubura
Illegal
listened
nishing
protagon@@
asymme@@
Continue
Bedri
taki
Pella
ety
isten@@
feeds
Oce@@
Kalantzopoulos
Prosecutorial
shout
q
Algerian
Six
starkly
genocidal
bak@@
conveying
atures
uls
pastry
oven
brown
shapes
Refin@@
merchant
Schliemann
io@@
Iber@@
upscale
demilitar@@
deems
Gert
transitions
bathing
Schild
stac@@
disrespect
Tuomioja
Extre@@
evacuating
Kov@@
Nar@@
fiery
clever
Raska
carrot
Glauk
fracturing
sof@@
enhances
Gjorgievska
underscoring
unrecognised
incarcer@@
virtues
Gerard
solidify
Mavrovo
tail
Horst
duplicate
delinqu@@
psychologists
Drita
bakeries
.gr
abusers
Sear@@
elude
Bralic
coma
rang
pharmacies
booking
teliers
deck
irreversibly
martial
Cups
1958
tons
Barosso
crumbling
heart@@
insolvent
NUNS
Nami
cle
Prut
intolerable
chy
xing
labyrinthine
Petritsch
Wh@@
decoration
Muja@@
heaven
modalities
Battalion
demise
DW
booths
Vetëvendosje
Limdal
Haxhiu
dures
transp@@
fitness
rationalisation
Lissovolik
Milenko
Jenness
survives
warmer
Pejic
defusing
qi
resurgent
martyrs
majli
Rexhep
poisoned
regretted
now@@
hats
Shengjin
Colorado
Reports
Autonomous
Territorial
Sukovic
rhet@@
block@@
Nestor
Kosovo@@
ilovic
Ogun
boun@@
excesses
Sylejman
bureaucrats
ć@@
labelled
Elisabeth
Rainer
specifies
endemic
Evren
anarchy
Oran
Part
ineligible
knocked
public@@
tricks
itted
Waiver
Ion@@
Jablanica
Shefqet
Avdyli
discourse
Cristi
Hortefeux
Qur
&apos;an
Huskic
sprint
periodical
ubiquitous
Sotiropoulos
KSC
mative
bala
sculls
ao
cor
moderation
istics
Under@@
euphoric
ods
caricatures
Involvement
halved
vanished
Tzogopoulos
360,000
monstrous
hard@@
Dave
Debate
calibre
pirate
Pogradec
Doukas
Garganas
MobilTel
exclusivity
Advisor
grabs
Zogu
intrigu@@
20s
ominous
chord
manifestations
Amfiklia
lid@@
fut@@
mol@@
margin@@
enumer@@
Emin
brandy
114m
259m
4.7m
184
emails
Ass@@
ë
Ferizaj
activating
sowing
retreated
134
ANS
denomin@@
Beli@@
beha@@
grandfathers
headcount
defa@@
ashamed
Patos
Marinza
plas@@
iotis
metric
Marinkovic
Durakovic
Turkdogan
murderer
dissemin@@
ded@@
Skaline
Refresh
occupies
jewels
demir
Transconflict
denigrating
archy
recovers
és
KfW
Islamisation
4km
member@@
Cotard
Riz@@
cancelling
Vantu
Ilie
Narcotics
categorised
opiates
Solis
Nicic
snipers
Cyber
exaggeration
Consulting
depleted
orbit
Ahmetovic
Perspec@@
Valeri
155
mined
dia
Topcider
jerk
treas@@
inheritance
prince
550,000
Kennedy
uncle
Bytyqi
undeniable
ee
19.2
Hist@@
vas
Mexican
arrogance
Deficit
0,000
credi@@
worthiness
Jugoimport
subsi@@
ands
15.7
evidenced
Howard
masterpieces
etovic
.me
sarcophagus
smoo@@
Selmanaj
Janakieski
inser@@
scan@@
Mig@@
supervisors
Arif@@
overtook
195m
cordon
hovered
tha
Hoover
contesting
Filipovski
lightning
TEC
Networks
Udrea
post@@
polluting
doom
sta@@
transcript
Atanasie
earmark
Welcomes
Tav@@
epic
&apos;a
steril@@
Cipa
pretend
Prevlaka
thor@@
serial
accommodated
pic@@
extingu@@
Vet@@
RE
cani
Calafat
ffers
Energopetrol
portray
ifications
440,000
Vodno
forgot
Dag@@
oran@@
1.8@@
bogged
Marinov
Goodwill
Museums
BPU
Andrey
Christodoulos
Aqu@@
hij@@
divert
categorically
conqu@@
poc@@
endic
teanu
SIM
Disarmament
diligence
Bom@@
Capusella
Panorama
premeditated
pap@@
Ognyan
refreshing
tem
Galeria
bottlen@@
Syn@@
Veli@@
fishery
umi
casino
Jab@@
Durban
Pharmaceutical
prudence
Honorary
met@@
Daphne
wash
46@@
pile
compromising
cousins
allot
limestone
Arsen@@
Blazevic
Yuksel
Hag@@
Bajnai
torial
GROZD
15.3
qui@@
ulovic
Paper
overhauled
ele
Ethics
hide@@
institutionalise
milestones
trader
incited
iter@@
Viviane
31,000
isola@@
Welt
Yes
Altin@@
Gazi
Hanover
teers
Yavor
Kerum
SALW
supplemental
Jude
lorry
Swissinfo
530
Avramopoulos
Mouskouri
lawless
Sakarya
unprofitable
coinci@@
downgrades
winters
chat@@
narrows
erect
6,5@@
290
backlash
Mij@@
turbine
NSDP
Spyros
Gosev
qan
engul@@
entirety
aga
drank
compelled
enligh@@
cracked
Annex
grocery
Boys
juniors
Coelho
tre
McCloskey
posture
Nusaybin
expatriate
bourse
gira@@
oses
Jovetic
Dug@@
Merdar
tom
Fellow
Sjeverin
reser@@
Hasanagic
ajvar
mon
Class
80@@
referral
attainable
Sandor
uta
wildlife
Varga
Magurele
Milicevic
MEPSO
Bukovina
Raicevic
Marinescu
sar
Bukovica
Soc
disen@@
Scandinavia
Yevdjevich
Rob
undesirable
Intel
ured
ular@@
Sanliurfa
thetic
ache
battled
bug
prolong
polem@@
mac@@
rear
tyres
Qadhafi
Ekinci
worshippers
Santorini
BSA
Euros
SI@@
assertions
Lambrinidis
Amr
Stavrakis
differential
Podzic
francs
stupid
Ercan
Milov@@
-25
vert
Rela@@
enic
Elez
sigh
rescind
Mej@@
literate
Barry
-15
11.4
Gene
Ceber
omission
reverber@@
Otterson
Largest
ABiH
assimilation
gir@@
Pijesak
Zee
KBP
scanned
Dog@@
Tamiflu
CESID
mull
unavailable
berger
13.7
dup
Futura
Alan
Afgh@@
Michaletos
Mittal
Erdemir
Oomen
Ruijten
Enescu
fresh@@
congres@@
mutate
Sinj
hero@@
professionalise
Herzeg
34.5m
nail
Adana
AFBiH
IGF
EFW
Maloku
beneficiary
mul@@
benches
eanu
Rous@@
1.5@@
Stoev
glance
Stoltenberg
Rak@@
Mobi
Kon
PRO
Ionita
paradoxically
NRF
Xhev@@
Dragas
cancel@@
alo
Ciro
funerary
SIS
dressing
empowering
Lika
Volker
Wil@@
Lah@@
Akyel
Kalashnikov
explorations
rum
collaborative
Dokic
00,000
Ukaj
partite
Nimitz
investigates
Hydro
Inventions
FRY
middleweight
KGK
Trajkova
Trnka
Far
misusing
Sljeme
Krasic
Tiriac
brothel
browser
Bishops
Arbana
Booker
ecologically
entertainers
Prelevic
Princip
Popoviciu
Baneasa
Aksoy
Begaj
Tekin
dagger
Slavonska
Priv@@
5,300
Brayshaw
Stig
anne
160,000
nerve
chevski
reluctantly
asteroid
LHC
CPS
Ajanovic
DCFTA
Wald
Restitution
MediaSind
Ivor@@
Dindane
Kader
Krnojelac
Orlovic
Beslic
Francis@@
Szekler
Stefan@@
Paluca
Musicians
proach
Belushi
Isik
Canic
Draganja
Ejupovic
interns
Hajradini
Yitiz
Akbiyik
Binbir
Gece
Soldo
ECA
Haudbourg
Lepenski
Vir
Cili
RBA
confiscating
cadres
Pec@@
begin@@
Calarasi
Ghe@@
kis@@
Audi@@
ST@@
affiliates
rable
cartels
minim@@
Launch
3,100
pioneer
electrician
Westerners
baths
metal@@
centi@@
foun@@
kovska
bind
alienating
45km
vica
Basel
Slatina
vocational
childcare
Sharks
6kg
Mih@@
ani@@
Ionut
Koc@@
snatch
uli
formulation
ocratic
detachment
normalcy
Fernando
Santos
PAOK
76th
ulous
Messi
accor@@
unspoiled
castles
Gay
Pride
lied
looted
knee
upbringing
Balkan@@
hani
idity
respectful
itating
Fri@@
Pes@@
CiO
phr@@
aspirants
seeker
Novoros@@
Crimin@@
Wiesbaden
Prijic
Osaka
Egg
Rotary
Arsim
VTB
hiev
refurbishing
Tabanovce
Scho@@
thal@@
24,000
Circle
Serbia@@
isters
Pesevski
Bistra
LA
borderline
Retur@@
Ljubica
Artistic
Mara
Isa@@
Feature
XP
legacies
hotbed
Documenta
Terselic
ideologies
retri@@
Sprska
honeymoon
refrigerator
19.3
earnest
stereotype
burglary
busting
profite@@
Amateur
Conduc@@
formality
elevate
plotters
Ljubisav
foundered
limelight
tain
Even
Happy
birth@@
KTV
prescribe
taped
Hip@@
mur
40s
Click
dations
pressive
fer
UFO
3.8m
refrigerators
stifled
Only
jour@@
blues
Endor@@
til
paychecks
dairies
Sug@@
Harald
Zoric
ials
dirt
loosely
bitter@@
dark@@
194
graduating
leagues
hashed
1905
heirs
Bolivia
Burundi
dangerously
smel@@
disturbances
toral
Yalcin
phosphorus
spills
singling
Toyota
101m
Citibank
utter
stormy
Skadar
asters
gentle
celebrity
isted
Register
Decision
Suspected
prospecting
Stalinist
Aldo
Klosi
RD
legalising
marijuana
tras
defici@@
reaffirms
leftists
toilets
cordoned
entrances
.yu
Banat
cables
Milos@@
pass@@
acquaint
Koviljaca
manovic
Vidoje
rekindle
rob
175,000
Deliberative
Cros@@
Taylor
Exporters
lie@@
sils
consumes
valleys
Octopus
Zlat@@
Volen
Particip@@
.ba
Aurora
Gil@@
irritated
lik
crossroad
slave
Dervis@@
CBS
ambulance
destabilised
tame
gin@@
Lis@@
assa@@
Dokle
interconnec@@
arov
GSP
Oriental
Shel@@
Transit
ughter
abys@@
marches
ADEDY
Ozkan
Ulusoy
Kovach
fiscally
factored
subsistence
aground
convoys
server
ogn@@
wor@@
GTZ
UMTS
Expansion
Xanthi
Mutafchiev
SRNA
Gat@@
incre@@
inqu@@
Human@@
Polytechnic
agrarian
Rector
240,000
Ph@@
Gucht
Asen
Merwin
cardiologist
Arenca
curiosity
hkov
Vankovska
criminally
hardened
Ogan
Janakievski
eti@@
look@@
alleys
IPOL
apped
heavier
distract
Gori
stran@@
offense
Butrinti
blunt
yurt
val
plethora
utop@@
Mersel
1934
fen@@
ounds
swelling
Rade@@
blending
Luciano
Jajce
Tandir
centralisation
distributes
depressed
ideally
Saraj@@
solic@@
Charity
Trebjesanin
gyna@@
omitted
rea
clip
choreography
outvoted
grab
prohibition
Florina
mile
1969
sak
Vl@@
abolishment
contempla@@
breathing
elegant
lenient
BA@@
alternately
grapples
Srpksa
spl@@
scan
heroic
mechanics
sympathies
allegiance
Begin
fat
labels
cent@@
inst@@
declas@@
sify
beauti@@
translating
33.5
perpetu@@
maxim@@
Saso
tex@@
438
interrogations
mitigating
Concer@@
rationally
iters
fting
Ide@@
dian
guerilla
llo@@
uma
nuts
exhaust@@
Elias
Bozhinovski
Kekenovski
A2
Tarhan
jec@@
idyl@@
Pal
triumphs
Rame
hypocrisy
licate
scuttled
currents
deposed
Klecka
Enters
Radislav
Practices
medication
abstract
piling
Beriz
differenti@@
Girls
Garros
Rist@@
admir@@
calam@@
tently
shy
Sretko
prec@@
mastodon
Hewlett
Packard
multiple@@
intermediaries
Herzegovinian
Benin
tun@@
rescheduled
Falcons
Kizil@@
Nikola@@
87m
arenas
frontman
packing
Promonte
seniors
unaffordable
Crafts
Beopetrol
usur@@
ipi
selects
Helena
Bj@@
Tex@@
Danijela
alienated
Johann
Narodna
Bal
fascin@@
chment
mountaineers
Olympus
Beg@@
wl
democratising
Room
Akis
simulated
370m
navig@@
navigational
tram@@
36m
Metal@@
Mour@@
lusion
SETA
culmin@@
laureates
landers
tage
carriage
59@@
nurtured
rigorously
Nag@@
buzz
woven
sm@@
exiting
goodbye
Reform@@
Pasali
Ner@@
Aysun
950m
lum@@
Rear
draconian
closures
Renzo
Daviddi
Cour@@
voltage
Gladi@@
Cesur
ettes
yr
660,000
diagnostic
debuted
36.@@
inci
realises
Incre@@
Terem
demo@@
brokering
authorises
Delo
Dob@@
xenophobic
adher@@
Monde
Iztok
Sorsa
Announces
accomp@@
impossibility
Naum
duet
disparate
413
Kulenovic
Prophet
uran
Fridays
Kadriu
Offic@@
Vidosevic
Ereli
arming
6,700
say@@
littered
Curak
marina
sand@@
wic@@
nam@@
flam@@
mable
Hido
beggars
shields
homelessness
undefined
Principles
blacklisted
gras@@
lifies
emblems
DSP
Kath@@
anew
21,000
cheer@@
Glogovac
Bird
ymp@@
Carol
desi@@
Kral@@
Transdniester
Enache
probes
freezes
Driton
GW
96.@@
suspecting
alter@@
unfulfilled
conciliatory
Patriot
Creation
Ukrainians
Never
Mod@@
hypocritical
disadvantageous
asserting
harmonious
worsens
Stephane
aria
tav@@
Lju@@
Lug@@
Vaskovic
labor@@
159
rejuvenate
unofficially
Seen
friction
Spokesperson
nation@@
reservists
46m
Active
Sad@@
West@@
Veroljub
gest
anal@@
rigidi@@
allevi@@
thes@@
seals
Argentinean
fanned
Eurogroup
Janning
sperson
tchev
asho
avail
derailing
lighthouse
thriving
nightlife
fitting
mountaineering
henko
Lifetime
cartoonist
Tek@@
Simunic
Graham
cribed
interpreting
brightest
specialized
CO
defiance
300@@
workload
ord@@
wasteful
dilapidated
squabble
Xhemajl
Gusenbauer
operas
expositions
Naftna
dir@@
final@@
Noah
necropolis
emer@@
gynec@@
exempting
aquar@@
Irak@@
ashore
washed
synchron@@
Reli@@
divorced
interpreters
nici
wheels
coupon
sam@@
Fit@@
Arid
confession
jammed
Herbert
subsidis@@
1.25
bargains
Danijel
Contro@@
contradict
Milivo@@
cancels
Emilio
dece@@
Beckham
470
ari@@
Radivoje
Station
survey@@
50MW
ecstasy
33,000
compelling
zen@@
Bout
Levi
reprogramme
gardens
jugglers
comedi@@
discontinue
directs
Saranovic
decorative
exagger@@
falsely
Humanity
succumbed
-26
Intergovernmental
unregulated
optimal
tuned
cial
Turkstat
infla@@
requ@@
Djo@@
Looks
advent
vul@@
inclin@@
Amam
Casule
misdemean@@
jac
ption
clou@@
Turker
Alistar
rekind@@
Infectious
inj@@
UNAIDS
spacious
Bevanda
champ
tunes
Bilan
que@@
Princess
Glavatovic
density
catalogue
retorted
agua
appalling
Cani
capitalised
6.25
eaten
fam@@
196
Burkina
Faso
87th
Tanzania
surrendering
Poles
Xhafa
frontrunner
gor
Savnik
vacated
Get
Peasants
meteorological
Lalovic
cleaner
ulted
Vin@@
Overview
reachable
2.0@@
Ramazan
observatories
Marmaris
poem
Miladinov
Caribbean
anthologies
Drim
Pablo
Nesrin
Parti@@
Ruzica
Haralambos
yers
riders
assass@@
hab@@
137m
5.2m
discothe@@
beach@@
RE@@
jumps
7.6m
Margareta
Kirkpinar
garb
Muk
appalled
objecting
orial
Wester@@
Linz
inaugurating
Ends
quarrelling
initiates
Vladescu
Jasmin
authorisations
Target
lapses
inking
sex@@
Arbil
deserving
Tek
lungs
ston
105th
Alba
trespassing
denials
ligh@@
Wireless
destabil@@
antagon@@
ifies
overstepped
adequ@@
ens@@
windfall
taxable
Skype
BitDefender
spam
billi@@
Levent
commercially
infants
Healthcare
contradicts
prefect
Mojkovac
stockpiles
avoids
Ruk@@
energetically
Trading
photovoltaic
songwriter
inos
Giann@@
Thanos
quash
arsonists
cottages
Veran
uncompetitive
ush@@
149
Strike
Kojen
suppressed
clandestine
Fre@@
updates
Salkic
prot@@
Ecological
Negoti@@
axes
wealthier
Mugosa
CEELI
Del
1918
Bansko
Elvan
Abeylegesse
Paula
ffe
liberal@@
underpinned
glob@@
Ji@@
uy@@
postpones
Build
razor
zu
rut
surging
umb@@
Gowan
sip@@
pi
bia
Hadz@@
34,000
gas@@
Alessandro
Dario
BGNES
Ema
Edin
penned
Mi
needing
Save
confronts
trac@@
tec
66@@
feeding
PI@@
compensated
steadfastly
Knaus
32.@@
majorities
affiliations
Mircev
Kolasin
nutrition
ancies
hom@@
incur@@
Transneft
zes
eases
edges
hiatus
Yordanov
tler
Super@@
Phy@@
oxide
bacter@@
Salman
Zlateva
sport@@
--19
14.3
cek
rop@@
misdemeanor
ASE
correlation
float
Aga@@
amusement
itarian
rein@@
pedestrians
Concert
dur
Nicola@@
Milomir
Omarska
Cet@@
seizing
Ricciardone
Harun
Danica
institutionally
corrected
healthier
Markov
tax@@
Inten@@
aida
Istvan
rationalise
narrower
Magnificent
fren@@
bridging
rationalising
unstoppable
eful
MINA
brothels
Vele@@
Nadja
Asparuhov
dictators
holed
insecure
Archi@@
Magazine
empt
biofuel
frescos
oque
Caf@@
Skies
luncheon
demons
pertinent
customary
Serious
dur@@
stumbled
Menzel
Serbedzija
powerhouse
Akbank
FE@@
oneself
diagnoses
tumour
ELIAMEP
haunt
nostalgic
Pitesti
Produc@@
PI
tranches
Ciuca
leaf
trical
passions
biologists
tation
Orsalia
Corridors
sky@@
compatriot
stag@@
unscrupulous
span@@
drag@@
stamped
aircrafts
Unknown
king@@
icles
adin@@
efs
bicommunal
throes
Missile
Arges
Marcel
Bog@@
1.7m
Single
Dudakovic
Strbac
costume
Nev@@
Got@@
thyroid
Marlies
inaction
commence
mirovic
supervisor
51m
Erkki
geted
abductions
ab
Mushkolaj
isk
curbs
Cosmofon
sideline
eder
Tiraspol
rul@@
codi@@
believer
thirst
Sigma
patrons
jam
Kavran
deline@@
addict
inmate
labyrinth
bins
rehabilitating
Collec@@
Liljana
lifespan
unbearable
tia
Alzheimer
ethnical
CoM
Olmert
Transnistrian
justifies
Americas
Kim@@
Lawmakers
Sabre
battlefield
1914
battle@@
voy@@
Marshal
dentists
Kraljevo
trusts
Structural
fabri@@
Shevchuk
arev
dil
sat@@
340m
USSR
overestimated
interven@@
Main@@
impediment
slideshow
Almir
combat@@
Bl@@
Mall
Kohl
canoe
Alleg@@
Financiar
unsettled
configuration
bath@@
exempted
Eye
BSEC
Denizli
Sanberk
DF
mapped
Syl@@
Songs
Mete
latif
transmitted
nia
ugic
crushing
14,@@
scanning
Kalchev
Wire
ferries
sandy
ESA
Neil
dium
isavljevic
Petrovski
synergy
vocabulary
sable
hooliganism
vocation
arbi@@
trage
utting
loosen
4.2m
smiles
detractors
gros@@
Daimler
KFS
beef@@
tenuous
mat
mist
ang@@
Ital@@
teenage
218
Majority
6,300
bellwether
Pari
waned
Bask@@
78@@
dens
EI@@
deport
promoters
reproduction
Giannis
paralyse
6am
Bad@@
trick
Kustendorf
Overseas
Race
blasting
Susan
R.
Pastor
Normandy
offen@@
waiver
headache
otopoulos
damning
Biserko
discounted
Green@@
aligning
basing
Ervan
seldom
crack@@
laki
envelop@@
ombudsperson
Asim
edging
congratulatory
Principle
Illinois
subpo@@
prism
Imple@@
styled
Problems
inters
match@@
pianists
mentary
Ring
sober@@
And
eats
att@@
hangs
469
ER
extraordinarily
tips
Transatlantic
nan
Xhelal
Provisional
illed
Chapter
MNB
som
dinos@@
unding
paraly@@
divergence
widen
inces@@
whistle
Hrvatske
Krusevac
pardoning
stain
Jovo
Arsenal
Yard
stoned
horizontal
ves@@
with@@
Djurdja
contemplate
ux
dig@@
excursions
Apol@@
onset
cliffs
tique
springs
Clas@@
collector
Omisalj
81st
Zealanders
dents
Anzac
detectors
PCs
Vasilakis
prioriti@@
yards
gridlock
Pyr@@
Vucicevic
SOS
Yann@@
aran@@
pic
skewed
Sanski
blogosphere
Immunity
placards
TAIEX
common@@
elaborating
insurer
Dojran
arche@@
guy
Rogers
fru@@
Zero
Twin
Gokhan
Worker
Hizbollah
KAIF
Boka
stairs
expressions
Kucuk
Bahri
undetermined
slum@@
spar@@
480
lov
Portra@@
beatification
Stor@@
DVD
twofold
photocop@@
itsa
00MW
interactions
appointees
Following
1926
sadly
Gavrilo
Aeron@@
azi
Riva
Jelusic
Sofiyanski
kur@@
impediments
enrolment
RT
OM@@
Erjon
Tot@@
blood@@
Sadik
Mimica
1912
medalists
Kru@@
Nikiforos
CEDEM
Papazov
Than@@
Targets
Siret
dice
definitions
curtailing
Hart@@
Okta
Iorgulescu
Corporate
Djik@@
tissue
Martinovic
Levski
regret@@
itals
Automotive
Positive
Hugh
ony@@
unseen
vein
predetermined
propensity
cape
74th
Moreno
Panasonic
Novinite.com
soloists
overburdened
Antoniou
beam
ANT
itors
deaf
victimised
Angelo
Scola
commend
Voda
vascular
Sociology
vandalised
Gillette
tempered
KTA
Sutanovic
afforded
genre
omerang
dably
complacency
boy@@
dum@@
11am
scorching
convertible
contestant
filmmaking
Ostreni
Pupovac
Repic
Renewable
environmentalist
ESC
Oradea
Borbely
Hopes
annidis
reservation
-11
Kurban
Atanasov
Odysseus
Tasic
arist@@
biologist
communitaire
doubted
Uckan
Harmony
ony
tim
Bin
kios@@
aters
Map
visionary
aster
SN@@
spray
dialog
Klecak
possessed
satire
98.@@
splits
646m
HZ
2,100
Shorts
Deliu
lau@@
inherit
Georg@@
Cup@@
Proliferation
ida
Anderson
landfills
5.3m
lon
renaissance
perched
recounts
Oktay
maximise
Merchant
Inva
Mula
Semitic
predominant
prising
Walesa
thy@@
pek
unnecessarily
Annabi
CTC
Indi@@
bent
Indonesian
unlicensed
Landale
Yi@@
Ziare
Ziraat
invitees
Tsar
440m
Actavis
SHEPAR
aces
Qandil
96m
punk
Bad
Lol@@
compli@@
partitioned
inov
Todorovski
cobblestone
parting
18.5
tepe
dentistry
caf@@
interdisciplinary
Mum@@
Jiabao
edged
Eicher
ught
ecstatic
ts@@
Agents
eg
prescriptions
SEE6
ProCredit
Stopanska
Duj@@
Pittsburgh
truckers
Okey
Cekic
vacationing
fomenting
ator@@
Reilly
Tukic
furnaces
bcm
deceiving
Ozlem
212
Clearinghouse
tranquil
Mycen@@
surgical
Granit
Velipoja
Nevenka
Jelko
4.1m
numerical
Constantinople
accidentally
inviolability
relics
Senta
sped
Anca
SEWRC
poisonous
audiovisual
alienation
epit@@
IICCR
finalist
Cypress
tu
Miladin@@
Hat@@
dled
revisited
menace
Ris@@
NBR
Napolitano
skeet
NO
Peshevski
McCurdy
marinas
plotted
Lula
Indictee
scut@@
excludes
Woodrow
truths
fosters
tallied
Jankulovski
Hotels
lips
Sremska
hevo
vocalist
magistrate
traced
inists
680
sˈ
Opel
Laurel
Cizre
Esad
Cardi@@
variation
stimulates
Sabic
Radman
accommodating
wane
CEMR
Siniora
litmus
fresco
Viorel
Samsun
Brings
worthwhile
escal@@
Los@@
Dro@@
Increase
83m
PR@@
Mahmut@@
expiration
RA
adel
NH@@
Politis
jol@@
renegoti@@
Greene
Qamishli
Shal@@
Baric
Hrvatska
Elektroprenos
potent
sim
Pambuccian
zar
yalties
PPC
Nazim
louder
Kop@@
CTK
Katsu
droughts
smarter
collusion
Vukajlovic
Eritrea
Komorowski
rationing
Transmission
bode
unfree
tenfold
pretrial
Seling
Ovi
Eurosong
ackovic
metallurgy
sade
Promocija
Assessment
localised
settings
Solar
unmanned
betray
Croati@@
CNB
fifths
dane
centrally
statisti@@
Duma
Qatari
borro@@
reinforces
Dobroshi
ardz@@
mov@@
Buy
objectivity
journ@@
Britons
instant
rabbi
reconfigure
Zalmay
Become
Gavran
Christoulas
pharmacist
Radosavljevic
Cvijovic
Vit@@
Tran@@
tol@@
skul@@
Why
Velikov
SPP
cruci@@
centric
Sect
dal@@
SES
Nen@@
1965
Piturca
trajectory
aggravating
impeded
mir@@
55.5
connoisse@@
Michelin
ET
Scha@@
Join
Omerovic
Kovacs
acceler@@
adop@@
EURO
Miladin
13.9
skater
ric@@
carpet
cleansed
pounds
Guri
backyard
WCJP
CS
terminology
denigration
Ship@@
B.C.
Radoj@@
uka
1,000@@
elabor@@
altar
Applied
Vujacic
Qos@@
Purivatra
Shinawatra
akci
Krsko
Knowledge
passages
Causevic
lifeline
Mitscher
Fleet
Carolina
repe@@
Indirect
pioneered
Islam@@
forbidding
unrav@@
concentrations
factor@@
Akdag
Ioana
Dubrava
qualifies
adis
helmets
Heroi
Bej@@
axis
Citluk
Yunus
Toulouse
19.6
bracele@@
hashish
Arcelor
Slovenija
scorecard
obsc@@
urity
digit@@
trics
long@@
540m
325m
Diplomacy
finest
Hommes
calli@@
Koj@@
310
Resistance
560m
experim@@
Atlas
Jasarevic
antitrust
48m
69th
Wightman
Lic@@
ophile
Lopez
23.5
Nef@@
weathered
centerpiece
hoidis
Juric
slept
Konstantinovic
dough
Olympiakos
Zarzuri
TCK
fing
Dajti
Floridis
Manolis
bodes
petrochemical
Curtis
Necmettin
Yigit
gifted
Bells
Zeka
205
Terrorist
Goal
Rid
Daut
Becirovic
UCK
9.5m
-20
nas@@
Oger
nominates
haphazard
countersuit
Bremen
Camera
Filminute
injection
Angjeli
modifying
goddess
bulbs
enriching
Hoshyar
Paet
mainstay
Curie
Tiryaki
86th
Sergeant
genes
memo
Hama
Semir
Look
Bajraktari
Duic
computerise
Turkiye
Etruscan
850m
vaccinations
Nezaj
SHIK
Vergina
Wel@@
Hotnews
Roboscan
Poiana
itan
Gligor
Sinani
Iulian
unconditionally
neutralise
Puka
Nikollaj
Econom@@
Xhidiku
Pasko
uri
Suz@@
lei
Vinkovci
Vjosa
Mirzeta
Province
Jungr
ulu
Basesgioglu
dictatorial
Shabanaj
Video
start@@
scenic
Slalom
mocked
Barbaso
Veruovic
canal
Phillip
ure@@
Ow@@
biodegradable
Cuprom
impropri@@
wolf
Mujezinovic
Borka
225m
volunteerism
Volun@@
ferryboat
stop@@
Daewoo
vaccin@@
Mobikos
Mobitel
Ano@@
58.@@
LPG
iment
MYK
OSSH
Carri@@
Rosca
Jurgens
2,600
LOT
Miftari
UV
Rohatinski
Novosel
beverage
feminine
OSE
Ringier
MDLF
Zavala
Palm
Kayseri
Treska
Stephan
Turturica
Kras
mono@@
Once
phere
Seth
minarets
clerics
Lik@@
govic
Kankaras
WMD
Lind@@
buzmi
Mirchev
Lushtaku
Furis
Sofer
Bryan
Prenga
Muresan
charova
Drescher
evacuees
sender
Galati
Ugricic
Lati
Bleiburg
duction
Sampras
Xhindi
Ozal
Borissova
phosphate
MOC
Boars
Jezero
FIF
Morillon
Kaimas
Tsankov
KEI
NPT
Xhengo
cyanide
V4
Menon
Janković
Hidro@@
Bish@@
evac
evaded
Sladjana
substantiate
Kazaz
frank@@
elimin@@
Ms
Sed@@
pasic
hka
concretely
Haaretz
Gradu@@
nar@@
Gilles
opportun@@
bles@@
advisable
Card
god
lep@@
bath
ployment
rude
Dugolli
unquestionable
massively
discovers
begs
Easy
apiece
Seref
Buric
Tsi@@
backstroke
Fla@@
Vanja
Atas@@
Muzaffer
Behrakis
Pash@@
Novica
top@@
ackers
grave@@
8pm
Thanassis
cowardly
ringleader
emptive
slightest
Conver@@
substitu@@
Genoa
Obraz
trate
ow
shunning
blatant
Around
quadruple
Tipsarevic
label@@
sparring
Dinescu
normality
ith
Bang
122
Naimova
arova
Marion
Bart@@
119th
crates
129m
marbles
licates
Reunification
pedi@@
Athena
onists
Olaru
Marseille
isting
enlar@@
Puls
speculating
appellate
Veli
partisanship
cola@@
186
Giovanni
Stefano
ailment
285km
Associates
sible
fool
gation
Dragica
scramble
grape
ille
intending
artery
28km
Gaj@@
kovac
MI
det
Fabio
Kings
lobbyists
Hand
Perperikon
Alber
EPC
goal@@
methodologies
newsletter
Would
Fikret
Hasanovic
repain@@
redefine
statistically
demago@@
ugs
launder
reputations
Skiing
cinematographic
Bregasi
Connection
retriev@@
jkovic
Jersey
admirers
feathers
run@@
Zy@@
ernity
token
hemorrha@@
Zharku
asted
succumb
runway
Ryan
py
Branka
Dijana
Impor@@
jica
nasty
aliz@@
Gla@@
clos@@
Commission@@
Andro@@
thankful
ced@@
parano@@
dit
Baker
Newsweek
contended
cend
liberating
Azra
Arap@@
Apollonia
Sozopol
Osmo
ushi
Shqiptare
SKAI
Forensic
Polozani
Efficiency
freezers
Despite
Stripes
rainy
Rain@@
lim
Feli@@
Hous@@
Lemier@@
expansi@@
obstructionist
sackings
fir
knives
bbled
Vlasenica
rain@@
descended
119
actu@@
curr@@
Rrus@@
Macedon@@
Bild
passionately
solemn
peculiar
ystems
pesticides
drainage
squan@@
organisms
ication
rogen
pollutants
Cankaya
strident
nephew
Andre
Scala
Jonuz
Kristalina
ander
recede
indoors
vegetarian
midway
12.4
piled
Alibe@@
Arafat
torches
Rosia
reinvigorate
Key@@
eld@@
exits
126m
EADS
responsive
aegis
grains
insane
deviation
ras@@
Vukos@@
Novicki
willpower
Communism
tut@@
fax
nod
muted
cultivate
chill
oming
estimating
pill
TUSIAD
Haz@@
keenly
permitting
dikes
238
alls
Petru
SM
thening
Kalanovic
Muco
pot@@
Advent
stand@@
glitches
eper
incor@@
pertain
complicit
Swe@@
Gül
Erdoğan
Nech@@
Mass@@
contagious
lining
weakens
inadequately
eradicated
elding
Kandilli
highs
greed
Tiger
ml
gels
spr@@
comfortably
etary
allowable
Hochtief
Pesh@@
cont@@
mot@@
towed
gauges
ensla@@
philosophical
husbands
entit@@
unlock
es.@@
vation
Grigore
wreckage
Mbps
videotap@@
Phone
MS
sheer
farce
Socrates
Islamabad
ovica
Mondays
schedules
Fadil
Universities
sunset
slap
formalised
presences
Balci
aper
cevski
Agrarian
mental@@
AAP
Bumci
Jemin
Gjana
arka
Adziev
Lustration
informant
lynching
here@@
Zar@@
bli@@
recre@@
kom@@
Sabit
Haki
Bozanic
ilies
councillors
approxima@@
presidencies
alias
IA@@
retiring
Novel
antiterrorism
suspends
Evening
Record
Philipp
ste
attacker
isite
helpless
laurels
ried
Koroman
Constan@@
resettlement
outnumber
Yesil@@
connector
Baumgarten
atable
Preserve
versity
encompassed
290m
TUI
17.5
dampened
heterogene@@
Bashkim
Cherven@@
dru@@
rists
mistre@@
consensual
shar@@
Stevco
ferrous
disqualified
gypsy
Test
16km
reconsidered
spot@@
folks
Stefanos
Expected
Carl@@
hoax
phras@@
Parisi
Think
Different
ece@@
rimin@@
criminalisation
infractions
stipulations
Memli
stomach
laj
vigilance
ignited
CD@@
clerk
histor@@
Tech
orn
Ceau@@
bb@@
doctorate
worthless
CeSID
poll@@
bable
liest
workable
sampled
Leskovac
Jane
Ristevski
commuted
titude
dispen@@
Some
unwanted
European@@
Phase
calmly
maneuvering
promul@@
ekeeping
ekeeper
prominently
adv@@
greetings
pulls
fervent
Jove
Zirojevic
objec@@
discour@@
squal@@
Eren@@
Receive
meteor@@
writings
offshoring
persu@@
Vog@@
trickle
chef
Kehl
Parvulescu
suing
dwel@@
derives
Wintershall
ACEEEO
specialise
bipartisan
Hasim
Begolli
geostrategic
Raguz
bounds
Damian
Gjik@@
Europe@@
Bano
Dervish
Saj@@
normalised
Balkanika
novelists
paleont@@
fibre
Ahtissari
maili
iano
465
enrol
depriving
embarrassed
2,000MW
prints
demon@@
Cincur
subscription
Fear
Put@@
Manaki
rehearsals
Sakis
Paparizou
Journey
Noel
navigating
witch
tely
Malk@@
Jeremy
adventur@@
tallest
onica
myth
ancic
curious
Kit@@
camping
reunified
tenancy
Barbulescu
Yiorgos
Glencore
Som@@
Viz@@
Apostolopoulos
Athenian
Pepsi
Brodosplit
Uljanik
perseverance
diligently
monolithic
delineated
164
cades
pect
entertained
transmit
splendid
complication
Bosilegrad
Heads
instigating
Grupa
fourfold
prote@@
Zdenko
Tomanovic
stoppage
Jesic
Theodorakis
orphaned
Nas@@
51,000
torched
countryman
remake
woke
absur@@
Experience
drinkers
deleg@@
iman
Cati
restraining
Zhivkov
persec@@
ArcelorMittal
8,500
minimised
Bilateral
Krga
conceivable
Milko
Good@@
Presiding
Volos
Tai@@
academ@@
SP@@
cardiac
emission
omo@@
cord
analogue
sher
empower
pioneering
renomin@@
Mercan
shal@@
enthusiast
Operative
10.3
ffing
beloved
Trpcevski
Alumni
Discipl@@
spiraling
-12
aly
dispersed
46.6
richness
Fateh
Yeni
Usk@@
ishment
sermon
Foreigners
Nadan
cheers
neys
critici@@
umbilical
harms
otherapy
Urge
mustered
Gorazdevac
peppered
classification
cleanup
littering
heigh@@
Ltd.
280,000
gigantic
Markop@@
oul@@
hockey
taining
timber
Train
AK@@
kno@@
Glav@@
wrong@@
atis
VoA
Munter
handouts
subsist
iding
tacitly
ances@@
Akif
IKA
ljak
sharper
12,500
Politi@@
insider
ghts
dad
Nevena
instill
lambasted
thematic
lava
Milka
Milinkovic
Corina
Viorica
awak@@
vagu@@
noncompliance
Nai@@
blight
tarnish
98@@
Baa3
Weybridge
grabbed
gos
roundtables
Nothing
Havana
Nusic
Wife
evol@@
Uke
trav@@
Bek@@
athe@@
straw
dgeable
attainment
Mitchell
resemble
Lang
ridic@@
PE
Millenium
Threshold
ransom
179
Eyes
fray
unintended
deterrence
smas@@
gon
Kori
mudslinging
positi@@
ven
peacetime
lex@@
214
syndicate
Chrysler
devic
Big@@
trivial
constra@@
impair
enta@@
homo@@
Rato
tom@@
stvo
federalism
unhealthy
thic
NMCs
crippling
propag@@
tually
wes@@
Gorge
class@@
hir@@
emaker
percussion
naïve
indisputable
oos
thrilling
thril@@
.He
alleviating
computing
hottest
adolescents
maid
toned
laundered
232
cowar@@
pt
MP@@
dormitories
shuts
Dub@@
Tieger
Alphons
tane
tiously
snags
gered
negate
languished
128,000
rewarding
condu@@
itar@@
1910
Flickenschild
abduc@@
arat
excav@@
radio@@
amphorae
Rating
rol
Thal@@
caravan
raf@@
rafts
kay@@
rammed
bac@@
rows
logging
rafting
cameraman
hoods
boj@@
gangland
situ@@
apers
rescheduling
57.@@
Camdzic
blin@@
raping
cked
pronged
Francesco
Alexandria
Walid
Pip@@
program@@
Grebo
diluted
Pom@@
lje
dissolving
Mladenovic
regroup
EU15
Commodity
TOBB
recei@@
Hatz@@
trimming
free@@
Pris@@
oners
Joschka
conspired
Acimovic
splinter
134m
stuffing
Gvozdenovic
whirling
dervishes
ddin
Sufism
premi@@
Seeking
Price
deferring
Parker
Guilty
sia
unbelievable
68m
inferno
JRC
16,@@
umin@@
Diyarbakır
KA
Enduring
gla@@
refut@@
leniency
princ@@
Lav@@
taun@@
cups
seeded
Art@@
multilingual
Pellumb
unced
AX
uci
Aydar
Duran
Leninist
Roj
Ross
Bicakcic
voucher
skyrocketed
asses
desperation
Kaminis
cating
Ozeren
ennial
itu@@
defer
dinal
decorate
veal
ais
askovic
4,200
Horgos
Yaylada@@
flowed
outpost
tled
depots
onerous
96th
102nd
Uganda
aller@@
gions
950
ild
GRECO
whist@@
Moraca
Radimir
aforementioned
directorates
foiled
Pushes
Gets
Negoita
Gjurovski
elevating
7m.
Kilkis
tug
ilean
Boer
Bosnjak
powerless
177
parades
Spiliotopoulos
horseback
Cvet@@
Armand
homosexu@@
mised
cipation
exu@@
genders
dani
faltered
swell
purported
infiltrated
Wah@@
creditor
5.8m
seasons
420m
turn@@
pricey
Lucia
Valeriu
Mamaia
Determined
ovens
ACT
Trpevski
Joost
Belt
Consumers
impul@@
precedes
indivisible
Potec
lamps
satisfying
Mujota
torrents
Kay@@
Transnational
del@@
Prokuplje
ete
BD@@
Strasser
Slovakian
selves
Lukac
Vlas@@
Majid
slan@@
conglomer@@
short-
pausing
Extradition
bulletproof
delight
catchy
armaments
Tisa
habit@@
awash
1th
Ps
EXPO
Seattle
mathema@@
Rado@@
lak
invo@@
Ba3
hesit@@
jel@@
Dol
51.@@
KPMG
Isla@@
moglu
Safak
fiel@@
Trashani
Hinges
Sense
eloquent
cherish
Hat
onds
restrain
avr@@
holo@@
advancements
bral
paralysis
Umag
razed
TU@@
Becic
spearhead
galvanise
onas
akou
tika
Papadopoulou
batons
store@@
Cho@@
Plaka
Kati@@
socks
RI
Et
&apos;hem
controller
10.5m
Opa
Deep
sas
melody
Chairwoman
shopkeepers
430
13,500
suites
robbers
unen@@
jeopardize
ousis
bankr@@
280m
52m
Fet@@
Petre
clan@@
kos
validation
Att@@
los
boiling
hooligan
watchful
Protic
drama@@
Theat@@
125th
Erik
Edinburgh
ovics
Phoenix
supremacy
exemplified
overtaking
temptations
coherence
Person@@
retraining
okovic
clips
drift
Ima@@
seas@@
inc
Hurricane
Chap@@
progres@@
resorting
152m
12.2
ENI
Constantinescu
teau
cyclist
balls
su
cross@@
Fuk@@
ishi
remedi@@
decision@@
gement
spikes
grandparents
Mars
ficial
oi
Finances
labour@@
devalu@@
1,350
aning
fork
Jr
TNT
Syri@@
Tugrul
Keqa
KCC
overshadow
blockaded
loser
Rozaje
Berane
Vojvodic
benef@@
counselling
Zvoncica
lastic
Presentation
9km
oling
Ragip
Rebel@@
dw@@
aki@@
chenko
Kes@@
VIII
Film@@
Five
Win
rela@@
Mia
Kujovic
Koce
Molecular
deception
Aurelius
legs
ick
Muz@@
Inno@@
11.2
staunchest
ilova
cem@@
passionate
yg@@
Intervention
evicted
gig
ason
homic@@
Coric
homicide
Djapic
persevere
Ihsanoglu
displace
stagnate
mise
Plays
static
skill@@
absor@@
promulgated
dign@@
Maries
overlapping
inexperienced
Maf@@
handic@@
issuer
constel@@
integrations
ques@@
avid
crush
draf@@
harbor
Nouri
Moammar
Generals
Griffiths
Dic@@
backfired
Ifantis
itic
KCB
DPK
Awaits
mouse
reshape
packaged
intricate
sluggishness
alies
Kocani
tivism
Arizona
Lam@@
Placido
kan@@
sober
skeletons
ices
Design
immig@@
tured
gon@@
folklor@@
53,000
forfe@@
Superior
Kovesi
nova
disbur@@
pickup
hoses
Inspec@@
proficiency
oval
dea
505m
ehr
Mot@@
120@@
wasting
TUYAP
Muntean
millionaires
Journalist
acknowledgement
Fish
rebel@@
chauv@@
anography
abetes
gery
7km
Brindisi
Knez
thirsty
Riyadh
weekdays
berths
Jev@@
duce
Oguzlu
Lukavica
divergent
walnuts
bachel@@
interval
melted
activ@@
fade
tual
harb@@
sprawling
doms
excavating
respite
dynasties
ikos
Cvetkov
3,700
decry
Atif
Veritas
fills
get@@
emulate
triumphant
raced
40.@@
devil
fingerprint
scarf
Organized
indic@@
must@@
Paun
Consultancy
freel@@
hurled
manhunt
Alpbach
Llapashtica
interconnectors
oligarchs
ower
Turks.us
multibillion
vian
legitimately
polic@@
cija
embo@@
smoother
Cases
Legislation
cock@@
Step@@
245m
mindful
replete
rakija
bean
cooks
salad
melt
Sachs
waivers
reintegrate
Olters
measurements
Sen
Xen@@
Papastavrou
Saving
expiry
Emel
Etem
outpacing
Radoje
gunshots
Biennial
Photo@@
2.1m
Entrepreneurs
thos
trump
1928
1920
squad@@
Goddess
zul@@
knowhow
generosity
contradicting
dah
TVR
Transelectrica
inspecting
Teachers
Tigh@@
Jelavic
deterred
212m
overblown
Sebahat
formulas
fluent
Fejzic
Hubert
blanket
hideen
Thorbjorn
-14
Covaliu
158
OS@@
judoist
oiu
commuter
Ganev
maneuver
grandiose
esdays
ffer
demolishing
emo@@
panel@@
characterisation
repudi@@
ayan
Pavlopoulos
Sait
kal@@
Dances
Libertas
Sirnak
Ih@@
3,800
grader
Yous@@
Aqua
Mitrov@@
kW
aly@@
Vasili@@
confidentiality
gyms
adjudication
invali@@
Exploration
Flag
Negroponte
Mauritius
presi@@
91st
conduc@@
complacent
gov
Murders
Ghan@@
69.9
trafficker
toast
fur
conven@@
Vul@@
zaj
Wit@@
Sochi
dissip@@
Olympi@@
homeste@@
agro
Et@@
HP@@
siblings
quickest
sharpen@@
Viv@@
acija
Necati
esteemed
Anwar
Prefect
definitively
gated
decentralise
kne@@
Fillon
eros@@
spon@@
Misa
ghet@@
Dardanelles
Opening
Figaro
stripping
Progressives
adorned
Arn@@
uros
accumulating
altering
Wake
Costiniu
CS@@
Ciuperca
Kras@@
Quad@@
TI@@
misappropriation
advertise
obscene
withholding
Ibraj
Chen
interprets
pretending
frauds
Hopkins
shopkeeper
Sorbonne
rebounded
AM@@
maltreatment
Omonia
tossed
Dirk
Nisville
Martina
Coming
diment
unfold
Bakoyianni
pavement
Success@@
slides
taxing
erasing
doubly
wai@@
Eff@@
orph@@
111,000
italisation
form@@
Products
Antonic
individu@@
memoranda
trilogy
Dardania
applauds
Lufthansa
straining
Tomorrow
Pretoria
souls
Zabljak
wooing
4,600
gus@@
Schmidt
Structure
contin@@
gencies
fortresses
renounce
gamble
unproductive
crip@@
bastion
Cost
dazz@@
taxpayer
misreporting
Nursultan
Nazarbayev
joy@@
onboard
Bosn@@
Bratislav
3.7m
Christou
Boundary
Kovtun
ope
Lugovoi
Ethno@@
linkage
Jovanovski
fruition
devaluation
Sukar@@
-17
Tepelena
turbo
attentive
Darfur
Athletic
Kamen
Hosts
horri@@
Med
nav@@
foothills
rom@@
bulldozer
enumerators
digits
5.25
flattened
Gallipolis
praying
Regime
AGI
hone
Golubovic
addic@@
acks
podrome
embankments
aerial
sandbags
[...]
