<blank> 1
<unk> 2
<s> 3
</s> 4
the 5
, 6
. 7
of 8
to 9
in 10
and 11
a 12
&quot; 13
for 14
&apos;s 15
@-@ 16
is 17
on 18
that 19
with 20
by 21
/ 22
as 23
said 24
will 25
) 26
( 27
be 28
it 29
are 30
has 31
have 32
from 33
at 34
EU 35
was 36
he 37
Kosovo 38
-- 39
an 40
not 41
this 42
its 43
Serbia 44
European 45
country 46
also 47
which 48
Minister 49
government 50
we 51
&#91; 52
&#93; 53
their 54
but 55
his 56
they 57
would 58
year 59
new 60
- 61
been 62
Turkey 63
two 64
were 65
one 66
more 67
countries 68
all 69
BiH 70
after 71
who 72
: 73
Serbian 74
other 75
I 76
Macedonia 77
Belgrade 78
political 79
Southeast 80
there 81
Times 82
about 83
or 84
Croatia 85
according 86
co 87
told 88
first 89
% 90
Prime 91
over 92
euros 93
people 94
last 95
than 96
during 97
SETimes 98
Turkish 99
international 100
up 101
President 102
only 103
years 104
between 105
state 106
operation 107
can 108
UN 109
some 110
NATO 111
Albania 112
should 113
Bulgaria 114
Montenegro 115
if 116
had 117
no 118
economic 119
former 120
talks 121
against 122
while 123
Romania 124
; 125
Greece 126
however 127
time 128
&apos; 129
under 130
police 131
could 132
per 133
most 134
three 135
says 136
US 137
Europe 138
now 139
10 140
support 141
11 142
into 143
since 144
public 145
when 146
well 147
our 148
part 149
war 150
out 151
region 152
Monday 153
such 154
Croatian 155
process 156
officials 157
Greek 158
foreign 159
them 160
many 161
Albanian 162
Bosnia 163
cent 164
agreement 165
meeting 166
do 167
because 168
Herzegovina 169
law 170
report 171
so 172
including 173
Wednesday 174
Macedonian 175
end 176
member 177
those 178
members 179
party 180
elections 181
authorities 182
what 183
local 184
must 185
Party 186
she 187
expected 188
Tuesday 189
month 190
Pristina 191
among 192
any 193
made 194
09 195
Getty 196
crimes 197
Images 198
12 199
security 200
07 201
week 202
05 203
06 204
both 205
these 206
say 207
Reuters 208
take 209
parliament 210
Serb 211
before 212
04 213
03 214
08 215
work 216
AFP 217
issue 218
day 219
membership 220
number 221
Council 222
military 223
The 224
being 225
still 226
project 227
next 228
parties 229
future 230
business 231
May 232
March 233
Bulgarian 234
way 235
visit 236
June 237
October 238
news 239
Foreign 240
Thursday 241
? 242
through 243
International 244
December 245
citizens 246
decision 247
world 248
leaders 249
progress 250
January 251
media 252
&apos;t 253
minister 254
status 255
Balkans 256
very 257
you 258
held 259
announced 260
important 261
Romanian 262
reforms 263
based 264
saying 265
where 266
November 267
long 268
July 269
accession 270
corruption 271
won 272
leader 273
institutions 274
high 275
Skopje 276
make 277
added 278
April 279
company 280
months 281
independence 282
Sarajevo 283
called 284
system 285
opposition 286
Serbs 287
place 288
even 289
president 290
four 291
met 292
relations 293
towards 294
efforts 295
Balkan 296
integration 297
Sunday 298
issues 299
help 300
September 301
national 302
various 303
head 304
plan 305
Bank 306
community 307
chief 308
energy 309
power 310
situation 311
organised 312
group 313
General 314
sources 315
February 316
Commission 317
regional 318
Bosnian 319
need 320
United 321
Athens 322
same 323
reform 324
another 325
Cyprus 326
him 327
Democratic 328
vote 329
right 330
around 331
main 332
several 333
second 334
signed 335
billion 336
Union 337
continue 338
World 339
her 340
policy 341
crisis 342
border 343
negotiations 344
official 345
economy 346
deal 347
following 348
measures 349
States 350
court 351
become 352
without 353
possible 354
may 355
20 356
within 357
crime 358
recent 359
ethnic 360
financial 361
EC 362
market 363
ministry 364
move 365
see 366
key 367
development 368
five 369
good 370
major 371
set 372
past 373
event 374
August 375
statement 376
Friday 377
until 378
problems 379
tribunal 380
problem 381
then 382
Tadic 383
left 384
companies 385
Sofia 386
programme 387
election 388
further 389
much 390
Zagreb 391
rights 392
due 393
Brussels 394
states 395
conference 396
case 397
... 398
02 399
how 400
ruling 401
15 402
RS 403
current 404
team 405
join 406
already 407
top 408
Tirana 409
National 410
led 411
did 412
Russia 413
sector 414
AP 415
level 416
does 417
us 418
Hague 419
plans 420
full 421
01 422
meet 423
agreed 424
meanwhile 425
trade 426
representatives 427
days 428
use 429
open 430
Western 431
Security 432
took 433
budget 434
down 435
2004 436
Ankara 437
cultural 438
special 439
just 440
30 441
prime 442
mission 443
like 444
areas 445
six 446
Bucharest 447
far 448
Istanbul 449
early 450
gas 451
off 452
back 453
coalition 454
women 455
euro 456
free 457
ministers 458
IMF 459
role 460
standards 461
increase 462
better 463
Secretary 464
start 465
quoted 466
forces 467
investment 468
clear 469
want 470
Mladic 471
office 472
earlier 473
1 474
construction 475
opened 476
each 477
city 478
think 479
joint 480
conflict 481
get 482
results 483
come 484
$ 485
order 486
my 487
conditions 488
centre 489
province 490
money 491
children 492
solution 493
ten 494
general 495
found 496
25 497
press 498
final 499
growth 500
used 501
remains 502
step 503
Erdogan 504
majority 505
defence 506
able 507
interest 508
go 509
old 510
came 511
although 512
own 513
parliamentary 514
2007 515
change 516
together 517
cases 518
currently 519
experts 520
human 521
working 522
area 523
candidate 524
fight 525
Parliament 526
2008 527
stability 528
social 529
education 530
Cypriot 531
State 532
cannot 533
given 534
Germany 535
ICTY 536
provide 537
director 538
reported 539
Agency 540
campaign 541
best 542
politicians 543
term 544
remain 545
northern 546
projects 547
force 548
ago 549
17 550
life 551
legal 552
Albanians 553
information 554
daily 555
whether 556
counterpart 557
include 558
believe 559
received 560
urged 561
different 562
later 563
despite 564
taken 565
every 566
position 567
Association 568
2006 569
put 570
ahead 571
agency 572
16 573
late 574
hope 575
strong 576
total 577
building 578
third 579
27 580
needs 581
2005 582
run 583
summit 584
less 585
positive 586
peace 587
13 588
show 589
18 590
festival 591
soon 592
face 593
along 594
least 595
capital 596
democratic 597
changes 598
bid 599
Centre 600
Yugoslavia 601
groups 602
2009 603
period 604
large 605
million 606
administration 607
Saturday 608
14 609
implementation 610
name 611
UNMIK 612
New 613
justice 614
presidency 615
control 616
violence 617
Iraq 618
funds 619
town 620
tourism 621
Russian 622
Montenegrin 623
Boris 624
serious 625
dialogue 626
making 627
Ministry 628
lack 629
line 630
few 631
likely 632
near 633
result 634
24 635
largest 636
nearly 637
Court 638
review 639
Kostunica 640
Deputy 641
others 642
bring 643
Agreement 644
arrest 645
reached 646
young 647
potential 648
home 649
2010 650
bloc 651
visa 652
oil 653
global 654
yet 655
laws 656
though 657
action 658
return 659
especially 660
ready 661
family 662
recently 663
21 664
adding 665
improve 666
Republika 667
nation 668
trial 669
give 670
necessary 671
needed 672
decided 673
population 674
find 675
goal 676
approved 677
organisation 678
taking 679
Slovenia 680
small 681
Srpska 682
aimed 683
independent 684
non 685
Italy 686
University 687
freedom 688
began 689
reports 690
nations 691
B92 692
am 693
significant 694
Alliance 695
diplomatic 696
rate 697
discuss 698
activities 699
tax 700
German 701
established 702
KFOR 703
France 704
22 705
noted 706
Karadzic 707
culture 708
troops 709
OSCE 710
Festival 711
private 712
Milosevic 713
boost 714
Representative 715
launched 716
arrested 717
seven 718
fact 719
eight 720
pay 721
health 722
1995 723
Commissioner 724
close 725
bilateral 726
again 727
anti 728
Washington 729
19 730
opening 731
increased 732
rule 733
too 734
steps 735
28 736
23 737
whose 738
domestic 739
latest 740
2003 741
point 742
warned 743
Rehn 744
AKP 745
services 746
today 747
adopted 748
living 749
de 750
lead 751
annual 752
2 753
constitution 754
post 755
regime 756
expressed 757
prosecutor 758
build 759
difficult 760
ties 761
wants 762
stressed 763
26 764
ensure 765
production 766
privatisation 767
charges 768
property 769
EULEX 770
assistance 771
analysts 772
Zoran 773
3 774
PKK 775
pressure 776
road 777
plant 778
minority 779
debt 780
News 781
central 782
men 783
seen 784
BBC 785
half 786
students 787
infrastructure 788
expect 789
hold 790
leading 791
50 792
done 793
real 794
proposal 795
proposed 796
involved 797
round 798
referendum 799
Nikola 800
means 801
north 802
known 803
film 804
legislation 805
strategy 806
common 807
reporters 808
don 809
Development 810
focus 811
committed 812
Justice 813
trafficking 814
voters 815
protection 816
higher 817
customs 818
Ahtisaari 819
school 820
discussed 821
sign 822
great 823
society 824
prices 825
asked 826
initiative 827
constitutional 828
Kurdish 829
brought 830
Roma 831
GDP 832
started 833
bank 834
once 835
envoy 836
Central 837
almost 838
terms 839
rather 840
receive 841
Army 842
Yugoslav 843
low 844
issued 845
here 846
weeks 847
Peace 848
resolution 849
criminal 850
effort 851
price 852
history 853
allow 854
fully 855
1999 856
job 857
Defence 858
cabinet 859
Republic 860
1st 861
list 862
organisations 863
document 864
DPA 865
hopes 866
failed 867
reach 868
begin 869
Berisha 870
ceremony 871
service 872
29 873
religious 874
going 875
related 876
cost 877
Institute 878
British 879
know 880
illegal 881
High 882
data 883
French 884
investigation 885
reportedly 886
voiced 887
across 888
Jovanovic 889
workers 890
entry 891
prosecutors 892
coming 893
Group 894
Basescu 895
date 896
George 897
scheduled 898
included 899
similar 900
biggest 901
times 902
planned 903
delegation 904
enough 905
considered 906
includes 907
present 908
access 909
particularly 910
forward 911
operate 912
behind 913
responsibility 914
might 915
dispute 916
democracy 917
described 918
sides 919
5 920
science 921
communities 922
competition 923
offer 924
average 925
attacks 926
released 927
killed 928
form 929
Sanader 930
South 931
Olympic 932
victims 933
electricity 934
senior 935
journalists 936
investors 937
Euro 938
Social 939
attended 940
addition 941
address 942
entity 943
Office 944
points 945
me 946
terrorism 947
direct 948
investments 949
pipeline 950
judicial 951
create 952
presented 953
capacity 954
instead 955
water 956
deputy 957
certain 958
training 959
provided 960
followed 961
island 962
officers 963
army 964
comes 965
concern 966
politics 967
keep 968
your 969
Atlantic 970
40 971
previous 972
sports 973
Gul 974
never 975
ended 976
became 977
6 978
example 979
governments 980
call 981
sent 982
nuclear 983
Thaci 984
presidential 985
interests 986
2002 987
Ambassador 988
regarding 989
confidence 990
published 991
Tayyip 992
al 993
hand 994
Recep 995
calls 996
soldiers 997
candidates 998
terrorist 999
industry 1000
participants 1001
loan 1002
Enlargement 1003
opportunity 1004
4 1005
natural 1006
outside 1007
nine 1008
win 1009
mandate 1010
Radio 1011
deficit 1012
air 1013
importance 1014
went 1015
success 1016
visited 1017
responsible 1018
short 1019
judiciary 1020
trying 1021
impact 1022
Gruevski 1023
beginning 1024
single 1025
TV 1026
side 1027
credit 1028
Srebrenica 1029
events 1030
summer 1031
representative 1032
exhibition 1033
commander 1034
2001 1035
thousands 1036
required 1037
question 1038
accused 1039
live 1040
site 1041
operations 1042
jobs 1043
Muslim 1044
confirmed 1045
complete 1046
declaration 1047
lost 1048
prison 1049
why 1050
2011 1051
having 1052
12th 1053
spokesman 1054
Ivo 1055
priority 1056
aid 1057
conducted 1058
banks 1059
draft 1060
environment 1061
criteria 1062
debate 1063
pledged 1064
Igor 1065
completed 1066
additional 1067
agenda 1068
highest 1069
hard 1070
civil 1071
Finance 1072
itself 1073
travel 1074
Ratko 1075
alleged 1076
implement 1077
challenges 1078
continued 1079
del 1080
big 1081
wanted 1082
100 1083
joining 1084
Vojislav 1085
view 1086
overall 1087
study 1088
joined 1089
interview 1090
whole 1091
unemployment 1092
award 1093
markets 1094
abroad 1095
tourists 1096
commitment 1097
implementing 1098
votes 1099
East 1100
respect 1101
agreements 1102
Ponte 1103
indictees 1104
prevent 1105
idea 1106
opinion 1107
lower 1108
path 1109
un@@ 1110
elected 1111
things 1112
launch 1113
concerns 1114
File 1115
15th 1116
establish 1117
10th 1118
welcomed 1119
31 1120
away 1121
Austria 1122
series 1123
municipalities 1124
network 1125
compared 1126
successful 1127
Interior 1128
agree 1129
Film 1130
village 1131
failure 1132
union 1133
everything 1134
food 1135
charged 1136
explained 1137
products 1138
judges 1139
threat 1140
often 1141
1992 1142
seeking 1143
7 1144
share 1145
research 1146
something 1147
commission 1148
enter 1149
War 1150
signing 1151
Podgorica 1152
protest 1153
calling 1154
Gotovina 1155
Slobodan 1156
session 1157
estimated 1158
facing 1159
basis 1160
Hungary 1161
little 1162
Cypriots 1163
starting 1164
strategic 1165
ever 1166
amount 1167
management 1168
paid 1169
turn 1170
polls 1171
works 1172
stand 1173
play 1174
fighting 1175
attack 1176
Djindjic 1177
criticised 1178
documents 1179
movement 1180
victory 1181
response 1182
leave 1183
weapons 1184
evidence 1185
reduce 1186
5th 1187
act 1188
accept 1189
speaking 1190
suspects 1191
ongoing 1192
participation 1193
hours 1194
Committee 1195
continues 1196
participate 1197
re@@ 1198
Stabilisation 1199
effect 1200
fair 1201
faces 1202
schools 1203
17th 1204
firm 1205
ic 1206
prospects 1207
Mesic 1208
arrived 1209
SAA 1210
rejected 1211
lawmakers 1212
entire 1213
requirements 1214
exchange 1215
owned 1216
using 1217
8 1218
3rd 1219
finance 1220
risk 1221
technical 1222
Federation 1223
policies 1224
Solana 1225
framework 1226
20th 1227
rules 1228
presence 1229
21st 1230
achieve 1231
internet 1232
Islamic 1233
message 1234
invest 1235
becoming 1236
indicted 1237
technology 1238
aims 1239
parts 1240
Ashdown 1241
passed 1242
Luka 1243
offered 1244
throughout 1245
football 1246
reason 1247
created 1248
seats 1249
rise 1250
Britain 1251
influence 1252
language 1253
6th 1254
territory 1255
quality 1256
recognise 1257
longer 1258
chance 1259
suggested 1260
doing 1261
Director 1262
structures 1263
strengthen 1264
exports 1265
families 1266
built 1267
obligations 1268
death 1269
Banja 1270
Department 1271
2000 1272
package 1273
anniversary 1274
believes 1275
cut 1276
Affairs 1277
goods 1278
Italian 1279
armed 1280
always 1281
Games 1282
minorities 1283
rates 1284
worth 1285
performance 1286
man 1287
Olli 1288
survey 1289
planning 1290
Criminal 1291
thus 1292
growing 1293
closer 1294
promote 1295
remaining 1296
1990s 1297
11th 1298
Dayton 1299
crucial 1300
murder 1301
York 1302
actions 1303
themselves 1304
Papandreou 1305
supported 1306
divided 1307
specific 1308
stop 1309
businesses 1310
60 1311
e 1312
poor 1313
field 1314
4th 1315
funding 1316
tender 1317
19th 1318
increasing 1319
resources 1320
demand 1321
8th 1322
Ohrid 1323
pro 1324
gold 1325
recognised 1326
closed 1327
Socialist 1328
borders 1329
shows 1330
s 1331
7th 1332
Sea 1333
neighbouring 1334
course 1335
Rights 1336
Mitrovica 1337
kind 1338
century 1339
Orthodox 1340
achieved 1341
declared 1342
Radovan 1343
equipment 1344
indictment 1345
greater 1346
in@@ 1347
genocide 1348
land 1349
analyst 1350
protect 1351
seek 1352
decide 1353
recognition 1354
house 1355
decisions 1356
popular 1357
officially 1358
Olympics 1359
involvement 1360
Slovenian 1361
experience 1362
immediately 1363
9th 1364
mobile 1365
consider 1366
either 1367
claims 1368
matter 1369
28th 1370
Iran 1371
concrete 1372
Moscow 1373
operating 1374
allowed 1375
stable 1376
fiscal 1377
figures 1378
leadership 1379
age 1380
inflation 1381
existing 1382
levels 1383
Annan 1384
interior 1385
light 1386
implemented 1387
Cup 1388
Tomislav 1389
13th 1390
labour 1391
gave 1392
Tribunal 1393
transport 1394
re 1395
unit 1396
try 1397
benefit 1398
chairman 1399
citing 1400
Culture 1401
forum 1402
2nd 1403
particular 1404
nothing 1405
establishment 1406
approach 1407
lives 1408
14th 1409
approval 1410
Dodik 1411
costs 1412
protests 1413
authority 1414
submitted 1415
improved 1416
release 1417
concerning 1418
Sejdiu 1419
employees 1420
look 1421
Crvenkovski 1422
Abdullah 1423
S@@ 1424
showed 1425
courts 1426
front 1427
Energy 1428
climate 1429
improving 1430
ovic 1431
stage 1432
challenge 1433
opportunities 1434
prepared 1435
account 1436
16th 1437
communist 1438
fall 1439
VOA 1440
holds 1441
Eastern 1442
positions 1443
professor 1444
Co 1445
mostly 1446
Dragan 1447
takes 1448
financing 1449
Djukanovic 1450
southern 1451
ing 1452
30th 1453
25th 1454
amid 1455
partner 1456
effective 1457
focused 1458
mid 1459
benefits 1460
match 1461
compromise 1462
died 1463
enlargement 1464
praised 1465
secure 1466
programmes 1467
happen 1468
meetings 1469
zone 1470
council 1471
drug 1472
providing 1473
Human 1474
believed 1475
Fund 1476
registered 1477
develop 1478
23rd 1479
expects 1480
critical 1481
possibility 1482
visitors 1483
charge 1484
promised 1485
contract 1486
American 1487
EP 1488
modern 1489
22nd 1490
Ali 1491
record 1492
SEE 1493
establishing 1494
Spain 1495
phase 1496
staff 1497
municipality 1498
care 1499
aim 1500
resolve 1501
18th 1502
shown 1503
hit 1504
art 1505
stay 1506
Adriatic 1507
partners 1508
Fatmir 1509
upcoming 1510
hundreds 1511
forced 1512
Afghanistan 1513
rest 1514
heads 1515
ways 1516
negative 1517
committee 1518
makes 1519
serve 1520
9 1521
avoid 1522
professional 1523
discussions 1524
o 1525
negotiating 1526
27th 1527
mainly 1528
sale 1529
continuing 1530
traditional 1531
ones 1532
host 1533
allegedly 1534
Assembly 1535
Libya 1536
huge 1537
movie 1538
sought 1539
Vladimir 1540
cities 1541
available 1542
Czech 1543
affairs 1544
strengthening 1545
spending 1546
Scheffer 1547
car 1548
Police 1549
Hoop 1550
institution 1551
Middle 1552
Economy 1553
send 1554
Vienna 1555
tried 1556
turned 1557
finally 1558
moment 1559
poll 1560
voting 1561
mean 1562
35 1563
headed 1564
Greeks 1565
employment 1566
facilities 1567
priorities 1568
Sali 1569
economies 1570
rating 1571
everyone 1572
music 1573
personal 1574
26th 1575
urging 1576
active 1577
Goran 1578
procedures 1579
1991 1580
2012 1581
Israel 1582
RFE 1583
poverty 1584
ground 1585
caused 1586
era 1587
request 1588
agencies 1589
supply 1590
goals 1591
Vuk 1592
reasons 1593
lot 1594
conflicts 1595
Austrian 1596
resolved 1597
loans 1598
cross 1599
developments 1600
persons 1601
Nikolic 1602
changed 1603
assessment 1604
contribute 1605
looking 1606
census 1607
residents 1608
internal 1609
letter 1610
interested 1611
RL 1612
affected 1613
condition 1614
helping 1615
Economic 1616
settlement 1617
liberalisation 1618
attend 1619
NGOs 1620
board 1621
currency 1622
concluded 1623
raise 1624
1998 1625
ban 1626
places 1627
suspected 1628
transition 1629
Hashim 1630
attempt 1631
basic 1632
tourist 1633
raised 1634
70 1635
SFOR 1636
edition 1637
served 1638
affect 1639
spent 1640
via 1641
principles 1642
quickly 1643
attention 1644
offers 1645
Museum 1646
individuals 1647
hosted 1648
traffic 1649
criminals 1650
Croats 1651
self 1652
follow 1653
threats 1654
noting 1655
statements 1656
territorial 1657
decades 1658
carried 1659
200 1660
personnel 1661
cited 1662
environmental 1663
track 1664
bringing 1665
Speaker 1666
Karamanlis 1667
invitation 1668
criticism 1669
backed 1670
sure 1671
FT 1672
stake 1673
pre 1674
body 1675
29th 1676
person 1677
amendments 1678
transfer 1679
Muslims 1680
television 1681
II 1682
Democrats 1683
Milorad 1684
4@@ 1685
ed 1686
represent 1687
individual 1688
adoption 1689
1,000 1690
historic 1691
incident 1692
Jeremic 1693
figure 1694
taxes 1695
questions 1696
China 1697
refugees 1698
voted 1699
Traian 1700
provides 1701
sites 1702
speech 1703
turnout 1704
journalist 1705
tensions 1706
tells 1707
export 1708
24th 1709
book 1710
partnership 1711
placed 1712
Black 1713
Croat 1714
Trade 1715
monitoring 1716
speed 1717
task 1718
fourth 1719
named 1720
youth 1721
separate 1722
theatre 1723
Democracy 1724
neighbours 1725
formed 1726
bill 1727
initial 1728
sectors 1729
80 1730
feel 1731
Paul 1732
imports 1733
emergency 1734
visits 1735
Bosniak 1736
es 1737
supporters 1738
outcome 1739
target 1740
medical 1741
Barroso 1742
numerous 1743
dis@@ 1744
peaceful 1745
located 1746
worst 1747
accepted 1748
phone 1749
buildings 1750
participated 1751
fire 1752
prosecution 1753
values 1754
Georgi 1755
revenues 1756
indicated 1757
hands 1758
stance 1759
concerned 1760
massacre 1761
Partnership 1762
MPs 1763
participating 1764
i 1765
SE 1766
London 1767
creating 1768
homes 1769
HDZ 1770
eventually 1771
gathered 1772
treatment 1773
fans 1774
Netherlands 1775
peacekeeping 1776
sold 1777
Ahmet 1778
essential 1779
entities 1780
Antonio 1781
Branko 1782
sell 1783
prior 1784
nor 1785
supports 1786
systems 1787
warning 1788
artists 1789
fear 1790
allowing 1791
houses 1792
alone 1793
civilians 1794
expert 1795
income 1796
films 1797
giving 1798
Linda 1799
determined 1800
safety 1801
gain 1802
agriculture 1803
industrial 1804
entertainment 1805
simply 1806
players 1807
above 1808
units 1809
night 1810
A@@ 1811
damage 1812
thing 1813
tour 1814
consensus 1815
buy 1816
EBRD 1817
incidents 1818
Milan 1819
stations 1820
favour 1821
OHR 1822
model 1823
therefore 1824
supporting 1825
Mediterranean 1826
Tariceanu 1827
really 1828
Radic 1829
Bush 1830
facility 1831
firms 1832
visiting 1833
Integration 1834
newly 1835
decade 1836
connection 1837
executive 1838
90 1839
command 1840
Natasa 1841
Karadaku 1842
Roundup 1843
got 1844
let 1845
institutional 1846
developed 1847
played 1848
salaries 1849
readiness 1850
managed 1851
creation 1852
intelligence 1853
maintain 1854
Special 1855
deadline 1856
fugitive 1857
demands 1858
Beta 1859
C@@ 1860
Mayor 1861
application 1862
cover 1863
Dutch 1864
Ivan 1865
Schengen 1866
block 1867
Turks 1868
Poland 1869
carry 1870
approximately 1871
headquarters 1872
resolving 1873
assets 1874
decentralisation 1875
talk 1876
acts 1877
newspaper 1878
encourage 1879
commercial 1880
produce 1881
Christmas 1882
discovered 1883
largely 1884
overcome 1885
consequences 1886
Parvanov 1887
marked 1888
assassination 1889
moving 1890
controversial 1891
contribution 1892
relationship 1893
republic 1894
administrative 1895
mark 1896
NGO 1897
limited 1898
beyond 1899
division 1900
treaty 1901
running 1902
addressing 1903
quarter 1904
discussion 1905
saw 1906
annually 1907
image 1908
getting 1909
solve 1910
electoral 1911
Macedonians 1912
trust 1913
5@@ 1914
appointed 1915
commitments 1916
port 1917
Chief 1918
completely 1919
complex 1920
strike 1921
FBiH 1922
Georgiev 1923
Novi 1924
3@@ 1925
plants 1926
structure 1927
returned 1928
Javier 1929
Stipe 1930
reiterated 1931
6@@ 1932
Lajcak 1933
sovereignty 1934
delay 1935
t 1936
source 1937
permanent 1938
himself 1939
pass 1940
anything 1941
Law 1942
autonomy 1943
highly 1944
race 1945
West 1946
clearly 1947
dropped 1948
weekend 1949
introduced 1950
range 1951
observers 1952
Moldova 1953
banking 1954
missions 1955
Research 1956
Syria 1957
arrests 1958
station 1959
ancient 1960
winning 1961
Paris 1962
Day 1963
&apos;m 1964
respectively 1965
leaving 1966
House 1967
wrote 1968
nationalist 1969
allegations 1970
reconstruction 1971
Romanians 1972
bad 1973
primary 1974
airport 1975
push 1976
prominent 1977
mass 1978
finding 1979
developing 1980
Chamber 1981
offices 1982
reconciliation 1983
paper 1984
representing 1985
operational 1986
increasingly 1987
player 1988
Technology 1989
require 1990
T@@ 1991
reaching 1992
Martti 1993
helped 1994
diplomats 1995
worked 1996
requires 1997
moved 1998
safe 1999
Movement 2000
bridge 2001
ability 2002
woman 2003
practice 2004
score 2005
details 2006
resignation 2007
Buckovski 2008
ts 2009
Thessaloniki 2010
procedure 2011
lines 2012
eastern 2013
medal 2014
numbers 2015
directly 2016
activity 2017
widely 2018
story 2019
streets 2020
functioning 2021
stands 2022
Theatre 2023
restrictions 2024
Church 2025
fund 2026
rising 2027
Hungarian 2028
Embassy 2029
Iraqi 2030
differences 2031
student 2032
hospital 2033
Ukraine 2034
adopt 2035
civilian 2036
probably 2037
seat 2038
mutual 2039
diplomat 2040
ask 2041
secret 2042
season 2043
heritage 2044
ers 2045
addressed 2046
base 2047
doesn 2048
born 2049
Liberal 2050
strongly 2051
code 2052
opposed 2053
seems 2054
remained 2055
ministries 2056
cars 2057
Free 2058
friends 2059
owner 2060
measure 2061
teams 2062
eurozone 2063
claimed 2064
300 2065
I@@ 2066
Talat 2067
suggest 2068
unless 2069
cause 2070
value 2071
reduced 2072
hoping 2073
table 2074
regulations 2075
regular 2076
granted 2077
improvement 2078
31st 2079
test 2080
filed 2081
officer 2082
internationally 2083
refused 2084
offering 2085
holding 2086
reality 2087
substantial 2088
university 2089
verdict 2090
describing 2091
alternative 2092
People 2093
IT 2094
trip 2095
owners 2096
Ottoman 2097
claim 2098
O@@ 2099
Constitutional 2100
historical 2101
Forces 2102
sentence 2103
rotating 2104
athletes 2105
&apos;re 2106
reduction 2107
ranked 2108
scientists 2109
retired 2110
Danube 2111
Ivica 2112
factory 2113
difficulties 2114
prove 2115
River 2116
Independent 2117
P@@ 2118
tonnes 2119
meant 2120
pace 2121
Christofias 2122
designed 2123
anyone 2124
formal 2125
attract 2126
involving 2127
linked 2128
Ban 2129
subject 2130
roads 2131
VMRO 2132
chapters 2133
apply 2134
PSD 2135
exercise 2136
Costas 2137
ambassador 2138
Telekom 2139
Hasani 2140
option 2141
intended 2142
blocked 2143
represented 2144
stressing 2145
sentenced 2146
Blic 2147
winner 2148
parents 2149
assist 2150
imposed 2151
finished 2152
ranking 2153
abuse 2154
thought 2155
B@@ 2156
initially 2157
cuts 2158
equal 2159
factors 2160
conduct 2161
opens 2162
hour 2163
7@@ 2164
ordered 2165
duties 2166
Investment 2167
church 2168
destroyed 2169
break 2170
highway 2171
Berlin 2172
remarks 2173
proposals 2174
municipal 2175
salary 2176
Miroslav 2177
fell 2178
direction 2179
invited 2180
threatened 2181
guarantee 2182
Vice 2183
North 2184
risks 2185
double 2186
solutions 2187
smaller 2188
door 2189
austerity 2190
space 2191
Action 2192
views 2193
F@@ 2194
Sports 2195
unable 2196
concert 2197
drop 2198
mayor 2199
regions 2200
contributed 2201
Petersen 2202
Education 2203
enforcement 2204
lose 2205
2@@ 2206
attempts 2207
sales 2208
decline 2209
welcome 2210
son 2211
killing 2212
depends 2213
seriously 2214
slow 2215
easy 2216
Carla 2217
Rugova 2218
neither 2219
adds 2220
faced 2221
rose 2222
&apos;ve 2223
words 2224
fugitives 2225
street 2226
powers 2227
Jessen 2228
assembly 2229
Libyan 2230
previously 2231
aware 2232
boycott 2233
battle 2234
denied 2235
prepare 2236
500 2237
Mostar 2238
trend 2239
dealing 2240
DPMNE 2241
represents 2242
missing 2243
K@@ 2244
detained 2245
sustainable 2246
preparing 2247
obtain 2248
crossing 2249
arms 2250
injured 2251
child 2252
transferred 2253
preparations 2254
choice 2255
computer 2256
ordination 2257
discrimination 2258
Public 2259
external 2260
8@@ 2261
understand 2262
Laura 2263
2,000 2264
Merkel 2265
SDP 2266
setting 2267
Christian 2268
CNN 2269
ruled 2270
determine 2271
spokesperson 2272
statistics 2273
south 2274
significantly 2275
insisted 2276
fields 2277
generally 2278
happened 2279
identified 2280
sponsored 2281
arrangement 2282
ted 2283
ranks 2284
politically 2285
enterprises 2286
contest 2287
Academy 2288
dead 2289
goes 2290
operator 2291
wide 2292
understanding 2293
supplies 2294
sense 2295
identity 2296
appeal 2297
promoting 2298
medals 2299
failing 2300
E@@ 2301
association 2302
obstacle 2303
extended 2304
Davutoglu 2305
secretary 2306
primarily 2307
wing 2308
entered 2309
DSS 2310
promises 2311
targets 2312
powerful 2313
EUFOR 2314
initiatives 2315
G@@ 2316
founded 2317
appeared 2318
Gazprom 2319
appear 2320
Borisov 2321
marking 2322
Chairman 2323
voter 2324
Japan 2325
networks 2326
Stanishev 2327
witness 2328
stronger 2329
upon 2330
comments 2331
critics 2332
boosting 2333
Socialists 2334
seeks 2335
spend 2336
Israeli 2337
Dinkic 2338
obstacles 2339
accord 2340
Paddy 2341
D@@ 2342
regardless 2343
Forum 2344
efficiency 2345
standing 2346
pensions 2347
Policy 2348
Studies 2349
Jose 2350
Ministers 2351
fuel 2352
Force 2353
agricultural 2354
unacceptable 2355
honour 2356
Josipovic 2357
Supreme 2358
expectations 2359
true 2360
showing 2361
pension 2362
Kurds 2363
handed 2364
room 2365
VAT 2366
factor 2367
integrity 2368
game 2369
purchase 2370
ensuring 2371
Split 2372
Bloomberg 2373
Vojvodina 2374
violations 2375
PASOK 2376
names 2377
chances 2378
Jaap 2379
spoke 2380
ate 2381
profit 2382
sanctions 2383
Organisation 2384
links 2385
insists 2386
Dnevnik 2387
heavy 2388
relevant 2389
lawyer 2390
Milo 2391
Board 2392
Georgia 2393
structural 2394
en@@ 2395
guilty 2396
Foundation 2397
scientific 2398
website 2399
closely 2400
suggests 2401
restructuring 2402
N@@ 2403
below 2404
PfP 2405
envisions 2406
transparency 2407
fulfil 2408
Vujanovic 2409
waiting 2410
spring 2411
appears 2412
normal 2413
asylum 2414
Draskovic 2415
losses 2416
receiving 2417
expansion 2418
Switzerland 2419
invested 2420
efficient 2421
certainly 2422
existence 2423
&amp; 2424
awards 2425
Africa 2426
Nicosia 2427
users 2428
scale 2429
acting 2430
shares 2431
Mehmet 2432
determination 2433
Stream 2434
search 2435
smuggling 2436
optimistic 2437
refugee 2438
Mediapool 2439
tennis 2440
consumers 2441
presidents 2442
books 2443
consortium 2444
exist 2445
flag 2446
considering 2447
fraud 2448
Stefan 2449
45 2450
centres 2451
ICJ 2452
reducing 2453
willing 2454
loss 2455
Diary 2456
immediate 2457
150 2458
broad 2459
resort 2460
&apos;ll 2461
red 2462
star 2463
Contact 2464
moves 2465
produced 2466
bids 2467
convicted 2468
whom 2469
extradition 2470
department 2471
speak 2472
occurred 2473
sparked 2474
fifth 2475
demanding 2476
suspect 2477
Nabucco 2478
enjoy 2479
Islam 2480
Championship 2481
perspective 2482
someone 2483
republics 2484
principle 2485
9@@ 2486
signal 2487
M@@ 2488
marks 2489
e@@ 2490
Michael 2491
mine 2492
wait 2493
Ante 2494
Belgium 2495
wartime 2496
writer 2497
protected 2498
CHP 2499
transit 2500
scene 2501
acknowledged 2502
L@@ 2503
damaged 2504
wife 2505
educational 2506
otherwise 2507
effects 2508
Ciocoiu 2509
hiding 2510
Commander 2511
Ceku 2512
de@@ 2513
becomes 2514
i@@ 2515
considerable 2516
Government 2517
Marina 2518
55 2519
enable 2520
communication 2521
constructive 2522
combat 2523
announcement 2524
impossible 2525
submit 2526
suspended 2527
route 2528
insurance 2529
vowed 2530
transportation 2531
kept 2532
Science 2533
generals 2534
serving 2535
nevertheless 2536
competitive 2537
silver 2538
y 2539
paying 2540
ting 2541
er 2542
Slovakia 2543
UNESCO 2544
prize 2545
bodies 2546
dangerous 2547
Stability 2548
Protection 2549
achieving 2550
Bulgarians 2551
deputies 2552
Press 2553
software 2554
didn 2555
removed 2556
Qaeda 2557
Zaman 2558
completion 2559
Ivanov 2560
Health 2561
satisfied 2562
carrying 2563
ends 2564
candidacy 2565
Alexander 2566
UNDP 2567
Pact 2568
collection 2569
requirement 2570
green 2571
Blerta 2572
entering 2573
widespread 2574
Arab 2575
reunification 2576
Kosor 2577
Spanish 2578
viewed 2579
wins 2580
villages 2581
organisers 2582
argues 2583
split 2584
ideas 2585
resident 2586
holiday 2587
performed 2588
unilateral 2589
gets 2590
meets 2591
camp 2592
objective 2593
citizenship 2594
DS 2595
losing 2596
museum 2597
acceptable 2598
eventual 2599
witnesses 2600
monthly 2601
title 2602
towns 2603
gives 2604
hosts 2605
manner 2606
vehicles 2607
10,000 2608
adviser 2609
vice 2610
surrender 2611
effectively 2612
doctors 2613
except 2614
EurActiv 2615
grant 2616
wages 2617
Foniqi 2618
! 2619
os 2620
wish 2621
applied 2622
Manuel 2623
investigations 2624
obligation 2625
governance 2626
comprehensive 2627
competitiveness 2628
A 2629
square 2630
multiethnic 2631
Haradinaj 2632
5,000 2633
aside 2634
coast 2635
proved 2636
rural 2637
DUI 2638
Programme 2639
larger 2640
Nikolovski 2641
lowest 2642
Sad 2643
Popescu 2644
representation 2645
awareness 2646
confident 2647
2013 2648
choose 2649
happy 2650
destination 2651
facilitate 2652
Nastase 2653
Service 2654
delayed 2655
Ivanovic 2656
tasks 2657
drugs 2658
Asia 2659
shared 2660
distribution 2661
trials 2662
worldwide 2663
teachers 2664
Tourism 2665
recommendations 2666
fundamental 2667
inside 2668
minimum 2669
deployment 2670
d@@ 2671
Markovic 2672
400 2673
apart 2674
LDK 2675
club 2676
backing 2677
arguing 2678
Babacan 2679
Guardian 2680
keeping 2681
quite 2682
changing 2683
features 2684
Luxembourg 2685
performances 2686
extremely 2687
initiated 2688
killings 2689
preliminary 2690
Staff 2691
violent 2692
Makfax 2693
League 2694
asking 2695
Radical 2696
argue 2697
City 2698
replace 2699
shortly 2700
fail 2701
medium 2702
shot 2703
Rexhepi 2704
unique 2705
universities 2706
ated 2707
Internet 2708
terror 2709
g@@ 2710
ending 2711
Relations 2712
sovereign 2713
ation 2714
c@@ 2715
farmers 2716
allies 2717
famous 2718
alliance 2719
estate 2720
ANA 2721
quick 2722
humanitarian 2723
suffered 2724
topics 2725
Dusan 2726
Art 2727
Society 2728
Prosecutor 2729
greatest 2730
Kofi 2731
expand 2732
Ljajic 2733
signs 2734
detention 2735
sentences 2736
judge 2737
duty 2738
passports 2739
respondents 2740
Ibrahim 2741
directed 2742
demonstrate 2743
pointed 2744
Robert 2745
circumstances 2746
awarded 2747
delivered 2748
Best 2749
tournament 2750
s@@ 2751
sea 2752
agrees 2753
Airlines 2754
western 2755
Open 2756
Aleksandar 2757
dominated 2758
Kurdistan 2759
1996 2760
Chinese 2761
W@@ 2762
extend 2763
Rama 2764
Summer 2765
expression 2766
Plus 2767
accounts 2768
read 2769
Election 2770
Business 2771
processes 2772
bronze 2773
monetary 2774
tradition 2775
accompanied 2776
deep 2777
voicing 2778
elements 2779
editor 2780
improvements 2781
crossings 2782
counts 2783
covering 2784
English 2785
cards 2786
singer 2787
protocol 2788
urges 2789
Eurovision 2790
scandal 2791
reaction 2792
father 2793
1m 2794
knowledge 2795
parallel 2796
over@@ 2797
rich 2798
producer 2799
1.5 2800
raising 2801
resulted 2802
remove 2803
Bosniaks 2804
massive 2805
metres 2806
endorsed 2807
accusations 2808
size 2809
Dacic 2810
R@@ 2811
Davor 2812
flights 2813
percentage 2814
Euobserver 2815
1993 2816
attending 2817
chosen 2818
returns 2819
Mustafa 2820
allows 2821
turning 2822
contracts 2823
Parliamentary 2824
career 2825
titled 2826
multi 2827
purpose 2828
prompted 2829
65 2830
organise 2831
estimates 2832
terrorists 2833
district 2834
irregularities 2835
Inzko 2836
Award 2837
leads 2838
replaced 2839
Canada 2840
tough 2841
stepped 2842
ordinator 2843
provisions 2844
Fair 2845
drew 2846
Daniel 2847
Sweden 2848
argued 2849
appointment 2850
type 2851
sufficient 2852
patients 2853
besides 2854
Information 2855
notes 2856
fast 2857
enhance 2858
mind 2859
written 2860
1990 2861
band 2862
waste 2863
responsibilities 2864
u 2865
telling 2866
original 2867
ski 2868
Milososki 2869
doubt 2870
fears 2871
actually 2872
Financial 2873
DP 2874
elsewhere 2875
businessmen 2876
nature 2877
spread 2878
immunity 2879
Charter 2880
Milovanovic 2881
actual 2882
indictee 2883
draw 2884
proceedings 2885
H@@ 2886
Nebojsa 2887
revenue 2888
MP 2889
capture 2890
p@@ 2891
inter 2892
winter 2893
economist 2894
accordance 2895
wrong 2896
balance 2897
wage 2898
100,000 2899
instance 2900
successfully 2901
insist 2902
an@@ 2903
gained 2904
Re@@ 2905
Putin 2906
listed 2907
location 2908
rally 2909
chapter 2910
visas 2911
SDSM 2912
protesters 2913
3,000 2914
gap 2915
severe 2916
none 2917
integrated 2918
formally 2919
Durres 2920
legislative 2921
page 2922
beat 2923
advantage 2924
Clinton 2925
120 2926
Echo 2927
drawn 2928
ally 2929
sending 2930
maintaining 2931
covered 2932
railway 2933
heart 2934
millions 2935
USAID 2936
moreover 2937
guarantees 2938
declined 2939
song 2940
advance 2941
forming 2942
seized 2943
increases 2944
incumbent 2945
degree 2946
Chancellor 2947
explains 2948
deals 2949
link 2950
removal 2951
32 2952
Armenian 2953
HINA 2954
John 2955
formation 2956
100m 2957
America 2958
prosperity 2959
assured 2960
ac@@ 2961
destruction 2962
manager 2963
repeatedly 2964
protecting 2965
easier 2966
convinced 2967
controlled 2968
Bakoyannis 2969
atmosphere 2970
archaeologists 2971
rescue 2972
5m 2973
3m 2974
online 2975
secular 2976
Sarkozy 2977
displaced 2978
selected 2979
category 2980
elect 2981
practical 2982
celebrated 2983
stock 2984
train 2985
humanity 2986
unity 2987
easily 2988
founder 2989
Hurriyet 2990
analysis 2991
drafted 2992
clashes 2993
Valentin 2994
defined 2995
friendly 2996
depend 2997
emphasised 2998
scores 2999
announcing 3000
contact 3001
Airport 3002
regard 3003
motion 3004
Zivkovic 3005
citizen 3006
Year 3007
immigrants 3008
informal 3009
dedicated 3010
standard 3011
kicked 3012
colleagues 3013
instability 3014
Political 3015
branch 3016
Djelic 3017
Tanjug 3018
Regional 3019
vital 3020
comment 3021
furthermore 3022
insisting 3023
bills 3024
material 3025
consumption 3026
demanded 3027
spokeswoman 3028
smoking 3029
danger 3030
worse 3031
hoped 3032
governing 3033
Mission 3034
Petar 3035
Plan 3036
hearing 3037
panel 3038
coach 3039
Deutsche 3040
shooting 3041
compete 3042
Cvetkovic 3043
modernisation 3044
Muhamet 3045
Dubrovnik 3046
sees 3047
mechanism 3048
dozens 3049
Topi 3050
o@@ 3051
Professor 3052
V@@ 3053
topic 3054
Golden 3055
audience 3056
license 3057
ports 3058
flu 3059
net 3060
Calin 3061
referring 3062
politician 3063
lived 3064
couple 3065
index 3066
UK 3067
aspects 3068
answer 3069
correspondent 3070
cancer 3071
demonstrated 3072
withdraw 3073
unions 3074
sets 3075
PDK 3076
introduction 3077
introduce 3078
eligible 3079
deliver 3080
Microsoft 3081
Rice 3082
broke 3083
celebrate 3084
expensive 3085
profile 3086
CoE 3087
requested 3088
Kabashi 3089
assess 3090
hailed 3091
Former 3092
ar@@ 3093
amounts 3094
lists 3095
recovery 3096
Transport 3097
struggle 3098
lies 3099
U@@ 3100
nobody 3101
h@@ 3102
memorandum 3103
Freedom 3104
twice 3105
34 3106
telecommunications 3107
Prlenda 3108
Syrian 3109
capable 3110
2m 3111
closure 3112
f@@ 3113
stated 3114
article 3115
religion 3116
display 3117
Ramadan 3118
featuring 3119
tolerance 3120
condemned 3121
plays 3122
proper 3123
selling 3124
Gaddafi 3125
urgent 3126
impose 3127
Soviet 3128
potentially 3129
banned 3130
sealed 3131
giant 3132
donors 3133
violation 3134
mixed 3135
adequate 3136
negotiation 3137
interim 3138
healthcare 3139
housing 3140
mines 3141
morning 3142
southeast 3143
surprise 3144
wave 3145
ship 3146
wake 3147
Crimes 3148
admission 3149
vision 3150
Vlado 3151
m 3152
mother 3153
bought 3154
Bajram 3155
d 3156
dismissed 3157
brings 3158
achievements 3159
gone 3160
recommended 3161
forms 3162
atrocities 3163
MIA 3164
is@@ 3165
begun 3166
ia 3167
ambassadors 3168
matters 3169
tackle 3170
Presidency 3171
origin 3172
km 3173
expressing 3174
Finnish 3175
Sergey 3176
tension 3177
Zeljko 3178
cast 3179
momentum 3180
embassy 3181
resigned 3182
Tribune 3183
communications 3184
materials 3185
blocking 3186
Conference 3187
preventing 3188
practices 3189
oppose 3190
Beijing 3191
.@@ 3192
peacekeepers 3193
1997 3194
exclusive 3195
limit 3196
urban 3197
disaster 3198
video 3199
hotels 3200
stopped 3201
Great 3202
neighbour 3203
veto 3204
Facebook 3205
concerts 3206
hotel 3207
Constitution 3208
33 3209
context 3210
Mirko 3211
deaths 3212
intervention 3213
contributions 3214
counterparts 3215
female 3216
reactions 3217
monitor 3218
Resolution 3219
difference 3220
encouraging 3221
perform 3222
ships 3223
collective 3224
conclusion 3225
stood 3226
Haris 3227
polling 3228
presents 3229
section 3230
Stojanovska 3231
tell 3232
promise 3233
Vukovar 3234
usually 3235
conservative 3236
claiming 3237
temporary 3238
indeed 3239
park 3240
truth 3241
Konjikusic 3242
Filip 3243
succeed 3244
looks 3245
grow 3246
Z@@ 3247
Street 3248
putting 3249
Hadzic 3250
0 3251
delays 3252
Stankovic 3253
minute 3254
Brajshori 3255
generation 3256
appropriate 3257
ownership 3258
relatively 3259
wind 3260
surrounding 3261
G17 3262
attracting 3263
heard 3264
radical 3265
commissioner 3266
Swedish 3267
enormous 3268
admitted 3269
HIV 3270
talking 3271
ating 3272
feature 3273
revealed 3274
Moisiu 3275
Jean 3276
combined 3277
torture 3278
Community 3279
Prize 3280
Ki 3281
ch@@ 3282
Herald 3283
Obama 3284
optimism 3285
welcoming 3286
favourable 3287
Workers 3288
Corruption 3289
promising 3290
Xinhua 3291
else 3292
bailout 3293
express 3294
outlook 3295
save 3296
List 3297
laundering 3298
Peter 3299
decrease 3300
launching 3301
Marovic 3302
wrapped 3303
43 3304
missile 3305
returning 3306
reflect 3307
Nano 3308
publicly 3309
doors 3310
ease 3311
Agim 3312
approve 3313
connected 3314
Dimitris 3315
mechanisms 3316
Media 3317
Swiss 3318
Bojana 3319
complicated 3320
considers 3321
In@@ 3322
autumn 3323
telephone 3324
interethnic 3325
respected 3326
function 3327
playing 3328
communism 3329
convince 3330
united 3331
b@@ 3332
7,000 3333
KLA 3334
utility 3335
author 3336
unfortunately 3337
Company 3338
Krasniqi 3339
Commerce 3340
guard 3341
Tihic 3342
middle 3343
artist 3344
options 3345
encouraged 3346
unemployed 3347
mosque 3348
federal 3349
floods 3350
collapse 3351
diplomacy 3352
producers 3353
web 3354
realistic 3355
resume 3356
closing 3357
75 3358
Post 3359
Administration 3360
platform 3361
j@@ 3362
Croatians 3363
opponents 3364
UPI 3365
concept 3366
text 3367
spirit 3368
recession 3369
disputes 3370
deployed 3371
respond 3372
handle 3373
Governor 3374
hosting 3375
learn 3376
tic 3377
collaboration 3378
picture 3379
decisive 3380
AKI 3381
8,000 3382
investigate 3383
Bozidar 3384
Anti 3385
600 3386
W. 3387
ations 3388
advanced 3389
controversy 3390
pending 3391
Corridor 3392
Barbutov 3393
note 3394
macroeconomic 3395
peoples 3396
n@@ 3397
37 3398
ter 3399
radio 3400
findings 3401
mentioned 3402
love 3403
photo 3404
threshold 3405
Australia 3406
cautioned 3407
birth 3408
Youth 3409
Islamist 3410
Trajkovski 3411
fellow 3412
investor 3413
u@@ 3414
ds 3415
halt 3416
51 3417
undermine 3418
outgoing 3419
g 3420
championship 3421
Finland 3422
Kovacevic 3423
runs 3424
isolation 3425
corrupt 3426
subsidies 3427
Arts 3428
hospitals 3429
recorded 3430
skills 3431
nearby 3432
Belene 3433
perhaps 3434
India 3435
dubbed 3436
Marija 3437
output 3438
voice 3439
import 3440
Richard 3441
feasibility 3442
Corporation 3443
insufficient 3444
highlighted 3445
defeated 3446
product 3447
Marko 3448
tripartite 3449
prospect 3450
Initiative 3451
sometimes 3452
clean 3453
foster 3454
Geoana 3455
actors 3456
debts 3457
a@@ 3458
minutes 3459
manage 3460
Framework 3461
er@@ 3462
Palestinian 3463
Adrian 3464
speculation 3465
moon 3466
warn 3467
boys 3468
Daily 3469
jail 3470
Ar@@ 3471
aspirations 3472
cubic 3473
bomb 3474
pledging 3475
Boyko 3476
weak 3477
activists 3478
Telecom 3479
unlikely 3480
barricades 3481
grounds 3482
thirds 3483
pose 3484
Brammertz 3485
champion 3486
Labus 3487
attitude 3488
ina 3489
directors 3490
Dejan 3491
migration 3492
originally 3493
class 3494
Wall 3495
acquired 3496
pushing 3497
Faculty 3498
covers 3499
ratified 3500
connections 3501
t@@ 3502
Schilling 3503
k 3504
Silajdzic 3505
electronic 3506
ly 3507
intention 3508
w@@ 3509
passengers 3510
driving 3511
Jankovic 3512
simple 3513
Accords 3514
downtown 3515
objectives 3516
Hellenic 3517
proof 3518
provisional 3519
declare 3520
Dimitrova 3521
professionals 3522
desire 3523
tobacco 3524
Eurozone 3525
Mladjan 3526
36 3527
David 3528
contrast 3529
locations 3530
Egypt 3531
payments 3532
posts 3533
speaker 3534
reserves 3535
ic@@ 3536
Racan 3537
250 3538
defendants 3539
rhetoric 3540
Schwarz 3541
fails 3542
h 3543
experienced 3544
probe 3545
funded 3546
emerging 3547
compensation 3548
on@@ 3549
Portugal 3550
suggesting 3551
proceed 3552
collected 3553
strikes 3554
resign 3555
waters 3556
ka 3557
Iranian 3558
magazine 3559
behalf 3560
contacts 3561
financed 3562
rival 3563
customers 3564
Cultural 3565
fixed 3566
ratification 3567
k@@ 3568
drive 3569
assume 3570
river 3571
coastal 3572
4m 3573
Labour 3574
1.@@ 3575
worry 3576
studies 3577
2.5 3578
arrive 3579
policemen 3580
Nimetz 3581
doctor 3582
maximum 3583
preparation 3584
Red 3585
achievement 3586
im@@ 3587
vulnerable 3588
organising 3589
serves 3590
le@@ 3591
z@@ 3592
finish 3593
Nis 3594
movies 3595
CEC 3596
Industry 3597
Biljana 3598
digital 3599
engagement 3600
Report 3601
opposes 3602
foundation 3603
intends 3604
retain 3605
allocated 3606
Demetris 3607
co@@ 3608
solid 3609
crowd 3610
transparent 3611
Assistant 3612
Meta 3613
friend 3614
Aegean 3615
kovic 3616
card 3617
coup 3618
Angela 3619
burden 3620
relatives 3621
buying 3622
30,000 3623
items 3624
prevention 3625
orders 3626
yes 3627
dramatic 3628
investing 3629
responded 3630
legally 3631
Jadranka 3632
churches 3633
row 3634
attracted 3635
Simsek 3636
ordinary 3637
Lisbon 3638
1989 3639
Strategic 3640
symbol 3641
announce 3642
exists 3643
CEFTA 3644
DPS 3645
targeted 3646
reporting 3647
fires 3648
broadcast 3649
Military 3650
profits 3651
languages 3652
renowned 3653
Kemal 3654
jazz 3655
excellent 3656
1244 3657
lawyers 3658
games 3659
watch 3660
Tuzla 3661
Lebanon 3662
objections 3663
Nobel 3664
en 3665
foreigners 3666
B 3667
dating 3668
registration 3669
defend 3670
archaeological 3671
brief 3672
Soren 3673
SP 3674
channel 3675
Prizren 3676
20,000 3677
riots 3678
fresh 3679
solidarity 3680
ID 3681
y@@ 3682
actor 3683
Directorate 3684
48 3685
focusing 3686
bigger 3687
solved 3688
newspapers 3689
Ayhan 3690
postponed 3691
inter@@ 3692
di@@ 3693
ro@@ 3694
4,000 3695
seem 3696
Irish 3697
Dora 3698
Turk 3699
count 3700
fired 3701
Mladen 3702
thanks 3703
diaspora 3704
44 3705
1,500 3706
emerged 3707
Book 3708
illegally 3709
consultations 3710
custody 3711
at@@ 3712
felt 3713
Papadopoulos 3714
shut 3715
47 3716
functional 3717
rapid 3718
basketball 3719
Jusuf 3720
42 3721
veteran 3722
unrest 3723
cash 3724
secondary 3725
calm 3726
identify 3727
holidays 3728
requests 3729
blame 3730
sensitive 3731
al@@ 3732
fulfilled 3733
aircraft 3734
con@@ 3735
negotiate 3736
10m 3737
associations 3738
chain 3739
GERB 3740
properties 3741
Women 3742
Dnevnik.bg 3743
Air 3744
warns 3745
strongest 3746
ratings 3747
Roman 3748
preserve 3749
limits 3750
dance 3751
Catholic 3752
6m 3753
unprecedented 3754
evening 3755
thinks 3756
caught 3757
sixth 3758
word 3759
Treaty 3760
SRS 3761
conducting 3762
wine 3763
researchers 3764
obtained 3765
centuries 3766
trained 3767
PIC 3768
consideration 3769
bases 3770
regulation 3771
nurses 3772
begins 3773
payment 3774
Tetovo 3775
savings 3776
purposes 3777
BSP 3778
informed 3779
Norway 3780
telecom 3781
Congress 3782
sharing 3783
reflects 3784
guests 3785
honoured 3786
carrier 3787
White 3788
Journal 3789
monuments 3790
featured 3791
contrary 3792
slightly 3793
messages 3794
SNSD 3795
Lukic 3796
gaining 3797
capacities 3798
ran 3799
inaugurated 3800
pact 3801
7m 3802
black 3803
comply 3804
competing 3805
complaints 3806
Sciences 3807
Future 3808
latter 3809
celebrations 3810
rebels 3811
jointly 3812
Executive 3813
dozen 3814
discussing 3815
bus 3816
influential 3817
es@@ 3818
lasting 3819
possibilities 3820
gender 3821
Rasim 3822
renewed 3823
campaigns 3824
nominated 3825
Rome 3826
rock 3827
1,@@ 3828
Assad 3829
map 3830
welcomes 3831
staged 3832
prisoners 3833
sharp 3834
envisioned 3835
KSF 3836
everybody 3837
We 3838
sharply 3839
arrangements 3840
Anadolu 3841
attacked 3842
Selimaj 3843
counter 3844
van 3845
Sandzak 3846
Coalition 3847
King 3848
doubts 3849
willingness 3850
transformation 3851
perpetrators 3852
engaged 3853
sound 3854
Article 3855
opinions 3856
presenting 3857
Al@@ 3858
10@@ 3859
Network 3860
Papoulias 3861
SDA 3862
200m 3863
version 3864
bird 3865
Ireland 3866
visible 3867
gather 3868
grew 3869
employers 3870
outstanding 3871
trends 3872
Northern 3873
investigators 3874
follows 3875
shift 3876
Process 3877
investigated 3878
weekly 3879
attractive 3880
amended 3881
drivers 3882
defeat 3883
200,000 3884
performers 3885
2014 3886
fine 3887
Ljubljana 3888
realise 3889
guaranteed 3890
46 3891
computers 3892
finds 3893
Polish 3894
barriers 3895
Club 3896
Euronews 3897
equality 3898
Crime 3899
speaks 3900
core 3901
School 3902
Terzic 3903
employed 3904
whatever 3905
ri@@ 3906
significance 3907
upgrade 3908
afford 3909
triggered 3910
lacks 3911
projected 3912
possibly 3913
legislature 3914
Heritage 3915
Welle 3916
Novak 3917
ti@@ 3918
ar 3919
arrival 3920
consumer 3921
it@@ 3922
seekers 3923
uses 3924
haven 3925
eye 3926
apartment 3927
causing 3928
laid 3929
destinations 3930
Ramadanovic 3931
sugar 3932
behaviour 3933
Web 3934
Kostov 3935
18@@ 3936
chamber 3937
relief 3938
questioned 3939
economists 3940
Civil 3941
fulfilling 3942
contributing 3943
ultimately 3944
ology 3945
Simeon 3946
producing 3947
harm 3948
ambitious 3949
style 3950
compliance 3951
monopoly 3952
Predrag 3953
Ilic 3954
extension 3955
definitely 3956
inclusion 3957
passing 3958
Moldovan 3959
arguments 3960
Frattini 3961
murders 3962
credibility 3963
41 3964
linking 3965
r@@ 3966
divisions 3967
worried 3968
ad@@ 3969
or@@ 3970
suffering 3971
bars 3972
plastic 3973
turmoil 3974
investigating 3975
St. 3976
8m 3977
Armed 3978
continuation 3979
outlined 3980
file 3981
frozen 3982
exhibitions 3983
expanded 3984
situations 3985
drawing 3986
types 3987
collect 3988
businessman 3989
demonstrations 3990
strength 3991
victim 3992
operators 3993
monitors 3994
maturity 3995
Djokovic 3996
extraordinary 3997
blamed 3998
ethnically 3999
controls 4000
Reconstruction 4001
maintained 4002
UNICEF 4003
retail 4004
Svetla 4005
immigration 4006
Vlora 4007
restaurants 4008
Fuele 4009
threatening 4010
accelerate 4011
broadcasting 4012
introducing 4013
Strasbourg 4014
Ergenekon 4015
economics 4016
tank 4017
J@@ 4018
specifically 4019
resistance 4020
connect 4021
Bitola 4022
unclear 4023
proud 4024
troika 4025
James 4026
li@@ 4027
survive 4028
presentation 4029
BDP 4030
girls 4031
airports 4032
fees 4033
Rohan 4034
contingent 4035
supervised 4036
Republican 4037
fled 4038
technologies 4039
Palace 4040
wider 4041
meat 4042
promotion 4043
Denmark 4044
D 4045
negotiator 4046
flags 4047
overhaul 4048
older 4049
economically 4050
enjoyed 4051
Banka 4052
stalled 4053
alcohol 4054
Grand 4055
suicide 4056
partition 4057
ap@@ 4058
multiple 4059
Alfred 4060
chose 4061
succeeded 4062
processing 4063
precondition 4064
militants 4065
zones 4066
tasked 4067
remember 4068
chairmanship 4069
strict 4070
ice 4071
Svetozar 4072
coverage 4073
Implementation 4074
add 4075
east 4076
bombings 4077
Verheugen 4078
38 4079
c 4080
Jelena 4081
firmly 4082
restore 4083
fewer 4084
n 4085
Operation 4086
legitimate 4087
ministerial 4088
affecting 4089
jury 4090
struck 4091
Seselj 4092
ND 4093
Gashi 4094
explain 4095
secured 4096
cocaine 4097
Con@@ 4098
engage 4099
dates 4100
blow 4101
extreme 4102
freedoms 4103
store 4104
receives 4105
falling 4106
62 4107
propose 4108
treated 4109
1994 4110
elderly 4111
appearance 4112
Maria 4113
ja 4114
households 4115
successor 4116
ent 4117
Burgas 4118
earthquake 4119
ding 4120
ist 4121
physical 4122
husband 4123
fish 4124
Erlis 4125
blood 4126
pressing 4127
southeastern 4128
authors 4129
teacher 4130
provision 4131
actively 4132
Kostelic 4133
violated 4134
ous 4135
1@@ 4136
penalties 4137
isn 4138
Global 4139
grave 4140
os@@ 4141
apparent 4142
Sulejman 4143
variety 4144
beautiful 4145
obvious 4146
fulfill 4147
write 4148
finalised 4149
Azerbaijan 4150
managing 4151
Montenegrins 4152
medics 4153
fines 4154
6,000 4155
Ashton 4156
mountain 4157
happens 4158
Komsic 4159
Armenia 4160
testimony 4161
intellectuals 4162
indicate 4163
ded 4164
800 4165
congress 4166
out@@ 4167
Kathimerini 4168
freely 4169
observed 4170
mayors 4171
ova 4172
broader 4173
educated 4174
0.@@ 4175
categories 4176
withdrawal 4177
ov 4178
thermal 4179
safeguard 4180
FDI 4181
stalemate 4182
credits 4183
expanding 4184
placing 4185
as@@ 4186
C 4187
Y@@ 4188
Project 4189
pursue 4190
shortages 4191
zero 4192
expecting 4193
exhibit 4194
crackdown 4195
documentation 4196
migrants 4197
demonstration 4198
MPA 4199
nationals 4200
sake 4201
m@@ 4202
tied 4203
backs 4204
deeply 4205
undertaken 4206
welfare 4207
breaking 4208
ballots 4209
documentary 4210
hectares 4211
injuries 4212
shop 4213
demonstrators 4214
legacy 4215
satisfaction 4216
Boc 4217
Mar@@ 4218
Fena 4219
disappointment 4220
50m 4221
extent 4222
oldest 4223
excessive 4224
Bogdanovic 4225
farm 4226
venture 4227
exit 4228
la@@ 4229
equally 4230
medieval 4231
eyes 4232
der 4233
gains 4234
monument 4235
Burns 4236
2.@@ 4237
poses 4238
ballot 4239
proven 4240
passport 4241
uncertainty 4242
starts 4243
pollution 4244
Southeastern 4245
isolated 4246
traditionally 4247
shops 4248
contain 4249
liberal 4250
l@@ 4251
als 4252
confirm 4253
matches 4254
ise 4255
&apos;@@ 4256
academic 4257
binding 4258
warrant 4259
extending 4260
shopping 4261
rounds 4262
ages 4263
handover 4264
signals 4265
respective 4266
Summit 4267
Television 4268
adopting 4269
unveiled 4270
seeing 4271
Holkeri 4272
motivated 4273
register 4274
Simic 4275
records 4276
moderate 4277
absolutely 4278
hikes 4279
occur 4280
Pope 4281
v@@ 4282
ordinated 4283
Square 4284
procurement 4285
renewable 4286
Transparency 4287
Armenians 4288
steel 4289
ex@@ 4290
flow 4291
white 4292
friendship 4293
afterwards 4294
repeat 4295
recommend 4296
obtaining 4297
branches 4298
statistical 4299
Prague 4300
applications 4301
suspension 4302
pleased 4303
stabilisation 4304
methods 4305
reputation 4306
prevented 4307
distance 4308
determining 4309
attempted 4310
amounted 4311
milk 4312
District 4313
Gallery 4314
solar 4315
assumed 4316
cutting 4317
bear 4318
ised 4319
trouble 4320
extremist 4321
Mediafax 4322
monitored 4323
unearthed 4324
frequently 4325
ec@@ 4326
unlike 4327
ranging 4328
pensioners 4329
stemming 4330
Pamuk 4331
85 4332
connecting 4333
disappointed 4334
2,500 4335
helps 4336
pre@@ 4337
airline 4338
writers 4339
virus 4340
Kosova 4341
Geneva 4342
reading 4343
cic 4344
afraid 4345
ammunition 4346
Limaj 4347
expenditures 4348
thinking 4349
Emil 4350
driven 4351
grown 4352
sort 4353
700 4354
crises 4355
ling 4356
An@@ 4357
absence 4358
extra 4359
9m 4360
Sezer 4361
ates 4362
enjoys 4363
53 4364
suit 4365
Children 4366
T 4367
neighbourhood 4368
Spiric 4369
Agriculture 4370
drafting 4371
unresolved 4372
toll 4373
mediator 4374
Joint 4375
Mircea 4376
bi@@ 4377
repeated 4378
enterprise 4379
gathering 4380
securing 4381
nomination 4382
NIS 4383
tens 4384
Reform 4385
Al 4386
Japanese 4387
finals 4388
accusing 4389
gang 4390
Rompres 4391
l 4392
contains 4393
flight 4394
surprised 4395
travelled 4396
39 4397
49 4398
capabilities 4399
des 4400
falls 4401
strengthened 4402
perceived 4403
realised 4404
younger 4405
poetry 4406
wars 4407
carefully 4408
Belgian 4409
literature 4410
Lake 4411
eliminate 4412
principal 4413
reject 4414
Bureau 4415
el 4416
ex 4417
supposed 4418
lift 4419
arresting 4420
bombing 4421
popularity 4422
CEO 4423
daughter 4424
camps 4425
obliged 4426
sized 4427
INA 4428
Copenhagen 4429
Andy 4430
ism 4431
aiming 4432
extremists 4433
Ljiljana 4434
weather 4435
ag@@ 4436
settle 4437
valid 4438
detailed 4439
corporate 4440
reforming 4441
mining 4442
temperatures 4443
Korea 4444
technological 4445
industries 4446
th@@ 4447
mountains 4448
Dimitrov 4449
Condoleezza 4450
siege 4451
fought 4452
rare 4453
ine 4454
EIB 4455
piracy 4456
Oliver 4457
Kosumi 4458
combating 4459
Ivana 4460
oglu 4461
suffer 4462
broken 4463
wounded 4464
performing 4465
pave 4466
oriented 4467
4.@@ 4468
500m 4469
explosion 4470
restoration 4471
nationalism 4472
Boskovski 4473
Wisner 4474
consists 4475
describes 4476
deficits 4477
operated 4478
delegations 4479
bonds 4480
issuing 4481
maybe 4482
runoff 4483
tes 4484
ant 4485
revised 4486
awaiting 4487
Frank 4488
dependence 4489
Customs 4490
scored 4491
faster 4492
Environment 4493
appealed 4494
governor 4495
impasse 4496
Saxe 4497
charging 4498
slowly 4499
Tito 4500
tests 4501
Rupel 4502
associate 4503
Coburg 4504
Index 4505
50,000 4506
retirement 4507
paramilitary 4508
Ahmeti 4509
concessions 4510
targeting 4511
surveillance 4512
Estonia 4513
posted 4514
marketing 4515
les 4516
Ruecker 4517
Kermabon 4518
exercises 4519
finances 4520
opposing 4521
Bamir 4522
hear 4523
files 4524
amendment 4525
Liberation 4526
raises 4527
40,000 4528
content 4529
nationwide 4530
O 4531
14@@ 4532
faith 4533
bridges 4534
trading 4535
resulting 4536
openly 4537
95 4538
publishing 4539
cancelled 4540
bin 4541
ve 4542
specialists 4543
bottom 4544
ICG 4545
20m 4546
helm 4547
SDS 4548
Lazarova 4549
apartments 4550
1.2 4551
Lithuania 4552
driver 4553
properly 4554
pressures 4555
heroin 4556
volume 4557
Europeans 4558
investigative 4559
flat 4560
ce 4561
clubs 4562
BTA 4563
constant 4564
Vetevendosje 4565
Statistics 4566
pull 4567
organ 4568
heading 4569
3.5 4570
ourselves 4571
EUobserver 4572
Sekerinska 4573
chemical 4574
experiences 4575
to@@ 4576
rapidly 4577
Djordjevic 4578
predicted 4579
ists 4580
ica 4581
Budapest 4582
postpone 4583
pieces 4584
ons 4585
ors 4586
struggling 4587
ity 4588
facts 4589
forget 4590
protestors 4591
Steiner 4592
regularly 4593
ings 4594
knows 4595
Strategy 4596
il@@ 4597
vehicle 4598
Convention 4599
Crisis 4600
conclusions 4601
travelling 4602
am@@ 4603
fate 4604
designated 4605
ethnicity 4606
poet 4607
associated 4608
functions 4609
purchased 4610
donor 4611
musicians 4612
conclude 4613
Struga 4614
spot 4615
stages 4616
Canadian 4617
Brazil 4618
indictments 4619
grade 4620
Unit 4621
managers 4622
scope 4623
UNHCR 4624
Privatisation 4625
causes 4626
milestone 4627
entirely 4628
African 4629
scandals 4630
SPS 4631
acquire 4632
Lieutenant 4633
licenses 4634
bo@@ 4635
deadlock 4636
portion 4637
cleared 4638
personally 4639
instruments 4640
answers 4641
52 4642
Ion 4643
selection 4644
feeling 4645
refusal 4646
Kar@@ 4647
ECB 4648
mis@@ 4649
statehood 4650
puts 4651
Elections 4652
earmarked 4653
2020 4654
worker 4655
15,000 4656
routes 4657
imported 4658
actress 4659
initiate 4660
earn 4661
x 4662
hike 4663
recommendation 4664
commit 4665
destroy 4666
ad 4667
Focus 4668
te 4669
54 4670
raids 4671
2015 4672
uncertain 4673
completing 4674
regret 4675
solving 4676
tight 4677
praising 4678
odds 4679
journalism 4680
handling 4681
ultranationalist 4682
Rasmussen 4683
benchmarks 4684
Exchange 4685
ha@@ 4686
Edi 4687
seminar 4688
fishing 4689
Fatos 4690
acted 4691
useful 4692
x@@ 4693
be@@ 4694
phenomenon 4695
accident 4696
rail 4697
secularism 4698
luxury 4699
writes 4700
brothers 4701
Koha 4702
clients 4703
capita 4704
1974 4705
assigned 4706
frequent 4707
evic 4708
stores 4709
Brcko 4710
Telegraph 4711
Daianu 4712
granting 4713
shall 4714
foundations 4715
tool 4716
channels 4717
sidelines 4718
shape 4719
exactly 4720
refuse 4721
surveyed 4722
unified 4723
Diyarbakir 4724
4.5 4725
react 4726
hot 4727
belong 4728
happening 4729
stress 4730
63 4731
passage 4732
scenario 4733
withdrew 4734
cinema 4735
Nicolas 4736
joins 4737
plus 4738
Communications 4739
AIDS 4740
winners 4741
30m 4742
reliable 4743
Robertson 4744
disabled 4745
escape 4746
plane 4747
nationalists 4748
refinery 4749
referred 4750
attributed 4751
Empire 4752
knew 4753
demonstrates 4754
tickets 4755
check 4756
constitute 4757
neighbourly 4758
Fiat 4759
thanked 4760
transmission 4761
traditions 4762
DNA 4763
se 4764
heating 4765
involve 4766
Dink 4767
writing 4768
enabling 4769
72 4770
ian 4771
Undersecretary 4772
transformed 4773
Power 4774
exceed 4775
ch 4776
donated 4777
se@@ 4778
hydropower 4779
Gabriel 4780
character 4781
architecture 4782
st@@ 4783
57 4784
cope 4785
sport 4786
wealth 4787
brother 4788
recognising 4789
BC 4790
reflected 4791
veterans 4792
gradually 4793
b 4794
painful 4795
stipulates 4796
Pulaj 4797
he@@ 4798
Jazz 4799
ticket 4800
extradited 4801
mention 4802
brand 4803
Ramush 4804
Ardi 4805
Bedrana 4806
subsequently 4807
greatly 4808
pointing 4809
exchanges 4810
evasion 4811
Adnan 4812
offensive 4813
forest 4814
rejection 4815
Gjorge 4816
modernise 4817
Mother 4818
56 4819
tangible 4820
Miroljub 4821
car@@ 4822
buried 4823
operates 4824
De@@ 4825
Milos 4826
whereabouts 4827
deadlines 4828
0@@ 4829
mafia 4830
surgery 4831
governmental 4832
tranche 4833
design 4834
surplus 4835
Monitor 4836
Assistance 4837
implications 4838
cell 4839
subsequent 4840
tive 4841
courses 4842
bankruptcy 4843
Hungarians 4844
freeze 4845
symbols 4846
venues 4847
quo 4848
inadequate 4849
Progress 4850
Major 4851
indicators 4852
anovic 4853
fill 4854
biometric 4855
leaves 4856
Basha 4857
Authority 4858
plea 4859
toward 4860
Izmir 4861
heavily 4862
da 4863
volunteers 4864
Winter 4865
expertise 4866
interference 4867
meaning 4868
truly 4869
dream 4870
Gordana 4871
Sutanovac 4872
acknowledging 4873
Steering 4874
me@@ 4875
acquitted 4876
6.@@ 4877
KESH 4878
emphasis 4879
Prodi 4880
symbolic 4881
Kingdom 4882
undertake 4883
reaffirmed 4884
sole 4885
jurisdiction 4886
taxation 4887
king 4888
medicine 4889
pushed 4890
Petrovic 4891
Beth 4892
penalty 4893
Anatolian 4894
400m 4895
sustained 4896
discusses 4897
challenging 4898
64 4899
Democrat 4900
66 4901
Eroglu 4902
pop 4903
confiscated 4904
Music 4905
Albert 4906
prestigious 4907
celebration 4908
restored 4909
expenses 4910
advocates 4911
briefed 4912
hurdle 4913
fledged 4914
ur@@ 4915
trucks 4916
--@@ 4917
plot 4918
Communist 4919
jeopardise 4920
shortcomings 4921
factories 4922
decreased 4923
integrate 4924
watching 4925
embassies 4926
employ 4927
element 4928
database 4929
Days 4930
threaten 4931
heat 4932
negotiators 4933
Razvan 4934
heated 4935
predecessor 4936
Jewish 4937
truck 4938
specialised 4939
comprised 4940
sit 4941
Medvedev 4942
blueprint 4943
festivals 4944
150,000 4945
500,000 4946
occasion 4947
urge 4948
predominantly 4949
musical 4950
species 4951
minor 4952
sessions 4953
careful 4954
Trajkov 4955
constituent 4956
Lavrov 4957
Sasa 4958
Novosti 4959
respects 4960
Sava 4961
catch 4962
planes 4963
appeals 4964
schedule 4965
lifted 4966
Holding 4967
First 4968
financially 4969
beating 4970
punishment 4971
permits 4972
intense 4973
extradite 4974
Covic 4975
stem 4976
intent 4977
Madrid 4978
JAT 4979
alive 4980
wrap 4981
testify 4982
penal 4983
servants 4984
Ilir 4985
Powell 4986
suspend 4987
Reporting 4988
z 4989
el@@ 4990
Blair 4991
disease 4992
defeating 4993
screening 4994
islands 4995
Ana 4996
Samardzic 4997
Poor 4998
reference 4999
ab@@ 5000
tion 5001
Popovic 5002
refusing 5003
acknowledge 5004
walk 5005
chaos 5006
removing 5007
Petrov 5008
democratisation 5009
Van 5010
sexual 5011
settled 5012
hydro 5013
clause 5014
seemed 5015
separately 5016
Orhan 5017
Gates 5018
pilot 5019
Slovak 5020
Victor 5021
hi@@ 5022
mayoral 5023
pledge 5024
supervision 5025
under@@ 5026
echoed 5027
founding 5028
S 5029
AAK 5030
preservation 5031
Izetbegovic 5032
federation 5033
degrees 5034
bit 5035
define 5036
unknown 5037
Caspian 5038
Radovanovic 5039
discovery 5040
native 5041
En@@ 5042
belonging 5043
dynamic 5044
fly 5045
assessed 5046
Karolos 5047
pledges 5048
classes 5049
seventh 5050
learning 5051
1980s 5052
God 5053
secession 5054
Cavic 5055
stone 5056
Hall 5057
Zemun 5058
anymore 5059
characterised 5060
breakthrough 5061
ans 5062
photos 5063
funeral 5064
et@@ 5065
monastery 5066
snow 5067
Franco 5068
authorised 5069
assistant 5070
talked 5071
Oz@@ 5072
rooted 5073
rely 5074
reserve 5075
censorship 5076
entitled 5077
memorial 5078
partial 5079
Judge 5080
societies 5081
F 5082
Qatar 5083
Pahor 5084
Jacques 5085
ko 5086
+ 5087
disagreements 5088
viable 5089
dealt 5090
tackling 5091
qualified 5092
Nicholas 5093
infected 5094
ir@@ 5095
ho@@ 5096
67 5097
58 5098
newest 5099
anticipated 5100
Park 5101
arena 5102
peak 5103
Support 5104
kg 5105
exploration 5106
chaired 5107
continent 5108
roles 5109
piece 5110
Asian 5111
containing 5112
recognises 5113
je 5114
restaurant 5115
Bar@@ 5116
voluntary 5117
civic 5118
west 5119
Intelligence 5120
indicates 5121
Stefanovic 5122
totally 5123
voices 5124
captured 5125
birds 5126
vast 5127
ill 5128
instrument 5129
hardly 5130
stolen 5131
margin 5132
Championships 5133
budgets 5134
roots 5135
elementary 5136
ca 5137
soldier 5138
depending 5139
kinds 5140
bloggers 5141
lasted 5142
locals 5143
learned 5144
ies 5145
blast 5146
engineering 5147
underground 5148
criticising 5149
permission 5150
examples 5151
attempting 5152
boundaries 5153
1.6 5154
apparently 5155
complained 5156
electric 5157
sh@@ 5158
p 5159
moral 5160
resorts 5161
jump 5162
elite 5163
condemning 5164
Kampschror 5165
obviously 5166
earned 5167
Pekusic 5168
Mitev 5169
auspices 5170
Valley 5171
lay 5172
aj 5173
hundred 5174
Bo@@ 5175
Colonel 5176
thousand 5177
prefer 5178
voluntarily 5179
evaluation 5180
SEECP 5181
uncovered 5182
Capital 5183
consistent 5184
false 5185
phones 5186
innovation 5187
assisting 5188
Tassos 5189
purchasing 5190
formerly 5191
Simitis 5192
Miller 5193
Vesna 5194
1.3 5195
equipped 5196
Nine 5197
Insight 5198
extensive 5199
survival 5200
questioning 5201
Beqiri 5202
Moody 5203
legitimacy 5204
ma@@ 5205
3.@@ 5206
sends 5207
keeps 5208
Old 5209
FENA 5210
reactors 5211
acquisition 5212
lo@@ 5213
stories 5214
buyers 5215
Biden 5216
2,@@ 5217
Martin 5218
journey 5219
Matthew 5220
il 5221
turns 5222
prompting 5223
passenger 5224
rebuild 5225
timing 5226
harder 5227
involves 5228
defending 5229
addresses 5230
promoted 5231
owns 5232
snap 5233
Stock 5234
shipping 5235
practically 5236
Opera 5237
background 5238
ecological 5239
advertising 5240
regulatory 5241
Corps 5242
celebrates 5243
Fatih 5244
lawsuit 5245
papers 5246
reacted 5247
Bridge 5248
outbreak 5249
Saudi 5250
alongside 5251
Local 5252
fan 5253
bound 5254
Drazen 5255
per@@ 5256
ta 5257
Iliescu 5258
78 5259
spots 5260
strategies 5261
electrical 5262
folk 5263
overnight 5264
300m 5265
Srdjan 5266
intensified 5267
shield 5268
landmark 5269
Mark 5270
suggestions 5271
Yilmaz 5272
favours 5273
accepting 5274
proclaimed 5275
contemporary 5276
Mil@@ 5277
whereas 5278
Srbija 5279
300,000 5280
vessels 5281
RTK 5282
68 5283
deploy 5284
highlights 5285
deadly 5286
advisory 5287
69 5288
consisting 5289
cigarette 5290
Karic 5291
valuable 5292
influx 5293
ovski 5294
generations 5295
observe 5296
140 5297
decides 5298
Er@@ 5299
professors 5300
denies 5301
negotiated 5302
estimate 5303
reasonable 5304
incentives 5305
virtually 5306
Zastava 5307
forecast 5308
nationality 5309
invite 5310
Sh@@ 5311
Novinite 5312
articles 5313
filled 5314
agents 5315
metal 5316
bread 5317
kill 5318
regarded 5319
Hyseni 5320
Accession 5321
R 5322
northeast 5323
deposits 5324
ul@@ 5325
twenty 5326
25,000 5327
impression 5328
passes 5329
Management 5330
entrepreneurs 5331
debates 5332
ring 5333
undermining 5334
parliaments 5335
Se@@ 5336
Velchev 5337
balanced 5338
Ex@@ 5339
mounting 5340
fruit 5341
advice 5342
competitors 5343
employee 5344
guns 5345
op@@ 5346
Kaletovic 5347
ordinate 5348
Helsinki 5349
jobless 5350
hunger 5351
cheaper 5352
Necdet 5353
dual 5354
&apos;d 5355
roughly 5356
weight 5357
departure 5358
tions 5359
Radmila 5360
maritime 5361
prepares 5362
yield 5363
exception 5364
accountability 5365
stars 5366
rivers 5367
default 5368
satellite 5369
sing 5370
Pro@@ 5371
disappeared 5372
It 5373
sections 5374
Georgievski 5375
la 5376
forth 5377
Center 5378
intend 5379
belongs 5380
transform 5381
130 5382
posters 5383
PNL 5384
permit 5385
suspicion 5386
underlined 5387
Mr. 5388
interesting 5389
tragedy 5390
abandoned 5391
Accord 5392
Alakbar 5393
poorest 5394
explosives 5395
us@@ 5396
Alexandroupolis 5397
classified 5398
intensive 5399
appoint 5400
Latvia 5401
strain 5402
enhanced 5403
rehabilitation 5404
Jovan 5405
12@@ 5406
Rompuy 5407
Raufoglu 5408
clearing 5409
om@@ 5410
exceeded 5411
favoured 5412
fallen 5413
hampered 5414
golden 5415
hatred 5416
bribery 5417
Iceland 5418
Lukovic 5419
Kosanovic 5420
fashion 5421
spur 5422
ana 5423
dictator 5424
unite 5425
declaring 5426
paving 5427
59 5428
inefficient 5429
enters 5430
fostering 5431
erupted 5432
fragile 5433
opera 5434
approves 5435
ol@@ 5436
halted 5437
ises 5438
budgetary 5439
Wolfgang 5440
reluctant 5441
Radmanovic 5442
pro@@ 5443
clash 5444
reveal 5445
globalisation 5446
mosques 5447
relation 5448
donations 5449
fee 5450
Zannier 5451
stabilise 5452
statue 5453
Australian 5454
reads 5455
buyer 5456
mutually 5457
Antonela 5458
responding 5459
Ditore 5460
operative 5461
exact 5462
collecting 5463
Darko 5464
Kosovars 5465
warnings 5466
beaches 5467
Argentina 5468
transactions 5469
intellectual 5470
Kragujevac 5471
81 5472
broadcaster 5473
rec@@ 5474
theme 5475
prerequisite 5476
25m 5477
legend 5478
H5N1 5479
Holbrooke 5480
ator 5481
Erhard 5482
subsidiary 5483
intensify 5484
rankings 5485
raid 5486
Market 5487
ov@@ 5488
Petrescu 5489
namely 5490
excavations 5491
Feith 5492
TI 5493
populated 5494
qu@@ 5495
installed 5496
Metohija 5497
textile 5498
accelerated 5499
profitable 5500
Nenad 5501
aged 5502
Milic 5503
competencies 5504
eliminating 5505
Bosnians 5506
unanimously 5507
mistakes 5508
divide 5509
Order 5510
worries 5511
ak 5512
ball 5513
forecasts 5514
Russians 5515
rooms 5516
partly 5517
res 5518
attorney 5519
productivity 5520
asks 5521
watchdog 5522
Stambolic 5523
confirmation 5524
angry 5525
diversity 5526
partially 5527
correct 5528
Economics 5529
translated 5530
unnecessary 5531
focuses 5532
pharmaceutical 5533
additionally 5534
Obradovic 5535
cigarettes 5536
persuade 5537
Progressive 5538
positively 5539
Teresa 5540
cautious 5541
Voice 5542
Shala 5543
semi 5544
Google 5545
Hospital 5546
Code 5547
ceasefire 5548
coalitions 5549
Serge 5550
hurdles 5551
honest 5552
acknowledges 5553
perception 5554
distributed 5555
institute 5556
DTP 5557
legality 5558
facilitating 5559
extremism 5560
ter@@ 5561
dinar 5562
Dervis 5563
beauty 5564
Proeski 5565
acceptance 5566
bags 5567
imposing 5568
1984 5569
disasters 5570
surveys 5571
premiere 5572
ignored 5573
assisted 5574
ge 5575
j 5576
makers 5577
Danish 5578
impressive 5579
affects 5580
earthquakes 5581
lifting 5582
wearing 5583
Enver 5584
songs 5585
Fried 5586
tries 5587
si@@ 5588
Watch 5589
comparison 5590
ge@@ 5591
arts 5592
wasn 5593
airspace 5594
76 5595
Bytyci 5596
repair 5597
RTS 5598
et 5599
innocent 5600
embargo 5601
rejects 5602
cheap 5603
prisons 5604
posed 5605
glass 5606
84 5607
110 5608
audiences 5609
maintains 5610
ters 5611
remarkable 5612
ordinating 5613
narcotics 5614
Ataturk 5615
belief 5616
Rijeka 5617
sooner 5618
IOC 5619
patient 5620
favourite 5621
98 5622
propaganda 5623
tense 5624
influenced 5625
unilaterally 5626
exported 5627
condemn 5628
launches 5629
bitter 5630
maintenance 5631
columnist 5632
ev 5633
commanders 5634
rebuilding 5635
Standard 5636
15@@ 5637
helicopters 5638
prosecute 5639
supporter 5640
male 5641
Home 5642
metre 5643
surrendered 5644
populations 5645
ratify 5646
Jordan 5647
40m 5648
Philip 5649
A1 5650
detainees 5651
Telecommunications 5652
cable 5653
System 5654
evident 5655
diseases 5656
99 5657
Airways 5658
collapsed 5659
bureau 5660
ne@@ 5661
inform 5662
60,000 5663
ls 5664
70,000 5665
le 5666
ses 5667
Zlatko 5668
ness 5669
movements 5670
examine 5671
lic 5672
Per@@ 5673
charter 5674
outright 5675
900 5676
ves 5677
Krajina 5678
praise 5679
punish 5680
Charles 5681
61 5682
Membership 5683
disputed 5684
searching 5685
witnessed 5686
Cold 5687
policing 5688
preserving 5689
ty 5690
wall 5691
Command 5692
wishes 5693
pe@@ 5694
&apos;clock 5695
segment 5696
damages 5697
mandates 5698
unchanged 5699
dark 5700
woes 5701
boy 5702
Kozloduy 5703
relative 5704
Car@@ 5705
bar 5706
enhancing 5707
amend 5708
grey 5709
Catherine 5710
territories 5711
hidden 5712
flee 5713
consolidation 5714
deemed 5715
man@@ 5716
admit 5717
tri@@ 5718
downturn 5719
websites 5720
inauguration 5721
rapporteur 5722
alike 5723
1,200 5724
listen 5725
theft 5726
requiring 5727
literary 5728
intimidation 5729
ary 5730
0.5 5731
pleaded 5732
organs 5733
violating 5734
approaching 5735
dismissal 5736
Hoxha 5737
Byzantine 5738
marathon 5739
Ak@@ 5740
generate 5741
persecution 5742
constantly 5743
li 5744
residence 5745
concession 5746
soccer 5747
73 5748
Technical 5749
viewing 5750
Norwegian 5751
ks 5752
Senate 5753
Dnevni 5754
Leakey 5755
KPC 5756
delivery 5757
Popovski 5758
privatise 5759
G 5760
Ukrainian 5761
flood 5762
deny 5763
stepping 5764
Ivanic 5765
Cristian 5766
bi 5767
steady 5768
regards 5769
athlete 5770
violate 5771
um 5772
manufacturing 5773
tone 5774
mo@@ 5775
hence 5776
ESM 5777
74 5778
England 5779
Petkovic 5780
brutal 5781
replacing 5782
cycle 5783
Barack 5784
animal 5785
marred 5786
ising 5787
explaining 5788
terminal 5789
Ad@@ 5790
ideal 5791
Passy 5792
Laden 5793
County 5794
Gracanica 5795
Dabilis 5796
ra@@ 5797
Nesovski 5798
avoided 5799
creates 5800
bearing 5801
projections 5802
Ghana 5803
outlets 5804
separatist 5805
method 5806
enforce 5807
ac 5808
ms 5809
bribes 5810
na 5811
prosperous 5812
overcoming 5813
aspect 5814
confirming 5815
bar@@ 5816
amnesty 5817
hide 5818
Jarinje 5819
Competition 5820
With 5821
sub@@ 5822
execution 5823
constructed 5824
artefacts 5825
importantly 5826
Shkullaku 5827
Gent 5828
Tripoli 5829
flooding 5830
SNS 5831
traffickers 5832
declining 5833
Zenica 5834
generated 5835
12,000 5836
composed 5837
emphasising 5838
Co@@ 5839
considerably 5840
dependent 5841
Online 5842
campaigning 5843
Milenkovic 5844
abolished 5845
Rocen 5846
fairly 5847
upgraded 5848
150m 5849
Hillary 5850
60m 5851
rejecting 5852
tested 5853
reciprocity 5854
counting 5855
celebrating 5856
timetable 5857
discipline 5858
MEPs 5859
expense 5860
proposing 5861
girl 5862
sceptical 5863
severely 5864
prostitution 5865
blockade 5866
curb 5867
confirms 5868
quoting 5869
revolution 5870
-@@ 5871
longstanding 5872
Organised 5873
somewhat 5874
troubled 5875
Sibenik 5876
teaching 5877
remittances 5878
enclaves 5879
77 5880
textbooks 5881
Tanja 5882
blue 5883
anywhere 5884
Borislav 5885
survived 5886
differ 5887
Against 5888
Patriarch 5889
stones 5890
Thracian 5891
lowered 5892
exploitation 5893
15m 5894
letters 5895
deeper 5896
unfair 5897
82 5898
delegates 5899
fo@@ 5900
St 5901
altogether 5902
ou@@ 5903
Top 5904
Svilanovic 5905
Pierre 5906
unification 5907
crowds 5908
Un@@ 5909
isation 5910
Tose 5911
choosing 5912
complaint 5913
coal 5914
accountable 5915
demarcation 5916
Koci 5917
easing 5918
museums 5919
Man@@ 5920
proves 5921
graves 5922
Fitch 5923
scrutiny 5924
ance 5925
Sergei 5926
resumed 5927
cameras 5928
ment 5929
hurt 5930
Avaz 5931
Milanovic 5932
ambitions 5933
KPS 5934
UDF 5935
flexibility 5936
endangered 5937
Library 5938
freezing 5939
regain 5940
flexible 5941
Pula 5942
Eide 5943
conditional 5944
fierce 5945
pipelines 5946
devices 5947
storage 5948
bombs 5949
trees 5950
models 5951
ments 5952
Dis@@ 5953
theory 5954
publish 5955
Talks 5956
incomes 5957
Week 5958
narrow 5959
deepening 5960
districts 5961
punished 5962
frustration 5963
necessarily 5964
Alina 5965
draws 5966
Be@@ 5967
ISAF 5968
tenders 5969
absolute 5970
damaging 5971
inspired 5972
Latin 5973
provider 5974
explore 5975
kids 5976
fighters 5977
71 5978
paintings 5979
Petroleum 5980
Bildt 5981
concludes 5982
handball 5983
maker 5984
autonomous 5985
Troika 5986
cold 5987
Borders 5988
undergo 5989
sed 5990
No 5991
Securitate 5992
Interpol 5993
Ac@@ 5994
unofficial 5995
Federal 5996
studying 5997
Res@@ 5998
Inter@@ 5999
so@@ 6000
affirmed 6001
.com 6002
slowdown 6003
deliveries 6004
Branislav 6005
Fouere 6006
Pakistan 6007
Yves 6008
stakes 6009
missed 6010
warm 6011
cyber 6012
controlling 6013
Budva 6014
questionnaire 6015
norms 6016
disagree 6017
lessons 6018
ni@@ 6019
vacation 6020
attitudes 6021
evade 6022
ani 6023
83 6024
globe 6025
viewers 6026
reformist 6027
abolish 6028
Says 6029
for@@ 6030
harsh 6031
predict 6032
professionalism 6033
describe 6034
shock 6035
spreading 6036
der@@ 6037
Marty 6038
wireless 6039
occasions 6040
walls 6041
interpreted 6042
poets 6043
Dan 6044
breach 6045
Express 6046
touch 6047
Mihajlovic 6048
folklore 6049
id 6050
registry 6051
titles 6052
facto 6053
intervene 6054
UEFA 6055
capability 6056
ha 6057
simultaneously 6058
testing 6059
devastating 6060
ders 6061
Shkodra 6062
thrown 6063
component 6064
plates 6065
finalise 6066
venue 6067
Lukoil 6068
tra@@ 6069
identification 6070
ARM 6071
Egyptian 6072
sum 6073
swimming 6074
stretch 6075
busy 6076
hostage 6077
mer 6078
accounting 6079
hired 6080
preconditions 6081
bidder 6082
protested 6083
experiencing 6084
Life 6085
boom 6086
Pavkovic 6087
advocate 6088
te@@ 6089
Vlatko 6090
trigger 6091
disagrees 6092
th 6093
thorough 6094
Li@@ 6095
lawmaker 6096
tape 6097
invitations 6098
sustain 6099
Lehne 6100
gross 6101
existed 6102
onto 6103
1.4 6104
forcing 6105
ik 6106
Anagnostopoulos 6107
postponement 6108
Steel 6109
Taleski 6110
dangers 6111
boxes 6112
di 6113
donation 6114
stadium 6115
approaches 6116
reporter 6117
Official 6118
consent 6119
architect 6120
refuses 6121
tear 6122
hits 6123
Transylvania 6124
tomb 6125
Jews 6126
guest 6127
BNN 6128
household 6129
manufacturer 6130
shake 6131
socialist 6132
Romano 6133
chiefs 6134
fortress 6135
ovo 6136
NMS 6137
Baran 6138
Radicals 6139
19@@ 6140
defendant 6141
normalisation 6142
Study 6143
Joachim 6144
precedent 6145
images 6146
bu@@ 6147
ative 6148
ins 6149
designate 6150
Citizens 6151
Stadium 6152
ats 6153
circles 6154
Gordon 6155
ot@@ 6156
workshop 6157
pictures 6158
gasoline 6159
poultry 6160
Mon@@ 6161
steadily 6162
M 6163
Beqaj 6164
P 6165
portfolio 6166
pursuing 6167
acquis 6168
risen 6169
fleet 6170
briefing 6171
Kurti 6172
handled 6173
polo 6174
defended 6175
ignoring 6176
solely 6177
protesting 6178
rivals 6179
sex 6180
Countries 6181
Malta 6182
Monitoring 6183
consequence 6184
indication 6185
shelter 6186
gu@@ 6187
executed 6188
applies 6189
opponent 6190
FIFA 6191
vowing 6192
lie 6193
congratulated 6194
mistake 6195
charity 6196
understood 6197
sp@@ 6198
couldn 6199
refrain 6200
tly 6201
notably 6202
swift 6203
smoke 6204
MESS 6205
youngest 6206
expelled 6207
za 6208
5,@@ 6209
PD 6210
El@@ 6211
empty 6212
inhabitants 6213
editorial 6214
decree 6215
ators 6216
reviewed 6217
dignity 6218
flying 6219
Tahiri 6220
genuine 6221
reiterating 6222
complain 6223
Kuci 6224
Rumsfeld 6225
Shantek 6226
armies 6227
periods 6228
PTK 6229
mandatory 6230
drought 6231
eliminated 6232
Kalfin 6233
root 6234
shouldn 6235
wouldn 6236
Bay 6237
prosecuted 6238
ler 6239
enjoying 6240
devoted 6241
dropping 6242
productive 6243
ner 6244
Kumanovo 6245
competed 6246
har@@ 6247
est 6248
Tatlises 6249
Jonilda 6250
Muammar 6251
ru@@ 6252
7.@@ 6253
slight 6254
convention 6255
sustainability 6256
Benedict 6257
healthy 6258
creditors 6259
arm 6260
slated 6261
ci 6262
everywhere 6263
courage 6264
entrance 6265
imprisonment 6266
feels 6267
cultures 6268
temporarily 6269
systematic 6270
emissions 6271
pressed 6272
Veles 6273
gangs 6274
belonged 6275
technically 6276
Camp 6277
id@@ 6278
Venizelos 6279
miners 6280
Visegrad 6281
elimination 6282
accomplished 6283
Without 6284
Di@@ 6285
premises 6286
checks 6287
pays 6288
1.7 6289
checkpoint 6290
Besa 6291
alisation 6292
commenting 6293
Bill 6294
forests 6295
WHO 6296
beaten 6297
Andrija 6298
lacking 6299
sight 6300
mon@@ 6301
grenades 6302
totalling 6303
Persons 6304
retrial 6305
readers 6306
50th 6307
essence 6308
Josip 6309
democracies 6310
hub 6311
allocate 6312
footage 6313
Pliva 6314
applying 6315
harmful 6316
Droutsas 6317
smokers 6318
Mihai 6319
breakaway 6320
Zarko 6321
clinic 6322
militant 6323
buses 6324
ki 6325
undergoing 6326
capitals 6327
county 6328
signatures 6329
associates 6330
ish 6331
Misko 6332
Warsaw 6333
sat 6334
tend 6335
Delta 6336
contracted 6337
coffee 6338
deciding 6339
PACE 6340
Vukcevic 6341
abandon 6342
Miodrag 6343
uprising 6344
ological 6345
objects 6346
lingering 6347
Sydney 6348
beneficial 6349
workshops 6350
continuous 6351
married 6352
neutral 6353
shocked 6354
referenda 6355
promotes 6356
DOS 6357
flows 6358
meantime 6359
EXIT 6360
formula 6361
preserved 6362
1.5m 6363
Polt 6364
absorption 6365
5.@@ 6366
kick 6367
Janica 6368
costly 6369
Patten 6370
greeted 6371
convincing 6372
Jones 6373
E 6374
Mer@@ 6375
wrestling 6376
privileged 6377
Gaza 6378
bond 6379
San@@ 6380
sitting 6381
notorious 6382
graphic 6383
rank 6384
dramatically 6385
boycotted 6386
Ser@@ 6387
iron 6388
Journalists 6389
Miss 6390
grants 6391
portal 6392
Le@@ 6393
revive 6394
dam 6395
discontent 6396
borrowing 6397
alert 6398
arbitration 6399
murdered 6400
Cicek 6401
excise 6402
301 6403
Nokia 6404
Indian 6405
tor 6406
res@@ 6407
wood 6408
dollars 6409
psychological 6410
Trafficking 6411
amounting 6412
Scotsman 6413
mediated 6414
fix 6415
em@@ 6416
drinking 6417
combination 6418
rumours 6419
par@@ 6420
gun 6421
Varna 6422
Ch@@ 6423
junior 6424
Djurovic 6425
researcher 6426
Colin 6427
400,000 6428
profession 6429
transported 6430
ours 6431
ges 6432
residential 6433
delaying 6434
Mountain 6435
replacement 6436
Zadar 6437
observer 6438
Bal@@ 6439
explosive 6440
castle 6441
reductions 6442
denying 6443
Jansa 6444
Genc 6445
lengthy 6446
credible 6447
13@@ 6448
composer 6449
remote 6450
Q@@ 6451
usual 6452
1,800 6453
subjects 6454
Oil 6455
rent 6456
precise 6457
anger 6458
ful 6459
birthday 6460
disagreement 6461
In 6462
pan 6463
regulate 6464
unpaid 6465
volleyball 6466
sun 6467
can@@ 6468
exclusively 6469
contained 6470
demonstrating 6471
taxi 6472
sworn 6473
Caucasus 6474
excluded 6475
soft 6476
Vatican 6477
OECD 6478
components 6479
Marian 6480
usage 6481
86 6482
Hasan 6483
roundup 6484
Jandrokovic 6485
evaluate 6486
9,000 6487
Team 6488
justified 6489
anti@@ 6490
Dogan 6491
ci@@ 6492
agreeing 6493
assuming 6494
guide 6495
legendary 6496
electorate 6497
Ocalan 6498
Zdravko 6499
assurances 6500
unusual 6501
tomorrow 6502
registering 6503
scientist 6504
emerge 6505
Contemporary 6506
350 6507
integral 6508
1.1 6509
shed 6510
du@@ 6511
predicts 6512
commentator 6513
hopeful 6514
abuses 6515
appreciation 6516
gallery 6517
essentially 6518
screened 6519
accidents 6520
Par@@ 6521
ninth 6522
ignore 6523
chair 6524
ombudsman 6525
Kristina 6526
rebel 6527
construct 6528
crash 6529
Nedjeljko 6530
Sljivancanin 6531
cr@@ 6532
88 6533
beach 6534
petrol 6535
quit 6536
MOL 6537
bands 6538
Denktash 6539
apprehended 6540
Daci 6541
16@@ 6542
waves 6543
stagnation 6544
do@@ 6545
Mile 6546
Kadare 6547
shakes 6548
unhappy 6549
spite 6550
academics 6551
library 6552
Papademos 6553
provoked 6554
sweeping 6555
resumption 6556
communicate 6557
Blue 6558
Manager 6559
EUPM 6560
scheme 6561
Christos 6562
Bi@@ 6563
Borissov 6564
goodwill 6565
boasts 6566
petition 6567
WTO 6568
cafes 6569
myself 6570
modest 6571
250m 6572
Com@@ 6573
ma 6574
burned 6575
equivalent 6576
Monastery 6577
privatised 6578
Damir 6579
signalled 6580
harmonisation 6581
renovation 6582
renovated 6583
Gen 6584
utilities 6585
suspicious 6586
tenure 6587
setback 6588
box 6589
Olympiad 6590
Giorgos 6591
Credit 6592
villagers 6593
com@@ 6594
argument 6595
Topalli 6596
trilateral 6597
slogan 6598
Sibiu 6599
disclosed 6600
publication 6601
Renewal 6602
consulting 6603
lowering 6604
reward 6605
Osijek 6606
tools 6607
Land 6608
challenged 6609
75m 6610
separation 6611
Barbu 6612
cargo 6613
Antalya 6614
Piraeus 6615
anonymous 6616
seaside 6617
trains 6618
Donald 6619
boosted 6620
Storm 6621
accommodation 6622
blocks 6623
Rudovic 6624
BH 6625
partnerships 6626
separated 6627
graduate 6628
impressed 6629
flotilla 6630
Plavsic 6631
floor 6632
fulfillment 6633
competent 6634
mediation 6635
the@@ 6636
caution 6637
quest 6638
segments 6639
cites 6640
Dimitar 6641
Macovei 6642
staying 6643
Tony 6644
Arhin 6645
avoiding 6646
televised 6647
scoring 6648
imply 6649
regimes 6650
shale 6651
highways 6652
MW 6653
spectators 6654
pages 6655
Mitreva 6656
Fest 6657
Europol 6658
char@@ 6659
conversation 6660
Anna 6661
Ibar 6662
occupied 6663
proliferation 6664
awaits 6665
Gu@@ 6666
lake 6667
Gjirokastra 6668
fi@@ 6669
negatively 6670
Clark 6671
abolition 6672
destabilise 6673
arrives 6674
Employment 6675
infection 6676
ou 6677
suppliers 6678
Dimitrij 6679
Jocic 6680
ultimate 6681
assault 6682
conviction 6683
soil 6684
seconds 6685
Maja 6686
Denis 6687
painter 6688
insulting 6689
Eurasian 6690
adequately 6691
skiing 6692
ECHR 6693
bureaucracy 6694
threatens 6695
carriers 6696
conferences 6697
For 6698
comparatively 6699
afternoon 6700
Joseph 6701
aggressive 6702
Or@@ 6703
affair 6704
committees 6705
troop 6706
ODIHR 6707
Poetry 6708
ICC 6709
attendance 6710
Representatives 6711
ul 6712
hall 6713
incentive 6714
kov 6715
Acropolis 6716
Dr 6717
overthrow 6718
air@@ 6719
device 6720
cement 6721
headscarves 6722
disbanded 6723
Lulzim 6724
po@@ 6725
Pre@@ 6726
eighth 6727
Portuguese 6728
meters 6729
engine 6730
tree 6731
Ossetia 6732
bankrupt 6733
Envoy 6734
Sadiku 6735
defining 6736
exposed 6737
silent 6738
Im@@ 6739
roadmap 6740
lu@@ 6741
automatically 6742
MHP 6743
civilisation 6744
17@@ 6745
revision 6746
lustration 6747
awaited 6748
enabled 6749
Mobile 6750
su@@ 6751
vis 6752
Oslo 6753
ce@@ 6754
1,0@@ 6755
landscape 6756
Eurostat 6757
Internal 6758
Investments 6759
ality 6760
f 6761
everyday 6762
stick 6763
artistic 6764
Stephen 6765
pick 6766
Tehran 6767
attraction 6768
forever 6769
window 6770
brokered 6771
Tudjman 6772
undertaking 6773
perceptions 6774
Gun@@ 6775
IPA 6776
resource 6777
Mo@@ 6778
Be 6779
Investigative 6780
die 6781
refer 6782
Bernard 6783
Control 6784
Kouchner 6785
Services 6786
Anders 6787
Ceausescu 6788
um@@ 6789
restitution 6790
Dick 6791
cleansing 6792
mentality 6793
firefighters 6794
9.@@ 6795
policeman 6796
Direct 6797
Kal@@ 6798
tops 6799
helicopter 6800
badly 6801
watched 6802
Plovdiv 6803
Alkalaj 6804
laboratory 6805
sic 6806
inevitable 6807
possession 6808
EVN 6809
adjustment 6810
Downer 6811
taxpayers 6812
10.@@ 6813
Emir 6814
looked 6815
stems 6816
Ford 6817
ber@@ 6818
enforced 6819
20@@ 6820
destroying 6821
av@@ 6822
reminded 6823
relationships 6824
istic 6825
Vlasic 6826
impetus 6827
Baghdad 6828
strictly 6829
surprising 6830
stabilising 6831
Easter 6832
distant 6833
beer 6834
dinars 6835
ra 6836
weaknesses 6837
headscarf 6838
philosophy 6839
Cor@@ 6840
reserved 6841
overwhelmingly 6842
Marin 6843
mood 6844
rift 6845
robust 6846
ed@@ 6847
sion 6848
grand 6849
proposes 6850
7.5 6851
Herman 6852
Sch@@ 6853
ble 6854
apprehend 6855
jic 6856
satisfactory 6857
Sreten 6858
Matic 6859
poised 6860
highlight 6861
radar 6862
stamp 6863
Markac 6864
Alpha 6865
acquiring 6866
totalled 6867
slim 6868
Christians 6869
prohibited 6870
slowed 6871
animals 6872
Zukorlic 6873
Hrant 6874
ig@@ 6875
ities 6876
limiting 6877
expires 6878
5.5 6879
realisation 6880
unstable 6881
6.5 6882
memory 6883
ven@@ 6884
debut 6885
irreversible 6886
travellers 6887
Scepanovic 6888
Bu@@ 6889
Selimi 6890
bTV 6891
Janez 6892
bas@@ 6893
ev@@ 6894
verdicts 6895
loose 6896
patrols 6897
treat 6898
Managing 6899
handing 6900
180 6901
produces 6902
Football 6903
doubled 6904
successes 6905
clashed 6906
patience 6907
brain 6908
Remikovic 6909
rarely 6910
smooth 6911
ion 6912
reflecting 6913
Americans 6914
ideology 6915
effectiveness 6916
91 6917
northeastern 6918
Schook 6919
DiCarlo 6920
Country 6921
forgotten 6922
recommends 6923
thank 6924
Mt 6925
length 6926
composition 6927
gen@@ 6928
demographic 6929
Short 6930
af@@ 6931
filmmakers 6932
takeover 6933
Bar 6934
93 6935
Freedoms 6936
www.@@ 6937
ik@@ 6938
tanks 6939
Skender 6940
peacefully 6941
ska 6942
cave 6943
rain 6944
MAP 6945
advantages 6946
hi 6947
Guler 6948
documentaries 6949
Philharmonic 6950
tiny 6951
Mail 6952
MRF 6953
eat 6954
guards 6955
packed 6956
Cannes 6957
Ro@@ 6958
Nova 6959
liquidity 6960
resignations 6961
crew 6962
withdrawn 6963
stays 6964
Nicolae 6965
missiles 6966
advised 6967
forged 6968
Statistical 6969
layoffs 6970
percent 6971
Nazi 6972
stresses 6973
col@@ 6974
longest 6975
Insurance 6976
Refugees 6977
Kotor 6978
returnees 6979
justify 6980
PDL 6981
pair 6982
3.6 6983
tragic 6984
blaming 6985
wear 6986
Man 6987
Vodafone 6988
geographical 6989
indicating 6990
ging 6991
drink 6992
trafficked 6993
aftermath 6994
XVI 6995
Dialogue 6996
slalom 6997
supplier 6998
Cluj 6999
Prix 7000
motto 7001
Miranda 7002
regulated 7003
forthcoming 7004
proportion 7005
satisfy 7006
torn 7007
thereby 7008
This 7009
activist 7010
ry 7011
announces 7012
tariffs 7013
transferring 7014
ton 7015
Marshall 7016
Kosovar 7017
windows 7018
burning 7019
suspicions 7020
forums 7021
difficulty 7022
counted 7023
guidelines 7024
Samir 7025
cohesion 7026
Basbug 7027
mainstream 7028
arguably 7029
prosecuting 7030
3,@@ 7031
inspectors 7032
wonder 7033
govern 7034
Kyprianou 7035
modernising 7036
feet 7037
alarm 7038
br@@ 7039
ire 7040
250,000 7041
hand@@ 7042
Momcilo 7043
Second 7044
object 7045
tactics 7046
harmonise 7047
barrier 7048
92 7049
enthusiasm 7050
gradual 7051
problematic 7052
Ranko 7053
novel 7054
photographs 7055
Nuclear 7056
persistent 7057
warming 7058
analyse 7059
History 7060
Elena 7061
picked 7062
Civilian 7063
mere 7064
commerce 7065
weapon 7066
Awards 7067
dissatisfaction 7068
Evenings 7069
sufficiently 7070
cor@@ 7071
biological 7072
sur@@ 7073
Mal@@ 7074
merely 7075
Mechanism 7076
asset 7077
assessing 7078
precisely 7079
Change 7080
Presidential 7081
consolidate 7082
Angel 7083
Su@@ 7084
applicants 7085
surrounded 7086
Zone 7087
Voulgarakis 7088
Saric 7089
unrealistic 7090
hearings 7091
tapped 7092
echoing 7093
bidding 7094
Cedomir 7095
barracks 7096
enables 7097
loyal 7098
Fogh 7099
gratitude 7100
quake 7101
tors 7102
perfect 7103
Maric 7104
regulator 7105
Turkishness 7106
triumph 7107
classical 7108
ICO 7109
Headquarters 7110
ie 7111
gesture 7112
8.@@ 7113
AD 7114
opposite 7115
Baykal 7116
Literature 7117
abused 7118
ged 7119
lagging 7120
Time 7121
indirect 7122
Rus@@ 7123
wild 7124
kicks 7125
Milutinovic 7126
midnight 7127
Borut 7128
Ischinger 7129
Belarus 7130
Veselin 7131
NBS 7132
honours 7133
renewal 7134
Eve 7135
keen 7136
ri 7137
qualify 7138
ballet 7139
situated 7140
87 7141
Road 7142
Davinic 7143
Orchestra 7144
Kazakhstan 7145
alising 7146
unanimous 7147
aviation 7148
mothers 7149
Terrorism 7150
Afghan 7151
Economist 7152
explanation 7153
Star 7154
presiding 7155
ini 7156
eased 7157
Busek 7158
enemy 7159
550 7160
ously 7161
owed 7162
standby 7163
dominant 7164
guaranteeing 7165
qualifying 7166
Mexico 7167
stayed 7168
Guenter 7169
urgently 7170
furniture 7171
Operations 7172
lending 7173
saved 7174
packages 7175
Mirjana 7176
landslide 7177
rallies 7178
farewell 7179
min@@ 7180
captain 7181
Dmitry 7182
familiar 7183
Ko@@ 7184
Vlahovic 7185
carries 7186
adults 7187
Food 7188
ologists 7189
Benghazi 7190
recovered 7191
Self 7192
logical 7193
Ne@@ 7194
workforce 7195
parade 7196
Over 7197
ite 7198
auction 7199
Jan 7200
unnamed 7201
Tzanis 7202
resolutions 7203
Min@@ 7204
Hotel 7205
virtual 7206
eve 7207
escalation 7208
manipulation 7209
cease 7210
bribe 7211
hate 7212
Hollywood 7213
print 7214
spiritual 7215
Venice 7216
striking 7217
Chris 7218
inspection 7219
policymakers 7220
secularists 7221
followers 7222
Amariei 7223
ver@@ 7224
Greater 7225
couples 7226
themes 7227
Ionian 7228
marriage 7229
understands 7230
crossed 7231
clarify 7232
deserve 7233
4,@@ 7234
Arabia 7235
q@@ 7236
Admiral 7237
back@@ 7238
ns 7239
lobbying 7240
no@@ 7241
accurate 7242
leg 7243
accommodate 7244
Harri 7245
Frankfurt 7246
CNA 7247
preferred 7248
cruise 7249
outlines 7250
album 7251
arriving 7252
intentions 7253
pride 7254
roundtable 7255
ir 7256
Ballet 7257
Tax 7258
2.9 7259
rocket 7260
JNA 7261
necessity 7262
Zbogar 7263
sad 7264
indicator 7265
grace 7266
orientation 7267
settling 7268
Pazar 7269
concluding 7270
aging 7271
Mu@@ 7272
broadband 7273
160 7274
signatories 7275
Kukes 7276
filling 7277
quantities 7278
dimension 7279
ak@@ 7280
bolster 7281
ked 7282
privileges 7283
11@@ 7284
panic 7285
imagine 7286
ars 7287
regulating 7288
threw 7289
employs 7290
confront 7291
blog 7292
Lazarevic 7293
rings 7294
upgrading 7295
proving 7296
garnered 7297
Savings 7298
Arena 7299
phases 7300
Bonn 7301
tech 7302
crude 7303
contractors 7304
96 7305
Srpske 7306
Constanta 7307
coastline 7308
upset 7309
preferential 7310
bans 7311
religions 7312
abide 7313
outlining 7314
Sahin 7315
Sar@@ 7316
convoy 7317
frustrated 7318
up@@ 7319
historians 7320
35,000 7321
plenty 7322
Schroeder 7323
ning 7324
Oscar 7325
OMV 7326
inherited 7327
One 7328
Johnson 7329
Water 7330
emphasises 7331
Andreas 7332
deliberately 7333
blackmail 7334
YouTube 7335
Butmir 7336
Mandic 7337
opoulos 7338
quiet 7339
secondly 7340
Moon 7341
gr@@ 7342
topped 7343
noticed 7344
inquiry 7345
Christie 7346
privacy 7347
Safet 7348
bidders 7349
jevic 7350
outdated 7351
Presevo 7352
insistence 7353
Claude 7354
ob@@ 7355
Ljube 7356
Electoral 7357
riot 7358
Jakup 7359
Zeri 7360
runner 7361
strained 7362
emphasise 7363
2.2 7364
Evenimentul 7365
Gordan 7366
bureaucratic 7367
uranium 7368
Do@@ 7369
anonymity 7370
defense 7371
committing 7372
measuring 7373
machine 7374
consistently 7375
precautionary 7376
gift 7377
walked 7378
hinges 7379
Viktor 7380
surface 7381
umbrella 7382
Tesla 7383
corner 7384
annulled 7385
royal 7386
Luksic 7387
fixing 7388
explosions 7389
Bojan 7390
Ti@@ 7391
CARDS 7392
parliamentarians 7393
foot 7394
med 7395
efficiently 7396
flooded 7397
advocating 7398
Hari 7399
squad 7400
independently 7401
Trajkovic 7402
ent@@ 7403
consulate 7404
Mitic 7405
7,@@ 7406
Zilei 7407
allocation 7408
ay 7409
integrating 7410
enacted 7411
occupation 7412
misuse 7413
Holy 7414
Krivokapic 7415
factions 7416
Guard 7417
indirectly 7418
poster 7419
plagued 7420
academy 7421
feasible 7422
hasn 7423
Declaration 7424
chairs 7425
glad 7426
Snezana 7427
endanger 7428
William 7429
Ivanovski 7430
pulled 7431
Zupljanin 7432
angered 7433
ned 7434
unconstitutional 7435
promotional 7436
bed 7437
ATP 7438
Av@@ 7439
envisioning 7440
spectacular 7441
Photos 7442
historian 7443
Gheorghe 7444
irresponsible 7445
inability 7446
suggestion 7447
clauses 7448
Packett 7449
appealing 7450
r 7451
her@@ 7452
providers 7453
gymnastics 7454
fearing 7455
gates 7456
permanently 7457
advancing 7458
fatal 7459
reconsider 7460
exposure 7461
condolences 7462
breakup 7463
Bujar 7464
Evangelos 7465
Cuk 7466
Mladenov 7467
sacrifice 7468
shadow 7469
3.8 7470
geopolitical 7471
Moratinos 7472
Planning 7473
drama 7474
replaces 7475
exceeds 7476
trans@@ 7477
judgment 7478
Bas@@ 7479
ti 7480
Brigade 7481
Ber@@ 7482
alarming 7483
Cap@@ 7484
sub 7485
responses 7486
mourning 7487
Broadcasting 7488
detail 7489
N 7490
mar@@ 7491
Mediu 7492
shocks 7493
comprising 7494
Interim 7495
Young 7496
pm 7497
ten@@ 7498
RECOM 7499
circulation 7500
KADEK 7501
1.8 7502
pain 7503
revival 7504
exceptional 7505
select 7506
forwarded 7507
Bakir 7508
1980 7509
6,@@ 7510
socially 7511
ordering 7512
leftist 7513
rated 7514
shortage 7515
Divac 7516
Export 7517
deserves 7518
swimmer 7519
shareholders 7520
roadblocks 7521
cells 7522
sa@@ 7523
war@@ 7524
Sector 7525
rebuilt 7526
sponsors 7527
denounced 7528
Hilmi 7529
Song 7530
speculate 7531
Men 7532
typical 7533
Brigadier 7534
smoothly 7535
affordable 7536
Age 7537
dire 7538
recycling 7539
singers 7540
departments 7541
go@@ 7542
pupils 7543
ians 7544
finishing 7545
Crete 7546
surge 7547
proceeds 7548
Saranda 7549
Sven 7550
stir 7551
violates 7552
ut@@ 7553
Jankulovska 7554
expired 7555
races 7556
timely 7557
harmony 7558
Pan 7559
unaware 7560
monasteries 7561
artificial 7562
await 7563
neo 7564
transplants 7565
firing 7566
240 7567
relating 7568
gi@@ 7569
studied 7570
Gulf 7571
14,000 7572
testified 7573
Bel@@ 7574
automatic 7575
2.6 7576
machines 7577
utmost 7578
substantially 7579
sister 7580
tunnel 7581
den 7582
faculty 7583
CERN 7584
inmates 7585
Erwan 7586
Prince 7587
consequently 7588
commissioned 7589
eager 7590
lawsuits 7591
statute 7592
jailed 7593
naval 7594
Prosper 7595
boat 7596
Ozkok 7597
sting 7598
800,000 7599
Holocaust 7600
commended 7601
IBM 7602
Har@@ 7603
disagreed 7604
Dulic 7605
stops 7606
Allied 7607
prayer 7608
pool 7609
consecutive 7610
You 7611
counties 7612
multinational 7613
Earth 7614
councils 7615
Bancroft 7616
ched 7617
pianist 7618
Tri@@ 7619
auto 7620
deepen 7621
Together 7622
Dra@@ 7623
organiser 7624
respecting 7625
Micic 7626
warrants 7627
Contest 7628
5km 7629
Hoxhaj 7630
reinforce 7631
Gregorian 7632
populist 7633
Communication 7634
Mount 7635
treasures 7636
Trandafir 7637
harmonised 7638
minimal 7639
attached 7640
normally 7641
drilling 7642
mail 7643
accomplish 7644
Property 7645
Val@@ 7646
mental 7647
coincided 7648
Ab@@ 7649
Zealand 7650
stimulate 7651
trans 7652
97 7653
lands 7654
advisers 7655
internally 7656
protocols 7657
sq 7658
contention 7659
ultra 7660
spare 7661
sky 7662
sentiment 7663
Independence 7664
Tarculovski 7665
Surroi 7666
rape 7667
9,@@ 7668
tune 7669
Cermak 7670
3.2 7671
roof 7672
aren 7673
audit 7674
tr@@ 7675
transitional 7676
evil 7677
gifts 7678
3.3 7679
repayment 7680
dic 7681
concentration 7682
tightening 7683
item 7684
Town 7685
individually 7686
stopping 7687
anthem 7688
graduates 7689
mountainous 7690
External 7691
PDP 7692
Urges 7693
feelings 7694
Task 7695
notable 7696
Sal@@ 7697
instructions 7698
ped 7699
overwhelming 7700
suburb 7701
incoming 7702
undoubtedly 7703
commented 7704
Border 7705
Humanitarian 7706
sociologist 7707
homeland 7708
ws 7709
hackers 7710
Tokyo 7711
zi 7712
contents 7713
Clan 7714
sticking 7715
Butler 7716
Appeals 7717
prolonged 7718
acquittal 7719
cm 7720
boats 7721
ads 7722
baby 7723
commissions 7724
escaped 7725
consultation 7726
BIRN 7727
ratio 7728
interpretation 7729
Korean 7730
BB 7731
4.4 7732
Ge@@ 7733
OTE 7734
criticise 7735
Stojkovic 7736
contractor 7737
Tobacco 7738
convergence 7739
skilled 7740
questionable 7741
discover 7742
Tomic 7743
engineers 7744
screen 7745
absentia 7746
annul 7747
parameters 7748
pillars 7749
limbo 7750
Carl 7751
implies 7752
unidentified 7753
Mi@@ 7754
worship 7755
small- 7756
CEZ 7757
SMEs 7758
insult 7759
cy@@ 7760
Estonian 7761
800m 7762
comfortable 7763
wrapping 7764
bishop 7765
Vecernje 7766
scholars 7767
reunite 7768
gar@@ 7769
restricted 7770
Osama 7771
tolerate 7772
Pan@@ 7773
170 7774
kWh 7775
Th@@ 7776
RIA 7777
Hala 7778
brigade 7779
provinces 7780
Nikolay 7781
chev 7782
purchases 7783
inaugural 7784
pretty 7785
raw 7786
Radu 7787
ceremonies 7788
deteriorated 7789
vows 7790
circle 7791
undermined 7792
Manjola 7793
Ap@@ 7794
turnover 7795
Status 7796
opt 7797
Archbishop 7798
checkpoints 7799
typically 7800
wraps 7801
endorse 7802
ailing 7803
holders 7804
submitting 7805
decent 7806
Cemil 7807
Anatolia 7808
Gelu 7809
accompanying 7810
counterterrorism 7811
exporting 7812
accords 7813
Rajko 7814
longtime 7815
grid 7816
20km 7817
locate 7818
def@@ 7819
Franjo 7820
Trust 7821
dividing 7822
indications 7823
reverse 7824
bail 7825
graft 7826
prizes 7827
X 7828
certificates 7829
risky 7830
conventional 7831
ride 7832
dependency 7833
administered 7834
Ilija 7835
treasure 7836
ack 7837
eco 7838
Col@@ 7839
exclude 7840
ro 7841
atrocity 7842
admitting 7843
universal 7844
Ungureanu 7845
600,000 7846
hal@@ 7847
ze 7848
northwest 7849
Big 7850
cu@@ 7851
Promotion 7852
deterioration 7853
similarly 7854
crack 7855
commemorate 7856
GSM 7857
Antic 7858
imprisoned 7859
adoptions 7860
den@@ 7861
unlawful 7862
holder 7863
preparedness 7864
repercussions 7865
Amnesty 7866
700m 7867
inflow 7868
Pas@@ 7869
scenarios 7870
tip 7871
sions 7872
dev@@ 7873
telephony 7874
successive 7875
Judiciary 7876
attends 7877
Annual 7878
specialist 7879
Permanent 7880
Turkmenistan 7881
College 7882
calculated 7883
Channel 7884
Dr. 7885
wrongdoing 7886
Nations 7887
treaties 7888
somewhere 7889
decreasing 7890
fined 7891
breaches 7892
secularist 7893
han@@ 7894
60th 7895
lira 7896
froze 7897
Marnhac 7898
3G 7899
interviews 7900
speeding 7901
competitions 7902
signaled 7903
fit 7904
Vukovic 7905
expenditure 7906
mar 7907
singing 7908
inf@@ 7909
client 7910
apology 7911
im 7912
reflection 7913
Brazilian 7914
.The 7915
Reforms 7916
ved 7917
liberalising 7918
upper 7919
Rad@@ 7920
Green 7921
Gas 7922
rid 7923
accuse 7924
JSO 7925
league 7926
qualifications 7927
mediate 7928
closest 7929
cheese 7930
tu@@ 7931
attacking 7932
deportation 7933
ical 7934
Monetary 7935
hamper 7936
NTV 7937
wounds 7938
delivering 7939
proclamation 7940
1.9 7941
Ra@@ 7942
prejudice 7943
bri@@ 7944
samples 7945
contributes 7946
Lutovska 7947
Murat 7948
Stojan 7949
appointments 7950
exceeding 7951
wooden 7952
teenagers 7953
Kostic 7954
overseeing 7955
deteriorating 7956
courtroom 7957
aide 7958
teach 7959
Her@@ 7960
All 7961
Thomas 7962
80m 7963
Br@@ 7964
master 7965
Prosecution 7966
bullets 7967
12m 7968
joy 7969
Arben 7970
Janjic 7971
spark 7972
saving 7973
Electronic 7974
bloody 7975
recipient 7976
illicit 7977
weakened 7978
choices 7979
rush 7980
advances 7981
Is 7982
Gallup 7983
presentations 7984
Sami 7985
Davis 7986
quotas 7987
audio 7988
Ismail 7989
ek@@ 7990
oath 7991
2.7 7992
2.3 7993
scepticism 7994
olive 7995
Mountains 7996
Chisinau 7997
Steven 7998
meter 7999
Kovac 8000
shorter 8001
hometown 8002
eleven 8003
Hajredin 8004
programming 8005
tenth 8006
eva 8007
Pukanic 8008
motives 8009
Bulletin 8010
innocence 8011
happiness 8012
tures 8013
subjected 8014
lights 8015
15.@@ 8016
recover 8017
maps 8018
Mat@@ 8019
tics 8020
exporter 8021
affiliated 8022
dominate 8023
fake 8024
Under 8025
Mungiu 8026
ologist 8027
EUSR 8028
scenes 8029
requesting 8030
fault 8031
70m 8032
supplied 8033
Samaras 8034
Go@@ 8035
searched 8036
defines 8037
hydroelectric 8038
hiring 8039
ets 8040
Me@@ 8041
interfere 8042
emigrants 8043
consultant 8044
logistics 8045
inappropriate 8046
contested 8047
Veton 8048
contributor 8049
offences 8050
Dance 8051
opted 8052
twin 8053
crowded 8054
Child 8055
machinery 8056
Todorovic 8057
barred 8058
wherever 8059
Ulemek 8060
OIC 8061
parks 8062
Act 8063
pas@@ 8064
implicated 8065
distrust 8066
Germans 8067
notch 8068
Jolie 8069
evacuated 8070
termed 8071
13.@@ 8072
Ger@@ 8073
Kai 8074
Krstic 8075
Bechtel 8076
valued 8077
Fischer 8078
somebody 8079
waited 8080
Yildiz 8081
patrol 8082
Issues 8083
Bashar 8084
Po@@ 8085
Pacolli 8086
Meron 8087
bright 8088
stating 8089
Review 8090
dams 8091
ners 8092
Opposition 8093
Il@@ 8094
mall 8095
transforming 8096
foods 8097
Broz 8098
distributor 8099
dilemma 8100
worsening 8101
Perisic 8102
ur 8103
vegetables 8104
enclave 8105
steep 8106
safer 8107
spoken 8108
festivities 8109
ATHOC 8110
capitalism 8111
Vukotic 8112
hearts 8113
VRS 8114
Baconschi 8115
winds 8116
Pack 8117
drain 8118
shelling 8119
ga 8120
Southern 8121
refers 8122
Tar@@ 8123
literacy 8124
archives 8125
Raiffeisen 8126
Exit 8127
resist 8128
assure 8129
examined 8130
barely 8131
ot 8132
Regulatory 8133
detection 8134
edge 8135
Grossman 8136
leaked 8137
79 8138
ban@@ 8139
fights 8140
pervasive 8141
reunify 8142
innovative 8143
ist@@ 8144
aspiring 8145
ium 8146
sophisticated 8147
Kat@@ 8148
fastest 8149
concentrate 8150
exaggerated 8151
gunned 8152
fa@@ 8153
flowers 8154
adopts 8155
super@@ 8156
Prijedor 8157
Agenda 8158
adapt 8159
inhumane 8160
architectural 8161
Ver@@ 8162
stances 8163
Georgian 8164
highlighting 8165
examination 8166
treasury 8167
distinguished 8168
shots 8169
3,500 8170
pl@@ 8171
Night 8172
120m 8173
networking 8174
Antonescu 8175
hinge 8176
struggles 8177
dedication 8178
As@@ 8179
outrage 8180
blames 8181
underpin 8182
Deniz 8183
accordingly 8184
da@@ 8185
Yasar 8186
Buyukanit 8187
enthusiastic 8188
substance 8189
strive 8190
Gora 8191
dissolution 8192
exporters 8193
accepts 8194
Marathon 8195
ying 8196
restoring 8197
theatres 8198
un 8199
Bajrami 8200
smugglers 8201
sincere 8202
counter@@ 8203
billions 8204
DSB 8205
Mobtel 8206
Steinberg 8207
anticipates 8208
jan 8209
signature 8210
Bologna 8211
printing 8212
ming 8213
repay 8214
80,000 8215
reshuffle 8216
negotiable 8217
directorate 8218
standoff 8219
our@@ 8220
Stavrevski 8221
specify 8222
multilateral 8223
motorway 8224
ol 8225
ics 8226
thirty 8227
inc@@ 8228
businesspeople 8229
quantity 8230
Vasile 8231
stipulated 8232
mortality 8233
slogans 8234
Theodor 8235
dictatorship 8236
socio 8237
alleviate 8238
Stan@@ 8239
confusion 8240
clinics 8241
alism 8242
Rogge 8243
Samuel 8244
paved 8245
facilitation 8246
Kusturica 8247
banning 8248
Peres 8249
updated 8250
Petkov 8251
Nezavisne 8252
Veljovic 8253
somehow 8254
crops 8255
motive 8256
Mitrovic 8257
prompt 8258
dismiss 8259
twelve 8260
trips 8261
Railways 8262
Klaudija 8263
Musliu 8264
Renault 8265
Cyril 8266
unexpected 8267
stationed 8268
executives 8269
macro 8270
enforcing 8271
unfavourable 8272
cur@@ 8273
seize 8274
equ@@ 8275
Kos 8276
engineer 8277
EUpolitix 8278
tion@@ 8279
analyses 8280
Bulatovic 8281
pensioner 8282
exceptionally 8283
fuelled 8284
Velimir 8285
repairs 8286
sa 8287
survivors 8288
reservations 8289
fun 8290
briefly 8291
3.4 8292
Environmental 8293
hero 8294
motivation 8295
Marie 8296
600m 8297
X@@ 8298
rulings 8299
Kandic 8300
humans 8301
Baj@@ 8302
skiers 8303
and@@ 8304
inciting 8305
biased 8306
lation 8307
evski 8308
silence 8309
storm 8310
quarters 8311
handful 8312
Sitel 8313
accelerating 8314
gs 8315
impunity 8316
Tourist 8317
reconstructed 8318
Topic 8319
ber 8320
triple 8321
Peoples 8322
ore 8323
switch 8324
Standart 8325
photography 8326
Brown 8327
Fule 8328
suffers 8329
brands 8330
lifestyle 8331
vi@@ 8332
identities 8333
logic 8334
appreciate 8335
16.@@ 8336
agent 8337
Alogoskoufis 8338
Lazar 8339
Wahhabi 8340
tariff 8341
indebted 8342
IOM 8343
colony 8344
babies 8345
anticipate 8346
Trial 8347
ovska 8348
consult 8349
sorts 8350
disastrous 8351
ens 8352
CPI 8353
extends 8354
differing 8355
cruel 8356
underworld 8357
Fullani 8358
lenders 8359
cre@@ 8360
reduces 8361
Inter 8362
Emergency 8363
constituted 8364
Ma@@ 8365
reminder 8366
Minority 8367
UNIFIL 8368
ash@@ 8369
striving 8370
colleague 8371
separatists 8372
Scientific 8373
Marmara 8374
Roland 8375
clarified 8376
tolerated 8377
sue 8378
poorer 8379
Barcelona 8380
ep@@ 8381
toxic 8382
Ljubicic 8383
Memorandum 8384
25@@ 8385
ering 8386
sculpture 8387
continuity 8388
volatile 8389
college 8390
generating 8391
constraints 8392
crossroads 8393
Bur@@ 8394
notice 8395
volunteer 8396
Today 8397
Cetinje 8398
fuels 8399
patriarch 8400
LDP 8401
Spring 8402
unify 8403
Klaus 8404
Jozefina 8405
hinted 8406
Solomon 8407
100th 8408
honouring 8409
mini 8410
L 8411
stumbling 8412
Agron 8413
reintegration 8414
endorsement 8415
stricter 8416
st 8417
bs 8418
120,000 8419
oversee 8420
touched 8421
Chirac 8422
Cinema 8423
Missing 8424
Elektroprivreda 8425
iti@@ 8426
tribute 8427
disposal 8428
ence 8429
reactor 8430
pope 8431
Navy 8432
Understanding 8433
aided 8434
ups 8435
tw@@ 8436
pragmatic 8437
wheat 8438
Queen 8439
Jan@@ 8440
importing 8441
partitioning 8442
feed 8443
reciprocal 8444
casualties 8445
privatising 8446
credited 8447
attorneys 8448
adjust 8449
ably 8450
debated 8451
1986 8452
leverage 8453
diplomas 8454
Famagusta 8455
kidney 8456
printed 8457
concentrated 8458
aiding 8459
Celsius 8460
Bor@@ 8461
pen@@ 8462
Novine 8463
envision 8464
reviewing 8465
Memija 8466
laying 8467
ve@@ 8468
Bourgas 8469
faithful 8470
photographers 8471
wary 8472
load 8473
dollar 8474
Exhibition 8475
translate 8476
Dimitrijevic 8477
bargaining 8478
tackled 8479
vo@@ 8480
Migration 8481
Strpce 8482
benchmark 8483
paves 8484
notion 8485
Ben@@ 8486
poorly 8487
condemnation 8488
cantons 8489
ita 8490
Politika 8491
likewise 8492
disclose 8493
inhabited 8494
incomplete 8495
rushed 8496
complaining 8497
dragging 8498
expulsion 8499
SNA 8500
planted 8501
Kusari 8502
licence 8503
underwater 8504
Proxima 8505
RTRS 8506
accounted 8507
Potocari 8508
slipped 8509
109 8510
advocated 8511
harassment 8512
minds 8513
ture 8514
munitions 8515
swap 8516
cancel 8517
administrator 8518
occurs 8519
GNP 8520
shaken 8521
Si@@ 8522
ren 8523
Pet@@ 8524
Vi@@ 8525
outlawed 8526
ati@@ 8527
ren@@ 8528
throw 8529
Niksic 8530
ija 8531
recalled 8532
tougher 8533
approached 8534
suburbs 8535
medicines 8536
anticorruption 8537
non@@ 8538
micro@@ 8539
litre 8540
fighter 8541
Municipality 8542
Island 8543
uniting 8544
rises 8545
Technologies 8546
Milosavljevic 8547
30@@ 8548
ceiling 8549
3.7 8550
Straw 8551
sells 8552
domain 8553
2.1 8554
hailing 8555
Plamen 8556
50@@ 8557
retailer 8558
publishers 8559
wrestler 8560
Berets 8561
constitutes 8562
Tr@@ 8563
embezzlement 8564
spaces 8565
Kos@@ 8566
My 8567
administrations 8568
2.8 8569
breaks 8570
Walter 8571
Can@@ 8572
Sol@@ 8573
dissatisfied 8574
Bagis 8575
sculptures 8576
Kor@@ 8577
From 8578
graphy 8579
ek 8580
painting 8581
graduated 8582
march 8583
seizure 8584
catalyst 8585
shrink 8586
drill 8587
Bekim 8588
miss 8589
obstructing 8590
Lamberto 8591
legalisation 8592
Dragoljub 8593
assessments 8594
peninsula 8595
disbursement 8596
instruction 8597
encourages 8598
H 8599
Ay@@ 8600
Asselborn 8601
hed 8602
sick 8603
believers 8604
liberalise 8605
Trans 8606
panels 8607
18.@@ 8608
conventions 8609
Kr@@ 8610
bre@@ 8611
Djankov 8612
sporting 8613
alised 8614
8,@@ 8615
provoke 8616
illustration 8617
Transportation 8618
Pol@@ 8619
nationalistic 8620
racial 8621
SEEMO 8622
Natural 8623
mes 8624
Menekse 8625
protectorate 8626
Hussein 8627
raided 8628
transnational 8629
disappointing 8630
Plevneliev 8631
throwing 8632
spurred 8633
Berat 8634
Carlos 8635
conf@@ 8636
staunch 8637
schooling 8638
wealthy 8639
organisational 8640
ches 8641
logistical 8642
Milliyet 8643
collections 8644
spectrum 8645
applicable 8646
quota 8647
identifying 8648
mourners 8649
loved 8650
Site 8651
Zubin 8652
Besimi 8653
hardest 8654
boycotting 8655
catastrophic 8656
inflationary 8657
compatible 8658
unsuccessful 8659
Babic 8660
Left 8661
1970s 8662
Cal@@ 8663
assassinated 8664
Prevention 8665
educate 8666
polled 8667
U 8668
San 8669
Hong 8670
encouragement 8671
Kong 8672
jeopardised 8673
publisher 8674
Singapore 8675
sluggish 8676
differently 8677
shifts 8678
Cross 8679
ya 8680
Santa 8681
impartial 8682
mix 8683
Berlusconi 8684
HK 8685
boundary 8686
gaps 8687
Concordia 8688
EU@@ 8689
organized 8690
whenever 8691
victories 8692
Lebanese 8693
realities 8694
transaction 8695
guarantor 8696
chi@@ 8697
16,000 8698
basically 8699
taught 8700
Baltic 8701
sal@@ 8702
discriminatory 8703
bio@@ 8704
restructure 8705
So@@ 8706
transfers 8707
nicknamed 8708
ideological 8709
Stip 8710
750 8711
lan@@ 8712
inflows 8713
Family 8714
tents 8715
physically 8716
clock 8717
designer 8718
magnitude 8719
Tsvetanov 8720
lasts 8721
Legal 8722
restraint 8723
corridor 8724
anxiety 8725
underlying 8726
mature 8727
smuggled 8728
Pale 8729
scholarships 8730
Cooper 8731
archaeologist 8732
consist 8733
farmer 8734
bag 8735
Kuzmanovic 8736
advisor 8737
KCK 8738
privatisations 8739
Rade 8740
tele@@ 8741
mount 8742
nominate 8743
installation 8744
critic 8745
Miletic 8746
anxious 8747
Mac@@ 8748
Lu@@ 8749
railways 8750
Cos@@ 8751
consolidated 8752
detected 8753
ran@@ 8754
derail 8755
Jahjaga 8756
helpful 8757
arise 8758
gh@@ 8759
Filipovic 8760
Is@@ 8761
underwent 8762
Travel 8763
exhausted 8764
locked 8765
normalise 8766
intergovernmental 8767
southwest 8768
dogs 8769
hunt 8770
functionality 8771
Can 8772
concerted 8773
depth 8774
Reporters 8775
memories 8776
catastrophe 8777
naming 8778
domestically 8779
Nikos 8780
Hatay 8781
ethnicities 8782
ni 8783
criticises 8784
runners 8785
homeless 8786
manages 8787
1987 8788
az@@ 8789
Royal 8790
450 8791
Legija 8792
attractions 8793
More 8794
sacked 8795
Communities 8796
cuisine 8797
imminent 8798
commemoration 8799
ea 8800
weakening 8801
grenade 8802
elusive 8803
fatigue 8804
mi@@ 8805
staging 8806
outdoor 8807
advise 8808
HRW 8809
establishes 8810
ensured 8811
protective 8812
rapprochement 8813
undergone 8814
speakers 8815
weaken 8816
Lagumdzija 8817
troupes 8818
carmaker 8819
fin@@ 8820
pri@@ 8821
Kelmendi 8822
Most 8823
Investigation 8824
Daskalaki 8825
boss 8826
ess 8827
lobby 8828
productions 8829
pillar 8830
Riga 8831
invasion 8832
ward 8833
accessible 8834
overturned 8835
settlements 8836
nice 8837
Barrot 8838
dynamics 8839
Organising 8840
torch 8841
bulk 8842
workplace 8843
flew 8844
evaluated 8845
Electricity 8846
mal@@ 8847
35m 8848
combine 8849
Steinmeier 8850
herself 8851
travels 8852
elaborate 8853
bias 8854
thorny 8855
RWE 8856
IFC 8857
interrupted 8858
veterinary 8859
men@@ 8860
Sa@@ 8861
manufacturers 8862
Brezovica 8863
curriculum 8864
Hal@@ 8865
Pi@@ 8866
Bocevski 8867
ile 8868
Dow 8869
suddenly 8870
charities 8871
Mir@@ 8872
lesson 8873
closes 8874
centralised 8875
Lutfi 8876
ced 8877
650 8878
reception 8879
Kuwait 8880
Bogdan 8881
Tier 8882
northwestern 8883
authentic 8884
disturbing 8885
reviews 8886
Kuneva 8887
swiftly 8888
mediating 8889
wise 8890
Mufti 8891
Higher 8892
stuck 8893
Bil@@ 8894
laureate 8895
clothing 8896
alternatives 8897
3.9 8898
mandated 8899
landmines 8900
champions 8901
Tokyay 8902
chambers 8903
ORA 8904
Ivaylo 8905
III 8906
surely 8907
FBI 8908
Joe 8909
costing 8910
displayed 8911
jumped 8912
ically 8913
adjustments 8914
donate 8915
Radulovic 8916
Austin 8917
Teodor 8918
magistrates 8919
Unity 8920
exert 8921
Pavel 8922
summoned 8923
pon@@ 8924
Fajon 8925
Pavle 8926
chronic 8927
AMBO 8928
EPS 8929
anybody 8930
plenary 8931
confrontation 8932
Foca 8933
Antonis 8934
Serbians 8935
sided 8936
oc@@ 8937
advancement 8938
curbing 8939
provincial 8940
tic@@ 8941
speeches 8942
bickering 8943
slashed 8944
Mirror 8945
abstentions 8946
palace 8947
Makedonija 8948
commissioners 8949
C. 8950
observing 8951
pursuit 8952
Super 8953
compensate 8954
Gazette 8955
12.@@ 8956
dinner 8957
ps 8958
Powers 8959
icic 8960
recognitions 8961
gre@@ 8962
ruins 8963
counterfeit 8964
belt 8965
hinder 8966
Saddam 8967
talent 8968
5.2 8969
preventive 8970
staunchly 8971
battling 8972
vaccine 8973
Ljubomir 8974
arranged 8975
suits 8976
tor@@ 8977
ef@@ 8978
excluding 8979
weighed 8980
coupled 8981
HDI 8982
Mak@@ 8983
knowing 8984
barrels 8985
abolishing 8986
ferry 8987
Ioan 8988
measured 8989
reaches 8990
Erol 8991
ash 8992
Wimbledon 8993
Markos 8994
codes 8995
owes 8996
Pieter 8997
Atomic 8998
Andric 8999
Clinical 9000
stocks 9001
restart 9002
Lila 9003
sparks 9004
sorry 9005
sounds 9006
Morina 9007
gate 9008
fiercely 9009
Tu@@ 9010
clothes 9011
Gal@@ 9012
coins 9013
Mag@@ 9014
lacked 9015
bankers 9016
Orban 9017
reopening 9018
lab 9019
17,000 9020
Pla@@ 9021
Decani 9022
retained 9023
broadcasters 9024
Jo@@ 9025
Hamza 9026
parking 9027
Kur@@ 9028
pping 9029
Harry 9030
sums 9031
Jelasic 9032
traveling 9033
Mine 9034
Memeti 9035
absorb 9036
disbursed 9037
Sp@@ 9038
Medical 9039
observatory 9040
atic 9041
convene 9042
Gostivar 9043
founders 9044
advising 9045
downsizing 9046
unsustainable 9047
postponing 9048
Blanka 9049
els 9050
ne 9051
ley 9052
Ku@@ 9053
alise 9054
Castle 9055
Elizabeth 9056
gers 9057
enemies 9058
ational 9059
rains 9060
Gonul 9061
battalion 9062
Show 9063
Somalia 9064
terrible 9065
rifle 9066
minimise 9067
Delegation 9068
bul@@ 9069
refuge 9070
embarked 9071
Ljubisa 9072
Mosque 9073
verbal 9074
climbed 9075
ving 9076
clears 9077
AS 9078
sights 9079
expedition 9080
Tunisia 9081
4.6 9082
tremendous 9083
Pen@@ 9084
contestants 9085
Kaczynski 9086
nowadays 9087
remembered 9088
Stojanovski 9089
flock 9090
infantry 9091
procedural 9092
fl@@ 9093
marched 9094
Polancec 9095
formidable 9096
defuse 9097
till 9098
exploit 9099
globally 9100
downgraded 9101
Technological 9102
harbour 9103
checked 9104
libraries 9105
beds 9106
tracks 9107
democratically 9108
Sil@@ 9109
Ceric 9110
Vasic 9111
dist@@ 9112
exploded 9113
Aleksander 9114
authoritarian 9115
corporation 9116
systemic 9117
Brdo 9118
scrap 9119
declares 9120
gra@@ 9121
Roganovic 9122
iz@@ 9123
minors 9124
Deputies 9125
Pantic 9126
diminish 9127
ordnance 9128
MJAFT 9129
architects 9130
Jerusalem 9131
Space 9132
copies 9133
Savic 9134
Harvest 9135
weakness 9136
ese 9137
sentencing 9138
ides 9139
disciplinary 9140
ade 9141
pyramid 9142
yearly 9143
fifteen 9144
transplant 9145
confronting 9146
offset 9147
ethical 9148
Key 9149
Albena 9150
conspiracy 9151
hills 9152
ck 9153
Sur@@ 9154
Barrett 9155
tycoon 9156
hole 9157
dar@@ 9158
drastic 9159
roll 9160
Rec@@ 9161
premature 9162
hor@@ 9163
tsunami 9164
swept 9165
ized 9166
Tra@@ 9167
dirty 9168
attendees 9169
discourage 9170
communists 9171
ović 9172
tolerant 9173
leasing 9174
Vlach 9175
adhere 9176
ele@@ 9177
Coast 9178
45m 9179
dismantling 9180
gunmen 9181
Tur@@ 9182
ric 9183
of@@ 9184
subscribers 9185
PHARE 9186
contests 9187
For@@ 9188
por@@ 9189
Los 9190
compulsory 9191
battles 9192
diversification 9193
Treasury 9194
translation 9195
coin 9196
HSBC 9197
Stockholm 9198
freestyle 9199
wines 9200
NS 9201
Highway 9202
Avni 9203
custom 9204
influences 9205
Liaison 9206
casts 9207
facilitated 9208
Uzan 9209
semifinals 9210
retailers 9211
Engineering 9212
techniques 9213
Memorial 9214
sen@@ 9215
Gen@@ 9216
transporting 9217
totaling 9218
ck@@ 9219
17.@@ 9220
Batic 9221
suitable 9222
Mur@@ 9223
hy@@ 9224
buffer 9225
instrumental 9226
electing 9227
tables 9228
Growth 9229
proximity 9230
alpine 9231
Emirates 9232
Haziri 9233
Judicial 9234
Juncker 9235
substantive 9236
containers 9237
traveled 9238
sculptor 9239
instances 9240
Em@@ 9241
dar 9242
amp@@ 9243
Damascus 9244
confidential 9245
Potok 9246
collaborated 9247
down@@ 9248
likelihood 9249
margins 9250
fasting 9251
Klan 9252
farming 9253
delicate 9254
2.4 9255
Kon@@ 9256
94 9257
tracking 9258
commemorating 9259
Besim 9260
Facility 9261
ces 9262
inevitably 9263
Du@@ 9264
Feasibility 9265
lend 9266
championships 9267
Ethnic 9268
ast 9269
reviving 9270
cafe 9271
cleaning 9272
Friendship 9273
Herceg 9274
Turk@@ 9275
allotted 9276
28.@@ 9277
hopefuls 9278
creative 9279
destabilisation 9280
worrying 9281
trophy 9282
Pipeline 9283
lighting 9284
ents 9285
fishermen 9286
overhauling 9287
sewage 9288
bloodshed 9289
Javno.hr 9290
Courtesy 9291
distributors 9292
searches 9293
Norac 9294
Traikov 9295
Brankovic 9296
spell 9297
assesses 9298
bosses 9299
Isa 9300
exchanged 9301
Mahmoud 9302
impacts 9303
assumes 9304
deposit 9305
conservation 9306
boards 9307
Kalinic 9308
Modern 9309
tan@@ 9310
excess 9311
hesitate 9312
compare 9313
overly 9314
Konjanovski 9315
Parthenon 9316
oversight 9317
Vlad 9318
Angeles 9319
Haj@@ 9320
exclusion 9321
Nexhat 9322
Buhler 9323
Miro 9324
freight 9325
deeds 9326
35th 9327
ath@@ 9328
implements 9329
inspections 9330
decorated 9331
repression 9332
89 9333
Construction 9334
Violence 9335
ize 9336
airlines 9337
Fenerbahce 9338
Mas@@ 9339
proceeding 9340
Char@@ 9341
judged 9342
cru@@ 9343
posing 9344
objected 9345
novelist 9346
sudden 9347
Ste@@ 9348
Bujanovac 9349
conservatives 9350
pump 9351
interviewed 9352
Wreath 9353
cl@@ 9354
Jasenovac 9355
Vladan 9356
meal 9357
bra@@ 9358
locally 9359
Ringas 9360
organization 9361
ently 9362
fortune 9363
barring 9364
pronounced 9365
telecommunication 9366
foresees 9367
exhibited 9368
Valentina 9369
Vlastimir 9370
marble 9371
Alsat 9372
liaison 9373
han 9374
trim 9375
Not 9376
hardline 9377
Drina 9378
tabled 9379
straight 9380
arising 9381
relies 9382
Hy@@ 9383
kovski 9384
killers 9385
setbacks 9386
inspect 9387
confiscation 9388
inspiration 9389
surpass 9390
groundwork 9391
reinforced 9392
succession 9393
bears 9394
systematically 9395
copy 9396
Koc 9397
cannabis 9398
diesel 9399
Vekaric 9400
Prilep 9401
Ilazi 9402
Fin@@ 9403
sciences 9404
va 9405
Pav@@ 9406
hooligans 9407
fence 9408
ok@@ 9409
Miliband 9410
mer@@ 9411
Cur@@ 9412
underscored 9413
Meglena 9414
Way 9415
governors 9416
0km 9417
pirated 9418
Faruk 9419
shipyards 9420
Angelopoulos 9421
MEP 9422
beatings 9423
nik 9424
demolition 9425
California 9426
jumping 9427
emergence 9428
There 9429
Gate 9430
cancellation 9431
seismic 9432
Ardian 9433
BTC 9434
Brothers 9435
contempt 9436
navy 9437
footing 9438
ut 9439
Dusko 9440
unfortunate 9441
termination 9442
beings 9443
exercised 9444
turbulent 9445
Fashion 9446
reconcile 9447
alliances 9448
ching 9449
kic 9450
provisionally 9451
Slavica 9452
finalising 9453
aired 9454
tel 9455
reopened 9456
billboards 9457
2.5m 9458
Lawrence 9459
Ilinka 9460
neutrality 9461
Michalis 9462
Strumica 9463
St@@ 9464
conversations 9465
etc 9466
array 9467
complied 9468
fication 9469
Mis@@ 9470
Tivat 9471
Djukic 9472
clan 9473
comedy 9474
criterion 9475
sphere 9476
intolerance 9477
diverse 9478
mixture 9479
originated 9480
weightlifting 9481
PC 9482
explicitly 9483
tours 9484
luck 9485
judo 9486
Toronto 9487
od@@ 9488
migrant 9489
Dan@@ 9490
Administrative 9491
1981 9492
impede 9493
recalls 9494
bilingual 9495
DRC 9496
Resources 9497
Elenovski 9498
restrictive 9499
Patrick 9500
pat@@ 9501
Drews 9502
cal@@ 9503
KEK 9504
uk 9505
Marine 9506
Vlachs 9507
Penal 9508
screenings 9509
adjusted 9510
Basketball 9511
5.9 9512
offence 9513
routine 9514
depot 9515
4.1 9516
CE@@ 9517
Aviation 9518
restricting 9519
ining 9520
conveyed 9521
dishes 9522
cornerstone 9523
accommodations 9524
Telegrafi 9525
Zvecan 9526
Small 9527
blasts 9528
reins 9529
smallest 9530
If 9531
4.7 9532
Ter@@ 9533
Dur@@ 9534
limitations 9535
Djuric 9536
commentators 9537
abstained 9538
hopefully 9539
affiliation 9540
obstruction 9541
readmission 9542
conflicting 9543
troubles 9544
Sam@@ 9545
communal 9546
install 9547
hotline 9548
Reduction 9549
upheld 9550
reassured 9551
Majko 9552
answering 9553
Cuba 9554
streamline 9555
trusted 9556
100km 9557
Alic 9558
calendar 9559
ger 9560
feast 9561
Munich 9562
Jagodina 9563
gala 9564
Slavko 9565
tering 9566
38.@@ 9567
ata 9568
curricula 9569
van@@ 9570
11m 9571
banners 9572
Pr@@ 9573
cup 9574
Tolimir 9575
recipients 9576
Papaconstantinou 9577
undecided 9578
radiation 9579
Brnjak 9580
cemetery 9581
horse 9582
provocation 9583
fac@@ 9584
Gyurcsany 9585
Laszlo 9586
assembled 9587
establishments 9588
performs 9589
Kalmeta 9590
merger 9591
soul 9592
temperature 9593
retaining 9594
ashes 9595
perceive 9596
ino 9597
Peninsula 9598
pluralism 9599
failures 9600
1963 9601
southwestern 9602
Syntagma 9603
evaluating 9604
Trans@@ 9605
ong 9606
yielded 9607
convened 9608
ousted 9609
Anton 9610
lately 9611
Naim 9612
widening 9613
cel@@ 9614
brink 9615
verification 9616
Dec@@ 9617
hire 9618
complicity 9619
inclusive 9620
fer@@ 9621
Gj@@ 9622
prosecutions 9623
skeleton 9624
shame 9625
unsolved 9626
Ru@@ 9627
ths 9628
Ci@@ 9629
outline 9630
9.5 9631
connects 9632
encountered 9633
Gerhard 9634
halting 9635
fulfils 9636
Will 9637
Vassilis 9638
Region 9639
MTV 9640
recording 9641
Videanu 9642
inovic 9643
Qu@@ 9644
conjunction 9645
governed 9646
verge 9647
aboard 9648
foremost 9649
Methodius 9650
ger@@ 9651
Tom 9652
14m 9653
Tbilisi 9654
ach 9655
17m 9656
Med@@ 9657
tortured 9658
din@@ 9659
0.1 9660
IAEA 9661
Merdare 9662
Han@@ 9663
expectation 9664
desired 9665
ethno 9666
timeframe 9667
sw@@ 9668
lic@@ 9669
positioned 9670
700,000 9671
Agreements 9672
absurd 9673
lung 9674
headlines 9675
Brasov 9676
separating 9677
Aid 9678
embrace 9679
orchestra 9680
strides 9681
compromises 9682
ory 9683
publications 9684
duo 9685
radioactive 9686
Nada 9687
steering 9688
distinction 9689
banner 9690
pos@@ 9691
amending 9692
EPP 9693
editors 9694
nationalities 9695
pr@@ 9696
liberalised 9697
Mikerevic 9698
Seeks 9699
rigorous 9700
inv@@ 9701
shoe 9702
Plassnik 9703
Slavic 9704
Municipal 9705
Vuckovic 9706
offenders 9707
Third 9708
3.1 9709
consular 9710
wire 9711
leu 9712
Silvio 9713
Metropolitan 9714
painters 9715
specified 9716
11,000 9717
praises 9718
Bosna 9719
Malovic 9720
deficiencies 9721
ari 9722
Simonovic 9723
shareholder 9724
Jackson 9725
ici 9726
Str@@ 9727
racism 9728
quarrel 9729
Bri@@ 9730
ster@@ 9731
mounted 9732
dancers 9733
Costa 9734
accuses 9735
discriminated 9736
Mor@@ 9737
Cengiz 9738
walks 9739
Cer@@ 9740
Pe@@ 9741
Vecernji 9742
parent 9743
crashed 9744
listing 9745
compiled 9746
lucrative 9747
Dj@@ 9748
au@@ 9749
ute 9750
ph@@ 9751
pregnant 9752
centrist 9753
At@@ 9754
dec@@ 9755
capitalise 9756
Blagojevic 9757
dignitaries 9758
Nordic 9759
reversed 9760
flats 9761
Pancevo 9762
La 9763
wished 9764
renew 9765
Up 9766
qualification 9767
ko@@ 9768
ara 9769
W 9770
offshore 9771
Standards 9772
flawed 9773
fied 9774
Vucic 9775
patrolling 9776
dr@@ 9777
Senior 9778
Stoj@@ 9779
anchor 9780
zic 9781
executions 9782
perfectly 9783
contenders 9784
HRT 9785
Osman 9786
yacht 9787
Sighisoara 9788
environmentalists 9789
wi@@ 9790
revelations 9791
Confederation 9792
eg@@ 9793
yellow 9794
lignite 9795
rocked 9796
aggression 9797
Eurobarometer 9798
prevail 9799
dimensions 9800
om 9801
farms 9802
disciplines 9803
crews 9804
Hezbollah 9805
disperse 9806
Baku 9807
Azeri 9808
Competitiveness 9809
unpopular 9810
Doha 9811
stemmed 9812
Hel@@ 9813
Meeting 9814
Pendarovski 9815
Mary 9816
Hoti 9817
mismanagement 9818
uncover 9819
participant 9820
fueled 9821
Mrksic 9822
complying 9823
0.2 9824
Brod 9825
distribute 9826
profound 9827
stakeholders 9828
sc@@ 9829
geographic 9830
terminals 9831
avian 9832
tie 9833
forensic 9834
ron@@ 9835
liberties 9836
observation 9837
Atomstroyexport 9838
Work 9839
Gligorov 9840
paths 9841
ums 9842
burdened 9843
Guinness 9844
Cheney 9845
si 9846
4.3 9847
Dem@@ 9848
Tudor 9849
Rally 9850
protracted 9851
Illyrian 9852
Niko 9853
cautioning 9854
matic 9855
fe@@ 9856
thoughts 9857
m. 9858
Islands 9859
telemedicine 9860
Diana 9861
comprise 9862
exile 9863
Milica 9864
pure 9865
environments 9866
Selmani 9867
electronics 9868
string 9869
Rumen 9870
xes 9871
Sandra 9872
marketplace 9873
soprano 9874
lers 9875
honorary 9876
6.7 9877
firstly 9878
Pal@@ 9879
Monuments 9880
horses 9881
manipulated 9882
Pasha 9883
Paravantes 9884
credentials 9885
realising 9886
greenhouse 9887
Danilo 9888
relying 9889
aides 9890
exchanging 9891
0.3 9892
provocative 9893
Popov 9894
Bol@@ 9895
Ponta 9896
Stolojan 9897
ESI 9898
LAOS 9899
Unions 9900
Twitter 9901
desperate 9902
Ademi 9903
Athletics 9904
Commercial 9905
continually 9906
BIA 9907
counterproductive 9908
definition 9909
proactive 9910
tional 9911
Peacekeeping 9912
shipyard 9913
Gul@@ 9914
Net 9915
Medicine 9916
heightened 9917
Ram@@ 9918
Egmont 9919
garner 9920
Gra@@ 9921
acceleration 9922
Virgil 9923
nica 9924
revoked 9925
Hans 9926
Bartholomew 9927
sor@@ 9928
Bondsteel 9929
seasonal 9930
4.2 9931
employing 9932
fur@@ 9933
Borisova 9934
please 9935
pattern 9936
ray 9937
ali 9938
ization 9939
ker 9940
revolutionary 9941
bonuses 9942
convicts 9943
totals 9944
convictions 9945
liberty 9946
7.3 9947
Leposavic 9948
AN@@ 9949
exhibitors 9950
guilt 9951
tendency 9952
engines 9953
Edita 9954
emigration 9955
sun@@ 9956
enact 9957
instructed 9958
emotional 9959
shootout 9960
lots 9961
Smiljanic 9962
cevic 9963
Pa@@ 9964
SE@@ 9965
ethics 9966
vary 9967
equity 9968
Secretariat 9969
holy 9970
semifinal 9971
photographer 9972
Franz 9973
psychologist 9974
blasted 9975
organizations 9976
dismissing 9977
Jovic 9978
interpretations 9979
U2 9980
Agrafiotis 9981
slammed 9982
Weekly 9983
sy@@ 9984
considerations 9985
but@@ 9986
avis 9987
Galicnik 9988
Loan 9989
declarations 9990
compound 9991
behavior 9992
rewarded 9993
lion 9994
Liberals 9995
deter 9996
NEK 9997
i.e. 9998
Vijesti 9999
mes@@ 10000
verify 10001
bur@@ 10002
Srbije 10003
customer 10004
scarce 10005
Heart 10006
tis 10007
seemingly 10008
trio 10009
22m 10010
bet 10011
bottles 10012
Bahrain 10013
signatory 10014
13,000 10015
sizeable 10016
musician 10017
36@@ 10018
disappear 10019
Tanovic 10020
clarification 10021
Electric 10022
we@@ 10023
ambition 10024
shipments 10025
tycoons 10026
Must 10027
uphold 10028
hin@@ 10029
conceived 10030
Darik 10031
plotting 10032
dj@@ 10033
ć 10034
Fo@@ 10035
Denkova 10036
Leaders 10037
Staviski 10038
plight 10039
kova 10040
reopen 10041
Ristic 10042
Davidovic 10043
30km 10044
classic 10045
exploiting 10046
ANI 10047
yesterday 10048
talented 10049
corn 10050
forge 10051
5.3 10052
offs 10053
simultaneous 10054
spends 10055
shipbuilding 10056
Sport 10057
topple 10058
Omer 10059
earning 10060
excavation 10061
UDMR 10062
by@@ 10063
merge 10064
SIPA 10065
Down 10066
Training 10067
Zana 10068
tired 10069
Pre 10070
Marc 10071
streamlining 10072
bust 10073
center 10074
destructive 10075
ingly 10076
format 10077
unwilling 10078
Sky 10079
Haxhinasto 10080
Don@@ 10081
akis 10082
acute 10083
prohibits 10084
cul@@ 10085
Decade 10086
nonetheless 10087
Severin 10088
treating 10089
multimedia 10090
lovers 10091
10km 10092
succeeds 10093
ishing 10094
Kanal 10095
depositors 10096
disabilities 10097
lik@@ 10098
Bro@@ 10099
Louis 10100
dreams 10101
Line 10102
obstruct 10103
withdrawing 10104
las 10105
kan 10106
ier 10107
fulfilment 10108
Srna 10109
About 10110
Agerpres 10111
V 10112
Alija 10113
temple 10114
Prvoslav 10115
bone 10116
Igman 10117
Three 10118
turbulence 10119
relates 10120
Sullivan 10121
dairy 10122
mir 10123
ravaged 10124
BK 10125
lucky 10126
ation@@ 10127
cool 10128
SFF 10129
wreath 10130
Cecilia 10131
Munk 10132
skating 10133
processed 10134
chemicals 10135
layer 10136
canton 10137
tuition 10138
stripped 10139
Ljupco 10140
rifles 10141
Mr 10142
copyright 10143
Haiti 10144
ard 10145
vacuum 10146
6.4 10147
Nationalist 10148
ass@@ 10149
cal 10150
diagnosed 10151
hel@@ 10152
wonderful 10153
duration 10154
Elbasan 10155
beliefs 10156
constructing 10157
handles 10158
RAE 10159
Eurobonds 10160
Chiarini 10161
headquartered 10162
conditioned 10163
cli@@ 10164
derailed 10165
pla@@ 10166
contractual 10167
refineries 10168
inviting 10169
guiding 10170
Azerbaijani 10171
cheapest 10172
Dacia 10173
standstill 10174
lesser 10175
user 10176
Wilson 10177
shoulder 10178
Brian 10179
Dejanovic 10180
1945 10181
urgency 10182
Vuk@@ 10183
tin 10184
copper 10185
ba 10186
sive 10187
cing 10188
Ham@@ 10189
prone 10190
protects 10191
prudent 10192
reacting 10193
presently 10194
Utrinski 10195
consulted 10196
agendas 10197
Gok@@ 10198
lags 10199
coherent 10200
torturing 10201
CDs 10202
weigh 10203
Mining 10204
Kas@@ 10205
ca@@ 10206
Gar@@ 10207
stimulus 10208
Taseva 10209
oning 10210
accomplishments 10211
anyway 10212
Telenor 10213
ARMO 10214
reorganisation 10215
envoys 10216
lis 10217
ela 10218
seminars 10219
sen 10220
mas@@ 10221
Edward 10222
circulated 10223
blind 10224
remedy 10225
comprises 10226
installment 10227
Bruno 10228
Abkhazia 10229
forestry 10230
Fi@@ 10231
courageous 10232
Fer@@ 10233
sixty 10234
exams 10235
Gr@@ 10236
IDs 10237
Taner 10238
Ri@@ 10239
Mubarak 10240
attracts 10241
eta 10242
Scorpions 10243
oski 10244
formations 10245
Homeland 10246
climb 10247
alist 10248
La@@ 10249
SEC 10250
violators 10251
maternity 10252
5.8 10253
pan@@ 10254
fies 10255
tower 10256
Ilker 10257
expectancy 10258
exacerbated 10259
Kyrgyzstan 10260
Djordje 10261
excuse 10262
Catholics 10263
pork 10264
Var@@ 10265
Sultan 10266
vocal 10267
capit@@ 10268
sued 10269
ineffective 10270
Records 10271
Xavier 10272
flown 10273
Dragisic 10274
dy 10275
simplified 10276
celebrities 10277
guidance 10278
Fortress 10279
nominee 10280
directions 10281
residing 10282
ff 10283
mediators 10284
flocked 10285
cautions 10286
lying 10287
Trajko 10288
sponsor 10289
physicians 10290
hampering 10291
complicating 10292
interpret 10293
heels 10294
corporations 10295
automobile 10296
commanded 10297
Stara 10298
Ja@@ 10299
preferences 10300
Veliko 10301
Tzvetina 10302
ke 10303
downward 10304
perspectives 10305
Wood 10306
cu 10307
pilots 10308
blogger 10309
subsidy 10310
Jutarnji 10311
revenge 10312
Hartmann 10313
lethal 10314
1960 10315
Luis 10316
rightist 10317
symposium 10318
headway 10319
ori@@ 10320
bold 10321
0.7 10322
home@@ 10323
5.6 10324
Pec 10325
stri@@ 10326
countering 10327
drastically 10328
fed 10329
foresee 10330
Ban@@ 10331
prehistoric 10332
visions 10333
annulment 10334
que 10335
yard 10336
conquest 10337
Agos 10338
undermines 10339
Eric 10340
Sub@@ 10341
Agricultural 10342
examines 10343
answered 10344
Lucas 10345
container 10346
seal 10347
reassure 10348
constructively 10349
naturally 10350
epidemic 10351
recruitment 10352
Novo 10353
Strauss 10354
ham 10355
Guca 10356
Infrastructure 10357
seriousness 10358
na@@ 10359
lectures 10360
frame 10361
Telecommunication 10362
shore 10363
embraced 10364
meaningful 10365
collaborators 10366
Kocijancic 10367
grades 10368
Micunovic 10369
recovering 10370
Radikal 10371
7,500 10372
burial 10373
Partizan 10374
cheer 10375
enrolled 10376
beef 10377
PUR 10378
discount 10379
Bulent 10380
Atalay 10381
Ho@@ 10382
Blaga 10383
exhibits 10384
Popova 10385
competence 10386
pray 10387
incursion 10388
stored 10389
encounter 10390
contacted 10391
mation 10392
dawn 10393
len@@ 10394
dissolved 10395
absent 10396
courthouse 10397
fruitful 10398
Rauf 10399
normalising 10400
entails 10401
surpassed 10402
wedding 10403
Bunardzik 10404
origins 10405
cite 10406
renovations 10407
outraged 10408
0.8 10409
1982 10410
textiles 10411
insecurity 10412
Kol@@ 10413
Fatlum 10414
holdings 10415
Stojanovic 10416
dealings 10417
Pos@@ 10418
ants 10419
hum@@ 10420
ail@@ 10421
18m 10422
Religious 10423
congratulate 10424
infecting 10425
inflammatory 10426
Tro@@ 10427
NET 10428
Svetlana 10429
Raznatovic 10430
bly 10431
characteristic 10432
impoverished 10433
evo 10434
Jeleva 10435
reformers 10436
Ovcara 10437
update 10438
recommending 10439
replied 10440
lag 10441
Captain 10442
megawatt 10443
Enterprises 10444
Malaysia 10445
50km 10446
aj@@ 10447
synagogues 10448
bishops 10449
amateur 10450
Korca 10451
taste 10452
8.5 10453
neglected 10454
dry 10455
teaches 10456
travelers 10457
Mobilkom 10458
Geoffrey 10459
ious 10460
clearer 10461
privately 10462
loses 10463
Edmond 10464
disruptions 10465
bypassing 10466
Tom@@ 10467
predecessors 10468
Bora 10469
indefinitely 10470
endeavour 10471
flour 10472
Den 10473
Stefanovski 10474
ceremonial 10475
bic 10476
von 10477
therapy 10478
ias 10479
Hajrullahu 10480
len 10481
mask 10482
Bala 10483
recall 10484
jet 10485
schemes 10486
Sioufas 10487
frequency 10488
Sabah 10489
predictions 10490
garbage 10491
Zvornik 10492
outcry 10493
tenor 10494
expire 10495
picturesque 10496
Mercedes 10497
56th 10498
Mimoza 10499
entrenched 10500
Ian 10501
ial 10502
Kedev 10503
0.6 10504
tent 10505
orderly 10506
remainder 10507
imperative 10508
guided 10509
keys 10510
mortgage 10511
Mirsad 10512
Homen 10513
&apos;Clock 10514
downs 10515
benefited 10516
og@@ 10517
360 10518
gunman 10519
nominal 10520
notified 10521
Adria 10522
Euro@@ 10523
350m 10524
He@@ 10525
cab 10526
vested 10527
carbon 10528
lam@@ 10529
Dz@@ 10530
Cernavoda 10531
To@@ 10532
Let 10533
readings 10534
Rodriguez 10535
Verhagen 10536
Civic 10537
illness 10538
superior 10539
loaded 10540
Communists 10541
supreme 10542
app@@ 10543
terminated 10544
broadcasts 10545
Marketing 10546
Dubai 10547
Magyar 10548
complicate 10549
ACTA 10550
intensity 10551
auto@@ 10552
certified 10553
traces 10554
archeologists 10555
ben@@ 10556
Bran@@ 10557
insults 10558
Islami 10559
1,400 10560
Albtelecom 10561
specifics 10562
selecting 10563
pressured 10564
whoever 10565
depicting 10566
Rajic 10567
reluctance 10568
Common 10569
digit 10570
rotation 10571
disrupt 10572
Pentagon 10573
Calik 10574
24@@ 10575
infections 10576
exploring 10577
platforms 10578
1,300 10579
geography 10580
Momir 10581
countryside 10582
glu 10583
looming 10584
dailies 10585
escort 10586
intervened 10587
sounded 10588
evacuation 10589
innovations 10590
47th 10591
recruits 10592
lakes 10593
Pardew 10594
Turin 10595
wn 10596
fronts 10597
toppled 10598
earnings 10599
personality 10600
des@@ 10601
Uka 10602
ena 10603
Solidarity 10604
Officer 10605
possess 10606
commemorated 10607
v 10608
libel 10609
read@@ 10610
tighter 10611
45th 10612
Zbanic 10613
feared 10614
shifted 10615
appearing 10616
relaxed 10617
5.7 10618
Pri@@ 10619
Jack 10620
Gor@@ 10621
29@@ 10622
erected 10623
UNODC 10624
Documentary 10625
FYROM 10626
sits 10627
Ministerial 10628
DA 10629
Afrim 10630
BBB 10631
Yildirim 10632
ouster 10633
El 10634
Finci 10635
Sav@@ 10636
Kenya 10637
ines 10638
zer 10639
sti@@ 10640
Ju@@ 10641
expel 10642
1915 10643
revote 10644
Taliban 10645
interventions 10646
dish 10647
che 10648
Kilicdaroglu 10649
punishing 10650
hostages 10651
Doboj 10652
Boucher 10653
aka 10654
uniforms 10655
ecology 10656
Bos@@ 10657
pi@@ 10658
preceded 10659
Ag@@ 10660
doubles 10661
ale 10662
escalating 10663
prevents 10664
Vaclav 10665
9.9 10666
ura 10667
chickens 10668
Saint 10669
Milen 10670
prospective 10671
mineral 10672
expedi@@ 10673
outskirts 10674
continents 10675
foul 10676
lo 10677
emotions 10678
ping 10679
Maxim 10680
immune 10681
Ker@@ 10682
hospitality 10683
scrapped 10684
ballistic 10685
90m 10686
Popular 10687
16m 10688
lunch 10689
bunkers 10690
sy 10691
landing 10692
unc@@ 10693
strange 10694
Vucinic 10695
Banca 10696
numbering 10697
elites 10698
likes 10699
occurring 10700
mor@@ 10701
certificate 10702
ruined 10703
Bosanski 10704
Mes@@ 10705
Fe@@ 10706
evolution 10707
collaborate 10708
admits 10709
Der@@ 10710
magic 10711
telecoms 10712
exceptions 10713
modernised 10714
merits 10715
bel@@ 10716
Operational 10717
imp@@ 10718
Kir@@ 10719
sec@@ 10720
Iv@@ 10721
Jasna 10722
coffers 10723
oned 10724
48th 10725
escu 10726
350,000 10727
patriotism 10728
Cr@@ 10729
withstand 10730
fundamentalism 10731
14.@@ 10732
eds 10733
alleging 10734
apprehending 10735
Jovicevic 10736
documented 10737
outs 10738
Archaeological 10739
Victoria 10740
lit 10741
Industrial 10742
Vas@@ 10743
abilities 10744
earliest 10745
Associated 10746
openings 10747
orchestrated 10748
lays 10749
Gi@@ 10750
Holland 10751
cer@@ 10752
confronted 10753
grows 10754
entrepreneurship 10755
wishing 10756
ket 10757
Officials 10758
Ruli 10759
Bode 10760
merged 10761
greets 10762
ily 10763
civilisations 10764
ventures 10765
miles 10766
slash 10767
che@@ 10768
sincerely 10769
Krushevo 10770
rockets 10771
Lehtinen 10772
Diaconescu 10773
Institutions 10774
unfairly 10775
Ob@@ 10776
tical 10777
Gjakova 10778
WWII 10779
exploited 10780
condemns 10781
repatriated 10782
errors 10783
itation 10784
reveals 10785
sailing 10786
Cikotic 10787
Cyrillic 10788
borrow 10789
Seks 10790
mal 10791
gener@@ 10792
Atifete 10793
spotlight 10794
evolving 10795
Sy@@ 10796
pur@@ 10797
judging 10798
112 10799
fisheries 10800
Dim@@ 10801
cs 10802
Vlade 10803
Andrew 10804
34th 10805
guarded 10806
valley 10807
lined 10808
Goati 10809
Zivanovic 10810
videos 10811
distributing 10812
alia 10813
unexploded 10814
Dr@@ 10815
ste@@ 10816
ke@@ 10817
playwright 10818
uni@@ 10819
debating 10820
sparking 10821
Cilic 10822
ano 10823
recognized 10824
revived 10825
ishes 10826
unbiased 10827
That 10828
neglect 10829
ip 10830
Ovidiu 10831
Ioannis 10832
reformed 10833
sk@@ 10834
tically 10835
shoes 10836
forbidden 10837
destiny 10838
monarchy 10839
Dvor 10840
Kan@@ 10841
ora 10842
fertile 10843
46.@@ 10844
polarisation 10845
6.2 10846
Miscevic 10847
passive 10848
125 10849
liabilities 10850
Jokic 10851
Regulation 10852
Vo@@ 10853
injury 10854
tall 10855
ely 10856
ery 10857
6.3 10858
entail 10859
simplify 10860
Almunia 10861
widow 10862
arrivals 10863
cop@@ 10864
consolidating 10865
comparable 10866
shoot 10867
Kre@@ 10868
midst 10869
rot@@ 10870
io 10871
Ismet 10872
aw@@ 10873
error 10874
denial 10875
visual 10876
Still 10877
Hu@@ 10878
oral 10879
continental 10880
hoc 10881
Majlinda 10882
repaid 10883
fold 10884
Lord 10885
Professional 10886
availability 10887
tas 10888
110m 10889
rubber 10890
supervise 10891
bol@@ 10892
supportive 10893
ron 10894
pursued 10895
harmonising 10896
Van@@ 10897
Fr@@ 10898
thermo 10899
distinctive 10900
Muharrem 10901
Stanisic 10902
bility 10903
Forty 10904
spying 10905
urs 10906
Ericsson 10907
detain 10908
je@@ 10909
Instrument 10910
Epiphany 10911
Tor@@ 10912
impacted 10913
provocations 10914
Sen@@ 10915
climbing 10916
Pres@@ 10917
magazines 10918
head@@ 10919
Ur@@ 10920
Imer 10921
FOCUS 10922
navigation 10923
IC@@ 10924
bullet 10925
mosaic 10926
mired 10927
Nica 10928
Ir@@ 10929
sniper 10930
halls 10931
Stephanopoulos 10932
counterfeiting 10933
Changes 10934
comfort 10935
retire 10936
owing 10937
19m 10938
san@@ 10939
ay@@ 10940
rocks 10941
conceded 10942
imbalances 10943
Lech 10944
discouraged 10945
onic 10946
Glavas 10947
lar 10948
Arabic 10949
kin 10950
rallied 10951
Kryeziu 10952
entrepreneur 10953
decisively 10954
Rosemary 10955
unitary 10956
justification 10957
environmentally 10958
ins@@ 10959
Bursa 10960
defunct 10961
presided 10962
Podravka 10963
Invest 10964
permitted 10965
assaults 10966
massacres 10967
evacuate 10968
stickers 10969
super 10970
moments 10971
Weapons 10972
Huseyin 10973
overshadowed 10974
embark 10975
End 10976
designers 10977
land@@ 10978
Williamson 10979
issuance 10980
mobility 10981
hon@@ 10982
expresses 10983
sheets 10984
Simon 10985
Gre@@ 10986
Wikipedia 10987
shoppers 10988
hol@@ 10989
4,500 10990
Gjilan 10991
complexity 10992
recalling 10993
ros@@ 10994
neighboring 10995
identical 10996
singles 10997
Are 10998
Port 10999
Vesnik 11000
27.@@ 11001
Naumovski 11002
Bogoljub 11003
reap 11004
affluent 11005
cri@@ 11006
Attack 11007
MRT 11008
ake 11009
wa@@ 11010
Demir 11011
IKEA 11012
Allies 11013
Ozgur 11014
mentor 11015
openness 11016
spheres 11017
uncertainties 11018
sil@@ 11019
Bratunac 11020
tonne 11021
Strong 11022
senators 11023
Bakoyanni 11024
tongue 11025
Welfare 11026
terminate 11027
sponsoring 11028
Doris 11029
Picula 11030
guitarist 11031
cy 11032
phenomena 11033
unifying 11034
mi 11035
secede 11036
ug@@ 11037
illusion 11038
truce 11039
directives 11040
Jahorina 11041
delivers 11042
pessimistic 11043
professionally 11044
burgeoning 11045
totaled 11046
slower 11047
chains 11048
hygiene 11049
skier 11050
1967 11051
ays 11052
13m 11053
revise 11054
racist 11055
40th 11056
fits 11057
fiction 11058
ide 11059
cap@@ 11060
remind 11061
Osmanagic 11062
soaring 11063
shipment 11064
Fight 11065
unlimited 11066
30.@@ 11067
Jovanovska 11068
Pavlovic 11069
fifty 11070
upgrades 11071
ear@@ 11072
favouring 11073
breeding 11074
1,700 11075
Non 11076
topping 11077
commodity 11078
Egemen 11079
amongst 11080
Saleh 11081
Arinc 11082
sympathy 11083
fledgling 11084
Lo@@ 11085
Peja 11086
birthplace 11087
succeeding 11088
stamps 11089
Drugs 11090
engaging 11091
Bishop 11092
Christopher 11093
Vinko 11094
dem@@ 11095
shifting 11096
Iron 11097
fare 11098
defender 11099
correspondents 11100
ser@@ 11101
accumulated 11102
7.8 11103
gy 11104
1988 11105
thieves 11106
dental 11107
tening 11108
Ivanko 11109
De 11110
Vseki 11111
1960s 11112
shadowy 11113
Simatovic 11114
Jovica 11115
shaping 11116
Integrated 11117
raped 11118
Prespa 11119
Tusup 11120
gun@@ 11121
Kirin 11122
Senad 11123
est@@ 11124
armoured 11125
Maj@@ 11126
Petrom 11127
Den@@ 11128
vigorously 11129
Da@@ 11130
Observatory 11131
ces@@ 11132
heralded 11133
Governance 11134
ath 11135
overcrowding 11136
Jordanian 11137
Venezuela 11138
fruits 11139
appliances 11140
ement 11141
bonus 11142
Stavros 11143
Delic 11144
Ras@@ 11145
peers 11146
aling 11147
chan@@ 11148
vicinity 11149
endured 11150
bunker 11151
losers 11152
tan 11153
entries 11154
yourself 11155
Vancouver 11156
fallout 11157
Mos@@ 11158
unpredictable 11159
nightmare 11160
historically 11161
Veselinovic 11162
unfinished 11163
reconstruct 11164
vessel 11165
traded 11166
jeopardy 11167
nowhere 11168
relate 11169
1973 11170
assassinations 11171
HNS 11172
contentious 11173
Lions 11174
6.6 11175
ased 11176
lifetime 11177
aggressively 11178
dismantle 11179
Seb 11180
auditors 11181
summary 11182
worsened 11183
merchandise 11184
Jelacic 11185
1,600 11186
Language 11187
To 11188
slopes 11189
richest 11190
Four 11191
competitor 11192
youths 11193
hill 11194
automotive 11195
Bra@@ 11196
ack@@ 11197
utilisation 11198
courtesy 11199
deepest 11200
experiment 11201
SBiH 11202
earth 11203
Senator 11204
Aida 11205
Vetvendosje 11206
Vel@@ 11207
adapted 11208
adamant 11209
Radoslav 11210
akovic 11211
Rosen 11212
confused 11213
ah@@ 11214
Borrell 11215
Josep 11216
commodities 11217
obliges 11218
Paravac 11219
WEF 11220
Cairo 11221
Truth 11222
hip 11223
EUCOM 11224
rocky 11225
totalitarian 11226
Vecdi 11227
fleeing 11228
ion@@ 11229
Between 11230
stunning 11231
bla@@ 11232
cents 11233
Bla@@ 11234
surrenders 11235
ensures 11236
Sun 11237
organic 11238
Boskovic 11239
vulnerability 11240
Ecumenical 11241
horizon 11242
mit@@ 11243
chrome 11244
symbolises 11245
Fran@@ 11246
Sha@@ 11247
pistol 11248
eKathimerini 11249
Smederevo 11250
Pavlevski 11251
worrisome 11252
walking 11253
eb@@ 11254
ranges 11255
alities 11256
minded 11257
Vote 11258
metals 11259
ink 11260
completes 11261
continuously 11262
tighten 11263
90,000 11264
instructors 11265
program 11266
ashing 11267
vendors 11268
persecutions 11269
lar@@ 11270
broaden 11271
Mehmed 11272
speedy 11273
renamed 11274
stiff 11275
Burkay 11276
Bratislava 11277
Aliyev 11278
Debar 11279
19.@@ 11280
dies 11281
Boz@@ 11282
dressed 11283
Radomir 11284
nights 11285
gotten 11286
surfaced 11287
UNFICYP 11288
planners 11289
fascist 11290
Lupu 11291
Congo 11292
ERT 11293
accreditation 11294
Te@@ 11295
440 11296
artillery 11297
supermarkets 11298
ach@@ 11299
lax 11300
blogs 11301
Tele@@ 11302
beneficiaries 11303
careers 11304
230 11305
Zvezdan 11306
mitigate 11307
med@@ 11308
Albin 11309
adverse 11310
confessed 11311
rampant 11312
rational 11313
Pop 11314
manufacture 11315
proportional 11316
Oprea 11317
Selimovic 11318
Monica 11319
4.9 11320
Directors 11321
Safety 11322
Siemens 11323
Kastrati 11324
prejudices 11325
characteristics 11326
Timisoara 11327
Besnik 11328
hitting 11329
RCC 11330
Bak@@ 11331
Am@@ 11332
ish@@ 11333
dered 11334
believing 11335
din 11336
Hvar 11337
prisoner 11338
dancing 11339
Hill 11340
behave 11341
repatriation 11342
Radovic 11343
jeopardising 11344
alleges 11345
deepened 11346
mulling 11347
Aydin 11348
vibrant 11349
Danas 11350
1985 11351
ensuing 11352
Yugo 11353
Bronze 11354
56@@ 11355
apologised 11356
varied 11357
ure 11358
2,400 11359
Georgieva 11360
Osmani 11361
J 11362
paint 11363
downplayed 11364
secrets 11365
Bosphorus 11366
Handball 11367
Doing 11368
rep@@ 11369
chicken 11370
postwar 11371
outbreaks 11372
ined 11373
incurred 11374
divers 11375
analysed 11376
surviving 11377
Sti@@ 11378
underlining 11379
hur@@ 11380
contingents 11381
Ceca 11382
marriages 11383
cab@@ 11384
DC 11385
Muhamed 11386
Krajisnik 11387
habits 11388
gan 11389
megawatts 11390
zing 11391
Ltd 11392
fever 11393
tide 11394
bles 11395
ta@@ 11396
vs 11397
Lieberman 11398
Dragisa 11399
Gasparovic 11400
Syrians 11401
teenager 11402
ures 11403
ai 11404
TAV 11405
PR 11406
Gerdec 11407
deploying 11408
Junior 11409
160m 11410
professions 11411
confessions 11412
em 11413
Schuessel 11414
Colak 11415
aries 11416
Douglas 11417
richer 11418
Bozo 11419
Westerwelle 11420
drinks 11421
Krstovic 11422
Havel 11423
Ombudsman 11424
Canton 11425
exempt 11426
ripe 11427
guarantors 11428
coaches 11429
consultants 11430
Az@@ 11431
contender 11432
promptly 11433
Milevska 11434
commonly 11435
dress 11436
Corner 11437
Banking 11438
Mel@@ 11439
disrupted 11440
Arifi 11441
prescribed 11442
click 11443
Tan@@ 11444
Pero 11445
corps 11446
triggering 11447
lecturer 11448
favorite 11449
interoperability 11450
Zuzul 11451
55m 11452
Vasiljevic 11453
input 11454
Parivodic 11455
platoon 11456
enduring 11457
Bid 11458
lane 11459
Reid 11460
Ivan@@ 11461
Kitarovic 11462
partisan 11463
ble@@ 11464
Grabar 11465
dog 11466
costumes 11467
ruler 11468
curtailed 11469
Forbes 11470
stealing 11471
Ancic 11472
securities 11473
Morocco 11474
undertook 11475
Kremlin 11476
Waldner 11477
speculated 11478
sentiments 11479
fri@@ 11480
Ljuboten 11481
Drenica 11482
initi@@ 11483
Mario 11484
multi@@ 11485
secretariat 11486
gear 11487
Monaco 11488
Analysis 11489
49th 11490
fantastic 11491
importers 11492
BNR 11493
widened 11494
reside 11495
54th 11496
reconfiguration 11497
Jeffrey 11498
betting 11499
purely 11500
gic 11501
regaining 11502
SA 11503
Kiev 11504
Ljubljanska 11505
injustice 11506
Matei 11507
kidnapping 11508
3.5m 11509
backlog 11510
Champions 11511
Village 11512
Ran@@ 11513
Ros@@ 11514
reiterate 11515
announcements 11516
Pakistani 11517
irre@@ 11518
Artan 11519
applicant 11520
gymnast 11521
Ohio 11522
Ramadani 11523
bore 11524
Evros 11525
existent 11526
.org 11527
Molyviatis 11528
Raffi 11529
arises 11530
bleak 11531
MSNBC 11532
Attica 11533
AG 11534
moratorium 11535
nominees 11536
scholar 11537
Theodoros 11538
Sisak 11539
campus 11540
3km 11541
Tower 11542
zoo 11543
ace 11544
surprises 11545
lj@@ 11546
pop@@ 11547
mas 11548
Raf@@ 11549
Sonja 11550
recruiting 11551
backbone 11552
studio 11553
clarity 11554
restrict 11555
ICMP 11556
42nd 11557
Ognjen 11558
Knezevic 11559
disappearance 11560
sporadic 11561
Final 11562
Shimon 11563
cher 11564
intentionally 11565
OTP 11566
appointing 11567
pardoned 11568
stimulating 11569
critically 11570
fossil 11571
tos 11572
Jaeger 11573
traders 11574
coincide 11575
deliberate 11576
stricken 11577
employer 11578
SPO 11579
20.@@ 11580
flo@@ 11581
rhythm 11582
Nacional 11583
initiating 11584
Large 11585
renovating 11586
EBU 11587
Aj@@ 11588
reminiscent 11589
Richter 11590
BIH 11591
posting 11592
Basic 11593
HQ 11594
Boost 11595
archeological 11596
prevailed 11597
inclined 11598
owe 11599
Eid 11600
ades 11601
disadvantaged 11602
Our 11603
Benjamin 11604
compromised 11605
pivotal 11606
w 11607
8.7 11608
s.@@ 11609
Bandic 11610
The@@ 11611
empire 11612
hic 11613
Dalmatian 11614
Division 11615
sustaining 11616
deprived 11617
ola@@ 11618
plead 11619
café 11620
rationale 11621
1971 11622
approving 11623
chase 11624
guarding 11625
backgrounds 11626
rests 11627
Computer 11628
Locher 11629
politicised 11630
Nikolai 11631
Businessmen 11632
tap 11633
debtors 11634
Kurd 11635
Catalin 11636
incompatible 11637
Bozic 11638
Victory 11639
digging 11640
Drama 11641
sang 11642
breast 11643
Dragutinovic 11644
As 11645
idis 11646
dan 11647
congratulations 11648
floated 11649
Dar@@ 11650
Reeker 11651
viability 11652
marginalised 11653
2,0@@ 11654
Alexei 11655
outcomes 11656
kov@@ 11657
resuming 11658
Tournament 11659
substandard 11660
inception 11661
quarterfinals 11662
Mc@@ 11663
EC@@ 11664
Leader 11665
220m 11666
towers 11667
specially 11668
assemblies 11669
unprepared 11670
indicative 11671
tea 11672
breached 11673
Colombia 11674
chanted 11675
texts 11676
Izmirli 11677
insurgency 11678
tar@@ 11679
Alexandros 11680
thoroughly 11681
Realitatea 11682
PRM 11683
singled 11684
disparities 11685
inequality 11686
attributes 11687
Luc 11688
extortion 11689
energetic 11690
Chile 11691
Ridvan 11692
subsidiaries 11693
casting 11694
barricade 11695
Milena 11696
drove 11697
SO@@ 11698
beside 11699
Abdul@@ 11700
lifts 11701
Massari 11702
liquidation 11703
Murati 11704
grateful 11705
robbery 11706
cat@@ 11707
Tour 11708
pockets 11709
bottle 11710
wisdom 11711
pack 11712
Dublin 11713
reply 11714
Hor@@ 11715
translators 11716
ose 11717
bypass 11718
Zogiani 11719
Romani 11720
Malmstrom 11721
Bir@@ 11722
tale 11723
Nemanja 11724
Honey 11725
I. 11726
Equality 11727
dubious 11728
compatriots 11729
hanging 11730
exam 11731
column 11732
Ski 11733
5.1 11734
cen@@ 11735
6.1 11736
Irinej 11737
conscientious 11738
Ursula 11739
Amsterdam 11740
spurring 11741
lin@@ 11742
Frckovski 11743
astronomy 11744
alo@@ 11745
Ratings 11746
pageant 11747
societal 11748
painted 11749
extermination 11750
SARS 11751
No@@ 11752
Kahn 11753
incredible 11754
lyrics 11755
RTCG 11756
Mem@@ 11757
Maastricht 11758
AK 11759
Iftar 11760
landed 11761
consumed 11762
quarterly 11763
referendums 11764
Redzepova 11765
Barr 11766
On 11767
HSS 11768
negligence 11769
Maxime 11770
Jury 11771
bes@@ 11772
uneven 11773
Lawyers 11774
buys 11775
derivatives 11776
Craiova 11777
dealers 11778
invalid 11779
ali@@ 11780
Chicago 11781
sons 11782
gray 11783
Trebinje 11784
sensational 11785
commands 11786
loud 11787
Gro@@ 11788
interruption 11789
Ni@@ 11790
Zigic 11791
gy@@ 11792
comeback 11793
compatibility 11794
explored 11795
uncovering 11796
After 11797
Tun@@ 11798
Lady 11799
Topolanek 11800
Uzbekistan 11801
Arthur 11802
Gjergji 11803
legalise 11804
Eurasia 11805
cautiously 11806
Individual 11807
apathy 11808
Ferrero 11809
candles 11810
Ce@@ 11811
7.4 11812
ah 11813
remembers 11814
planting 11815
Mit@@ 11816
Hur@@ 11817
neighbourhoods 11818
7.2 11819
waging 11820
Victims 11821
Yiannis 11822
grand@@ 11823
Millennium 11824
sometime 11825
visibility 11826
pulling 11827
Adam 11828
stark 11829
sleep 11830
envisages 11831
focal 11832
hesitant 11833
penetration 11834
Crown 11835
Kis@@ 11836
yields 11837
comparative 11838
MCV 11839
transatlantic 11840
formulate 11841
Fox 11842
eradicate 11843
39.@@ 11844
activated 11845
G20 11846
weighing 11847
Hays 11848
manoeuvres 11849
Pap@@ 11850
hair 11851
Investors 11852
Pop@@ 11853
Cox 11854
diversify 11855
trail 11856
Zurich 11857
Dino 11858
arose 11859
Na@@ 11860
bargain 11861
Angelina 11862
human@@ 11863
ening 11864
hardship 11865
aligned 11866
smelter 11867
Bulgargaz 11868
mainland 11869
introduces 11870
SERDA 11871
45@@ 11872
Chiefs 11873
sheep 11874
Honour 11875
generous 11876
gay 11877
Enterprise 11878
Ferenc 11879
Malev 11880
Kav@@ 11881
wed 11882
skeptical 11883
Josef 11884
My@@ 11885
uk@@ 11886
tin@@ 11887
disintegration 11888
Anes 11889
neighbors 11890
physics 11891
hid 11892
slowing 11893
liability 11894
strives 11895
emp@@ 11896
fruitless 11897
Kharchenko 11898
Botsan 11899
Palme 11900
mo 11901
Italians 11902
remarked 11903
devastated 11904
develops 11905
Allan 11906
thesis 11907
Faces 11908
Neolithic 11909
130,000 11910
reinforcing 11911
Puscas 11912
Gender 11913
Vilnius 11914
substitute 11915
Gabriela 11916
Jonathan 11917
Piran 11918
Jer@@ 11919
Gunter 11920
On@@ 11921
Dell 11922
bor@@ 11923
trailing 11924
Le 11925
improper 11926
Mass 11927
Ba@@ 11928
rigging 11929
recycled 11930
Dominique 11931
Ili@@ 11932
oz@@ 11933
wer 11934
IM@@ 11935
chess 11936
Netanyahu 11937
drag 11938
luxurious 11939
vacant 11940
examining 11941
newcomers 11942
Cetin 11943
dragged 11944
golf 11945
Sega 11946
Ven@@ 11947
underlines 11948
slander 11949
arrange 11950
stadiums 11951
Yusuf 11952
fairs 11953
Barkey 11954
ordinance 11955
infant 11956
taxed 11957
BBB- 11958
magnificent 11959
ean 11960
ky 11961
ane 11962
Met@@ 11963
SC@@ 11964
Bab@@ 11965
Delevic 11966
plunged 11967
aki 11968
Chambers 11969
edi@@ 11970
excited 11971
illiterate 11972
applauded 11973
Andrei 11974
determines 11975
thirteen 11976
bo 11977
unconditional 11978
disarmament 11979
Balaj 11980
Gorani 11981
pit@@ 11982
orphans 11983
NBG 11984
psychiatric 11985
ast@@ 11986
Gas@@ 11987
validity 11988
alphabet 11989
Mustafaj 11990
Aktar 11991
water@@ 11992
Sim@@ 11993
sour 11994
pollsters 11995
sol@@ 11996
5kg 11997
conspicuously 11998
affirming 11999
abusing 12000
Takes 12001
Vil@@ 12002
ulation 12003
unauthorised 12004
activism 12005
hungry 12006
hil@@ 12007
oting 12008
tre@@ 12009
polarised 12010
alarmed 12011
currencies 12012
Miguel 12013
contradictory 12014
biodiesel 12015
Rock 12016
encyclopedia 12017
biofuels 12018
11.@@ 12019
Stop 12020
6,500 12021
Bor 12022
Cameron 12023
ff@@ 12024
arbitrary 12025
gin 12026
Shar@@ 12027
bun@@ 12028
Ivory 12029
railroad 12030
specialising 12031
understandable 12032
NBA 12033
crying 12034
Trivan 12035
esti@@ 12036
elec@@ 12037
salt 12038
bow 12039
Gregory 12040
Constantin 12041
Libera 12042
Hamid 12043
Morar 12044
authorisation 12045
pol@@ 12046
Efforts 12047
hedge 12048
terrain 12049
cantonal 12050
7.6 12051
AKR 12052
athletic 12053
000km 12054
harmed 12055
Presse 12056
Jakupi 12057
itary 12058
bass 12059
1970 12060
gunfire 12061
recruit 12062
loopholes 12063
uniform 12064
Rhodes 12065
participates 12066
L. 12067
Florence 12068
Cas@@ 12069
enlarged 12070
29.@@ 12071
Works 12072
unfounded 12073
oke 12074
priests 12075
Menduh 12076
rowing 12077
mobilise 12078
US@@ 12079
PSI 12080
22@@ 12081
rewards 12082
Muller 12083
narrowly 12084
vetoed 12085
asa 12086
real@@ 12087
Napoca 12088
Kolubara 12089
wrestlers 12090
paperwork 12091
1978 12092
revol@@ 12093
sch@@ 12094
deteriorate 12095
commemorates 12096
Nic@@ 12097
Stamboliski 12098
Transitions 12099
Turkcell 12100
Rada 12101
Kaidanow 12102
vaccines 12103
Men@@ 12104
collateral 12105
interfering 12106
videotape 12107
Private 12108
housed 12109
Cove 12110
gendarmes 12111
mistrust 12112
1944 12113
1948 12114
accomplishing 12115
Milovan 12116
ened 12117
stabilised 12118
INSIG 12119
ritual 12120
adventure 12121
Badinter 12122
Arms 12123
Nat@@ 12124
cheering 12125
weaker 12126
tier 12127
47.@@ 12128
shrinking 12129
redundant 12130
Tel 12131
Perceptions 12132
Djogo 12133
persist 12134
Matsuura 12135
collectively 12136
Qadi 12137
ables 12138
spanning 12139
9.2 12140
Ziua 12141
Shafak 12142
fatalities 12143
irrigation 12144
shoulders 12145
Nes@@ 12146
healing 12147
Response 12148
900,000 12149
Goethe 12150
privilege 12151
Nor@@ 12152
colleges 12153
Es@@ 12154
tered 12155
nic@@ 12156
tains 12157
az 12158
10,@@ 12159
submerged 12160
Salzburg 12161
ing@@ 12162
resisting 12163
Budget 12164
shaped 12165
Employers 12166
ISPs 12167
Andrej 12168
Libyans 12169
Moldovans 12170
homemade 12171
diminished 12172
meals 12173
Florin 12174
vying 12175
Solyom 12176
grouping 12177
Zvonko 12178
Eurobank 12179
Adevarul 12180
institutes 12181
TRA 12182
adult 12183
burn 12184
CN@@ 12185
radically 12186
HotNews.ro 12187
Jaksic 12188
forefront 12189
Maurizio 12190
goalkeeper 12191
ip@@ 12192
Hamad 12193
Hu 12194
Ramkovski 12195
diving 12196
constituencies 12197
apologise 12198
Montana 12199
bing 12200
Srbijagas 12201
corridors 12202
Kabashaj 12203
hostilities 12204
Tina 12205
Leg@@ 12206
AES 12207
wanting 12208
retaliation 12209
Lithuanian 12210
mentally 12211
wasted 12212
precious 12213
ba@@ 12214
Visa 12215
democrat 12216
ished 12217
Calls 12218
Traykov 12219
sweep 12220
Bayram 12221
tab@@ 12222
ils 12223
Arta 12224
uncontrolled 12225
Ready 12226
toppling 12227
Compromise 12228
influencing 12229
Bot 12230
characters 12231
Medium 12232
beverages 12233
Neza 12234
Dalmatia 12235
fil@@ 12236
tightened 12237
gro@@ 12238
eni 12239
Ahmed 12240
Kabul 12241
retirees 12242
Gormez 12243
Kohavision 12244
skies 12245
progressive 12246
Gru@@ 12247
repressive 12248
preference 12249
1,100 12250
tra 12251
enactment 12252
Eagle 12253
Kil@@ 12254
Sundays 12255
ditch 12256
Podujevo 12257
steal 12258
rough 12259
Zdravkovic 12260
DTT 12261
responsibly 12262
mu@@ 12263
Hamas 12264
Belul 12265
graduation 12266
Approves 12267
etic 12268
Cardinal 12269
reliability 12270
detect 12271
Universiade 12272
Lev@@ 12273
Gorazde 12274
cooling 12275
builds 12276
bil@@ 12277
Lab@@ 12278
licensed 12279
Cre@@ 12280
slew 12281
Ig@@ 12282
Matijasevic 12283
verified 12284
Blerim 12285
Enel 12286
finalisation 12287
chaotic 12288
nets 12289
Dragana 12290
rig 12291
carnival 12292
mann 12293
Persian 12294
Medi@@ 12295
38th 12296
Harvard 12297
yan 12298
mastermind 12299
exercising 12300
rage 12301
650,000 12302
inhuman 12303
unarmed 12304
probable 12305
masters 12306
SNP 12307
inked 12308
arrears 12309
noise 12310
59th 12311
hunting 12312
eding 12313
dag 12314
Mun@@ 12315
linguistic 12316
subsidise 12317
interactive 12318
Sup@@ 12319
intact 12320
Poverty 12321
addiction 12322
synthetic 12323
Mira 12324
8.3 12325
Hun@@ 12326
Sheikh 12327
alter 12328
airplanes 12329
tendencies 12330
tant 12331
excitement 12332
Mohammed 12333
Scandinavian 12334
creativity 12335
UAE 12336
thumbs 12337
Travnik 12338
waning 12339
rebellion 12340
nel 12341
revealing 12342
greenfield 12343
mentions 12344
Morris 12345
Davos 12346
thwart 12347
drives 12348
ika 12349
underway 12350
protections 12351
Data 12352
vague 12353
weren 12354
J. 12355
yogurt 12356
journalistic 12357
fundamentally 12358
hostile 12359
Rapporteur 12360
lure 12361
proclaim 12362
kar@@ 12363
ZERP 12364
inconclusive 12365
detrimental 12366
6.8 12367
Innovation 12368
sho@@ 12369
sand 12370
CEI 12371
Riza 12372
unpunished 12373
Website 12374
reaffirm 12375
6.9 12376
Becali 12377
vicious 12378
Sin@@ 12379
grandfather 12380
val@@ 12381
Kesic 12382
ere 12383
contraction 12384
3D 12385
cheered 12386
freed 12387
Bregu 12388
Marcos 12389
Les@@ 12390
Vranje 12391
Erl 12392
Principal 12393
Filat 12394
dent 12395
blaze 12396
witnessing 12397
composers 12398
mentioning 12399
Johan 12400
ey 12401
deported 12402
scenery 12403
Illyrians 12404
incompetence 12405
Adjustment 12406
ought 12407
miracle 12408
Acting 12409
DVDs 12410
Kranjcar 12411
performer 12412
Petros 12413
Christina 12414
Alex 12415
Althea 12416
Ly@@ 12417
conductor 12418
lamb 12419
Star@@ 12420
colour 12421
Tsvetan 12422
lim@@ 12423
testifying 12424
Onur 12425
Out@@ 12426
Austro 12427
Stari 12428
9.3 12429
Sadovic 12430
reliance 12431
iv@@ 12432
sample 12433
dly 12434
Samast 12435
850 12436
euphoria 12437
enthusiasts 12438
Sokol 12439
defamation 12440
foreseeable 12441
appearances 12442
rectors 12443
grandson 12444
Liberty 12445
FIBA 12446
vigorous 12447
Sot 12448
Madonna 12449
emergencies 12450
dra@@ 12451
culprits 12452
licences 12453
fraudulent 12454
mufti 12455
eighty 12456
thrilled 12457
Au@@ 12458
locating 12459
Swimming 12460
ˈs 12461
cried 12462
McCormack 12463
IWPR 12464
merit 12465
Mustafic 12466
tractors 12467
authorising 12468
sts 12469
Del@@ 12470
Urged 12471
programs 12472
implying 12473
Algeria 12474
Ahmadinejad 12475
Carlo 12476
deadlocked 12477
boosts 12478
Net@@ 12479
Atlanta 12480
checking 12481
shutting 12482
predicting 12483
medalist 12484
detailing 12485
Sem@@ 12486
ush 12487
ref@@ 12488
forcible 12489
gauge 12490
colonel 12491
Don 12492
gases 12493
1979 12494
trash 12495
quicker 12496
ki@@ 12497
submission 12498
Sig@@ 12499
Francois 12500
Energoinvest 12501
overdue 12502
tives 12503
Gevgelija 12504
ensembles 12505
Dritan 12506
contaminated 12507
photograph 12508
IPKO 12509
od 12510
finger 12511
Dali 12512
boarding 12513
McElhaney 12514
Brahimaj 12515
ect 12516
consistency 12517
releases 12518
assassins 12519
guitar 12520
eggs 12521
Ivanova 12522
beans 12523
Banatski 12524
Kam@@ 12525
cycles 12526
Gymnastics 12527
2,200 12528
Informatics 12529
Belgraders 12530
aric 12531
Cin@@ 12532
Situations 12533
Tim 12534
Vujovic 12535
peer 12536
suspending 12537
dering 12538
judgments 12539
incapable 12540
coat 12541
butter 12542
bal@@ 12543
fle@@ 12544
Bear 12545
Iz@@ 12546
scared 12547
directive 12548
boxer 12549
directing 12550
bro@@ 12551
relax 12552
commemorative 12553
adjusting 12554
occasional 12555
cle@@ 12556
0s 12557
moderator 12558
jubilee 12559
flowing 12560
Thailand 12561
Skenderaj 12562
endangering 12563
traction 12564
ju@@ 12565
disability 12566
suicides 12567
Morning 12568
Banovic 12569
borrowed 12570
rac@@ 12571
safeguards 12572
145 12573
rioters 12574
Case 12575
taboo 12576
informing 12577
Muamer 12578
ive 12579
declines 12580
Miomir 12581
Windows 12582
loads 12583
ji 12584
deserved 12585
coping 12586
Revolutionary 12587
passion 12588
calculations 12589
27@@ 12590
Sollaku 12591
wards 12592
Drag@@ 12593
hes 12594
Prelec 12595
Hristo 12596
Bec@@ 12597
blocs 12598
Aracinovo 12599
plots 12600
KP 12601
cut@@ 12602
1,4@@ 12603
safely 12604
boxing 12605
Corneliu 12606
Sokolovic 12607
ez@@ 12608
lock 12609
ty@@ 12610
oked 12611
Brkic 12612
practiced 12613
backwards 12614
Ali@@ 12615
iu 12616
motorists 12617
fla@@ 12618
Stevan 12619
forging 12620
tel@@ 12621
enhancement 12622
allied 12623
slots 12624
ver 12625
archive 12626
branded 12627
32nd 12628
bury 12629
Sak@@ 12630
dust 12631
inner 12632
rehabilitate 12633
sixteen 12634
Two 12635
bet@@ 12636
avoidance 12637
Roman@@ 12638
Pro 12639
IN@@ 12640
backdrop 12641
Dracula 12642
antiquity 12643
suffice 12644
relieve 12645
liked 12646
imper@@ 12647
Karel 12648
fying 12649
Photo 12650
Oswald 12651
inging 12652
Ky@@ 12653
comp@@ 12654
Cul@@ 12655
Bou@@ 12656
makeup 12657
Chevron 12658
repeating 12659
Manchevski 12660
heavyweights 12661
headline 12662
Ol@@ 12663
Paralympics 12664
Pat@@ 12665
Nicholl 12666
Sener 12667
micro 12668
trapped 12669
expose 12670
impeachment 12671
wells 12672
relieved 12673
pleasant 12674
Des@@ 12675
swim 12676
notches 12677
off@@ 12678
stipulate 12679
manoeuvre 12680
Karzai 12681
Melbourne 12682
mobbing 12683
newer 12684
biomass 12685
Air@@ 12686
AF@@ 12687
manipulate 12688
Reserve 12689
Sarovic 12690
stalling 12691
imposition 12692
fuelling 12693
pharmacists 12694
conscription 12695
timeline 12696
shook 12697
quorum 12698
firefighting 12699
Campaign 12700
sel 12701
abstain 12702
vacationers 12703
Could 12704
priest 12705
nominations 12706
Jelic 12707
Flo@@ 12708
aspirant 12709
collectors 12710
unfolding 12711
atomic 12712
bride 12713
Kom@@ 12714
Partners 12715
allege 12716
telco 12717
DI@@ 12718
Kostas 12719
Salihu 12720
Jurcic 12721
But 12722
berg 12723
strengthens 12724
remnants 12725
registers 12726
Dragnea 12727
37th 12728
transcripts 12729
Borko 12730
communique 12731
chat 12732
Fier 12733
We@@ 12734
inventors 12735
mild 12736
Alevis 12737
Slobodanka 12738
Shell 12739
Wolfowitz 12740
chemistry 12741
CSD 12742
Jung 12743
Bentler 12744
Lugar 12745
franc 12746
Kotooshu 12747
shelf 12748
foreseen 12749
pyramids 12750
Controls 12751
AIO 12752
Primorac 12753
Kap@@ 12754
Baghdatis 12755
neighborhood 12756
Authorities 12757
uz@@ 12758
Isarescu 12759
Ancient 12760
regionally 12761
Lora 12762
animated 12763
Cha@@ 12764
iting 12765
villa 12766
banker 12767
symbolically 12768
IREX 12769
tionary 12770
0.0@@ 12771
liquid 12772
gel 12773
Nitaj 12774
communiqué 12775
Jur@@ 12776
What 12777
avert 12778
stole 12779
anu 12780
Politics 12781
Ksenija 12782
distinct 12783
favor 12784
1946 12785
116 12786
intimidate 12787
habit 12788
embedded 12789
Leka 12790
Beh@@ 12791
undocumented 12792
regrets 12793
Bihac 12794
Leonard 12795
renovate 12796
Sorin 12797
Imamovic 12798
albeit 12799
shouting 12800
derived 12801
Yan@@ 12802
Anti@@ 12803
seas 12804
Ceyhan 12805
Combating 12806
translator 12807
eyeing 12808
Liviu 12809
watchdogs 12810
fu@@ 12811
bon@@ 12812
conducts 12813
Puppet 12814
23@@ 12815
commemorations 12816
immigrant 12817
Mala 12818
kilometres 12819
sociology 12820
sank 12821
bike 12822
assuring 12823
tur@@ 12824
ide@@ 12825
Jas@@ 12826
births 12827
Khalifa 12828
Death 12829
inexpensive 12830
concepts 12831
Tuncel 12832
Panathinaikos 12833
nal 12834
star@@ 12835
supplement 12836
combining 12837
Todor 12838
é 12839
commen@@ 12840
cit@@ 12841
Varazdin 12842
speculations 12843
CD 12844
misery 12845
emerges 12846
Hope 12847
defiant 12848
Kanceska 12849
fre@@ 12850
pressuring 12851
heal 12852
objectively 12853
dis 12854
99.@@ 12855
Nik@@ 12856
brutality 12857
Marsicanin 12858
Ari@@ 12859
Iacovou 12860
compliant 12861
Head 12862
Ivailo 12863
Hosni 12864
shortfall 12865
eling 12866
marry 12867
nurse 12868
Ljumovic 12869
newborn 12870
begging 12871
weekends 12872
Kolinda 12873
harvest 12874
Siderov 12875
Trajanov 12876
Ataka 12877
Marco 12878
aking 12879
Sec@@ 12880
Tokes 12881
giants 12882
cooking 12883
deli@@ 12884
dynasty 12885
Gianna 12886
tends 12887
originating 12888
warfare 12889
slavery 12890
faculties 12891
foreigner 12892
Riviera 12893
Drago 12894
Hard 12895
Ev@@ 12896
Ries 12897
supermarket 12898
CBBH 12899
kitchen 12900
subordinate 12901
altered 12902
strip 12903
restructured 12904
Yemen 12905
span 12906
unavoidable 12907
18,000 12908
Sliven 12909
aver@@ 12910
Ljubco 12911
shaky 12912
Bilgi 12913
ys 12914
Money 12915
Kuk@@ 12916
struggled 12917
Spirit 12918
2016 12919
signalling 12920
episode 12921
Mare 12922
Chasa 12923
Gardetto 12924
apparatus 12925
ub@@ 12926
bombers 12927
extraction 12928
53rd 12929
touring 12930
prerequisites 12931
heroes 12932
contend 12933
symbolise 12934
intensively 12935
Loncar 12936
ette 12937
crosses 12938
gri@@ 12939
destabilising 12940
Rosatom 12941
1,3@@ 12942
Emperor 12943
Adviser 12944
ISG 12945
hurting 12946
Elizabeta 12947
ue 12948
Neretva 12949
camp@@ 12950
colours 12951
26@@ 12952
contradiction 12953
stall 12954
bailouts 12955
robot 12956
Vis@@ 12957
Ben 12958
commandos 12959
desirable 12960
centred 12961
impeding 12962
stream 12963
biology 12964
enriched 12965
steer 12966
lecture 12967
unjust 12968
ISPA 12969
discovering 12970
militaries 12971
flu@@ 12972
intensifying 12973
prohibit 12974
noticeable 12975
rioting 12976
ign@@ 12977
stormed 12978
Bugojno 12979
Kastriot 12980
subway 12981
treatments 12982
olo@@ 12983
Dev@@ 12984
rap@@ 12985
Alevi 12986
Jacev 12987
rulers 12988
hasty 12989
promotions 12990
Shi@@ 12991
utilised 12992
Hakan 12993
obey 12994
visitor 12995
Route 12996
Fehmiu 12997
Stanic 12998
Has@@ 12999
advocacy 13000
cla@@ 13001
Medojevic 13002
1975 13003
Zaev 13004
Spahic 13005
selective 13006
aids 13007
dele@@ 13008
Engin 13009
plate 13010
Chi@@ 13011
DM 13012
riding 13013
ards 13014
Plant 13015
Tennis 13016
Mik@@ 13017
Dun@@ 13018
Societe 13019
Gursel 13020
Protocol 13021
improvised 13022
Valotto 13023
policymaking 13024
SOFA 13025
Mobiltel 13026
Justin 13027
faiths 13028
ona 13029
Cam@@ 13030
SETimes.com 13031
prefecture 13032
Jazeera 13033
recruited 13034
1.3m 13035
Barac 13036
imposes 13037
Resen 13038
prop@@ 13039
slump 13040
Base 13041
Islamists 13042
sanction 13043
Savo 13044
methodology 13045
MARRI 13046
shouted 13047
rushing 13048
ited 13049
boast 13050
Ka@@ 13051
experimental 13052
qualifier 13053
wh@@ 13054
ment@@ 13055
Tree 13056
Korac 13057
Goshev 13058
eminent 13059
Lan@@ 13060
occupy 13061
tactical 13062
ingredients 13063
anticipation 13064
OSI 13065
inic 13066
Puljic 13067
specifying 13068
escalated 13069
0.4 13070
ram 13071
malls 13072
unreasonable 13073
Love 13074
cinematography 13075
antiquated 13076
fragments 13077
devi@@ 13078
elling 13079
Christ 13080
Nedzad 13081
narrowed 13082
una 13083
Selo 13084
havoc 13085
Hayssam 13086
Top@@ 13087
retains 13088
Hellas 13089
Ansip 13090
Cigdem 13091
borne 13092
Cri@@ 13093
Giotopoulos 13094
180,000 13095
unblock 13096
Sr@@ 13097
laptops 13098
disruption 13099
Cab@@ 13100
hindering 13101
prayers 13102
differs 13103
Philosophy 13104
aching 13105
70th 13106
booming 13107
Irina 13108
unspecified 13109
ots 13110
ensemble 13111
Chernobyl 13112
Alternative 13113
ented 13114
cular 13115
sn@@ 13116
payroll 13117
Simovic 13118
garden 13119
book@@ 13120
encro@@ 13121
undemocratic 13122
downsized 13123
Secret 13124
KM 13125
Stjepan 13126
arch@@ 13127
Risto 13128
surgeon 13129
faulted 13130
aspires 13131
dence 13132
dean 13133
spo@@ 13134
Dimitrovgrad 13135
CE 13136
Universal 13137
Mlloja 13138
Ivanisevic 13139
masked 13140
flames 13141
Rumi 13142
tiv@@ 13143
Plans 13144
Scotland 13145
Latifi 13146
collaborating 13147
relaunch 13148
desk 13149
execute 13150
modify 13151
trails 13152
Mersin 13153
conscripts 13154
penalised 13155
Gaz@@ 13156
dominance 13157
Reporter.gr 13158
Ul@@ 13159
Habsburg 13160
Tak@@ 13161
Christo 13162
Trieste 13163
surgeons 13164
benefiting 13165
DJs 13166
hev 13167
hang 13168
Verica 13169
plebiscite 13170
ZagrebDox 13171
swearing 13172
Defense 13173
farmland 13174
.bg 13175
AR@@ 13176
jak 13177
laboratories 13178
Ozcan 13179
reaffirming 13180
Greco 13181
Bre@@ 13182
invaded 13183
Dicle 13184
minus 13185
counsel 13186
resigns 13187
Climate 13188
Soros 13189
racing 13190
culmination 13191
Eurobond 13192
ft 13193
Sir@@ 13194
Name 13195
Velika 13196
Agrokor 13197
Alexandra 13198
ken@@ 13199
retrospective 13200
broadly 13201
bombed 13202
Vahit 13203
Planina 13204
horrible 13205
captives 13206
ugly 13207
Academic 13208
BNT 13209
Petrol 13210
displays 13211
showcase 13212
leg@@ 13213
awarding 13214
ols 13215
mixing 13216
destined 13217
1,9@@ 13218
ther 13219
agic 13220
enting 13221
ulates 13222
lan 13223
discoveries 13224
grievances 13225
mercenaries 13226
doctrine 13227
ler@@ 13228
expatriates 13229
cry 13230
occasionally 13231
mode 13232
utilise 13233
brigades 13234
RWB 13235
101 13236
trap 13237
Danis 13238
Sabanci 13239
CAP 13240
Building 13241
logo 13242
Oresharski 13243
robberies 13244
wonders 13245
culminated 13246
progressed 13247
hadn 13248
earns 13249
goalie 13250
ene 13251
overarching 13252
lon@@ 13253
burnt 13254
fragmented 13255
vis@@ 13256
Bankasi 13257
radicalisation 13258
bou@@ 13259
ly@@ 13260
thick 13261
troupe 13262
orchestrating 13263
ultranationalists 13264
ame 13265
pit 13266
Boston 13267
bio 13268
disarm 13269
digitalisation 13270
midfielder 13271
Linden 13272
thin 13273
Raskovic 13274
spate 13275
MCC 13276
Challenge 13277
uphill 13278
ios 13279
certainty 13280
assailants 13281
Oslobodjenje 13282
Step 13283
Schwarzenberg 13284
caucus 13285
Ivic 13286
dare 13287
abusive 13288
downhill 13289
planet 13290
convey 13291
Standing 13292
tracked 13293
daunting 13294
Bulgartabac 13295
pottery 13296
Threat 13297
avenue 13298
Help 13299
medi@@ 13300
Ottomanism 13301
2,300 13302
waving 13303
Mafia 13304
Brief 13305
jurisdictions 13306
Bijeljina 13307
liberation 13308
eli@@ 13309
paramilitaries 13310
revolt 13311
Fil@@ 13312
ala 13313
scor@@ 13314
arson 13315
fireworks 13316
groundbreaking 13317
Luan 13318
DJ 13319
Student 13320
Multi@@ 13321
disband 13322
spearheaded 13323
loyalty 13324
Vela 13325
Kou@@ 13326
cultivation 13327
Transnistria 13328
Distribution 13329
Bilkent 13330
Point 13331
camera 13332
fore@@ 13333
Erbakan 13334
smile 13335
intra 13336
meltdown 13337
1,6@@ 13338
itate 13339
favourites 13340
remembering 13341
Conservative 13342
demolished 13343
reparations 13344
Archaeology 13345
floating 13346
complications 13347
reign 13348
choir 13349
Mehmeti 13350
jo@@ 13351
stereotypes 13352
Nin@@ 13353
ner@@ 13354
rovic 13355
Struggle 13356
rented 13357
Bodrum 13358
complementary 13359
Minster 13360
smart 13361
accompany 13362
Aristotle 13363
menu 13364
41st 13365
envisaged 13366
ading 13367
gues 13368
Claus 13369
unveiling 13370
challenger 13371
Humanist 13372
gies 13373
recipe 13374
paradise 13375
Clinic 13376
preparatory 13377
Limani 13378
Kather 13379
eri 13380
abandoning 13381
Front 13382
honourable 13383
var 13384
Erste 13385
8.9 13386
barbed 13387
oking 13388
Tihomir 13389
Vreme 13390
constitutive 13391
strapped 13392
300km 13393
pot 13394
Have 13395
potatoes 13396
Nov@@ 13397
Reinfeldt 13398
licensing 13399
flare 13400
2017 13401
Dinamo 13402
Far@@ 13403
Olldashi 13404
Writers 13405
46th 13406
congestion 13407
weightlifter 13408
28m 13409
description 13410
gur@@ 13411
perpetrator 13412
Xhe@@ 13413
ries 13414
vow 13415
endless 13416
Hus@@ 13417
soci@@ 13418
Bajic 13419
vic@@ 13420
contracting 13421
shrank 13422
5.4 13423
Archive 13424
Ledra 13425
reformer 13426
installments 13427
portfolios 13428
Awlaki 13429
Olympia 13430
ovac 13431
6.5m 13432
FI@@ 13433
underline 13434
enti@@ 13435
No. 13436
gi 13437
Aleksic 13438
drops 13439
soared 13440
Bliznakov 13441
38@@ 13442
Steps 13443
switched 13444
Subotica 13445
artifacts 13446
Molotov 13447
cho@@ 13448
Fa@@ 13449
cattle 13450
tag 13451
polluted 13452
revoke 13453
MUP 13454
Genocide 13455
Vassiliou 13456
Dumitru 13457
warlord 13458
durable 13459
asbestos 13460
260 13461
releasing 13462
ati 13463
Plan@@ 13464
Glisic 13465
orphanages 13466
Students 13467
5,500 13468
1.2m 13469
guys 13470
Henri 13471
Appathurai 13472
phrase 13473
juvenile 13474
compounded 13475
adversely 13476
Ah@@ 13477
op 13478
Cacak 13479
ration 13480
fathers 13481
ung 13482
vy 13483
Vukelic 13484
dest 13485
dim 13486
preceding 13487
Studio 13488
HEU 13489
Zapatero 13490
Eur@@ 13491
Bat@@ 13492
abortions 13493
disarray 13494
She@@ 13495
stringent 13496
inger 13497
tes@@ 13498
Pledges 13499
ich 13500
Ashraf 13501
Relief 13502
fan@@ 13503
Porto 13504
Marius 13505
tro@@ 13506
metro 13507
4.0 13508
TRNC 13509
equip 13510
Johannesburg 13511
lodged 13512
enroll 13513
chancellor 13514
sim@@ 13515
22.@@ 13516
Rule 13517
implied 13518
injuring 13519
Toni 13520
cushion 13521
NHQSa 13522
precarious 13523
countless 13524
pricing 13525
subcommittee 13526
fas@@ 13527
VIP 13528
denominated 13529
Ses@@ 13530
Djilas 13531
Idriz 13532
peppers 13533
Humphreys 13534
organises 13535
Voj@@ 13536
breathe 13537
Coca 13538
unsafe 13539
Before 13540
Arkan 13541
00@@ 13542
ached 13543
pertaining 13544
numbered 13545
Haliti 13546
stuffed 13547
Oric 13548
Agence 13549
Ward 13550
D. 13551
daylong 13552
stave 13553
Aleksandra 13554
heats 13555
references 13556
ied 13557
slaughter 13558
900km 13559
dable 13560
115 13561
faction 13562
Battle 13563
tears 13564
Katic 13565
Esma 13566
Commonwealth 13567
Enka 13568
CIS 13569
capturing 13570
1.6m 13571
pleas 13572
readily 13573
8.6 13574
accuracy 13575
Tarik 13576
specialises 13577
1961 13578
aluminium 13579
Nice 13580
Minorities 13581
Years 13582
Inspectorate 13583
solo 13584
ES@@ 13585
sensitivity 13586
staffed 13587
acity 13588
Anne 13589
progressing 13590
wildfires 13591
Ganic 13592
ome 13593
contamination 13594
mathematics 13595
ase 13596
guess 13597
lease 13598
Tarnovo 13599
Sofianski 13600
gatherings 13601
cho 13602
tarnished 13603
equipping 13604
correctly 13605
variable 13606
12.7 13607
Shekulli 13608
ney 13609
balances 13610
incorporated 13611
Liapis 13612
CNSAS 13613
SAPARD 13614
render 13615
iti 13616
Stoyanov 13617
swimmers 13618
lia 13619
bells 13620
SAP 13621
Musa 13622
brilliant 13623
sweet 13624
overs 13625
Measures 13626
cycling 13627
Parents 13628
Cancer 13629
HEP 13630
safest 13631
eating 13632
activate 13633
slain 13634
Airbus 13635
removes 13636
cookies 13637
Indonesia 13638
unregistered 13639
NASA 13640
Intesa 13641
certification 13642
wers 13643
Nature 13644
meaningless 13645
Europa 13646
refrained 13647
rivalry 13648
chron@@ 13649
uc@@ 13650
Uni@@ 13651
37,000 13652
overlooked 13653
15km 13654
ania 13655
referee 13656
Deal 13657
has@@ 13658
loves 13659
Zafer 13660
childhood 13661
discrepancies 13662
antiquities 13663
55th 13664
40km 13665
Land@@ 13666
signaling 13667
Maritsa 13668
swine 13669
pardon 13670
Ahmad 13671
Palestine 13672
tomatoes 13673
Masters 13674
objection 13675
32@@ 13676
cracking 13677
210 13678
Sturanovic 13679
pontiff 13680
Ulrich 13681
segregation 13682
structured 13683
Benita 13684
suppress 13685
accomplices 13686
delighted 13687
reunifying 13688
sko 13689
12.5 13690
lev@@ 13691
Dav@@ 13692
SPE 13693
Grbavica 13694
44th 13695
Corfu 13696
rein 13697
Digital 13698
conscience 13699
Karabakh 13700
marginal 13701
wo@@ 13702
GAP 13703
fest 13704
charismatic 13705
indebtedness 13706
340 13707
finalists 13708
unsatisfactory 13709
asi 13710
kidnapped 13711
sisters 13712
Kle@@ 13713
Koksal 13714
aca 13715
ama@@ 13716
reiterates 13717
Cana 13718
Arrested 13719
38m 13720
gar 13721
discounts 13722
Nagy 13723
Salvador 13724
realistically 13725
seaport 13726
fared 13727
Bosporus 13728
Withers 13729
reckless 13730
vitro 13731
bother 13732
albums 13733
Polje 13734
plaguing 13735
ate@@ 13736
Systems 13737
aluminum 13738
Cola 13739
Visits 13740
filing 13741
Boeing 13742
surpassing 13743
Medieval 13744
atory 13745
ects 13746
galleries 13747
Ibrahimi 13748
dying 13749
drafts 13750
Boro 13751
pe 13752
endorsing 13753
0.9 13754
ancestors 13755
paramount 13756
Re 13757
cleaned 13758
specialties 13759
Historical 13760
Ha@@ 13761
interpreter 13762
escalate 13763
dogged 13764
58th 13765
onal 13766
authenticity 13767
Naf@@ 13768
IDPs 13769
rigid 13770
Ilham 13771
geothermal 13772
Hypo 13773
iness 13774
expulsions 13775
versa 13776
By@@ 13777
mit 13778
Aviv 13779
generators 13780
NRC 13781
Good 13782
juncture 13783
enrichment 13784
pleasure 13785
convict 13786
Synod 13787
IS 13788
divides 13789
Georgiou 13790
Carreras 13791
Sophia 13792
Gillian 13793
administrators 13794
Editor 13795
Degert 13796
Konya 13797
incorporate 13798
Stein 13799
Aaron 13800
Cen@@ 13801
Fiscal 13802
Tonino 13803
detentions 13804
diagnosis 13805
Andrea 13806
cabbage 13807
oni 13808
plausible 13809
pumping 13810
Sho@@ 13811
ition 13812
suppression 13813
analysing 13814
Rajevac 13815
motor 13816
junta 13817
Transgaz 13818
improves 13819
Ga@@ 13820
recurring 13821
Bey 13822
Cristina 13823
Nikica 13824
chairing 13825
contingency 13826
allay 13827
106 13828
dilemmas 13829
depicted 13830
Caglavica 13831
simu@@ 13832
Esra 13833
grouped 13834
Forestry 13835
modified 13836
constitutions 13837
0kg 13838
Multi 13839
Hikmet 13840
void 13841
lobbies 13842
Hajduk 13843
28@@ 13844
shutdown 13845
qualifiers 13846
grain 13847
Tara 13848
unites 13849
Det@@ 13850
Lat@@ 13851
Shoigu 13852
stra@@ 13853
snow@@ 13854
honey 13855
complement 13856
gendarmerie 13857
Mikhail 13858
tivity 13859
cas@@ 13860
adi@@ 13861
Gri@@ 13862
Albtelekom 13863
wives 13864
Sanja 13865
367 13866
muster 13867
enko 13868
designation 13869
200@@ 13870
footnote 13871
Tsenkov 13872
Combined 13873
Bay@@ 13874
duc@@ 13875
reg@@ 13876
Selim 13877
Singh 13878
warring 13879
tripled 13880
stretching 13881
fractured 13882
Henry 13883
vouchers 13884
testimonies 13885
1,7@@ 13886
crop 13887
referees 13888
Elghandour 13889
criminality 13890
obligatory 13891
Spasov 13892
instituted 13893
subordinates 13894
Fal@@ 13895
assumption 13896
murdering 13897
Obrenovic 13898
tile 13899
Selmo 13900
Minsk 13901
lin 13902
pumped 13903
Izbasa 13904
hear@@ 13905
underdeveloped 13906
lightly 13907
prediction 13908
bench 13909
manufactured 13910
if@@ 13911
entrusted 13912
Elec@@ 13913
splitting 13914
Churkin 13915
sion@@ 13916
basin 13917
Maritime 13918
barrel 13919
pression 13920
appropriately 13921
evska 13922
repairing 13923
Akkuyu 13924
evaders 13925
prevalent 13926
Nuri 13927
Malaj 13928
spa 13929
Opinion 13930
Jagnjenica 13931
squarely 13932
patterns 13933
iya 13934
Century 13935
Dragomir 13936
4.5m 13937
shark 13938
Ponos 13939
Europe.bg 13940
lingu@@ 13941
versions 13942
0th 13943
IDC 13944
Sek@@ 13945
Partesh 13946
mate 13947
imam 13948
Mirel 13949
mobilised 13950
tively 13951
126 13952
roof@@ 13953
bones 13954
Wedding 13955
Keraterm 13956
random 13957
Bran 13958
Orange 13959
Picture 13960
dre@@ 13961
Flor@@ 13962
Fourteen 13963
queues 13964
grapes 13965
Milutin 13966
height 13967
Celik 13968
cousin 13969
gul 13970
Ixhet 13971
Hadley 13972
Joaquin 13973
Citaku 13974
fra@@ 13975
conquer 13976
mistreatment 13977
EPCG 13978
Sredoje 13979
tle 13980
unwillingness 13981
Surrender 13982
Besiktas 13983
coloured 13984
detec@@ 13985
varying 13986
108 13987
yachts 13988
Kun@@ 13989
daughters 13990
Revenue 13991
Mihajlovski 13992
Nedim 13993
inventory 13994
Naples 13995
airing 13996
contrasting 13997
wealthiest 13998
Mijatovic 13999
Sun@@ 14000
dump 14001
Giuseppe 14002
advertisements 14003
spotted 14004
assert 14005
furthering 14006
Brijuni 14007
brighter 14008
ceased 14009
Manchester 14010
orchestras 14011
mill 14012
conce@@ 14013
hu@@ 14014
2km 14015
Veljanovski 14016
standings 14017
NAM 14018
Visoki 14019
extraditing 14020
Nigeria 14021
Stevo 14022
grad 14023
interconnection 14024
exciting 14025
defensive 14026
shell 14027
unexpectedly 14028
sely 14029
upholding 14030
intercep@@ 14031
scattered 14032
multicultural 14033
hectare 14034
ranged 14035
controllers 14036
amazing 14037
adherence 14038
121 14039
War@@ 14040
addicts 14041
Kucukandonyadis 14042
taekwondo 14043
Vulcheva 14044
Pollo 14045
offended 14046
cha@@ 14047
perpetrated 14048
Makedonski 14049
pharmaceuticals 14050
competes 14051
piano 14052
ques 14053
MBMD 14054
windmill 14055
Mic@@ 14056
chairperson 14057
classroom 14058
filigree 14059
Enforcement 14060
Verdi 14061
surged 14062
appreciated 14063
rife 14064
1,8@@ 14065
akos 14066
computerisation 14067
evolved 14068
Long 14069
monopolies 14070
unrelated 14071
news@@ 14072
winding 14073
elic 14074
1977 14075
ramifications 14076
Dor@@ 14077
meddling 14078
iously 14079
wound 14080
cultivated 14081
Ves@@ 14082
archi@@ 14083
Trabzon 14084
Integrity 14085
hell 14086
periphery 14087
devote 14088
Inclusion 14089
disciplined 14090
BA 14091
hardships 14092
civilised 14093
mend 14094
mud 14095
135 14096
assaulted 14097
dividends 14098
Globe 14099
pandemic 14100
hen@@ 14101
mysterious 14102
booked 14103
Spiegel 14104
supplying 14105
pipe 14106
Jim 14107
arevic 14108
poisoning 14109
inspector 14110
adjacent 14111
Patriarchate 14112
Tola 14113
Abu 14114
Kosovareport 14115
hash 14116
desperately 14117
guardian 14118
classrooms 14119
downsize 14120
crunch 14121
oo@@ 14122
BAT 14123
Cemetery 14124
Wins 14125
sacrifices 14126
routinely 14127
Orden 14128
Abbas 14129
Maras 14130
end@@ 14131
proponents 14132
striker 14133
ICT 14134
55,000 14135
Santek 14136
Jurkovic 14137
Beach 14138
Rotterdam 14139
Endeavour 14140
lady 14141
A. 14142
FoNet 14143
revamp 14144
Patras 14145
Guehenno 14146
Kukan 14147
mp@@ 14148
Sorensen 14149
10.5 14150
dismantled 14151
Gorenje 14152
Hol@@ 14153
cake 14154
Transylvanian 14155
dan@@ 14156
5.5m 14157
hing 14158
misused 14159
Towards 14160
operatives 14161
Ogret 14162
Huruglica 14163
fabric 14164
plague 14165
explicit 14166
dro@@ 14167
Area 14168
molecular 14169
circus 14170
Busatlija 14171
makeshift 14172
villas 14173
Shanghai 14174
Portal 14175
200km 14176
cadastral 14177
Maliki 14178
outspoken 14179
obsolete 14180
Gadhafi 14181
screens 14182
Sev@@ 14183
tapping 14184
Bukejlovic 14185
facilitator 14186
symptoms 14187
Rem@@ 14188
deton@@ 14189
Petrovaradin 14190
Vardar 14191
Lama 14192
Ferguson 14193
asi@@ 14194
Laj@@ 14195
ideals 14196
exposing 14197
fairness 14198
Comprehensive 14199
PhD 14200
inventor 14201
Kiro 14202
clear@@ 14203
powered 14204
clergy 14205
Taton 14206
Negotino 14207
survivor 14208
cap 14209
ethanol 14210
criticized 14211
sis 14212
rounded 14213
Actress 14214
36,000 14215
liver 14216
ass 14217
Istria 14218
Sto@@ 14219
forcibly 14220
upward 14221
commanding 14222
kuna 14223
showcased 14224
versus 14225
shi@@ 14226
filming 14227
1957 14228
Gere 14229
Ashkali 14230
supervisory 14231
isa 14232
OLAF 14233
New@@ 14234
treason 14235
investigator 14236
regulators 14237
eski 14238
sail 14239
incorrect 14240
Palli 14241
Actor 14242
law@@ 14243
Petralia 14244
garde 14245
modifications 14246
autogas 14247
coaching 14248
san 14249
indices 14250
Ternava 14251
blackouts 14252
conceal 14253
industrialised 14254
Naser 14255
affirmation 14256
mouth 14257
niche 14258
red@@ 14259
7.7 14260
novels 14261
HVB 14262
Franko 14263
Transitional 14264
ultimatum 14265
tees 14266
defends 14267
oration 14268
achieves 14269
DEHAP 14270
grim 14271
crediting 14272
Balkans.com 14273
Athanassios 14274
Protec@@ 14275
visibly 14276
Geographic 14277
Michel 14278
unjustified 14279
70@@ 14280
wanton 14281
Soto 14282
straits 14283
USS 14284
Mullen 14285
olds 14286
Ok@@ 14287
Trud 14288
gal@@ 14289
hammered 14290
ult 14291
Ljubic 14292
Wal@@ 14293
queue 14294
Electrica 14295
IFOR 14296
Poposki 14297
1983 14298
Ferdinand 14299
embarking 14300
embarrassment 14301
NLA 14302
23m 14303
AEK 14304
das 14305
denouncing 14306
weighs 14307
0MW 14308
Bjelasnica 14309
speedier 14310
impatient 14311
ences 14312
Bajramovic 14313
1968 14314
Mugur 14315
izing 14316
Idol 14317
seizures 14318
Kuwaiti 14319
Real 14320
ola 14321
blun@@ 14322
gambling 14323
Greens 14324
dow@@ 14325
sacred 14326
thirdly 14327
humane 14328
fel@@ 14329
patron 14330
Neven 14331
remark 14332
Gur@@ 14333
beats 14334
wording 14335
athletics 14336
cinemas 14337
repaired 14338
prefers 14339
disclosure 14340
finisher 14341
flaws 14342
intelligent 14343
gged 14344
originate 14345
Seventeen 14346
Thai 14347
technique 14348
Telemedicine 14349
proportions 14350
developers 14351
Bingol 14352
Egyptians 14353
Ticket 14354
pped 14355
Sep@@ 14356
kilowatt 14357
prevailing 14358
pu@@ 14359
pains 14360
Titov 14361
discord 14362
270 14363
0.05 14364
mil@@ 14365
wondering 14366
192 14367
Buzhala 14368
indifferent 14369
DEI 14370
pa@@ 14371
physicist 14372
Trifunovic 14373
multitude 14374
Educational 14375
35@@ 14376
cos@@ 14377
grappling 14378
Ljub@@ 14379
corresponding 14380
incitement 14381
iri 14382
ridden 14383
violin 14384
2.3m 14385
Slobodna 14386
fearful 14387
abetted 14388
Vjetrenica 14389
socioeconomic 14390
incidence 14391
fraction 14392
Documentation 14393
tis@@ 14394
RTTNews 14395
Pejakovic 14396
Tele2 14397
prevalence 14398
Guven 14399
dismissals 14400
coun@@ 14401
Panama 14402
lobbied 14403
filmed 14404
Financing 14405
vacations 14406
hydro@@ 14407
Pass@@ 14408
Kokino 14409
Kaz@@ 14410
ous@@ 14411
cally 14412
Brice 14413
Tel@@ 14414
lija 14415
Duka 14416
algae 14417
indispensable 14418
disadvantage 14419
politicisation 14420
stunned 14421
News.bg 14422
Stratfor 14423
turnaround 14424
dismay 14425
Pobjeda 14426
Cu@@ 14427
elects 14428
ej@@ 14429
sla@@ 14430
scourge 14431
Medenica 14432
conditioning 14433
motivate 14434
sexually 14435
entr@@ 14436
oring 14437
ACR 14438
ost 14439
strategically 14440
leukemia 14441
cache 14442
lis@@ 14443
zinc 14444
Petersburg 14445
PBS 14446
intru@@ 14447
NTC 14448
Zoellick 14449
basket 14450
Civilisations 14451
migratory 14452
shelters 14453
butterfly 14454
ster 14455
4.8 14456
exemption 14457
dentist 14458
priced 14459
craft 14460
sters 14461
Maksim 14462
Beyrle 14463
Nihat 14464
Disaster 14465
mogul 14466
Toska 14467
EOD 14468
Should 14469
Pandeli 14470
sel@@ 14471
onions 14472
fertilisation 14473
Salt 14474
Murad 14475
Wind 14476
ai@@ 14477
736 14478
25km 14479
vers 14480
ails 14481
reprisals 14482
Cy@@ 14483
Peasant 14484
Wrestling 14485
ku 14486
vegetable 14487
ula 14488
ases 14489
hazards 14490
developmental 14491
storms 14492
opting 14493
Wright 14494
dle 14495
doubling 14496
Inf@@ 14497
rehearsal 14498
Sla@@ 14499
Councils 14500
showdown 14501
markedly 14502
zed 14503
Uruguay 14504
bordering 14505
ili 14506
abrupt 14507
Ioannina 14508
Nea 14509
ade@@ 14510
relocated 14511
Ta@@ 14512
excavated 14513
Registry 14514
gestures 14515
Bazaar 14516
skepticism 14517
Halilovic 14518
shuttle 14519
cour@@ 14520
330 14521
Harxhi 14522
Adem 14523
Aferdita 14524
lessly 14525
Markets 14526
Fine 14527
stronghold 14528
Topcagic 14529
FER 14530
theoretically 14531
9.4 14532
Outlook 14533
Christodoulakis 14534
Sapka 14535
Valya 14536
dul@@ 14537
Opens 14538
separates 14539
Lidija 14540
underscores 14541
tar 14542
Sean 14543
irrespective 14544
ap 14545
Girl 14546
ovci 14547
talents 14548
retreat 14549
steadfast 14550
oppression 14551
Say 14552
reig@@ 14553
iled 14554
mers 14555
toured 14556
Harvey 14557
gical 14558
Blato 14559
economical 14560
Celibashi 14561
obstructed 14562
Murder 14563
furious 14564
viewpoint 14565
E. 14566
receipts 14567
Branimir 14568
shipped 14569
Pironkova 14570
dig 14571
Ball 14572
MGK 14573
ights 14574
mob 14575
forgive 14576
hammer 14577
tapes 14578
ceramics 14579
Pur@@ 14580
Morgan 14581
Verification 14582
consultancy 14583
altitude 14584
developer 14585
worded 14586
crown 14587
Bogosavljevic 14588
Architecture 14589
Demos 14590
grip 14591
queen 14592
misunderstandings 14593
Lovas 14594
graffiti 14595
probability 14596
.hr 14597
Tos@@ 14598
wholesale 14599
du 14600
183 14601
Sis@@ 14602
inefficiency 14603
Crescent 14604
relevance 14605
ABC 14606
denomination 14607
postal 14608
Apple 14609
Vincent 14610
concealed 14611
occupying 14612
Consumer 14613
lanes 14614
Javno 14615
dried 14616
definite 14617
ambush 14618
ashi 14619
Relja 14620
studios 14621
unblocking 14622
anna 14623
catering 14624
allocating 14625
warmth 14626
Bradic 14627
Yerevan 14628
Vanhanen 14629
8.2 14630
oust 14631
Vran@@ 14632
Zerihoun 14633
hem@@ 14634
fares 14635
Heinz 14636
&apos;Hooge 14637
obligated 14638
com 14639
exerted 14640
Stavreski 14641
58@@ 14642
Operator 14643
Mirza 14644
Por@@ 14645
Tserovski 14646
jewelry 14647
eyebrows 14648
yn@@ 14649
bus@@ 14650
aci 14651
Reka 14652
outlet 14653
ues 14654
McDonald 14655
8.5m 14656
relay 14657
constitutionally 14658
Judah 14659
Conservation 14660
Agencies 14661
practicing 14662
shooter 14663
NAC 14664
sav@@ 14665
Bon@@ 14666
Kaletović 14667
Parties 14668
invention 14669
220 14670
Salih 14671
Vic@@ 14672
Nick 14673
beginnings 14674
smashed 14675
ros 14676
restriction 14677
mentoring 14678
log@@ 14679
Dani 14680
arsenal 14681
ple@@ 14682
fa 14683
Mila 14684
censuses 14685
inquiries 14686
Alpine 14687
les@@ 14688
Greicevci 14689
ered 14690
grounded 14691
Jos@@ 14692
characterising 14693
Proposal 14694
Una 14695
pocket 14696
Sebastian 14697
Dy@@ 14698
Dacian 14699
punishments 14700
K 14701
burdens 14702
cocktails 14703
Body 14704
Pra@@ 14705
revising 14706
AFX 14707
Thrace 14708
int 14709
firearms 14710
disorder 14711
Ruse 14712
composite 14713
Dzidic 14714
vies 14715
dealer 14716
diaries 14717
Friends 14718
landslides 14719
resentment 14720
Karatzaferis 14721
tations 14722
lay@@ 14723
.. 14724
unethical 14725
impacting 14726
Allah 14727
bay 14728
Entry 14729
Fac@@ 14730
NPP 14731
oured 14732
fi 14733
patriotic 14734
frustrating 14735
disinflation 14736
interrogation 14737
Rules 14738
submits 14739
Bul@@ 14740
appoints 14741
Ottomans 14742
ES 14743
ili@@ 14744
Skare 14745
Constantinos 14746
trace 14747
Ozbolt 14748
Sparks 14749
Ora 14750
par 14751
vs. 14752
acy 14753
Sveti 14754
waged 14755
B. 14756
abducted 14757
po 14758
provoking 14759
rice 14760
Transition 14761
pitch 14762
attaches 14763
embracing 14764
Slav@@ 14765
frescoes 14766
Reconciliation 14767
indi@@ 14768
enlarge 14769
bodyguards 14770
IP 14771
Lipjan 14772
alar@@ 14773
jeopardises 14774
heed 14775
Face 14776
culturally 14777
Monte 14778
Butrint 14779
sanitary 14780
grass 14781
complexes 14782
elaborated 14783
ately 14784
Hristov 14785
hazard 14786
consulates 14787
deferred 14788
Platform 14789
icon 14790
7.5m 14791
impressions 14792
secures 14793
reson@@ 14794
165 14795
Roger 14796
oulis 14797
icons 14798
Agricole 14799
000m 14800
Behgjet 14801
blockades 14802
geo@@ 14803
trillion 14804
Abdixhiku 14805
ann@@ 14806
Stri@@ 14807
pers 14808
attain 14809
00 14810
ratifying 14811
aqu@@ 14812
ances 14813
aff@@ 14814
poly@@ 14815
quarrels 14816
Seoul 14817
furor 14818
Chess 14819
lip 14820
strife 14821
sin@@ 14822
UN@@ 14823
dal 14824
Telsim 14825
generator 14826
secretly 14827
Prijepolje 14828
Vojin 14829
borrowers 14830
Ruling 14831
occurrence 14832
letting 14833
Prosecutors 14834
Larry 14835
spree 14836
Right 14837
torates 14838
alling 14839
petroleum 14840
ec 14841
3.3m 14842
cardiovascular 14843
Aliu 14844
brewery 14845
Sain@@ 14846
Markovski 14847
seminary 14848
yn 14849
ature 14850
depreciation 14851
comb@@ 14852
extraditions 14853
dated 14854
65m 14855
Father 14856
SMI 14857
facade 14858
calculate 14859
cam@@ 14860
Roads 14861
Seeurope.net 14862
Petkovski 14863
dissident 14864
Picasso 14865
RTL 14866
lier 14867
forensics 14868
publicised 14869
ga@@ 14870
Metin 14871
Je@@ 14872
Grigoropoulos 14873
electronically 14874
tist 14875
GfK 14876
broker 14877
EFSF 14878
sincerity 14879
Amir 14880
politi@@ 14881
Near 14882
zo 14883
phased 14884
audits 14885
impending 14886
easiest 14887
parenting 14888
Morningstar 14889
sever 14890
138 14891
modeled 14892
Fur@@ 14893
similarities 14894
unveil 14895
filters 14896
Sef@@ 14897
treats 14898
Mures 14899
eld 14900
High@@ 14901
Barzani 14902
Spartak 14903
inspire 14904
Blood 14905
hinting 14906
novelty 14907
vehemently 14908
Kukuriku 14909
iko 14910
Novakovic 14911
Zogaj 14912
burg 14913
distorted 14914
Rossin 14915
cartoon 14916
Novinar 14917
lu 14918
levied 14919
Ty@@ 14920
TU 14921
Member 14922
lighted 14923
precautions 14924
Physics 14925
dock 14926
analy@@ 14927
cumbersome 14928
SIE 14929
Sudan 14930
Package 14931
manipulations 14932
busted 14933
premiered 14934
livestock 14935
Sedat 14936
fame 14937
Vera 14938
restive 14939
alcoholic 14940
pushes 14941
tended 14942
deposited 14943
Industrialists 14944
shells 14945
empowered 14946
tactic 14947
premier 14948
sliding 14949
hop@@ 14950
IMD 14951
reversing 14952
positioning 14953
Olga 14954
eless 14955
feedback 14956
Coun@@ 14957
85,000 14958
thering 14959
assistants 14960
Constantine 14961
choreo@@ 14962
Mina 14963
Ljubo 14964
hot@@ 14965
Skundric 14966
Avala 14967
activation 14968
frustrations 14969
ires 14970
Fifth 14971
Dimovska 14972
Chan@@ 14973
Stuttgart 14974
low@@ 14975
symbolism 14976
indoor 14977
oper@@ 14978
trainers 14979
ada 14980
unicameral 14981
glory 14982
vac@@ 14983
Thani 14984
overturn 14985
invisible 14986
chairwoman 14987
Now 14988
hung 14989
Moller 14990
Pekmezi 14991
Czechoslovakia 14992
Sambrakos 14993
exemptions 14994
Sejdic 14995
Piebalgs 14996
disadvantages 14997
anchored 14998
Vrajolli 14999
brave 15000
Pon@@ 15001
http 15002
rebuffed 15003
maNga 15004
generic 15005
ru 15006
hybrid 15007
Hentov 15008
Model 15009
FC 15010
militarily 15011
downplaying 15012
inspectorate 15013
Pascoe 15014
Reagan 15015
Citigroup 15016
Saljic 15017
strengths 15018
liberals 15019
standpoint 15020
Questionnaire 15021
Maliqi 15022
toughest 15023
liber@@ 15024
Matti 15025
testament 15026
Bob 15027
Talabani 15028
clu@@ 15029
Nicholson 15030
Djuro 15031
cin@@ 15032
inject 15033
stal@@ 15034
Stars 15035
engulfed 15036
Konrad 15037
Pu@@ 15038
hat 15039
Bukoshi 15040
Lockheed 15041
stagnant 15042
victorious 15043
Cav@@ 15044
vigilant 15045
Andris 15046
9.7 15047
bodyguard 15048
porous 15049
roc@@ 15050
Hutovo 15051
Sk@@ 15052
Dana 15053
busiest 15054
Yalcinkaya 15055
Mrkonjic 15056
Matache 15057
8km 15058
1964 15059
Pesic 15060
noon 15061
chorus 15062
Raz@@ 15063
Todorov 15064
Binali 15065
Krsmanovic 15066
rainfall 15067
Joksimovic 15068
Vietnam 15069
friendships 15070
Mol@@ 15071
Namik 15072
ECAC 15073
Antique 15074
Danilovic 15075
expands 15076
imagin@@ 15077
scandalous 15078
epicentre 15079
Virginia 15080
campaigned 15081
Policies 15082
eas@@ 15083
Lushta 15084
deceased 15085
Robinson 15086
pause 15087
adamantly 15088
eth@@ 15089
substances 15090
Kotevski 15091
Pensioners 15092
cated 15093
132 15094
outsourcing 15095
defenders 15096
conquered 15097
volumes 15098
gen 15099
Nuremberg 15100
editions 15101
Gnjilane 15102
stranded 15103
Hemofarm 15104
CC 15105
Every 15106
resurgence 15107
Gruda 15108
syn@@ 15109
servant 15110
Janko 15111
strains 15112
bas 15113
hit@@ 15114
noteworthy 15115
ule 15116
mechanical 15117
Kaplanoglu 15118
brunt 15119
Spasojevic 15120
Borovcanin 15121
Palestinians 15122
Vinci 15123
subsidised 15124
tenants 15125
Attorney 15126
aps 15127
expedite 15128
ridiculous 15129
Sets 15130
Gran@@ 15131
rant 15132
jewellery 15133
obliging 15134
consisted 15135
departed 15136
Vidin 15137
Dal@@ 15138
interaction 15139
B1 15140
staffing 15141
consul 15142
elli 15143
Bozhidar 15144
mega 15145
Cat@@ 15146
Mothers 15147
dzic 15148
Rumyana 15149
optimist 15150
consciousness 15151
underestimate 15152
resses 15153
Us 15154
holes 15155
Stolac 15156
adaptation 15157
Erzurum 15158
Has 15159
loading 15160
Hebrang 15161
commentary 15162
HSLS 15163
Casey 15164
philosopher 15165
Discuss 15166
Oprescu 15167
dome 15168
labs 15169
biography 15170
literally 15171
Tolerance 15172
fy 15173
Continues 15174
stein 15175
kilometers 15176
Cotroceni 15177
Prepares 15178
Witness 15179
offerings 15180
swans 15181
streamlined 15182
Films 15183
80th 15184
Serdar 15185
abortion 15186
Mavi 15187
1972 15188
seed 15189
Jovovic 15190
maturing 15191
hip@@ 15192
oms 15193
Canakkale 15194
cian 15195
arable 15196
IC 15197
Lj@@ 15198
decreases 15199
sumo 15200
Programmatic 15201
woods 15202
Christianity 15203
Choir 15204
Wahhabis 15205
PA@@ 15206
28,000 15207
outset 15208
confusing 15209
Kurt 15210
neck 15211
Sustainable 15212
True 15213
oversaw 15214
Buzek 15215
Cowen 15216
BHRT 15217
interstate 15218
dynamism 15219
Limassol 15220
steam 15221
school@@ 15222
Smith 15223
Gray 15224
vendor 15225
cies 15226
rooting 15227
3,200 15228
Kristiana 15229
flared 15230
Bio@@ 15231
Nenova 15232
Snezhana 15233
anytime 15234
theoretical 15235
ther@@ 15236
minefield 15237
tem@@ 15238
ech@@ 15239
Costis 15240
decentralised 15241
discharged 15242
IV 15243
Dokufest 15244
otic 15245
ests 15246
roadblock 15247
gn@@ 15248
masks 15249
semester 15250
recreate 15251
waved 15252
Sus@@ 15253
Gener@@ 15254
AKEL 15255
ei@@ 15256
son@@ 15257
proceeded 15258
Light 15259
bir 15260
Markus 15261
Vasil@@ 15262
occurrences 15263
Kurteshi 15264
griev@@ 15265
publicity 15266
Calislar 15267
reclaim 15268
Slavisa 15269
Taksim 15270
archaeology 15271
144 15272
Reding 15273
lauded 15274
isolate 15275
wrangling 15276
Guido 15277
demolish 15278
burst 15279
65th 15280
hierarchy 15281
Benz 15282
Diaspora 15283
sect 15284
fowl 15285
Akyol 15286
uncomfortable 15287
dor 15288
Lipponen 15289
Salon 15290
oy 15291
mates 15292
hesitation 15293
ites 15294
Yasin 15295
converted 15296
freest 15297
Ahead 15298
align 15299
neg@@ 15300
Cosmote 15301
Confidence 15302
Recovery 15303
Isak 15304
45.@@ 15305
prematurely 15306
aku 15307
dances 15308
laden 15309
tankers 15310
cup@@ 15311
Mah@@ 15312
Guz@@ 15313
Make 15314
annex 15315
rents 15316
AB@@ 15317
alt@@ 15318
salvage 15319
SI 15320
diminishing 15321
DS@@ 15322
aspire 15323
jets 15324
Cioroianu 15325
physician 15326
Radojicic 15327
Cathedral 15328
HACCP 15329
Biljali 15330
oes 15331
Mov@@ 15332
odi@@ 15333
Zsolt 15334
biodiversity 15335
patriarchal 15336
Vitosha 15337
Had@@ 15338
encompasses 15339
Zi@@ 15340
shady 15341
aks 15342
squares 15343
recount 15344
Better 15345
str@@ 15346
Valinakis 15347
fundamentalist 15348
excerpts 15349
matched 15350
washing 15351
manpower 15352
2.4m 15353
KONGRA 15354
Zarubezhneft 15355
GEL 15356
Early 15357
Copic 15358
accredited 15359
SA@@ 15360
nationally 15361
Adriean 15362
tombs 15363
33rd 15364
cons@@ 15365
Jevric 15366
communes 15367
watches 15368
competences 15369
legislators 15370
reacts 15371
Papandropoulos 15372
105 15373
buoyed 15374
Max 15375
revitalise 15376
shine 15377
tendered 15378
Cave 15379
abduction 15380
SME 15381
IR@@ 15382
Ara@@ 15383
COST 15384
toys 15385
jan@@ 15386
Survey 15387
Citizen 15388
statesman 15389
Vr@@ 15390
emigrate 15391
managerial 15392
scorer 15393
ER@@ 15394
15,@@ 15395
Sap@@ 15396
blown 15397
Cak@@ 15398
Over@@ 15399
[...]
