{
  "eos": 0, 
  "UNK": 1, 
  ",": 2, 
  ".": 3, 
  "&apos;": 4, 
  "ve": 5, 
  "&quot;": 6, 
  "bir": 7, 
  "da": 8, 
  "bu": 9, 
  "için": 10, 
  "de": 11, 
  "/": 12, 
  "nin": 13, 
  "AB": 14, 
  "nın": 15, 
  "ile": 16, 
  ")": 17, 
  "(": 18, 
  "ın": 19, 
  "@-@": 20, 
  "Sırbistan": 21, 
  "günü": 22, 
  "Kosova": 23, 
  "olarak": 24, 
  "olan": 25, 
  "daha": 26, 
  "in": 27, 
  "dedi": 28, 
  ":": 29, 
  "Avrupa": 30, 
  "-": 31, 
  "söyledi": 32, 
  "en": 33, 
  "yeni": 34, 
  "a": 35, 
  "Türkiye": 36, 
  "göre": 37, 
  "olduğunu": 38, 
  "&#93;": 39, 
  "&#91;": 40, 
  "Sırp": 41, 
  "çok": 42, 
  "daki": 43, 
  "yer": 44, 
  "iki": 45, 
  "arasında": 46, 
  "tarafından": 47, 
  "Makedonya": 48, 
  "büyük": 49, 
  "yıl": 50, 
  "son": 51, 
  "devam": 52, 
  "BH": 53, 
  "etti": 54, 
  "ilgili": 55, 
  "kadar": 56, 
  "dan": 57, 
  "Hırvatistan": 58, 
  "ancak": 59, 
  "diğer": 60, 
  "Belgrad": 61, 
  "siyasi": 62, 
  "Times": 63, 
  "yaptığı": 64, 
  "ya": 65, 
  "konusunda": 66, 
  "uluslararası": 67, 
  "Arnavutluk": 68, 
  "üzere": 69, 
  "Bakanı": 70, 
  "ülkenin": 71, 
  "her": 72, 
  "SETimes": 73, 
  "ABD": 74, 
  "olduğu": 75, 
  "European": 76, 
  "Southeast": 77, 
  "Karadağ": 78, 
  "Bulgaristan": 79, 
  "milyon": 80, 
  "önemli": 81, 
  "--": 82, 
  "ye": 83, 
  "sonra": 84, 
  "karşı": 85, 
  "eski": 86, 
  "ilk": 87, 
  "Romanya": 88, 
  "Yunanistan": 89, 
  "gibi": 90, 
  "NATO": 91, 
  "BM": 92, 
  "10": 93, 
  "fazla": 94, 
  "e": 95, 
  "%": 96, 
  "haberi": 97, 
  "un": 98, 
  "yüzde": 99, 
  "ise": 100, 
  "yılında": 101, 
  "verdiği": 102, 
  "Cumhurbaşkanı": 103, 
  "11": 104, 
  "kabul": 105, 
  "ülke": 106, 
  "den": 107, 
  "şekilde": 108, 
  "olmak": 109, 
  "ta": 110, 
  "birlikte": 111, 
  "Bosna": 112, 
  "iyi": 113, 
  "önce": 114, 
  "Türk": 115, 
  ";": 116, 
  "nun": 117, 
  "ekonomik": 118, 
  "üç": 119, 
  "sahip": 120, 
  "içinde": 121, 
  "sonrasında": 122, 
  "yaklaşık": 123, 
  "devlet": 124, 
  "ediyor": 125, 
  "ne": 126, 
  "Pazartesi": 127, 
  "yapılan": 128, 
  "veya": 129, 
  "üzerinde": 130, 
  "başkanı": 131, 
  "12": 132, 
  "şöyle": 133, 
  "savaş": 134, 
  "Hersek": 135, 
  "bin": 136, 
  "Başbakan": 137, 
  "oldu": 138, 
  "gelen": 139, 
  "değil": 140, 
  "Hırvat": 141, 
  "açıklamada": 142, 
  "söz": 143, 
  "ayında": 144, 
  "geçen": 145, 
  "genel": 146, 
  "hükümet": 147, 
  "Kıbrıs": 148, 
  "bütün": 149, 
  "fakat": 150, 
  "deki": 151, 
  "Dışişleri": 152, 
  "Çarşamba": 153, 
  "ayrıca": 154, 
  "te": 155, 
  "hafta": 156, 
  "bunun": 157, 
  "belirtti": 158, 
  "yüksek": 159, 
  "işbirliği": 160, 
  "Başbakanı": 161, 
  "yol": 162, 
  "aynı": 163, 
  "yerel": 164, 
  "üyelik": 165, 
  "düzenlenen": 166, 
  "09": 167, 
  "eden": 168, 
  "i": 169, 
  "geri": 170, 
  "Getty": 171, 
  "Salı": 172, 
  "geldi": 173, 
  "var": 174, 
  "Images": 175, 
  "yönelik": 176, 
  "ay": 177, 
  "avro": 178, 
  "07": 179, 
  "06": 180, 
  "05": 181, 
  "polis": 182, 
  "yerine": 183, 
  "sıra": 184, 
  "Priştine": 185, 
  "demeçte": 186, 
  "bazı": 187, 
  "Reuters": 188, 
  "04": 189, 
  "03": 190, 
  "08": 191, 
  "özel": 192, 
  "alıyor": 193, 
  "hakkında": 194, 
  "AFP": 195, 
  "konusu": 196, 
  "yönünde": 197, 
  "verdi": 198, 
  "yanı": 199, 
  "biri": 200, 
  "arasındaki": 201, 
  "karar": 202, 
  "gerektiğini": 203, 
  "pek": 204, 
  "konuşan": 205, 
  "Arnavut": 206, 
  "yeniden": 207, 
  "yardım": 208, 
  "Mart": 209, 
  "20": 210, 
  "yana": 211, 
  "?": 212, 
  "tek": 213, 
  "olacak": 214, 
  "ortak": 215, 
  "Mayıs": 216, 
  "uzun": 217, 
  "alan": 218, 
  "Ekim": 219, 
  "Haziran": 220, 
  "Perşembe": 221, 
  "çeşitli": 222, 
  "sadece": 223, 
  "iş": 224, 
  "ı": 225, 
  "Aralık": 226, 
  "Başkanı": 227, 
  "güvenlik": 228, 
  "Ocak": 229, 
  "diyen": 230, 
  "tüm": 231, 
  "aldı": 232, 
  "amaçlı": 233, 
  "Makedon": 234, 
  "hükümetin": 235, 
  "hükümeti": 236, 
  "15": 237, 
  "bulundu": 238, 
  "1": 239, 
  "anlaşma": 240, 
  "dört": 241, 
  "yetkililer": 242, 
  "destek": 243, 
  "Temmuz": 244, 
  "şu": 245, 
  "Kasım": 246, 
  "karşın": 247, 
  "Pazar": 248, 
  "hem": 249, 
  "enerji": 250, 
  "Üsküp": 251, 
  "gün": 252, 
  "Nisan": 253, 
  "açısından": 254, 
  "etnik": 255, 
  "Yunan": 256, 
  "Balkan": 257, 
  "bulunuyor": 258, 
  "o": 259, 
  "geçtiğimiz": 260, 
  "30": 261, 
  "araya": 262, 
  "Saraybosna": 263, 
  "ten": 264, 
  "Dünya": 265, 
  "yı": 266, 
  "Balkanlar": 267, 
  "dahil": 268, 
  "Eylül": 269, 
  "Bulgar": 270, 
  "rağmen": 271, 
  "az": 272, 
  "mücadele": 273, 
  "mevcut": 274, 
  "tam": 275, 
  "ziyaret": 276, 
  "aldığı": 277, 
  "Şubat": 278, 
  "üyesi": 279, 
  "Kosovalı": 280, 
  "AP": 281, 
  "ortaya": 282, 
  "kendi": 283, 
  "bekleniyor": 284, 
  "2": 285, 
  "gerekiyor": 286, 
  "Bu": 287, 
  "Atina": 288, 
  "olması": 289, 
  "resmi": 290, 
  "sırasında": 291, 
  "Konseyi": 292, 
  "on": 293, 
  "kamu": 294, 
  "başka": 295, 
  "etmek": 296, 
  "ikinci": 297, 
  "yapılacak": 298, 
  "Komisyonu": 299, 
  "zaman": 300, 
  "yalnızca": 301, 
  "anda": 302, 
  "Tadiç": 303, 
  "25": 304, 
  "diyerek": 305, 
  "milyar": 306, 
  "Partisi": 307, 
  "askeri": 308, 
  "Uluslararası": 309, 
  "Rusya": 310, 
  "AK": 311, 
  "para": 312, 
  "kişi": 313, 
  "li": 314, 
  "ekledi": 315, 
  "yi": 316, 
  "üye": 317, 
  "yıllık": 318, 
  "söylüyor": 319, 
  "avroluk": 320, 
  "altında": 321, 
  "17": 322, 
  "nedeniyle": 323, 
  "Cuma": 324, 
  "görev": 325, 
  "şey": 326, 
  "yatırım": 327, 
  "ulusal": 328, 
  "seçim": 329, 
  "bulunan": 330, 
  "yakın": 331, 
  "sayıda": 332, 
  "Ağustos": 333, 
  "Cumhuriyeti": 334, 
  "katılım": 335, 
  "insan": 336, 
  "beş": 337, 
  "amacıyla": 338, 
  "edilen": 339, 
  "Bosnalı": 340, 
  "16": 341, 
  "basın": 342, 
  "02": 343, 
  "Brüksel": 344, 
  "üst": 345, 
  "ilişkin": 346, 
  "ciddi": 347, 
  "hiçbir": 348, 
  "dile": 349, 
  "bunu": 350, 
  "kaynaklar": 351, 
  "13": 352, 
  "3": 353, 
  "gereken": 354, 
  "kapsamında": 355, 
  "eğitim": 356, 
  "yönündeki": 357, 
  "oy": 358, 
  "ardından": 359, 
  "ileri": 360, 
  "ilerleme": 361, 
  "dış": 362, 
  "sona": 363, 
  "başladı": 364, 
  "18": 365, 
  "inşa": 366, 
  "kısa": 367, 
  "kültür": 368, 
  "14": 369, 
  "Tiran": 370, 
  "01": 371, 
  "SC": 372, 
  "derece": 373, 
  "27": 374, 
  "Lahey": 375, 
  "meydana": 376, 
  "altı": 377, 
  "bölgesel": 378, 
  "durumda": 379, 
  "sınır": 380, 
  "şeklinde": 381, 
  "elde": 382, 
  "2004": 383, 
  "parti": 384, 
  "adlı": 385, 
  "bile": 386, 
  "güçlü": 387, 
  "5": 388, 
  "Bankası": 389, 
  "önümüzdeki": 390, 
  "ana": 391, 
  "Ankara": 392, 
  "açık": 393, 
  "ki": 394, 
  "suç": 395, 
  "IMF": 396, 
  "sözlerine": 397, 
  "İstanbul": 398, 
  "mali": 399, 
  "diyor": 400, 
  "21": 401, 
  "gelecek": 402, 
  "günkü": 403, 
  "Sofya": 404, 
  "ev": 405, 
  "ayı": 406, 
  "kararı": 407, 
  "ülkede": 408, 
  "Güvenlik": 409, 
  "Bakanlığı": 410, 
  "bölge": 411, 
  "ifade": 412, 
  "toplam": 413, 
  "Mladiç": 414, 
  "Genel": 415, 
  "Erdoğan": 416, 
  "Bükreş": 417, 
  "Güneydoğu": 418, 
  "24": 419, 
  "teki": 420, 
  "barış": 421, 
  "farklı": 422, 
  "Demokrat": 423, 
  "Batı": 424, 
  "düşük": 425, 
  "Almanya": 426, 
  "çoğu": 427, 
  "çözüm": 428, 
  "süre": 429, 
  "22": 430, 
  "ekonomi": 431, 
  "durum": 432, 
  "ele": 433, 
  "yaşanan": 434, 
  "savunma": 435, 
  "yılın": 436, 
  "19": 437, 
  "hale": 438, 
  "üzerine": 439, 
  "gerekli": 440, 
  "23": 441, 
  "hazır": 442, 
  "28": 443, 
  "küçük": 444, 
  "aday": 445, 
  "Yardımcısı": 446, 
  "artık": 447, 
  "düzey": 448, 
  "iç": 449, 
  "oluşan": 450, 
  "ülkeleri": 451, 
  "yolunda": 452, 
  "yine": 453, 
  "6": 454, 
  "2007": 455, 
  "suçları": 456, 
  "yaşındaki": 457, 
  "Rum": 458, 
  "lideri": 459, 
  "nde": 460, 
  "yok": 461, 
  "yabancı": 462, 
  "ülkesinin": 463, 
  "4": 464, 
  "lik": 465, 
  "26": 466, 
  "edecek": 467, 
  "olmadığını": 468, 
  "halinde": 469, 
  "bakan": 470, 
  "2008": 471, 
  "ülkedeki": 472, 
  "günlük": 473, 
  "katıldı": 474, 
  "yargı": 475, 
  "iddia": 476, 
  "sorun": 477, 
  "Ulusal": 478, 
  "zorunda": 479, 
  "etme": 480, 
  "teslim": 481, 
  "Irak": 482, 
  "ettiği": 483, 
  "olumlu": 484, 
  "Yugoslavya": 485, 
  "satın": 486, 
  "zamanda": 487, 
  "İki": 488, 
  "organize": 489, 
  "konuşmada": 490, 
  "bağlı": 491, 
  "sonunda": 492, 
  "ICTY": 493, 
  "kredi": 494, 
  "başta": 495, 
  "lider": 496, 
  "la": 497, 
  "taki": 498, 
  "boyunca": 499, 
  "Zagreb": 500, 
  "7": 501, 
  "dair": 502, 
  "birkaç": 503, 
  "tan": 504, 
  "8": 505, 
  "2006": 506, 
  "çıkan": 507, 
  "yasa": 508, 
  "uygun": 509, 
  "burada": 510, 
  "29": 511, 
  "u": 512, 
  "ülkelerin": 513, 
  "özellikle": 514, 
  "reform": 515, 
  "buna": 516, 
  "sorumlu": 517, 
  "kazandı": 518, 
  "2005": 519, 
  "kuzey": 520, 
  "herhangi": 521, 
  "kötü": 522, 
  "Slovenya": 523, 
  "sağlık": 524, 
  "merkezli": 525, 
  "ticaret": 526, 
  "açıkladı": 527, 
  "yüzünden": 528, 
  "olacağını": 529, 
  "yandan": 530, 
  "nda": 531, 
  "elektrik": 532, 
  "getirdi": 533, 
  "arada": 534, 
  "hâlâ": 535, 
  "yaptı": 536, 
  "yetkili": 537, 
  "bölgede": 538, 
  "UNMIK": 539, 
  "açtı": 540, 
  "üyeliği": 541, 
  "50": 542, 
  "2009": 543, 
  "Fransa": 544, 
  "ama": 545, 
  "öne": 546, 
  "Romen": 547, 
  "çağırdı": 548, 
  "henüz": 549, 
  "takdirde": 550, 
  "raporda": 551, 
  "konulu": 552, 
  "adım": 553, 
  "-@@": 554, 
  "Cumartesi": 555, 
  "sahibi": 556, 
  "muhalefet": 557, 
  "tarihi": 558, 
  "ülkeler": 559, 
  "toplum": 560, 
  "hükümetinin": 561, 
  "Merkezi": 562, 
  "ülkelerinin": 563, 
  "Boris": 564, 
  "bunların": 565, 
  "mümkün": 566, 
  "nasıl": 567, 
  "temel": 568, 
  "bağımsızlık": 569, 
  "yapan": 570, 
  "kentinde": 571, 
  "gösteriyor": 572, 
  "Mahkemesi": 573, 
  "na": 574, 
  "yolsuzluk": 575, 
  "yardımcı": 576, 
  "kaydetti": 577, 
  "yayınlanan": 578, 
  "yılı": 579, 
  "Dairesi": 580, 
  "2010": 581, 
  "meclis": 582, 
  "bağımsız": 583, 
  "Kostunica": 584, 
  "gerçekleşti": 585, 
  "ler": 586, 
  "bilim": 587, 
  "lar": 588, 
  "doğru": 589, 
  "bölgedeki": 590, 
  "başlarında": 591, 
  "açıdan": 592, 
  "Rehn": 593, 
  "100": 594, 
  "bilgi": 595, 
  "olduğuna": 596, 
  "yaşayan": 597, 
  "sonuna": 598, 
  "türlü": 599, 
  "haline": 600, 
  "zor": 601, 
  "temsil": 602, 
  "serbest": 603, 
  "izin": 604, 
  "Anlaşması": 605, 
  "altına": 606, 
  "edilmesi": 607, 
  "süren": 608, 
  "el": 609, 
  "sivil": 610, 
  "gerçek": 611, 
  "yetkilileri": 612, 
  "süreci": 613, 
  "karşıya": 614, 
  "yıldır": 615, 
  "verilen": 616, 
  "mevkidaşı": 617, 
  "görülüyor": 618, 
  "ülkeden": 619, 
  "ettiğini": 620, 
  "aralarında": 621, 
  "B92": 622, 
  "önceki": 623, 
  "İtalya": 624, 
  "turizm": 625, 
  "Parti": 626, 
  "doğrudan": 627, 
  "vergi": 628, 
  "şimdi": 629, 
  "üyeleri": 630, 
  "KFOR": 631, 
  "haber": 632, 
  "küresel": 633, 
  "suçu": 634, 
  "sosyal": 635, 
  "an": 636, 
  "başlıca": 637, 
  "anlaşması": 638, 
  "ötürü": 639, 
  "ilişkileri": 640, 
  "duyurdu": 641, 
  "Birliği": 642, 
  "AGİT": 643, 
  "İnternet": 644, 
  "üçüncü": 645, 
  "gerçekleşen": 646, 
  "dünya": 647, 
  "proje": 648, 
  "veren": 649, 
  "İş": 650, 
  "etmesi": 651, 
  "dönemde": 652, 
  "beri": 653, 
  "yolsuzlukla": 654, 
  "ini": 655, 
  "1995": 656, 
  "inin": 657, 
  "ün": 658, 
  "partisi": 659, 
  "leri": 660, 
  "oranında": 661, 
  "ilan": 662, 
  "grup": 663, 
  "Ortaklık": 664, 
  "etmeye": 665, 
  "geliyor": 666, 
  "Sorumlu": 667, 
  "İngiltere": 668, 
  "9": 669, 
  "parlamento": 670, 
  "olmasına": 671, 
  "erken": 672, 
  "Adalet": 673, 
  "dünyanın": 674, 
  "kez": 675, 
  "le": 676, 
  "2003": 677, 
  "sözcüsü": 678, 
  "Washington": 679, 
  "çalışma": 680, 
  "hakkındaki": 681, 
  "Ahtisaari": 682, 
  "demokratik": 683, 
  "dışişleri": 684, 
  "neden": 685, 
  "40": 686, 
  "işaret": 687, 
  "oldukça": 688, 
  "başarılı": 689, 
  "PKK": 690, 
  "hala": 691, 
  "AKP": 692, 
  "artış": 693, 
  "The": 694, 
  "başına": 695, 
  "Sırplar": 696, 
  "Zoran": 697, 
  "ediliyor": 698, 
  "petrol": 699, 
  "31": 700, 
  "kişinin": 701, 
  "tür": 702, 
  "toplantısında": 703, 
  "cumhurbaşkanı": 704, 
  "alacak": 705, 
  "belediye": 706, 
  "önde": 707, 
  "EULEX": 708, 
  "sağlayacak": 709, 
  "vize": 710, 
  "dışında": 711, 
  "BBC": 712, 
  "bütçe": 713, 
  "ederek": 714, 
  "üzerindeki": 715, 
  "mahkeme": 716, 
  "benzer": 717, 
  "Nikola": 718, 
  "ları": 719, 
  "şirketi": 720, 
  "durumu": 721, 
  "ülkeye": 722, 
  "şiddet": 723, 
  "Sekreteri": 724, 
  "bugüne": 725, 
  "sorunu": 726, 
  "edildi": 727, 
  "konuştu": 728, 
  "lerin": 729, 
  "geniş": 730, 
  "parçası": 731, 
  "sonraki": 732, 
  "genç": 733, 
  "ait": 734, 
  "yılından": 735, 
  "anlamına": 736, 
  "cumhurbaşkanlığı": 737, 
  "film": 738, 
  "rol": 739, 
  "çağrısında": 740, 
  "ların": 741, 
  "yeterli": 742, 
  "Rus": 743, 
  "yedi": 744, 
  "sahipliği": 745, 
  "önünde": 746, 
  "Barış": 747, 
  "merkezi": 748, 
  "sözlerinde": 749, 
  "bundan": 750, 
  "konusundaki": 751, 
  "dönem": 752, 
  "kalan": 753, 
  "sekiz": 754, 
  "gerektiği": 755, 
  "ilişkiler": 756, 
  "Festivali": 757, 
  "anlaşmanın": 758, 
  "seçimleri": 759, 
  "halkın": 760, 
  "sözü": 761, 
  "böyle": 762, 
  "sayısı": 763, 
  "vurguladı": 764, 
  "tekrar": 765, 
  "Üniversitesi": 766, 
  "yılki": 767, 
  "ikili": 768, 
  "liderleri": 769, 
  "sağlamak": 770, 
  "ordu": 771, 
  "hakları": 772, 
  "Savunma": 773, 
  "yasal": 774, 
  "anayasa": 775, 
  "1999": 776, 
  "Yüksek": 777, 
  "yetkililerin": 778, 
  "ülkeyi": 779, 
  "olmayan": 780, 
  "yüzden": 781, 
  "şirket": 782, 
  "dizi": 783, 
  "Basescu": 784, 
  "kontrol": 785, 
  "istiyor": 786, 
  "müzakerelerin": 787, 
  "belli": 788, 
  "teknik": 789, 
  "İstikrar": 790, 
  "tamamen": 791, 
  "tehdit": 792, 
  "bakanlığı": 793, 
  "Komisyon": 794, 
  "konu": 795, 
  "diye": 796, 
  "giderek": 797, 
  "önem": 798, 
  "boru": 799, 
  "Alman": 800, 
  "Sanader": 801, 
  "reformları": 802, 
  "kuruluşu": 803, 
  "Berişa": 804, 
  "statü": 805, 
  "hava": 806, 
  "sürekli": 807, 
  "GSYİH": 808, 
  "almak": 809, 
  "bulunduğu": 810, 
  "İçişleri": 811, 
  "nden": 812, 
  "halkı": 813, 
  "işbirliğini": 814, 
  "yardımcısı": 815, 
  "çalışan": 816, 
  "alma": 817, 
  "politika": 818, 
  "ülkesi": 819, 
  "statüsü": 820, 
  "olmaya": 821, 
  "terör": 822, 
  "koruma": 823, 
  "ettiler": 824, 
  "umut": 825, 
  "yapılması": 826, 
  "Rumen": 827, 
  "nihai": 828, 
  "çağrıda": 829, 
  "birinci": 830, 
  "halkının": 831, 
  "adet": 832, 
  "neredeyse": 833, 
  "yılına": 834, 
  "kadın": 835, 
  "Avrupalı": 836, 
  "merkez": 837, 
  "hizmet": 838, 
  "bakış": 839, 
  "Gül": 840, 
  "bugün": 841, 
  "aşırı": 842, 
  "Parlamentosu": 843, 
  "net": 844, 
  "Kürt": 845, 
  "avroya": 846, 
  "dikkat": 847, 
  "DPA": 848, 
  "yoluyla": 849, 
  "Miloseviç": 850, 
  "sürdü": 851, 
  "müzakere": 852, 
  "Karadziç": 853, 
  "kaynak": 854, 
  "medya": 855, 
  "hareket": 856, 
  "yönetim": 857, 
  "baş": 858, 
  "ek": 859, 
  "yılda": 860, 
  "yasadışı": 861, 
  "lerini": 862, 
  "başında": 863, 
  "uzlaşma": 864, 
  "öncesinde": 865, 
  "halk": 866, 
  "kriz": 867, 
  "memnuniyetle": 868, 
  "adayı": 869, 
  "doğal": 870, 
  "hemen": 871, 
  "söylediler": 872, 
  "olsa": 873, 
  "toplumun": 874, 
  "verildi": 875, 
  "emekli": 876, 
  "Atlantik": 877, 
  "sistemi": 878, 
  "spor": 879, 
  "sırada": 880, 
  "azınlık": 881, 
  "mal": 882, 
  "olası": 883, 
  "olmadığı": 884, 
  "ön": 885, 
  "büyüme": 886, 
  "su": 887, 
  "ölçüde": 888, 
  "düzenlediği": 889, 
  "talep": 890, 
  "Gruevski": 891, 
  "Doğu": 892, 
  "bunlar": 893, 
  "Kalkınma": 894, 
  "ndan": 895, 
  "Recep": 896, 
  "...": 897, 
  "Üyesi": 898, 
  "gümrük": 899, 
  "Jovanoviç": 900, 
  "sürecinin": 901, 
  "ila": 902, 
  "1990": 903, 
  "del": 904, 
  "soruşturma": 905, 
  "anlaşmaya": 906, 
  "seçimler": 907, 
  "Tayyip": 908, 
  "olabilir": 909, 
  "çünkü": 910, 
  "güvence": 911, 
  "istikrar": 912, 
  "giden": 913, 
  "2002": 914, 
  "görevi": 915, 
  "nükleer": 916, 
  "desteği": 917, 
  "oranı": 918, 
  "Enstitüsü": 919, 
  "mi": 920, 
  "liderler": 921, 
  "Ponte": 922, 
  "Yugoslav": 923, 
  "uzmanlar": 924, 
  "teşvik": 925, 
  "zira": 926, 
  "öte": 927, 
  "hedef": 928, 
  "Orta": 929, 
  "Haber": 930, 
  "baskı": 931, 
  "defa": 932, 
  "kesin": 933, 
  "potansiyel": 934, 
  "çalışıyor": 935, 
  "iktidar": 936, 
  "larını": 937, 
  "isim": 938, 
  "sorunları": 939, 
  "Kurulu": 940, 
  "hiç": 941, 
  "Güney": 942, 
  "al@@": 943, 
  "kendisini": 944, 
  "başkan": 945, 
  "500": 946, 
  "ediyorlar": 947, 
  "lerinin": 948, 
  "200": 949, 
  "gösteren": 950, 
  "Avusturya": 951, 
  "olma": 952, 
  "lere": 953, 
  "olup": 954, 
  "zarar": 955, 
  "milletvekili": 956, 
  "lerine": 957, 
  "çıktı": 958, 
  "euro": 959, 
  "Müslüman": 960, 
  "adı": 961, 
  "ortadan": 962, 
  "larının": 963, 
  "bölgenin": 964, 
  "60": 965, 
  "sürüyor": 966, 
  "onun": 967, 
  "2001": 968, 
  "Sosyal": 969, 
  "engel": 970, 
  "Sırpların": 971, 
  "olumsuz": 972, 
  "sonuç": 973, 
  "ını": 974, 
  "alanında": 975, 
  "taraf": 976, 
  "Ajansı": 977, 
  "ticari": 978, 
  "civarında": 979, 
  "binlerce": 980, 
  "müdürü": 981, 
  "bakanı": 982, 
  "gerek": 983, 
  "2011": 984, 
  "ının": 985, 
  "geçiş": 986, 
  "yaşam": 987, 
  "yapıyor": 988, 
  "koalisyon": 989, 
  "planlıyor": 990, 
  "hızlı": 991, 
  "kaçak": 992, 
  "sürecini": 993, 
  "bizim": 994, 
  "Maliye": 995, 
  "si": 996, 
  "Ratko": 997, 
  "insanların": 998, 
  "demokrasi": 999, 
  "günlerde": 1000, 
  "dini": 1001, 
  "ısrar": 1002, 
  "üyeliğine": 1003, 
  "madalya": 1004, 
  "Büyükelçisi": 1005, 
  "artan": 1006, 
  "söyleyerek": 1007, 
  "yakında": 1008, 
  "onu": 1009, 
  "Gotovina": 1010, 
  "söylüyorlar": 1011, 
  "dava": 1012, 
  "kaldı": 1013, 
  "kültürel": 1014, 
  "Yeni": 1015, 
  "İngiliz": 1016, 
  "Macaristan": 1017, 
  "yapmak": 1018, 
  "teşkil": 1019, 
  "projenin": 1020, 
  "gazetecilere": 1021, 
  "tarım": 1022, 
  "toplantı": 1023, 
  "isteyen": 1024, 
  "görüşme": 1025, 
  "yanlısı": 1026, 
  "yapacak": 1027, 
  "Libya": 1028, 
  "görüşmede": 1029, 
  "dokuz": 1030, 
  "tepki": 1031, 
  "solda": 1032, 
  "partinin": 1033, 
  "ine": 1034, 
  "hukuk": 1035, 
  "verdiler": 1036, 
  "yürürlüğe": 1037, 
  "Demokratik": 1038, 
  "yaptıkları": 1039, 
  "göz": 1040, 
  "protesto": 1041, 
  "sorunlar": 1042, 
  "olasılıkla": 1043, 
  "planı": 1044, 
  "bazıları": 1045, 
  "Olimpiyat": 1046, 
  "vadeli": 1047, 
  "partiler": 1048, 
  "uyardı": 1049, 
  "Solana": 1050, 
  "verme": 1051, 
  "bekliyor": 1052, 
  "New": 1053, 
  "Vojislav": 1054, 
  "İran": 1055, 
  "üzerinden": 1056, 
  "müzakereleri": 1057, 
  "hattı": 1058, 
  "Mesiç": 1059, 
  "aylık": 1060, 
  "faaliyet": 1061, 
  "gaz": 1062, 
  "liderliğindeki": 1063, 
  "alınan": 1064, 
  "Ashdown": 1065, 
  "toplantıda": 1066, 
  "işbirliğinin": 1067, 
  "onayladı": 1068, 
  "planlanan": 1069, 
  "silah": 1070, 
  "gösterdi": 1071, 
  "beklenen": 1072, 
  "rapor": 1073, 
  "arası": 1074, 
  "1992": 1075, 
  "katılan": 1076, 
  "ü": 1077, 
  "İnsan": 1078, 
  "silahlı": 1079, 
  "at@@": 1080, 
  "orta": 1081, 
  "lara": 1082, 
  "konuda": 1083, 
  "takım": 1084, 
  "Cinciç": 1085, 
  "anlaşmayı": 1086, 
  "uyuşturucu": 1087, 
  "yerli": 1088, 
  "açıldı": 1089, 
  "sonucunda": 1090, 
  "lerinden": 1091, 
  "sert": 1092, 
  "stratejik": 1093, 
  "etkili": 1094, 
  "bildirildi": 1095, 
  "doğalgaz": 1096, 
  "altın": 1097, 
  "mı": 1098, 
  "analistler": 1099, 
  "elçisi": 1100, 
  "yürütülen": 1101, 
  "olduklarını": 1102, 
  "ihtiyaç": 1103, 
  "kurulması": 1104, 
  "komşu": 1105, 
  "Film": 1106, 
  "Kültür": 1107, 
  "mahkemesi": 1108, 
  "tarihli": 1109, 
  "başbakan": 1110, 
  "acil": 1111, 
  "edeceğini": 1112, 
  "Slobodan": 1113, 
  "Ceza": 1114, 
  "Devlet": 1115, 
  "Hollanda": 1116, 
  "Srebrenica": 1117, 
  "asker": 1118, 
  "İsrail": 1119, 
  "çaba": 1120, 
  "tarihleri": 1121, 
  "araştırma": 1122, 
  "sonuçlar": 1123, 
  "2000": 1124, 
  "Roman": 1125, 
  "kararını": 1126, 
  "davet": 1127, 
  "bakanları": 1128, 
  "çerçevesinde": 1129, 
  "düşünüyor": 1130, 
  "özelleştirme": 1131, 
  "görüşmeler": 1132, 
  "sonucu": 1133, 
  "geçici": 1134, 
  "katkıda": 1135, 
  "Fransız": 1136, 
  "gelecekte": 1137, 
  "ayın": 1138, 
  "uygulanması": 1139, 
  "olmakla": 1140, 
  "somut": 1141, 
  "ına": 1142, 
  "taşıyor": 1143, 
  "tahmin": 1144, 
  "gelir": 1145, 
  "polisi": 1146, 
  "alındı": 1147, 
  "seçimlerin": 1148, 
  "Sosyalist": 1149, 
  "programı": 1150, 
  "yerini": 1151, 
  "kendisine": 1152, 
  "lık": 1153, 
  "larına": 1154, 
  "İlk": 1155, 
  "yapmaya": 1156, 
  "iade": 1157, 
  "haberlerinde": 1158, 
  "ayrı": 1159, 
  "çevre": 1160, 
  "önüne": 1161, 
  "devletin": 1162, 
  "SAA": 1163, 
  "partisinin": 1164, 
  "grubu": 1165, 
  "Ordusu": 1166, 
  "övgüde": 1167, 
  "hayata": 1168, 
  "Arşiv": 1169, 
  "açıkça": 1170, 
  "STK": 1171, 
  "oviç": 1172, 
  "yolu": 1173, 
  "lardan": 1174, 
  "veriyor": 1175, 
  "lerle": 1176, 
  "çocuk": 1177, 
  "güç": 1178, 
  "alınması": 1179, 
  "tedbirler": 1180, 
  "işsizlik": 1181, 
  "teklif": 1182, 
  "gözden": 1183, 
  "hakkı": 1184, 
  "şirketin": 1185, 
  "gerçekten": 1186, 
  "Derneği": 1187, 
  "larından": 1188, 
  "raporunda": 1189, 
  "karşılıklı": 1190, 
  "Kesimi": 1191, 
  "sık": 1192, 
  "yönetimi": 1193, 
  "başkanlık": 1194, 
  "nitelendirdi": 1195, 
  "larla": 1196, 
  "kurulan": 1197, 
  "görüşmelerde": 1198, 
  "tarihte": 1199, 
  "rekabet": 1200, 
  "gücü": 1201, 
  "oluşturuyor": 1202, 
  "durumun": 1203, 
  "Müdürü": 1204, 
  "hapis": 1205, 
  "diplomasi": 1206, 
  "inden": 1207, 
  "verecek": 1208, 
  "Grubu": 1209, 
  "kaydedilen": 1210, 
  "Ticaret": 1211, 
  "diplomatik": 1212, 
  "dek": 1213, 
  "oranda": 1214, 
  "örgüt": 1215, 
  "alanda": 1216, 
  "saygı": 1217, 
  "yanıt": 1218, 
  "kilit": 1219, 
  "yaz": 1220, 
  "General": 1221, 
  "yani": 1222, 
  "yayınladığı": 1223, 
  "alması": 1224, 
  "finans": 1225, 
  "Olli": 1226, 
  "vermek": 1227, 
  "35": 1228, 
  "olmasını": 1229, 
  "müzakerelerinin": 1230, 
  "kesinlikle": 1231, 
  "Meclis": 1232, 
  "seçimlerde": 1233, 
  "reformu": 1234, 
  "seyahat": 1235, 
  "reformların": 1236, 
  "Dodik": 1237, 
  "iktidardaki": 1238, 
  "konuşmasında": 1239, 
  "gizli": 1240, 
  "300": 1241, 
  "ağır": 1242, 
  "lerden": 1243, 
  "uygulamaya": 1244, 
  "yılındaki": 1245, 
  "insanlar": 1246, 
  "siyaset": 1247, 
  "Luka": 1248, 
  "Ekonomi": 1249, 
  "olmadan": 1250, 
  "görülen": 1251, 
  "bağımsızlığını": 1252, 
  "ihtiyacı": 1253, 
  "komutanı": 1254, 
  "kenti": 1255, 
  "değişiklik": 1256, 
  "larda": 1257, 
  "ortalama": 1258, 
  "Dayton": 1259, 
  "yönde": 1260, 
  "İtalyan": 1261, 
  "olanak": 1262, 
  "uygulama": 1263, 
  "yıldan": 1264, 
  "geleneksel": 1265, 
  "Podgorica": 1266, 
  "York": 1267, 
  "sürecinde": 1268, 
  "altyapı": 1269, 
  "Zagrep": 1270, 
  "olacaktır": 1271, 
  "nüfus": 1272, 
  "70": 1273, 
  "Papandreu": 1274, 
  "istifa": 1275, 
  "banka": 1276, 
  "ından": 1277, 
  "di": 1278, 
  "edilmiş": 1279, 
  "Annan": 1280, 
  "Seydiu": 1281, 
  "verilecek": 1282, 
  "göreve": 1283, 
  "geleceği": 1284, 
  "belirtiyor": 1285, 
  "sağ": 1286, 
  "müzakereler": 1287, 
  "temsilcileri": 1288, 
  "Radovan": 1289, 
  "adımlar": 1290, 
  "inanıyor": 1291, 
  "olay": 1292, 
  "etkinlik": 1293, 
  "endişe": 1294, 
  "kurma": 1295, 
  "Banja": 1296, 
  "eyaletin": 1297, 
  "Arnavutlar": 1298, 
  "başlattı": 1299, 
  "ziyarette": 1300, 
  "imzalanan": 1301, 
  "oluyor": 1302, 
  "ziyareti": 1303, 
  "İslam": 1304, 
  "Genişlemeden": 1305, 
  "dolar": 1306, 
  "makamları": 1307, 
  "belirten": 1308, 
  "söyleyen": 1309, 
  "yasanın": 1310, 
  "diyalog": 1311, 
  "olacağı": 1312, 
  "hatta": 1313, 
  "belirtildi": 1314, 
  "reformlar": 1315, 
  "sözleri": 1316, 
  "Scheffer": 1317, 
  "başkanlığını": 1318, 
  "Eski": 1319, 
  "içindeki": 1320, 
  "reddetti": 1321, 
  "me": 1322, 
  "S@@": 1323, 
  "Hoop": 1324, 
  "Federasyonu": 1325, 
  "temsilcisi": 1326, 
  "sisteminin": 1327, 
  "kolay": 1328, 
  "imzaladı": 1329, 
  "Ortodoks": 1330, 
  "çabalarını": 1331, 
  "onları": 1332, 
  "birisi": 1333, 
  "idari": 1334, 
  "lerde": 1335, 
  "haberlerde": 1336, 
  "sektörü": 1337, 
  "imzaladılar": 1338, 
  "toplumsal": 1339, 
  "zamandır": 1340, 
  "İspanya": 1341, 
  "basında": 1342, 
  "uyarınca": 1343, 
  "Boşnak": 1344, 
  "Tomislav": 1345, 
  "Amerikan": 1346, 
  "adalet": 1347, 
  "Merkez": 1348, 
  "inşaat": 1349, 
  "istedi": 1350, 
  "edilecek": 1351, 
  "çalışmaları": 1352, 
  "suçla": 1353, 
  "görevdeki": 1354, 
  "kapsamlı": 1355, 
  "tanınmış": 1356, 
  "ni": 1357, 
  "kazanan": 1358, 
  "biraz": 1359, 
  "tur": 1360, 
  "hayatını": 1361, 
  "sayesinde": 1362, 
  "kampanya": 1363, 
  "sorunun": 1364, 
  "lı": 1365, 
  "durumunda": 1366, 
  "örneğin": 1367, 
  "hitaben": 1368, 
  "çabaları": 1369, 
  "ilişkilerin": 1370, 
  "vatandaşların": 1371, 
  "futbol": 1372, 
  "ç@@": 1373, 
  "kurumları": 1374, 
  "binden": 1375, 
  "analist": 1376, 
  "dışı": 1377, 
  "partilerin": 1378, 
  "Abdullah": 1379, 
  "etmeyi": 1380, 
  "saat": 1381, 
  "Moskova": 1382, 
  "oldukları": 1383, 
  "sürecine": 1384, 
  "yapma": 1385, 
  "ilgi": 1386, 
  "şart": 1387, 
  "yıllarda": 1388, 
  "Birliğe": 1389, 
  "aldığını": 1390, 
  "terk": 1391, 
  "maya": 1392, 
  "haberlere": 1393, 
  "istediğini": 1394, 
  "partileri": 1395, 
  "Dragan": 1396, 
  "borç": 1397, 
  "s": 1398, 
  "milletvekilleri": 1399, 
  "belgede": 1400, 
  "kararın": 1401, 
  "Suriye": 1402, 
  "Komitesi": 1403, 
  "getirmek": 1404, 
  "dolarlık": 1405, 
  "Çin": 1406, 
  "kısmı": 1407, 
  "milliyetçi": 1408, 
  "Afganistan": 1409, 
  "müzakerelerini": 1410, 
  "örgütü": 1411, 
  "başlayan": 1412, 
  "bölgesinde": 1413, 
  "Ali": 1414, 
  "imzalandı": 1415, 
  "taraflı": 1416, 
  "getiren": 1417, 
  "gazeteci": 1418, 
  "biçimde": 1419, 
  "leriyle": 1420, 
  "değişiklikler": 1421, 
  "sağda": 1422, 
  "sürecin": 1423, 
  "mücadelede": 1424, 
  "almaya": 1425, 
  "öngörülüyor": 1426, 
  "televizyon": 1427, 
  "mahkemenin": 1428, 
  "80": 1429, 
  "yapacağı": 1430, 
  "mahkemesiyle": 1431, 
  "yıllardır": 1432, 
  "ihlal": 1433, 
  "geldiler": 1434, 
  "Nikoliç": 1435, 
  "sağlama": 1436, 
  "vardı": 1437, 
  "bunları": 1438, 
  "İgor": 1439, 
  "ıyla": 1440, 
  "eşit": 1441, 
  "bildiride": 1442, 
  "bölgesi": 1443, 
  "Fatmir": 1444, 
  "belirtiliyor": 1445, 
  "K@@": 1446, 
  "gitti": 1447, 
  "geldiğini": 1448, 
  "katılmak": 1449, 
  "adil": 1450, 
  "projesi": 1451, 
  "erkek": 1452, 
  "Adriyatik": 1453, 
  "VOA": 1454, 
  "herkes": 1455, 
  "sayısının": 1456, 
  "kalkınma": 1457, 
  "gerçekleşecek": 1458, 
  "Kuzey": 1459, 
  "yıla": 1460, 
  "etki": 1461, 
  "bize": 1462, 
  "görüşmek": 1463, 
  "ödül": 1464, 
  "içişleri": 1465, 
  "k@@": 1466, 
  "sundu": 1467, 
  "biz": 1468, 
  "Zrvenkovski": 1469, 
  "hukukun": 1470, 
  "iyle": 1471, 
  "Hakları": 1472, 
  "toplantısı": 1473, 
  "in@@": 1474, 
  "sergi": 1475, 
  "krizin": 1476, 
  "verdiğini": 1477, 
  "üyelerinin": 1478, 
  "Vladimir": 1479, 
  "bildirdi": 1480, 
  "kamuoyu": 1481, 
  "yanında": 1482, 
  "görüyor": 1483, 
  "ma": 1484, 
  "heyeti": 1485, 
  "grubun": 1486, 
  "röportajda": 1487, 
  "çoğunluğu": 1488, 
  "görünüyor": 1489, 
  "şeyi": 1490, 
  "hedefi": 1491, 
  "gazetesinin": 1492, 
  "uzak": 1493, 
  "girişim": 1494, 
  "puan": 1495, 
  "Çek": 1496, 
  "ülkelerine": 1497, 
  "verilmesi": 1498, 
  "ülkelere": 1499, 
  "aile": 1500, 
  "üretim": 1501, 
  "komünist": 1502, 
  "uygulanan": 1503, 
  "kalma": 1504, 
  "nüfusun": 1505, 
  "amacı": 1506, 
  "Örgütü": 1507, 
  "başa": 1508, 
  "tarih": 1509, 
  "şartları": 1510, 
  "mesine": 1511, 
  "kararlı": 1512, 
  "dayalı": 1513, 
  "unun": 1514, 
  "150": 1515, 
  "Meclisi": 1516, 
  "kal@@": 1517, 
  "onlara": 1518, 
  "durumdaki": 1519, 
  "olursa": 1520, 
  "sonu": 1521, 
  "Sali": 1522, 
  "ifadesi": 1523, 
  "Viyana": 1524, 
  "kişilerin": 1525, 
  "kurtarma": 1526, 
  "Bir": 1527, 
  "birçok": 1528, 
  "zamanı": 1529, 
  "an@@": 1530, 
  "getiriyor": 1531, 
  "gazetesine": 1532, 
  "Ohri": 1533, 
  "Karamanlis": 1534, 
  "bununla": 1535, 
  "olasılığı": 1536, 
  "yazar": 1537, 
  "toprak": 1538, 
  "ünlü": 1539, 
  "2012": 1540, 
  "uyarıda": 1541, 
  "1991": 1542, 
  "Goran": 1543, 
  "ederken": 1544, 
  "sonuçları": 1545, 
  "karmaşık": 1546, 
  "açıklama": 1547, 
  "güvenli": 1548, 
  "emin": 1549, 
  "bölünmüş": 1550, 
  "mak": 1551, 
  "Vuk": 1552, 
  "Jeremiç": 1553, 
  "Mitrovica": 1554, 
  "istikrarı": 1555, 
  "90": 1556, 
  "larında": 1557, 
  "ında": 1558, 
  "haberine": 1559, 
  "süredir": 1560, 
  "etmekle": 1561, 
  "önceden": 1562, 
  "Temsilci": 1563, 
  "yakınlarındaki": 1564, 
  "Haşim": 1565, 
  "düşünüyorum": 1566, 
  "görevden": 1567, 
  "takımı": 1568, 
  "başlayacak": 1569, 
  "inde": 1570, 
  "düzeyde": 1571, 
  "RL": 1572, 
  "memnun": 1573, 
  "RFE": 1574, 
  "Enerji": 1575, 
  "pazar": 1576, 
  "bloğun": 1577, 
  "öğretim": 1578, 
  "se": 1579, 
  "Polonya": 1580, 
  "duyduğu": 1581, 
  "ikna": 1582, 
  "400": 1583, 
  "firması": 1584, 
  "geçerli": 1585, 
  "yayın": 1586, 
  "SFOR": 1587, 
  "Barroso": 1588, 
  "olsun": 1589, 
  "belge": 1590, 
  "adına": 1591, 
  "Savaş": 1592, 
  "yönetmen": 1593, 
  "derecede": 1594, 
  "politikası": 1595, 
  "sürece": 1596, 
  "uzman": 1597, 
  "bakanlık": 1598, 
  "dünyası": 1599, 
  "mesi": 1600, 
  "gerekse": 1601, 
  "ar@@": 1602, 
  "lük": 1603, 
  "deniz": 1604, 
  "1998": 1605, 
  "verici": 1606, 
  "görüş": 1607, 
  "süreç": 1608, 
  "döneminde": 1609, 
  "altını": 1610, 
  "itibaren": 1611, 
  "kaçakçılığı": 1612, 
  "yap@@": 1613, 
  "Kupası": 1614, 
  "meye": 1615, 
  "toplu": 1616, 
  "yapmayı": 1617, 
  "kurumsal": 1618, 
  "seçimlerinde": 1619, 
  "çoğunluk": 1620, 
  "Moldova": 1621, 
  "elinde": 1622, 
  "onların": 1623, 
  "vermeye": 1624, 
  "zorlu": 1625, 
  "yaygın": 1626, 
  "askıya": 1627, 
  "mayı": 1628, 
  "değer": 1629, 
  "şehir": 1630, 
  "görüşündeler": 1631, 
  "bildiriliyor": 1632, 
  "Demokrasi": 1633, 
  "FT": 1634, 
  "konuyla": 1635, 
  "güvenliği": 1636, 
  "altındaki": 1637, 
  "sigara": 1638, 
  "Milorad": 1639, 
  "hayal": 1640, 
  "sürecek": 1641, 
  "yoğun": 1642, 
  "Bakanlar": 1643, 
  "öğrenci": 1644, 
  "aş@@": 1645, 
  "masına": 1646, 
  "çekti": 1647, 
  "hükümete": 1648, 
  "Halk": 1649, 
  "km": 1650, 
  "4@@": 1651, 
  "girişimi": 1652, 
  "Telekom": 1653, 
  "başlaması": 1654, 
  "görevli": 1655, 
  "korunması": 1656, 
  "artırmak": 1657, 
  "asla": 1658, 
  "mesini": 1659, 
  "terörle": 1660, 
  "sağlayan": 1661, 
  "tedbirleri": 1662, 
  "hazırlanan": 1663, 
  "taşıyan": 1664, 
  "Özel": 1665, 
  "Traian": 1666, 
  "program": 1667, 
  "Bakan": 1668, 
  "dolu": 1669, 
  "Noel": 1670, 
  "İttifak": 1671, 
  "hak": 1672, 
  "resmen": 1673, 
  "sonlarında": 1674, 
  "Yorgo": 1675, 
  "bilgisayar": 1676, 
  "telefon": 1677, 
  "lerinde": 1678, 
  "muhalefetteki": 1679, 
  "birlik": 1680, 
  "ülkelerde": 1681, 
  "teknoloji": 1682, 
  "temsilciler": 1683, 
  "yüzlerce": 1684, 
  "yetkililerle": 1685, 
  "filmi": 1686, 
  "sorumlusu": 1687, 
  "istikrarlı": 1688, 
  "zaten": 1689, 
  "açılan": 1690, 
  "düzenlendi": 1691, 
  "larıyla": 1692, 
  "mek": 1693, 
  "tehlikeye": 1694, 
  "noktası": 1695, 
  "ceza": 1696, 
  "önlemek": 1697, 
  "George": 1698, 
  "Paul": 1699, 
  "tartışma": 1700, 
  "ikisi": 1701, 
  "manın": 1702, 
  "Birliğin": 1703, 
  "ulaştı": 1704, 
  "görmek": 1705, 
  "Belediye": 1706, 
  "aldılar": 1707, 
  "var@@": 1708, 
  "mahkemeye": 1709, 
  "başarı": 1710, 
  "vermesi": 1711, 
  "düzenledi": 1712, 
  "miş": 1713, 
  "sorunların": 1714, 
  "gerçekleştirilen": 1715, 
  "turist": 1716, 
  "birinin": 1717, 
  "tespit": 1718, 
  "gelecekteki": 1719, 
  "Ahmet": 1720, 
  "cep": 1721, 
  "artırma": 1722, 
  "sonrası": 1723, 
  "derhal": 1724, 
  "şunları": 1725, 
  "yetkilisi": 1726, 
  "seviyede": 1727, 
  "harekete": 1728, 
  "Başkan": 1729, 
  "Georgi": 1730, 
  "nı": 1731, 
  "şimdiye": 1732, 
  "referandum": 1733, 
  "A@@": 1734, 
  "kimse": 1735, 
  "siyasiler": 1736, 
  "güven": 1737, 
  "işbirliğine": 1738, 
  "özgürlüğü": 1739, 
  "sa": 1740, 
  "yapması": 1741, 
  "Bush": 1742, 
  "gıda": 1743, 
  "açtığı": 1744, 
  "Branko": 1745, 
  "yavaş": 1746, 
  "seçimlere": 1747, 
  "gazetesi": 1748, 
  "raporu": 1749, 
  "Tariceanu": 1750, 
  "Geçen": 1751, 
  "düşüş": 1752, 
  "sağlanması": 1753, 
  "ülkelerden": 1754, 
  "bulundular": 1755, 
  "masını": 1756, 
  "Lajcak": 1757, 
  "anlaşmasının": 1758, 
  "Parvanov": 1759, 
  "kişisel": 1760, 
  "HDZ": 1761, 
  "doğruladı": 1762, 
  "rakam": 1763, 
  "ıyor": 1764, 
  "çalışmaya": 1765, 
  "Antonio": 1766, 
  "yanlış": 1767, 
  "polisin": 1768, 
  "istiyoruz": 1769, 
  "SE": 1770, 
  "3@@": 1771, 
  "Radiç": 1772, 
  "Anayasa": 1773, 
  "bekleyen": 1774, 
  "sektöründe": 1775, 
  "tercih": 1776, 
  "Bank": 1777, 
  "kendisi": 1778, 
  "yasayı": 1779, 
  "kara": 1780, 
  "fikir": 1781, 
  "kıyasla": 1782, 
  "unu": 1783, 
  "yardımı": 1784, 
  "Linda": 1785, 
  "İçin": 1786, 
  "tatil": 1787, 
  "örnek": 1788, 
  "görüşmelerin": 1789, 
  "EBRD": 1790, 
  "görevini": 1791, 
  "özgür": 1792, 
  "ihracat": 1793, 
  "rolü": 1794, 
  "müzakerelere": 1795, 
  "aç@@": 1796, 
  "kurulu": 1797, 
  "öncesi": 1798, 
  "düzenlenecek": 1799, 
  "alarak": 1800, 
  "İsviçre": 1801, 
  "kendilerini": 1802, 
  "koalisyonu": 1803, 
  "profesyonel": 1804, 
  "olanağı": 1805, 
  "açıklamasında": 1806, 
  "En": 1807, 
  "merkezinde": 1808, 
  "dikkate": 1809, 
  "kişilik": 1810, 
  "ak@@": 1811, 
  "geldiği": 1812, 
  "katılma": 1813, 
  "sıkı": 1814, 
  "Akdeniz": 1815, 
  "Karadağlı": 1816, 
  "tasarruf": 1817, 
  "müzakerelerine": 1818, 
  "alanlarda": 1819, 
  "süresi": 1820, 
  "sağlam": 1821, 
  "Karadaku": 1822, 
  "genişleme": 1823, 
  "getirilmesi": 1824, 
  "krizi": 1825, 
  "B@@": 1826, 
  "tartışmalı": 1827, 
  "müzik": 1828, 
  "Hafta": 1829, 
  "ması": 1830, 
  "İvo": 1831, 
  "geçti": 1832, 
  "suçlu": 1833, 
  "plan": 1834, 
  "mesele": 1835, 
  "yılının": 1836, 
  "eylem": 1837, 
  "y@@": 1838, 
  "D@@": 1839, 
  "il@@": 1840, 
  "halka": 1841, 
  "Londra": 1842, 
  "masının": 1843, 
  "sunduğu": 1844, 
  "edip": 1845, 
  "yu": 1846, 
  "Amerika": 1847, 
  "suçlanan": 1848, 
  "standartlarına": 1849, 
  "enflasyon": 1850, 
  "popüler": 1851, 
  "maaş": 1852, 
  "Beta": 1853, 
  "sağladı": 1854, 
  "Sloven": 1855, 
  "yılları": 1856, 
  "çaplı": 1857, 
  "birliği": 1858, 
  "karşıladı": 1859, 
  "katılıyor": 1860, 
  "karşıtı": 1861, 
  "Schengen": 1862, 
  "bölgeye": 1863, 
  "fırsat": 1864, 
  "Ukrayna": 1865, 
  "başkanlığı": 1866, 
  "Dünyasında": 1867, 
  "ankete": 1868, 
  "üyeliğinin": 1869, 
  "etmiş": 1870, 
  "İyi": 1871, 
  "Karadeniz": 1872, 
  "vatandaşları": 1873, 
  "kur@@": 1874, 
  "ayındaki": 1875, 
  "haberlerine": 1876, 
  "tarafı": 1877, 
  "kişiler": 1878, 
  "belirgin": 1879, 
  "luk": 1880, 
  "çıkar@@": 1881, 
  "bölümü": 1882, 
  "karşılığında": 1883, 
  "kalacak": 1884, 
  "öngören": 1885, 
  "sözde": 1886, 
  "Georgiev": 1887, 
  "sağlıyor": 1888, 
  "seçmenlerin": 1889, 
  "milli": 1890, 
  "savunuyor": 1891, 
  "Milan": 1892, 
  "Stipe": 1893, 
  "girdi": 1894, 
  "sözlerini": 1895, 
  "kaydettiği": 1896, 
  "fazlası": 1897, 
  "ekonominin": 1898, 
  "üçte": 1899, 
  "İşbirliği": 1900, 
  "başsavcısı": 1901, 
  "45": 1902, 
  "kullan@@": 1903, 
  "E@@": 1904, 
  "yapıldı": 1905, 
  "seçmen": 1906, 
  "alanlarında": 1907, 
  "meyi": 1908, 
  "Javier": 1909, 
  "olduğundan": 1910, 
  "bulmak": 1911, 
  "er@@": 1912, 
  "göster@@": 1913, 
  "ben": 1914, 
  "çözüme": 1915, 
  "şeklindeki": 1916, 
  "kurumlarının": 1917, 
  "eğlence": 1918, 
  "şartlar": 1919, 
  "mesaj": 1920, 
  "yasaları": 1921, 
  "tarihinde": 1922, 
  "nedeni": 1923, 
  "kaynağı": 1924, 
  "toplumu": 1925, 
  "bazda": 1926, 
  "sorumluluk": 1927, 
  "festival": 1928, 
  "korumak": 1929, 
  "Ban": 1930, 
  "kentin": 1931, 
  "Buckovski": 1932, 
  "nün": 1933, 
  "beklediğini": 1934, 
  "çık@@": 1935, 
  "çabalarına": 1936, 
  "insanları": 1937, 
  "tarafın": 1938, 
  "entegrasyon": 1939, 
  "etmesini": 1940, 
  "etkinlikte": 1941, 
  "ödülü": 1942, 
  "maları": 1943, 
  "önerilen": 1944, 
  "mesinin": 1945, 
  "misyonu": 1946, 
  "kurumlar": 1947, 
  "malı": 1948, 
  "temaslarda": 1949, 
  "Nehri": 1950, 
  "madan": 1951, 
  "una": 1952, 
  "önünü": 1953, 
  "sırasıyla": 1954, 
  "lardaki": 1955, 
  "içeren": 1956, 
  "Talat": 1957, 
  "G@@": 1958, 
  "Novi": 1959, 
  "diplomat": 1960, 
  "Martti": 1961, 
  "kilometre": 1962, 
  "Macar": 1963, 
  "artırılması": 1964, 
  "yeşil": 1965, 
  "görüşmesi": 1966, 
  "idare": 1967, 
  "dördüncü": 1968, 
  "geç@@": 1969, 
  "programına": 1970, 
  "başbakanı": 1971, 
  "nüfusunun": 1972, 
  "zafer": 1973, 
  "katkı": 1974, 
  "kullanılacak": 1975, 
  "m@@": 1976, 
  "bizi": 1977, 
  "makla": 1978, 
  "ortasında": 1979, 
  "dönemi": 1980, 
  "ortaklık": 1981, 
  "duyulan": 1982, 
  "atılmış": 1983, 
  "tamamlanması": 1984, 
  "l@@": 1985, 
  "açan": 1986, 
  "mülteci": 1987, 
  "geç": 1988, 
  "örgütün": 1989, 
  "sandalye": 1990, 
  "Ivo": 1991, 
  "Afrika": 1992, 
  "T@@": 1993, 
  "rapora": 1994, 
  "Liberal": 1995, 
  "acak": 1996, 
  "mekle": 1997, 
  "ortada": 1998, 
  "müdahale": 1999, 
  "olabileceğini": 2000, 
  "Selanik": 2001, 
  "almayı": 2002, 
  "çapında": 2003, 
  "genelinde": 2004, 
  "ona": 2005, 
  "suçladı": 2006, 
  "zayıf": 2007, 
  "yaşadığı": 2008, 
  "getirme": 2009, 
  "kurmak": 2010, 
  "heyet": 2011, 
  "okul": 2012, 
  "bulunduğunu": 2013, 
  "işe": 2014, 
  "açılış": 2015, 
  "yetkililere": 2016, 
  "Radyosu": 2017, 
  "operasyon": 2018, 
  "etmesine": 2019, 
  "çalışması": 2020, 
  "meleri": 2021, 
  "yaşıyor": 2022, 
  "ekonomisi": 2023, 
  "önündeki": 2024, 
  "Petersen": 2025, 
  "Sanat": 2026, 
  "Kostas": 2027, 
  "mensuplarına": 2028, 
  "ayrıntılı": 2029, 
  "devleti": 2030, 
  "kritik": 2031, 
  "bilinen": 2032, 
  "verilere": 2033, 
  "ndeki": 2034, 
  "şansı": 2035, 
  "dı": 2036, 
  "alındığında": 2037, 
  "radikal": 2038, 
  "BHF": 2039, 
  "arak": 2040, 
  "d@@": 2041, 
  "Paris": 2042, 
  "katıldığı": 2043, 
  "antik": 2044, 
  "iptal": 2045, 
  "telefonu": 2046, 
  "etkin": 2047, 
  "normal": 2048, 
  "anayasal": 2049, 
  "düzenli": 2050, 
  "haklarını": 2051, 
  "birini": 2052, 
  "güçleri": 2053, 
  "aylarda": 2054, 
  "toplantıya": 2055, 
  "Jessen": 2056, 
  "diği": 2057, 
  "yolundaki": 2058, 
  "vatandaşlar": 2059, 
  "makamlarının": 2060, 
  "etmişti": 2061, 
  "dev": 2062, 
  "duyuruda": 2063, 
  "bulun@@": 2064, 
  "değildir": 2065, 
  "International": 2066, 
  "süreyle": 2067, 
  "şüpheli": 2068, 
  "ekliyor": 2069, 
  "Hasani": 2070, 
  "Rugova": 2071, 
  "tiyatro": 2072, 
  "kısmını": 2073, 
  "zengin": 2074, 
  "edilemez": 2075, 
  "O@@": 2076, 
  "ulaş@@": 2077, 
  "et@@": 2078, 
  "katı": 2079, 
  "İsveç": 2080, 
  "soykırım": 2081, 
  "inanıyorum": 2082, 
  "metre": 2083, 
  "bil@@": 2084, 
  "araç": 2085, 
  "dolayısıyla": 2086, 
  "gösterdiği": 2087, 
  "olur": 2088, 
  "şirketler": 2089, 
  "kabine": 2090, 
  "edilmesini": 2091, 
  "Davutoğlu": 2092, 
  "istihdam": 2093, 
  "erdi": 2094, 
  "planını": 2095, 
  "5@@": 2096, 
  "ülkelerinde": 2097, 
  "maruz": 2098, 
  "anlaşmasını": 2099, 
  "sayısını": 2100, 
  "olmayı": 2101, 
  "Hükümet": 2102, 
  "kent": 2103, 
  "etkisi": 2104, 
  "çağrısı": 2105, 
  "kaydedildi": 2106, 
  "Merkel": 2107, 
  "120": 2108, 
  "mahkemesinin": 2109, 
  "çağdaş": 2110, 
  "ışık": 2111, 
  "davanın": 2112, 
  "Belçika": 2113, 
  "Cukanoviç": 2114, 
  "cezası": 2115, 
  "Asya": 2116, 
  "düzenleme": 2117, 
  "Müzesi": 2118, 
  "Seçim": 2119, 
  "çıkıyor": 2120, 
  "seçildi": 2121, 
  "hukuki": 2122, 
  "Osmanlı": 2123, 
  "i@@": 2124, 
  "55": 2125, 
  "alınacak": 2126, 
  "işleri": 2127, 
  "Mücadele": 2128, 
  "yineledi": 2129, 
  "dairesi": 2130, 
  "M@@": 2131, 
  "bulunarak": 2132, 
  "kuruluş": 2133, 
  "Polis": 2134, 
  "parlamentonun": 2135, 
  "Tuna": 2136, 
  "ım": 2137, 
  "de@@": 2138, 
  "faaliyetleri": 2139, 
  "edildiği": 2140, 
  "doğrultusunda": 2141, 
  "iletişim": 2142, 
  "işlenen": 2143, 
  "ası": 2144, 
  "VMRO": 2145, 
  "YTD": 2146, 
  "makta": 2147, 
  "İkinci": 2148, 
  "ziyaretinde": 2149, 
  "inşası": 2150, 
  "konuşma": 2151, 
  "PSD": 2152, 
  "tanık": 2153, 
  "katılması": 2154, 
  "aktarılan": 2155, 
  "liderlerinin": 2156, 
  "Avusturyalı": 2157, 
  "gösterdiğini": 2158, 
  "planlarını": 2159, 
  "hedefine": 2160, 
  "aktif": 2161, 
  "liderlerin": 2162, 
  "bulunması": 2163, 
  "aya": 2164, 
  "üyeliğini": 2165, 
  "sağlamaya": 2166, 
  "sermaye": 2167, 
  "Blic": 2168, 
  "öncelik": 2169, 
  "ediyoruz": 2170, 
  "P@@": 2171, 
  "sahne": 2172, 
  "benim": 2173, 
  "genelde": 2174, 
  "aslında": 2175, 
  "Borisov": 2176, 
  "firma": 2177, 
  "diğini": 2178, 
  "Josipoviç": 2179, 
  "etkinliğe": 2180, 
  "Teknoloji": 2181, 
  "boykot": 2182, 
  "çocuklar": 2183, 
  "kalıyor": 2184, 
  "adanın": 2185, 
  "elçi": 2186, 
  "kurulacak": 2187, 
  "fırsatı": 2188, 
  "istihbarat": 2189, 
  "zam": 2190, 
  "adını": 2191, 
  "dünyada": 2192, 
  "gruplar": 2193, 
  "GDA": 2194, 
  "sanayi": 2195, 
  "üniversite": 2196, 
  "görüşünde": 2197, 
  "katılımı": 2198, 
  "yapıcı": 2199, 
  "Spor": 2200, 
  "katılacak": 2201, 
  "Batılı": 2202, 
  "bulma": 2203, 
  "kullanma": 2204, 
  "bankacılık": 2205, 
  "250": 2206, 
  "Miroslav": 2207, 
  "Sofia": 2208, 
  "göç": 2209, 
  "kentindeki": 2210, 
  "ihraç": 2211, 
  "yetki": 2212, 
  "komisyon": 2213, 
  "hizmetleri": 2214, 
  "sistem": 2215, 
  "onlar": 2216, 
  "çıkardı": 2217, 
  "Berlin": 2218, 
  "gördüğü": 2219, 
  "hazırladığı": 2220, 
  "başlatma": 2221, 
  "sorununun": 2222, 
  "imza": 2223, 
  "ver@@": 2224, 
  "derin": 2225, 
  "bakanlığının": 2226, 
  "ötesi": 2227, 
  "olmaları": 2228, 
  "verimli": 2229, 
  "meden": 2230, 
  "konular": 2231, 
  "kaybetti": 2232, 
  "mesinden": 2233, 
  "c@@": 2234, 
  "çalışmalarını": 2235, 
  "dışındaki": 2236, 
  "din": 2237, 
  "Büyük": 2238, 
  "Dimitris": 2239, 
  "euroluk": 2240, 
  "yurtdışında": 2241, 
  "z@@": 2242, 
  "kuzeydeki": 2243, 
  "t@@": 2244, 
  "uyumlu": 2245, 
  "SDP": 2246, 
  "Savaşı": 2247, 
  "açıklamaya": 2248, 
  "şeyin": 2249, 
  "sorununa": 2250, 
  "kaldırılması": 2251, 
  "meli": 2252, 
  "alternatif": 2253, 
  "kurumların": 2254, 
  "finanse": 2255, 
  "işi": 2256, 
  "600": 2257, 
  "tedbir": 2258, 
  "gelişme": 2259, 
  "kararının": 2260, 
  "uzmanları": 2261, 
  "vatandaşlarının": 2262, 
  "saldırı": 2263, 
  "güney": 2264, 
  "kat": 2265, 
  "başlangıçta": 2266, 
  "C@@": 2267, 
  "Dinkiç": 2268, 
  "açığı": 2269, 
  "siz": 2270, 
  "eleştirdi": 2271, 
  "çekiyor": 2272, 
  "cumhurbaşkanının": 2273, 
  "6@@": 2274, 
  "eşi": 2275, 
  "belirli": 2276, 
  "öğrenciler": 2277, 
  "gören": 2278, 
  "çoğunlukla": 2279, 
  "kendilerine": 2280, 
  "Stefan": 2281, 
  "mekte": 2282, 
  "yaparak": 2283, 
  "kullanılan": 2284, 
  "ekonomisinin": 2285, 
  "alanındaki": 2286, 
  "kısmen": 2287, 
  "DPMNE": 2288, 
  "7@@": 2289, 
  "festivali": 2290, 
  "er": 2291, 
  "Yatırım": 2292, 
  "as@@": 2293, 
  "katılmaya": 2294, 
  "darbe": 2295, 
  "yle": 2296, 
  "ayda": 2297, 
  "Y@@": 2298, 
  "standartları": 2299, 
  "olayları": 2300, 
  "yükümlülüklerini": 2301, 
  "Finlandiya": 2302, 
  "dir": 2303, 
  "kurum": 2304, 
  "olduğunda": 2305, 
  "sayısında": 2306, 
  "Ekonomik": 2307, 
  "üreticisi": 2308, 
  "izni": 2309, 
  "şirketleri": 2310, 
  "aları": 2311, 
  "üçlü": 2312, 
  "tavsiye": 2313, 
  "Laura": 2314, 
  "savcılar": 2315, 
  "Kosor": 2316, 
  "CNN": 2317, 
  "ulaştırma": 2318, 
  "EUFOR": 2319, 
  "duruma": 2320, 
  "of": 2321, 
  "gözaltına": 2322, 
  "Temsilciler": 2323, 
  "kala": 2324, 
  "değişiklikleri": 2325, 
  "yıldönümü": 2326, 
  "Şampiyonası": 2327, 
  "direktörü": 2328, 
  "mahkum": 2329, 
  "Carla": 2330, 
  "müzakerelerde": 2331, 
  "2@@": 2332, 
  "kötüye": 2333, 
  "Dış": 2334, 
  "kişiyi": 2335, 
  "kadınların": 2336, 
  "umutları": 2337, 
  "tutuklandı": 2338, 
  "Ceku": 2339, 
  "Mostar": 2340, 
  "geleceğini": 2341, 
  "gelerek": 2342, 
  "mecliste": 2343, 
  "planladığını": 2344, 
  "şartlarını": 2345, 
  "geliştirme": 2346, 
  "sandık": 2347, 
  "idi": 2348, 
  "ihtilafı": 2349, 
  "baş@@": 2350, 
  "sorunlara": 2351, 
  "izleme": 2352, 
  "abilir": 2353, 
  "sınırları": 2354, 
  "olmasının": 2355, 
  "ıp": 2356, 
  "Slovakya": 2357, 
  "şimdiden": 2358, 
  "Gürcistan": 2359, 
  "erişim": 2360, 
  "maması": 2361, 
  "halen": 2362, 
  "uzmanı": 2363, 
  "desteklemek": 2364, 
  "anlamda": 2365, 
  "hakim": 2366, 
  "tutuklama": 2367, 
  "belirttiler": 2368, 
  "Draskoviç": 2369, 
  "Markoviç": 2370, 
  "fiyat": 2371, 
  "Mehmet": 2372, 
  "ş@@": 2373, 
  "zamanlar": 2374, 
  "bütünleşme": 2375, 
  "kazan@@": 2376, 
  "sürede": 2377, 
  "başlıklı": 2378, 
  "geride": 2379, 
  "Olimpiyatları": 2380, 
  "getirmesi": 2381, 
  "yolda": 2382, 
  "İ@@": 2383, 
  "sınırlı": 2384, 
  "is@@": 2385, 
  "Gazprom": 2386, 
  "olduğunun": 2387, 
  "planlanıyor": 2388, 
  "Jose": 2389, 
  "şirketlerin": 2390, 
  "kaynakları": 2391, 
  "faiz": 2392, 
  "olağanüstü": 2393, 
  "kadınlar": 2394, 
  "indeki": 2395, 
  "Komiseri": 2396, 
  "DSS": 2397, 
  "bana": 2398, 
  "geçmişte": 2399, 
  "avronun": 2400, 
  "TV": 2401, 
  "Paddy": 2402, 
  "sunulan": 2403, 
  "görüldü": 2404, 
  "tehlikeli": 2405, 
  "herkesin": 2406, 
  "Bilim": 2407, 
  "asıl": 2408, 
  "sabit": 2409, 
  "zirvesinde": 2410, 
  "mış": 2411, 
  "işten": 2412, 
  "Stanişev": 2413, 
  "kuruldu": 2414, 
  "anın": 2415, 
  "acağını": 2416, 
  "alırken": 2417, 
  "üretimi": 2418, 
  "kon@@": 2419, 
  "olasılığını": 2420, 
  "kazandığı": 2421, 
  "İslamcı": 2422, 
  "diğerleri": 2423, 
  "başarısız": 2424, 
  "Karaciç": 2425, 
  "KDV": 2426, 
  "olmaması": 2427, 
  "H@@": 2428, 
  "News": 2429, 
  "giriş": 2430, 
  "n@@": 2431, 
  "uyum": 2432, 
  "çocukların": 2433, 
  "menin": 2434, 
  "masından": 2435, 
  "gelmesi": 2436, 
  "Dnevnik": 2437, 
  "kayıtlı": 2438, 
  "amaçlayan": 2439, 
  "mahkemesine": 2440, 
  "Temsilcisi": 2441, 
  "fark": 2442, 
  "Eğitim": 2443, 
  "oğlu": 2444, 
  "Bloomberg": 2445, 
  "ünü": 2446, 
  "davası": 2447, 
  "oranının": 2448, 
  "ton": 2449, 
  "dayanarak": 2450, 
  "tanınan": 2451, 
  "adli": 2452, 
  "satış": 2453, 
  "çalış@@": 2454, 
  "PASOK": 2455, 
  "Jaap": 2456, 
  "içine": 2457, 
  "sel": 2458, 
  "birimi": 2459, 
  "yakınlarında": 2460, 
  "aykırı": 2461, 
  "sürdürüyor": 2462, 
  "strateji": 2463, 
  "vizesiz": 2464, 
  "sanat": 2465, 
  "yapısal": 2466, 
  "şefi": 2467, 
  "düştü": 2468, 
  "bekliyoruz": 2469, 
  "oranla": 2470, 
  "Hükümeti": 2471, 
  "bağış": 2472, 
  "en@@": 2473, 
  "Milo": 2474, 
  "koydu": 2475, 
  "Kıbrıslı": 2476, 
  "1,5": 2477, 
  "konser": 2478, 
  "yasası": 2479, 
  "vatandaşı": 2480, 
  "Birlik": 2481, 
  "umuyor": 2482, 
  "gündeme": 2483, 
  "biraraya": 2484, 
  "Birleşik": 2485, 
  "fiyatları": 2486, 
  "lu": 2487, 
  "gerekçe": 2488, 
  "bulunmak": 2489, 
  "istediği": 2490, 
  "yapımı": 2491, 
  "Hareketi": 2492, 
  "onaylanması": 2493, 
  "karara": 2494, 
  "vererek": 2495, 
  "Japonya": 2496, 
  "itiraz": 2497, 
  "masıyla": 2498, 
  "parlamentosu": 2499, 
  "vereceğini": 2500, 
  "bak@@": 2501, 
  "görevine": 2502, 
  "32": 2503, 
  "yoksa": 2504, 
  "personel": 2505, 
  "meselesi": 2506, 
  "Anadolu": 2507, 
  "görüştü": 2508, 
  "yaptığını": 2509, 
  "Taçi": 2510, 
  "güzel": 2511, 
  "ay@@": 2512, 
  "kampanyası": 2513, 
  "bünyesinde": 2514, 
  "iddiaları": 2515, 
  "Turizm": 2516, 
  "seçimlerden": 2517, 
  "dayanan": 2518, 
  "sat@@": 2519, 
  "konuları": 2520, 
  "zanlısı": 2521, 
  "iç@@": 2522, 
  "önemini": 2523, 
  "ndaki": 2524, 
  "Mediapool": 2525, 
  "sınırı": 2526, 
  "neler": 2527, 
  "getirdiği": 2528, 
  "kasabasında": 2529, 
  "yaş": 2530, 
  "saatlerde": 2531, 
  "asının": 2532, 
  "madığını": 2533, 
  "bağımsızlığı": 2534, 
  "standartlarını": 2535, 
  "arama": 2536, 
  "karşılık": 2537, 
  "umduğunu": 2538, 
  "sürdürülebilir": 2539, 
  "çoğunun": 2540, 
  "değerlendirme": 2541, 
  "olaylar": 2542, 
  "artması": 2543, 
  "kimlik": 2544, 
  "katılımcılar": 2545, 
  "tamamladı": 2546, 
  "Ante": 2547, 
  "rejiminin": 2548, 
  "gücünün": 2549, 
  "Büyükelçiliği": 2550, 
  "sanatçı": 2551, 
  "ajansı": 2552, 
  "yayınladı": 2553, 
  "Nastase": 2554, 
  "umutlarını": 2555, 
  "ar": 2556, 
  "kayıt": 2557, 
  "sektörünün": 2558, 
  "sürerek": 2559, 
  "Günlüğü": 2560, 
  "aranan": 2561, 
  "e@@": 2562, 
  "Temas": 2563, 
  "800": 2564, 
  "Split": 2565, 
  "dönemine": 2566, 
  "Michael": 2567, 
  "ettikleri": 2568, 
  "me@@": 2569, 
  "maddi": 2570, 
  "konferans": 2571, 
  "daire": 2572, 
  "belki": 2573, 
  "döviz": 2574, 
  "görüşmeleri": 2575, 
  "m": 2576, 
  "madı": 2577, 
  "artıyor": 2578, 
  "konferansta": 2579, 
  "Haradinay": 2580, 
  "suçlanıyor": 2581, 
  "ilişkilerini": 2582, 
  "CHP": 2583, 
  "getirdiler": 2584, 
  "haberleşme": 2585, 
  "Ciocoiu": 2586, 
  "Nabucco": 2587, 
  "cezasına": 2588, 
  "düzeyinde": 2589, 
  "önerdi": 2590, 
  "gerektiğine": 2591, 
  "N@@": 2592, 
  "iyimser": 2593, 
  "gece": 2594, 
  "ordunun": 2595, 
  "zirvede": 2596, 
  "acağı": 2597, 
  "Kilisesi": 2598, 
  "ek@@": 2599, 
  "oylama": 2600, 
  "Koruma": 2601, 
  "demiryolu": 2602, 
  "le@@": 2603, 
  "grupları": 2604, 
  "açıklanan": 2605, 
  "ünün": 2606, 
  "erek": 2607, 
  "azından": 2608, 
  "statüsünü": 2609, 
  "yapmış": 2610, 
  "yıllar": 2611, 
  "dünyasından": 2612, 
  "çalışmalarının": 2613, 
  "mayın": 2614, 
  "yasaların": 2615, 
  "Arnavutların": 2616, 
  "alar": 2617, 
  "Demokratlar": 2618, 
  "plana": 2619, 
  "hangi": 2620, 
  "gerçekleştirdi": 2621, 
  "nedenle": 2622, 
  "65": 2623, 
  "insanın": 2624, 
  "bırak@@": 2625, 
  "ülkelerinden": 2626, 
  "ayına": 2627, 
  "Roma": 2628, 
  "planları": 2629, 
  "UNESCO": 2630, 
  "parlamentoda": 2631, 
  "terörist": 2632, 
  "yürüten": 2633, 
  "bağlantılı": 2634, 
  "üne": 2635, 
  "Marina": 2636, 
  "iyor": 2637, 
  "almış": 2638, 
  "mişti": 2639, 
  "Kaide": 2640, 
  "açıyor": 2641, 
  "ımız": 2642, 
  "süreli": 2643, 
  "iddiasıyla": 2644, 
  "olmuş": 2645, 
  "sistemini": 2646, 
  "paketi": 2647, 
  "yaşında": 2648, 
  "uy@@": 2649, 
  "veriliyor": 2650, 
  "seviyesinde": 2651, 
  "başar@@": 2652, 
  "olayı": 2653, 
  "avrodan": 2654, 
  "memuru": 2655, 
  "olmaktan": 2656, 
  "yetersiz": 2657, 
  "vatandaşlarına": 2658, 
  "Mustafa": 2659, 
  "gel@@": 2660, 
  "yerde": 2661, 
  "entegrasyonu": 2662, 
  "L@@": 2663, 
  "hizmete": 2664, 
  "konumunda": 2665, 
  "ankette": 2666, 
  "Ljajiç": 2667, 
  "gençler": 2668, 
  "yatırımcılar": 2669, 
  "75": 2670, 
  "bulunacak": 2671, 
  "oluşuyor": 2672, 
  "Sergey": 2673, 
  "oyuncu": 2674, 
  "göstererek": 2675, 
  "başlatılan": 2676, 
  "birinde": 2677, 
  "yasalar": 2678, 
  "zanlı": 2679, 
  "açılması": 2680, 
  "kapsayan": 2681, 
  "çoktan": 2682, 
  "mesiyle": 2683, 
  "desteğini": 2684, 
  "olurken": 2685, 
  "tartışmalar": 2686, 
  "memesi": 2687, 
  "yoksul": 2688, 
  "gümüş": 2689, 
  "ortamı": 2690, 
  "Komutanı": 2691, 
  "ara": 2692, 
  "Taci": 2693, 
  "tı": 2694, 
  "Daciç": 2695, 
  "hasar": 2696, 
  "şiddetli": 2697, 
  "destekleyen": 2698, 
  "üstesinden": 2699, 
  "buradaki": 2700, 
  "projeler": 2701, 
  "gerekecek": 2702, 
  "siyasilerin": 2703, 
  "dönüş": 2704, 
  "et": 2705, 
  "Babacan": 2706, 
  "Radikal": 2707, 
  "idaresi": 2708, 
  "Blerta": 2709, 
  "9@@": 2710, 
  "tarihinin": 2711, 
  "aleyhinde": 2712, 
  "Rama": 2713, 
  "Arap": 2714, 
  "yollarını": 2715, 
  "UNDP": 2716, 
  "unda": 2717, 
  "geçirilmesi": 2718, 
  "önerisini": 2719, 
  "duy@@": 2720, 
  "olacağına": 2721, 
  "sorununu": 2722, 
  "santrali": 2723, 
  "malarını": 2724, 
  "ediyorum": 2725, 
  "Recepi": 2726, 
  "projeye": 2727, 
  "Popescu": 2728, 
  "sı": 2729, 
  "güçlerinin": 2730, 
  "değişim": 2731, 
  "anlaşmazlık": 2732, 
  "Hırvatlar": 2733, 
  "kayıp": 2734, 
  "modern": 2735, 
  "bankası": 2736, 
  "kondu": 2737, 
  "planının": 2738, 
  "arttı": 2739, 
  "sun@@": 2740, 
  "çalışmalarına": 2741, 
  "ödülünü": 2742, 
  "oluşturan": 2743, 
  "ıyorlar": 2744, 
  "düşün@@": 2745, 
  "gelişmiş": 2746, 
  "Kaddafi": 2747, 
  "insani": 2748, 
  "Araştırma": 2749, 
  "EurActiv": 2750, 
  "yapılmış": 2751, 
  "havayolu": 2752, 
  "yan": 2753, 
  "daveti": 2754, 
  "askerleri": 2755, 
  "t": 2756, 
  "fotoğraf": 2757, 
  "hattının": 2758, 
  "Nikolovski": 2759, 
  "Manuel": 2760, 
  "34": 2761, 
  "işler": 2762, 
  "denetim": 2763, 
  "s@@": 2764, 
  "alı": 2765, 
  "anlar": 2766, 
  "ır": 2767, 
  "ithal": 2768, 
  "anlaşmada": 2769, 
  "kurdu": 2770, 
  "DUI": 2771, 
  "yoksulluk": 2772, 
  "temsilci": 2773, 
  "adalete": 2774, 
  "alt": 2775, 
  "belirterek": 2776, 
  "Dahası": 2777, 
  "fon": 2778, 
  "emlak": 2779, 
  "V@@": 2780, 
  "ilave": 2781, 
  "İlişkiler": 2782, 
  "ik@@": 2783, 
  "kriterleri": 2784, 
  "paralel": 2785, 
  "işçi": 2786, 
  "kalıcı": 2787, 
  "milletvekillerinin": 2788, 
  "madığı": 2789, 
  "miktarda": 2790, 
  "hazırlık": 2791, 
  "ders": 2792, 
  "geliştirilmesi": 2793, 
  "itibarıyla": 2794, 
  "yazarı": 2795, 
  "karşısında": 2796, 
  "sürmekte": 2797, 
  "edil@@": 2798, 
  "acı": 2799, 
  "liği": 2800, 
  "cinayet": 2801, 
  "ındaki": 2802, 
  "özgürlük": 2803, 
  "rekor": 2804, 
  "barışçı": 2805, 
  "sektör": 2806, 
  "projeleri": 2807, 
  "b@@": 2808, 
  "im": 2809, 
  "aracılığıyla": 2810, 
  "görüşmelere": 2811, 
  "onay": 2812, 
  "çözmek": 2813, 
  "anlaşmalar": 2814, 
  "2013": 2815, 
  "görevlisi": 2816, 
  "tutumunu": 2817, 
  "eksikliği": 2818, 
  "gazeteciler": 2819, 
  "birbirine": 2820, 
  "uyla": 2821, 
  "buldu": 2822, 
  "muamele": 2823, 
  "ilerlemeyi": 2824, 
  "ülkelerle": 2825, 
  "verdikleri": 2826, 
  "8@@": 2827, 
  "Z@@": 2828, 
  "azınlıkların": 2829, 
  "öneri": 2830, 
  "belirsiz": 2831, 
  "alanı": 2832, 
  "avroyu": 2833, 
  "olmadı": 2834, 
  "say@@": 2835, 
  "anlaşmazlığı": 2836, 
  "Makfax": 2837, 
  "İttifakın": 2838, 
  "edilebilir": 2839, 
  "önleme": 2840, 
  "oyla": 2841, 
  "LDK": 2842, 
  "İbrahim": 2843, 
  "halkına": 2844, 
  "destekleme": 2845, 
  "emniyet": 2846, 
  "etmeleri": 2847, 
  "F@@": 2848, 
  "erkekler": 2849, 
  "ilerletme": 2850, 
  "desteklediğini": 2851, 
  "açacak": 2852, 
  "oran": 2853, 
  "ortam": 2854, 
  "laik": 2855, 
  "hidroelektrik": 2856, 
  "çizdi": 2857, 
  "güçlendirme": 2858, 
  "bulunuluyor": 2859, 
  "U@@": 2860, 
  "ticareti": 2861, 
  "destekliyor": 2862, 
  "maktan": 2863, 
  "kurumlarına": 2864, 
  "at": 2865, 
  "üstünlüğü": 2866, 
  "ademi": 2867, 
  "sinin": 2868, 
  "bunlardan": 2869, 
  "Yeniden": 2870, 
  "sözleşme": 2871, 
  "faaliyete": 2872, 
  "toplumunun": 2873, 
  "geçmesi": 2874, 
  "Kanada": 2875, 
  "hareketi": 2876, 
  "Vuyanoviç": 2877, 
  "Guardian": 2878, 
  "Sad": 2879, 
  "zamanlarda": 2880, 
  "ekibi": 2881, 
  "enin": 2882, 
  "zamanında": 2883, 
  "Sırplara": 2884, 
  "bıraktı": 2885, 
  "DS": 2886, 
  "hükümetini": 2887, 
  "tip": 2888, 
  "edeceği": 2889, 
  "çözme": 2890, 
  "tavır": 2891, 
  "f@@": 2892, 
  "sonucuna": 2893, 
  "700": 2894, 
  "çözümü": 2895, 
  "kökenli": 2896, 
  "yasaya": 2897, 
  "yapılmasını": 2898, 
  "dur@@": 2899, 
  "Kofi": 2900, 
  "haklarının": 2901, 
  "hepsi": 2902, 
  "borcu": 2903, 
  "muhabiri": 2904, 
  "ortağı": 2905, 
  "Ermeni": 2906, 
  "vermiş": 2907, 
  "ortaklaşa": 2908, 
  "esi": 2909, 
  "takip": 2910, 
  "bağlantı": 2911, 
  "şeyler": 2912, 
  "ödeme": 2913, 
  "kuruluşları": 2914, 
  "getirmeye": 2915, 
  "Euro": 2916, 
  "yoldan": 2917, 
  "Lüksemburg": 2918, 
  "Voyvodina": 2919, 
  "şirketinin": 2920, 
  "çıkması": 2921, 
  "olmayacak": 2922, 
  "günde": 2923, 
  "komuta": 2924, 
  "hayati": 2925, 
  "v@@": 2926, 
  "Euobserver": 2927, 
  "ada": 2928, 
  "garanti": 2929, 
  "Belgradlı": 2930, 
  "!": 2931, 
  "muhalefetin": 2932, 
  "toplantının": 2933, 
  "planın": 2934, 
  "medi": 2935, 
  "getirecek": 2936, 
  "37": 2937, 
  "festivalde": 2938, 
  "böylelikle": 2939, 
  "bölgelerde": 2940, 
  "ücret": 2941, 
  "hızla": 2942, 
  "dolayı": 2943, 
  "fayda": 2944, 
  "kıyı": 2945, 
  "meclise": 2946, 
  "Robert": 2947, 
  "danışmanlık": 2948, 
  "gerçekçi": 2949, 
  "koşulları": 2950, 
  "abileceğini": 2951, 
  "seçimlerinin": 2952, 
  "r@@": 2953, 
  "konuk": 2954, 
  "sizce": 2955, 
  "Clinton": 2956, 
  "bilişim": 2957, 
  "gir@@": 2958, 
  "etmekte": 2959, 
  "tesis": 2960, 
  "hedefliyor": 2961, 
  "yarı": 2962, 
  "gelişmeler": 2963, 
  "iste@@": 2964, 
  "mediği": 2965, 
  "bence": 2966, 
  "ilerlemenin": 2967, 
  "eminim": 2968, 
  "talebi": 2969, 
  "nispeten": 2970, 
  "meclisin": 2971, 
  "bakanlarının": 2972, 
  "çalışmalar": 2973, 
  "hazırlanıyor": 2974, 
  "vadede": 2975, 
  "edici": 2976, 
  "kısmının": 2977, 
  "oyların": 2978, 
  "1993": 2979, 
  "aktardığına": 2980, 
  "kâr": 2981, 
  "dön@@": 2982, 
  "Putin": 2983, 
  "Milososki": 2984, 
  "Oyunları": 2985, 
  "Aleksandar": 2986, 
  "edilmesine": 2987, 
  "şikayet": 2988, 
  "madde": 2989, 
  "ip": 2990, 
  "mesinde": 2991, 
  "kapalı": 2992, 
  "kamuoyuna": 2993, 
  "kuzeyindeki": 2994, 
  "g@@": 2995, 
  "sahte": 2996, 
  "oynadığı": 2997, 
  "çözülmesi": 2998, 
  "k": 2999, 
  "kullanımı": 3000, 
  "yaz@@": 3001, 
  "Sarkozy": 3002, 
  "bloğa": 3003, 
  "operatörü": 3004, 
  "Konsey": 3005, 
  "1996": 3006, 
  "Davor": 3007, 
  "giren": 3008, 
  "konularda": 3009, 
  "Hakkındaki": 3010, 
  "gerçekleşmesi": 3011, 
  "Eurovision": 3012, 
  "çıkarıldı": 3013, 
  "elektronik": 3014, 
  "iş@@": 3015, 
  "Igor": 3016, 
  "Yönetim": 3017, 
  "savcı": 3018, 
  "esine": 3019, 
  "başkenti": 3020, 
  "aksi": 3021, 
  "ik": 3022, 
  "maliye": 3023, 
  "Milovanoviç": 3024, 
  "Daniel": 3025, 
  "kurulmasını": 3026, 
  "os": 3027, 
  "hapse": 3028, 
  "33": 3029, 
  "otomobil": 3030, 
  "ecek": 3031, 
  "Siyasi": 3032, 
  "çabalarının": 3033, 
  "istikrarın": 3034, 
  "gidiyor": 3035, 
  "emeklilik": 3036, 
  "güvenliğini": 3037, 
  "kitap": 3038, 
  "izliyor": 3039, 
  "göstermesi": 3040, 
  "şartı": 3041, 
  "kırsal": 3042, 
  "kaçakçılık": 3043, 
  "DP": 3044, 
  "Stankoviç": 3045, 
  "varlığını": 3046, 
  "hareketin": 3047, 
  "basına": 3048, 
  "Bakoyanni": 3049, 
  "iler": 3050, 
  "söyleniyor": 3051, 
  "sistemine": 3052, 
  "rüşvet": 3053, 
  "etkinliklere": 3054, 
  "SDSM": 3055, 
  "çalışmak": 3056, 
  "kararına": 3057, 
  "UAD": 3058, 
  "aların": 3059, 
  "&amp;": 3060, 
  "sürdürdü": 3061, 
  "Kar@@": 3062, 
  "sini": 3063, 
  "adam": 3064, 
  "43": 3065, 
  "tabii": 3066, 
  "bölgesindeki": 3067, 
  "vermeyi": 3068, 
  "askerler": 3069, 
  "geçirme": 3070, 
  "alın@@": 3071, 
  "gösteri": 3072, 
  "it@@": 3073, 
  "ayından": 3074, 
  "sağladığı": 3075, 
  "Durres": 3076, 
  "Miloşeviç": 3077, 
  "işsiz": 3078, 
  "Sağlık": 3079, 
  "birleşme": 3080, 
  "tut@@": 3081, 
  "mamış": 3082, 
  "Plus": 3083, 
  "sistemin": 3084, 
  "mükemmel": 3085, 
  "ihtilaf": 3086, 
  "etkinliği": 3087, 
  "fazlasını": 3088, 
  "tutuklanması": 3089, 
  "der@@": 3090, 
  "Yaz": 3091, 
  "hükümetine": 3092, 
  "desteklemeye": 3093, 
  "ağı": 3094, 
  "faaliyetlerini": 3095, 
  "hakkına": 3096, 
  "sisteminde": 3097, 
  "çabuk": 3098, 
  "aleyhindeki": 3099, 
  "bildirdiğine": 3100, 
  "yönetiminin": 3101, 
  "R@@": 3102, 
  "am@@": 3103, 
  "konut": 3104, 
  "vatandaş": 3105, 
  "seçimlerine": 3106, 
  "eren": 3107, 
  "imha": 3108, 
  "el@@": 3109, 
  "konuş@@": 3110, 
  "Vakfı": 3111, 
  "ina": 3112, 
  "te@@": 3113, 
  "Lefkoşe": 3114, 
  "kap@@": 3115, 
  "orada": 3116, 
  "üyesinin": 3117, 
  "bul@@": 3118, 
  "zemin": 3119, 
  "hassas": 3120, 
  "sağlayacağını": 3121, 
  "yolunu": 3122, 
  "kanıt": 3123, 
  "anayasaya": 3124, 
  "önlemler": 3125, 
  "aksine": 3126, 
  "Bölgesi": 3127, 
  "projeyi": 3128, 
  "hafif": 3129, 
  "gözlemciler": 3130, 
  "krize": 3131, 
  "Ortadoğu": 3132, 
  "birleştirme": 3133, 
  "olanlar": 3134, 
  "çeken": 3135, 
  "kimsenin": 3136, 
  "mıştı": 3137, 
  "bakanlar": 3138, 
  "kontrolü": 3139, 
  "mediğini": 3140, 
  "halde": 3141, 
  "sonuçlara": 3142, 
  "Rice": 3143, 
  "Akademisi": 3144, 
  "hissesini": 3145, 
  "ol@@": 3146, 
  "mülkiyet": 3147, 
  "yükseldi": 3148, 
  "ihale": 3149, 
  "eceğini": 3150, 
  "gazete": 3151, 
  "geçmiş": 3152, 
  "ti": 3153, 
  "tıbbi": 3154, 
  "edildiğini": 3155, 
  "Echo": 3156, 
  "yapacağını": 3157, 
  "anket": 3158, 
  "planına": 3159, 
  "dik": 3160, 
  "Bayram": 3161, 
  "özerklik": 3162, 
  "ka": 3163, 
  "hizmeti": 3164, 
  "Zivkoviç": 3165, 
  "ücretsiz": 3166, 
  "melerini": 3167, 
  "başı": 3168, 
  "ad@@": 3169, 
  "refah": 3170, 
  "kullanarak": 3171, 
  "trafik": 3172, 
  "başından": 3173, 
  "değişikliği": 3174, 
  "oynanan": 3175, 
  "göstermek": 3176, 
  "on@@": 3177, 
  "PfP": 3178, 
  "kar@@": 3179, 
  "kat@@": 3180, 
  "bekle@@": 3181, 
  "işkence": 3182, 
  "Obama": 3183, 
  "bakanlığından": 3184, 
  "HINA": 3185, 
  "gerekir": 3186, 
  "İşçi": 3187, 
  "Odası": 3188, 
  "festivalin": 3189, 
  "USAID": 3190, 
  "Cumhuriyet": 3191, 
  "dayanıyor": 3192, 
  "mada": 3193, 
  "kurmaya": 3194, 
  "Kuvvetleri": 3195, 
  "yeri": 3196, 
  "bölgeyi": 3197, 
  "performans": 3198, 
  "ulaşmak": 3199, 
  "alacağı": 3200, 
  "karşılandı": 3201, 
  "katılımcı": 3202, 
  "anlaştılar": 3203, 
  "Hürriyet": 3204, 
  "varılan": 3205, 
  "muhtemelen": 3206, 
  "getirdiğini": 3207, 
  "durumdan": 3208, 
  "malıdır": 3209, 
  "topluma": 3210, 
  "Nebojsa": 3211, 
  "geleceğe": 3212, 
  "başkanlığındaki": 3213, 
  "Krasniki": 3214, 
  "seçilen": 3215, 
  "mu": 3216, 
  "internet": 3217, 
  "isi": 3218, 
  "Valentin": 3219, 
  "Cumhurbaşkanlığı": 3220, 
  "Sırpları": 3221, 
  "Inzko": 3222, 
  "rejimi": 3223, 
  "açma": 3224, 
  "programın": 3225, 
  "miktar": 3226, 
  "artışla": 3227, 
  "ı@@": 3228, 
  "kesiminde": 3229, 
  "ırken": 3230, 
  "konularında": 3231, 
  "durumunu": 3232, 
  "gücünü": 3233, 
  "Topi": 3234, 
  "ilerlemeye": 3235, 
  "lerindeki": 3236, 
  "zanlının": 3237, 
  "lerdeki": 3238, 
  "attı": 3239, 
  "diler": 3240, 
  "aşırılık": 3241, 
  "sürdürme": 3242, 
  "amaçlanıyor": 3243, 
  "malarına": 3244, 
  "di@@": 3245, 
  "ülkelerini": 3246, 
  "Avustralya": 3247, 
  "taraflar": 3248, 
  "sürdürmeye": 3249, 
  "çıkarılması": 3250, 
  "elden": 3251, 
  "güven@@": 3252, 
  "1000": 3253, 
  "ölüm": 3254, 
  "ateş": 3255, 
  "günleri": 3256, 
  "doğum": 3257, 
  "Tanjug": 3258, 
  "yarat@@": 3259, 
  "süreçte": 3260, 
  "verilmiş": 3261, 
  "milyonlarca": 3262, 
  "karşılamak": 3263, 
  "h@@": 3264, 
  "Genelkurmay": 3265, 
  "asını": 3266, 
  "araba": 3267, 
  "Açık": 3268, 
  "sözcü": 3269, 
  "ani": 3270, 
  "sıcak": 3271, 
  "maktadır": 3272, 
  "emek": 3273, 
  "Politika": 3274, 
  "oyun": 3275, 
  "konferansa": 3276, 
  "deyişle": 3277, 
  "Dusan": 3278, 
  "acağına": 3279, 
  "Suçları": 3280, 
  "sunuyor": 3281, 
  "hedefleniyor": 3282, 
  "kriterlerini": 3283, 
  "toplandı": 3284, 
  "önemlidir": 3285, 
  "is": 3286, 
  "vereceği": 3287, 
  "Petar": 3288, 
  "yetkililerinin": 3289, 
  "grupların": 3290, 
  "olmayacağını": 3291, 
  "açılışını": 3292, 
  "Deutsche": 3293, 
  "dil": 3294, 
  "farkında": 3295, 
  "Jean": 3296, 
  "çabalar": 3297, 
  "gazetesinde": 3298, 
  "elinden": 3299, 
  "yatırımlar": 3300, 
  "başvur@@": 3301, 
  "bunlara": 3302, 
  "Microsoft": 3303, 
  "gönderdi": 3304, 
  "yatırımı": 3305, 
  "cesaret": 3306, 
  "ürünleri": 3307, 
  "iyileştirme": 3308, 
  "nedir": 3309, 
  "belgeleri": 3310, 
  "la@@": 3311, 
  "davada": 3312, 
  "can": 3313, 
  "örgütleri": 3314, 
  "yeterince": 3315, 
  "geçirdi": 3316, 
  "değişikliklerin": 3317, 
  "kaldır@@": 3318, 
  "ikiye": 3319, 
  "mağlup": 3320, 
  "asgari": 3321, 
  "savaşı": 3322, 
  "beşinci": 3323, 
  "Kürdistan": 3324, 
  "başlangıç": 3325, 
  "eleri": 3326, 
  "u@@": 3327, 
  "hedefleri": 3328, 
  "başlat@@": 3329, 
  "Prlenda": 3330, 
  "başlatılması": 3331, 
  "başardı": 3332, 
  "ayrımcılık": 3333, 
  "Nano": 3334, 
  "başlama": 3335, 
  "36": 3336, 
  "İstatistik": 3337, 
  "pazarlık": 3338, 
  "Günü": 3339, 
  "Ödülü": 3340, 
  "uygulanmasını": 3341, 
  "sitesi": 3342, 
  "aktardığı": 3343, 
  "p@@": 3344, 
  "raporun": 3345, 
  "KKTC": 3346, 
  "yıllarında": 3347, 
  "gençlerin": 3348, 
  "Moisiu": 3349, 
  "töreninde": 3350, 
  "getirildi": 3351, 
  "sonbaharda": 3352, 
  "şimdilik": 3353, 
  "makroekonomik": 3354, 
  "festivale": 3355, 
  "sağlaması": 3356, 
  "tazminat": 3357, 
  "içi": 3358, 
  "yüz": 3359, 
  "Calin": 3360, 
  "arkasında": 3361, 
  "soru": 3362, 
  "ekip": 3363, 
  "gerçekleştirdiği": 3364, 
  "öner@@": 3365, 
  "söylediği": 3366, 
  "47": 3367, 
  "Maroviç": 3368, 
  "bronz": 3369, 
  "açıklaması": 3370, 
  "geçecek": 3371, 
  "karayolu": 3372, 
  "getir@@": 3373, 
  "çek@@": 3374, 
  "eyalet": 3375, 
  "çatışmalar": 3376, 
  "olmuştu": 3377, 
  "misyon": 3378, 
  "haberler": 3379, 
  "kişiye": 3380, 
  "kalması": 3381, 
  "göçmen": 3382, 
  "48": 3383, 
  "numaralı": 3384, 
  "İlerleme": 3385, 
  "köprü": 3386, 
  "Muhamet": 3387, 
  "51": 3388, 
  "aldıkları": 3389, 
  "artır@@": 3390, 
  "Genişleme": 3391, 
  "yönetimindeki": 3392, 
  "uygulamada": 3393, 
  "mekten": 3394, 
  "meseleler": 3395, 
  "gerçekleş@@": 3396, 
  "Zaman": 3397, 
  "çerçeve": 3398, 
  "kurban": 3399, 
  "alarının": 3400, 
  "kimin": 3401, 
  "eğitimi": 3402, 
  "PDK": 3403, 
  "nerede": 3404, 
  "canlı": 3405, 
  "men": 3406, 
  "Altın": 3407, 
  "pahalı": 3408, 
  "katıl@@": 3409, 
  "istiyorlar": 3410, 
  "paranın": 3411, 
  "göstergesi": 3412, 
  "suçlamaları": 3413, 
  "finansman": 3414, 
  "tutuyor": 3415, 
  "yere": 3416, 
  "toplama": 3417, 
  "larındaki": 3418, 
  "yla": 3419, 
  "mektupta": 3420, 
  "İspanyol": 3421, 
  "oluşturulması": 3422, 
  "42": 3423, 
  "meyeceğini": 3424, 
  "and": 3425, 
  "yaklaşım": 3426, 
  "tanıyan": 3427, 
  "Natasa": 3428, 
  "birden": 3429, 
  "çalıştı": 3430, 
  "iktidara": 3431, 
  "Mısır": 3432, 
  "çalıştığı": 3433, 
  "ıdır": 3434, 
  "destekle@@": 3435, 
  "koy@@": 3436, 
  "Vlado": 3437, 
  "fikri": 3438, 
  "mensup": 3439, 
  "iy@@": 3440, 
  "kaynaklanıyor": 3441, 
  "sanık": 3442, 
  "MIA": 3443, 
  "noktada": 3444, 
  "taşıdığı": 3445, 
  "yakından": 3446, 
  "başbakanın": 3447, 
  "sağlanacak": 3448, 
  "seçimlerini": 3449, 
  "törende": 3450, 
  "koşullar": 3451, 
  "savaşın": 3452, 
  "gelmiş": 3453, 
  "G17": 3454, 
  "operasyonu": 3455, 
  "başlıyor": 3456, 
  "tedbirlerin": 3457, 
  "eceği": 3458, 
  "Gücü": 3459, 
  "sorunlarla": 3460, 
  "Divanı": 3461, 
  "gönderdiği": 3462, 
  "ülkelerindeki": 3463, 
  "seçti": 3464, 
  "il": 3465, 
  "Celiç": 3466, 
  "John": 3467, 
  "almasına": 3468, 
  "danışmanı": 3469, 
  "istikrara": 3470, 
  "çıkar": 3471, 
  "dolara": 3472, 
  "rolünü": 3473, 
  "belirleme": 3474, 
  "ilaç": 3475, 
  "Tribune": 3476, 
  "1997": 3477, 
  "mutabakat": 3478, 
  "yaşandı": 3479, 
  "sol": 3480, 
  "W.": 3481, 
  "konuyu": 3482, 
  "Radyo": 3483, 
  "ülkesinde": 3484, 
  "büyüyen": 3485, 
  "olmasından": 3486, 
  "Fuarı": 3487, 
  "zorunlu": 3488, 
  "azalt@@": 3489, 
  "Facebook": 3490, 
  "sektöründeki": 3491, 
  "sektörüne": 3492, 
  "bilgileri": 3493, 
  "Avro": 3494, 
  "yetkisi": 3495, 
  "teşekkür": 3496, 
  "beni": 3497, 
  "kullanan": 3498, 
  "katılmayı": 3499, 
  "melidir": 3500, 
  "yerinde": 3501, 
  "yazı": 3502, 
  "hedefini": 3503, 
  "düzenlediler": 3504, 
  "alacağını": 3505, 
  "Amerikalı": 3506, 
  "bi@@": 3507, 
  "yolsuzluğa": 3508, 
  "olduğumuz": 3509, 
  "izledi": 3510, 
  "Programı": 3511, 
  "gördüğünü": 3512, 
  "Vukovar": 3513, 
  "saldırıları": 3514, 
  "bayanlar": 3515, 
  "desteğiyle": 3516, 
  "es@@": 3517, 
  "gör@@": 3518, 
  "Akımı": 3519, 
  "çift": 3520, 
  "tarafsız": 3521, 
  "ken": 3522, 
  "organ": 3523, 
  "iz@@": 3524, 
  "kutladı": 3525, 
  "yan@@": 3526, 
  "tarihten": 3527, 
  "av@@": 3528, 
  "kuş": 3529, 
  "alışveriş": 3530, 
  "liman": 3531, 
  "İvan": 3532, 
  "oluşturma": 3533, 
  "kalmış": 3534, 
  "belirlenen": 3535, 
  "İktidardaki": 3536, 
  "zanlılarının": 3537, 
  "sırayı": 3538, 
  "asına": 3539, 
  "Mirko": 3540, 
  "Haris": 3541, 
  "güvenilir": 3542, 
  "olayların": 3543, 
  "gereğini": 3544, 
  "doğu": 3545, 
  "acaktır": 3546, 
  "çalışanları": 3547, 
  "ıl@@": 3548, 
  "Filip": 3549, 
  "kesim": 3550, 
  "yanından": 3551, 
  "göstermeye": 3552, 
  "yaş@@": 3553, 
  "koviç": 3554, 
  "seçmenler": 3555, 
  "mektedir": 3556, 
  "yolsuzluğun": 3557, 
  "katıldılar": 3558, 
  "önemi": 3559, 
  "ilerin": 3560, 
  "gördü": 3561, 
  "Anlaşmasının": 3562, 
  "eyalette": 3563, 
  "törenine": 3564, 
  "reformlara": 3565, 
  "0": 3566, 
  "etmektedir": 3567, 
  "Geoana": 3568, 
  "insanlara": 3569, 
  "al": 3570, 
  "ucuz": 3571, 
  "suçlar": 3572, 
  "irken": 3573, 
  "sürdüğü": 3574, 
  "öyle": 3575, 
  "sorumluluğunu": 3576, 
  "baskın": 3577, 
  "Yusuf": 3578, 
  "Schilling": 3579, 
  "bilgilere": 3580, 
  "büyümenin": 3581, 
  "aydan": 3582, 
  "üyeli": 3583, 
  "iye": 3584, 
  "ca": 3585, 
  "düşen": 3586, 
  "verilmesini": 3587, 
  "mayan": 3588, 
  "Portekiz": 3589, 
  "sergide": 3590, 
  "muazzam": 3591, 
  "böylece": 3592, 
  "melerine": 3593, 
  "rüzgar": 3594, 
  "iyileştirilmesi": 3595, 
  "hedeflerine": 3596, 
  "yardımıyla": 3597, 
  "oyu": 3598, 
  "liderlik": 3599, 
  "Alexander": 3600, 
  "ermesinden": 3601, 
  "ev@@": 3602, 
  "n": 3603, 
  "Ki": 3604, 
  "Tihiç": 3605, 
  "öğrenim": 3606, 
  "O": 3607, 
  "Zeljko": 3608, 
  "uygulanmasına": 3609, 
  "Dubrovnik": 3610, 
  "etmenin": 3611, 
  "avukat": 3612, 
  "Ar@@": 3613, 
  "tarafların": 3614, 
  "Bütünleşme": 3615, 
  "Fonu": 3616, 
  "bilimsel": 3617, 
  "ıydı": 3618, 
  "kendisinin": 3619, 
  "mamız": 3620, 
  "zanlıları": 3621, 
  "ak": 3622, 
  "abilecek": 3623, 
  "sayıdaki": 3624, 
  "dalında": 3625, 
  "şiddetle": 3626, 
  "kan": 3627, 
  "insanlık": 3628, 
  "bildiri": 3629, 
  "Herald": 3630, 
  "Zvetkoviç": 3631, 
  "birine": 3632, 
  "haftalık": 3633, 
  "Yardım": 3634, 
  "blok": 3635, 
  "oluşturduğu": 3636, 
  "üyelerinden": 3637, 
  "barışı": 3638, 
  "projesinin": 3639, 
  "iyileşme": 3640, 
  "gönüllü": 3641, 
  "zorla": 3642, 
  "yoktur": 3643, 
  "itiraf": 3644, 
  "karışık": 3645, 
  "Pekin": 3646, 
  "Bölgesel": 3647, 
  "işbirliğiyle": 3648, 
  "bilgiler": 3649, 
  "Ş@@": 3650, 
  "Stojanovska": 3651, 
  "kaynaklanan": 3652, 
  "masında": 3653, 
  "ma@@": 3654, 
  "kuruluşlarının": 3655, 
  "Hristofiyas": 3656, 
  ".@@": 3657, 
  "istekli": 3658, 
  "sonuçlarını": 3659, 
  "kış": 3660, 
  "Peter": 3661, 
  "dil@@": 3662, 
  "Konjikusiç": 3663, 
  "re@@": 3664, 
  "Xinhua": 3665, 
  "listesinde": 3666, 
  "süresinin": 3667, 
  "haklı": 3668, 
  "abileceği": 3669, 
  "meseleleri": 3670, 
  "krizden": 3671, 
  "zanlıların": 3672, 
  "çıkarlarını": 3673, 
  "p": 3674, 
  "görevinden": 3675, 
  "zirve": 3676, 
  "başkanları": 3677, 
  "Nataşa": 3678, 
  "turu": 3679, 
  "geçiyor": 3680, 
  "sayılı": 3681, 
  "kayak": 3682, 
  "sorunlarını": 3683, 
  "ekonomist": 3684, 
  "karşılaş@@": 3685, 
  "Turkish": 3686, 
  "Ulaştırma": 3687, 
  "kaldığı": 3688, 
  "Ramazan": 3689, 
  "örgütünün": 3690, 
  "2,5": 3691, 
  "meyecek": 3692, 
  "ailesinin": 3693, 
  "değişen": 3694, 
  "Banka": 3695, 
  "kapat@@": 3696, 
  "oranları": 3697, 
  "risk": 3698, 
  "44": 3699, 
  "üyelerine": 3700, 
  "hayır": 3701, 
  "topraklarında": 3702, 
  "bölgesine": 3703, 
  "ırklı": 3704, 
  "alanları": 3705, 
  "dağıt@@": 3706, 
  "pazarına": 3707, 
  "dahilinde": 3708, 
  "46": 3709, 
  "İngilizce": 3710, 
  "davaları": 3711, 
  "yararlı": 3712, 
  "yürüttüğü": 3713, 
  "Taki": 3714, 
  "mıştır": 3715, 
  "Agim": 3716, 
  "girmesi": 3717, 
  "piyasa": 3718, 
  "imi": 3719, 
  "tak@@": 3720, 
  "kurul": 3721, 
  "azaltmak": 3722, 
  "kilise": 3723, 
  "izleyen": 3724, 
  "yorum": 3725, 
  "başkentinde": 3726, 
  "uygulaması": 3727, 
  "ülkesinden": 3728, 
  "çifte": 3729, 
  "amacının": 3730, 
  "B": 3731, 
  "HIV": 3732, 
  "çağırdılar": 3733, 
  "görevde": 3734, 
  "aydır": 3735, 
  "günler": 3736, 
  "katılanların": 3737, 
  "stratejisi": 3738, 
  "Türkler": 3739, 
  "I@@": 3740, 
  "doktor": 3741, 
  "nüfusu": 3742, 
  "gereği": 3743, 
  "sıradan": 3744, 
  "eşlik": 3745, 
  "bas@@": 3746, 
  "değerinde": 3747, 
  "şüphe": 3748, 
  "UPI": 3749, 
  "dünyadaki": 3750, 
  "münasebetiyle": 3751, 
  "komisyonu": 3752, 
  "veto": 3753, 
  "kırıklığına": 3754, 
  "bir@@": 3755, 
  "sayımı": 3756, 
  "yoluna": 3757, 
  "belgenin": 3758, 
  "Bozidar": 3759, 
  "Labus": 3760, 
  "Lübnan": 3761, 
  "Ç@@": 3762, 
  "Bağımsız": 3763, 
  "Profesör": 3764, 
  "Richard": 3765, 
  "layık": 3766, 
  "Barbutov": 3767, 
  "işleyen": 3768, 
  "rakibi": 3769, 
  "değiş@@": 3770, 
  "yatırımcıların": 3771, 
  "ertesi": 3772, 
  "arkeologlar": 3773, 
  "Mahkeme": 3774, 
  "koordine": 3775, 
  "alanlar": 3776, 
  "Her": 3777, 
  "anlaş@@": 3778, 
  "taraftan": 3779, 
  "ülkesine": 3780, 
  "teşkilatı": 3781, 
  "Norveç": 3782, 
  "esinin": 3783, 
  "Brammertz": 3784, 
  "gerekçesiyle": 3785, 
  "olmalı": 3786, 
  "ul@@": 3787, 
  "İlgili": 3788, 
  "den@@": 3789, 
  "asında": 3790, 
  "AKI": 3791, 
  "ir": 3792, 
  "dakika": 3793, 
  "artışı": 3794, 
  "sor@@": 3795, 
  "az@@": 3796, 
  "video": 3797, 
  "Marko": 3798, 
  "planladığı": 3799, 
  "41": 3800, 
  "çalıştığını": 3801, 
  "değin": 3802, 
  "mayacak": 3803, 
  "projede": 3804, 
  "standartların": 3805, 
  "almasını": 3806, 
  "nci": 3807, 
  "o@@": 3808, 
  "bin@@": 3809, 
  "filmin": 3810, 
  "toplantısına": 3811, 
  "planda": 3812, 
  "meyen": 3813, 
  "38": 3814, 
  "medyanın": 3815, 
  "Nimetz": 3816, 
  "düzgün": 3817, 
  "emri": 3818, 
  "sokak": 3819, 
  "taşımacılık": 3820, 
  "yatırımları": 3821, 
  "esini": 3822, 
  "Ivan": 3823, 
  "olayın": 3824, 
  "partilerinin": 3825, 
  "du": 3826, 
  "başladığı": 3827, 
  "notunu": 3828, 
  "girecek": 3829, 
  "sürüldü": 3830, 
  "undan": 3831, 
  "uçak": 3832, 
  "çalışacak": 3833, 
  "hüküm": 3834, 
  "maliyeti": 3835, 
  "yaralandı": 3836, 
  "çocukları": 3837, 
  "güçlendirilmesi": 3838, 
  "kararları": 3839, 
  "düş@@": 3840, 
  "sefer": 3841, 
  "zamanın": 3842, 
  "ister": 3843, 
  "açabilir": 3844, 
  "moon": 3845, 
  "devlete": 3846, 
  "kuvvetleri": 3847, 
  "heyetinin": 3848, 
  "İvica": 3849, 
  "Paktı": 3850, 
  "öncelikli": 3851, 
  "standartlara": 3852, 
  "yola": 3853, 
  "zamandan": 3854, 
  "im@@": 3855, 
  "sergisi": 3856, 
  "sağlanan": 3857, 
  "or@@": 3858, 
  "yasak": 3859, 
  "eli": 3860, 
  "saldırılar": 3861, 
  "Jankoviç": 3862, 
  "sahipleri": 3863, 
  "kendini": 3864, 
  "listesinin": 3865, 
  "İttifaka": 3866, 
  "Meta": 3867, 
  "önemlisi": 3868, 
  "döndü": 3869, 
  "azaltma": 3870, 
  "kararlılığını": 3871, 
  "ciç": 3872, 
  "Hareket": 3873, 
  "söyle@@": 3874, 
  "turizmi": 3875, 
  "ayakta": 3876, 
  "bölgelerinde": 3877, 
  "sanayii": 3878, 
  "kes@@": 3879, 
  "değildi": 3880, 
  "atılan": 3881, 
  "eceğine": 3882, 
  "İvanoviç": 3883, 
  "derecelendirme": 3884, 
  "sunan": 3885, 
  "yatırımcı": 3886, 
  "suretiyle": 3887, 
  "bağımsızlığının": 3888, 
  "Sivil": 3889, 
  "yollardan": 3890, 
  "anlaşmaları": 3891, 
  "misyonun": 3892, 
  "Bojana": 3893, 
  "kilometrelik": 3894, 
  "ilişkilerde": 3895, 
  "başlatıldı": 3896, 
  "girişimin": 3897, 
  "iyileştirmek": 3898, 
  "şansını": 3899, 
  "Haberleşme": 3900, 
  "misyonunun": 3901, 
  "Boyko": 3902, 
  "kalabalık": 3903, 
  "oldular": 3904, 
  "Süleyman": 3905, 
  "1.000": 3906, 
  "beyaz": 3907, 
  "An@@": 3908, 
  "yapım": 3909, 
  "alınmış": 3910, 
  "grubunun": 3911, 
  "dünyasında": 3912, 
  "payı": 3913, 
  "alıyorlar": 3914, 
  "çatışma": 3915, 
  "Hindistan": 3916, 
  "Belene": 3917, 
  "uzlaşmaya": 3918, 
  "Adrian": 3919, 
  "mahkemeyle": 3920, 
  "Dimitrova": 3921, 
  "yıllarca": 3922, 
  "Burgaz": 3923, 
  "yemek": 3924, 
  "koalisyonunun": 3925, 
  "geçerek": 3926, 
  "Toplum": 3927, 
  "çıkarma": 3928, 
  "sinema": 3929, 
  "kademeli": 3930, 
  "etkileri": 3931, 
  "toplantıdan": 3932, 
  "mez": 3933, 
  "geliştirmek": 3934, 
  "politikasını": 3935, 
  "desteğin": 3936, 
  "eyaletteki": 3937, 
  "ova": 3938, 
  "toplumlar": 3939, 
  "yazılı": 3940, 
  "Fakültesi": 3941, 
  "yaratmak": 3942, 
  "kullandı": 3943, 
  "haklarına": 3944, 
  "Silayciç": 3945, 
  "gidecek": 3946, 
  "pratik": 3947, 
  "kız": 3948, 
  "otoyol": 3949, 
  "şarkı": 3950, 
  "Kamu": 3951, 
  "hükümetle": 3952, 
  "tedavi": 3953, 
  "İrlanda": 3954, 
  "göz@@": 3955, 
  "kurumlara": 3956, 
  "inan@@": 3957, 
  "yarısı": 3958, 
  "projesine": 3959, 
  "yaptılar": 3960, 
  "doğan": 3961, 
  "bulunmadığını": 3962, 
  "çekmek": 3963, 
  "tutukladı": 3964, 
  "zirvesi": 3965, 
  "yolcu": 3966, 
  "Al@@": 3967, 
  "Hıristiyan": 3968, 
  "rakamın": 3969, 
  "benzeri": 3970, 
  "yoksun": 3971, 
  "vergisi": 3972, 
  "yazılım": 3973, 
  "seçenek": 3974, 
  "alınmasını": 3975, 
  "parlamentoya": 3976, 
  "kaldırma": 3977, 
  "politikasının": 3978, 
  "si@@": 3979, 
  "ithalat": 3980, 
  "bütçesi": 3981, 
  "olabileceği": 3982, 
  "ekonomiyi": 3983, 
  "görüşlerini": 3984, 
  "geleni": 3985, 
  "yasasını": 3986, 
  "İnsanlar": 3987, 
  "imzalanması": 3988, 
  "anayasanın": 3989, 
  "açığını": 3990, 
  "destekli": 3991, 
  "ilgisi": 3992, 
  "Lukiç": 3993, 
  "birleşik": 3994, 
  "Silahlı": 3995, 
  "sığınma": 3996, 
  "çözümün": 3997, 
  "yarısında": 3998, 
  "onaylanan": 3999, 
  "tartışmaya": 4000, 
  "hakkını": 4001, 
  "kullanıyor": 4002, 
  "öncelikleri": 4003, 
  "örneği": 4004, 
  "personeli": 4005, 
  "ülkeyle": 4006, 
  "isinin": 4007, 
  "suçların": 4008, 
  "hükümetler": 4009, 
  "as": 4010, 
  "oluştur@@": 4011, 
  "otel": 4012, 
  "güneyindeki": 4013, 
  "komisyonun": 4014, 
  "yak@@": 4015, 
  "önerisi": 4016, 
  "Denizi": 4017, 
  "fikrini": 4018, 
  "gönder@@": 4019, 
  "taşıdığını": 4020, 
  "iz": 4021, 
  "mayacağını": 4022, 
  "ince": 4023, 
  "dayan@@": 4024, 
  "atıfta": 4025, 
  "gemi": 4026, 
  "davaların": 4027, 
  "daimi": 4028, 
  "vatandaşlara": 4029, 
  "uyar@@": 4030, 
  "getirerek": 4031, 
  "sunuldu": 4032, 
  "milletvekillerine": 4033, 
  "yaklaşan": 4034, 
  "füze": 4035, 
  "egemen": 4036, 
  "desteklenmesi": 4037, 
  "istiyorum": 4038, 
  "çalışıyorlar": 4039, 
  "başlamasından": 4040, 
  "askerlerinin": 4041, 
  "Verheugen": 4042, 
  "Kostov": 4043, 
  "web": 4044, 
  "amaçlıyor": 4045, 
  "Danimarka": 4046, 
  "ın@@": 4047, 
  "davayı": 4048, 
  "dönemin": 4049, 
  "çıkarlarına": 4050, 
  "işle@@": 4051, 
  "David": 4052, 
  "sürpriz": 4053, 
  "ilişki": 4054, 
  "şarkıcı": 4055, 
  "artırdı": 4056, 
  "bazılarının": 4057, 
  "kaldığını": 4058, 
  "Şimşek": 4059, 
  "karşılayan": 4060, 
  "lan@@": 4061, 
  "tutum": 4062, 
  "Şeffaflık": 4063, 
  "sorunla": 4064, 
  "Radio": 4065, 
  "işleme": 4066, 
  "alıp": 4067, 
  "gurur": 4068, 
  "ıyordu": 4069, 
  "aracı": 4070, 
  "evet": 4071, 
  "raporunu": 4072, 
  "azalma": 4073, 
  "Daily": 4074, 
  "şeffaf": 4075, 
  "ailesi": 4076, 
  "vardır": 4077, 
  "yasalara": 4078, 
  "un@@": 4079, 
  "erecek": 4080, 
  "isini": 4081, 
  "tıp": 4082, 
  "endişelerini": 4083, 
  "tarihe": 4084, 
  "Azerbaycan": 4085, 
  "kurucusu": 4086, 
  "polisinin": 4087, 
  "Frattini": 4088, 
  "malar": 4089, 
  "varan": 4090, 
  "İttifakı": 4091, 
  "tutmak": 4092, 
  "haftalarda": 4093, 
  "yarım": 4094, 
  "tarafının": 4095, 
  "çöz@@": 4096, 
  "Ayhan": 4097, 
  "puanla": 4098, 
  "kurucu": 4099, 
  "görevlerini": 4100, 
  "Kemal": 4101, 
  "belirlenmiş": 4102, 
  "harici": 4103, 
  "z": 4104, 
  "arasına": 4105, 
  "talebinde": 4106, 
  "imiz": 4107, 
  "belgeyi": 4108, 
  "ön@@": 4109, 
  "devi": 4110, 
  "öğrencilerin": 4111, 
  "85": 4112, 
  "memiş": 4113, 
  "by": 4114, 
  "geçersiz": 4115, 
  "bölümünü": 4116, 
  "Soren": 4117, 
  "biriydi": 4118, 
  "sunulacak": 4119, 
  "sigorta": 4120, 
  "Angela": 4121, 
  "kurumlarını": 4122, 
  "çıkarmak": 4123, 
  "kar": 4124, 
  "Forumu": 4125, 
  "federal": 4126, 
  "gelişimi": 4127, 
  "Büyükelçi": 4128, 
  "nitelendiren": 4129, 
  "düzinelerce": 4130, 
  "ç": 4131, 
  "kuzeyde": 4132, 
  "ci": 4133, 
  "güneş": 4134, 
  "meclisi": 4135, 
  "çıkacak": 4136, 
  "politikaları": 4137, 
  "fonlar": 4138, 
  "j@@": 4139, 
  "eş@@": 4140, 
  "62": 4141, 
  "dağıtım": 4142, 
  "turistler": 4143, 
  "öğren@@": 4144, 
  "beklendiği": 4145, 
  "başladığını": 4146, 
  "öncelikle": 4147, 
  "adıyla": 4148, 
  "açıklamasına": 4149, 
  "oturum": 4150, 
  "bölgesinin": 4151, 
  "geçirmek": 4152, 
  "Marija": 4153, 
  "birliğinin": 4154, 
  "suçun": 4155, 
  "inanıyorlar": 4156, 
  "tehdidi": 4157, 
  "gazetecilerin": 4158, 
  "sadık": 4159, 
  "kanalı": 4160, 
  "CEFTA": 4161, 
  "mıyor": 4162, 
  "sektörünü": 4163, 
  "katılımını": 4164, 
  "İktidar": 4165, 
  "kararda": 4166, 
  "duruldu": 4167, 
  "alandaki": 4168, 
  "fiziksel": 4169, 
  "din@@": 4170, 
  "Tiyatrosu": 4171, 
  "tenis": 4172, 
  "sahası": 4173, 
  "El": 4174, 
  "mücadelenin": 4175, 
  "soruna": 4176, 
  "bireysel": 4177, 
  "çağıran": 4178, 
  "Jadranka": 4179, 
  "yapı": 4180, 
  "a@@": 4181, 
  "ti@@": 4182, 
  "memurları": 4183, 
  "1,@@": 4184, 
  "GERB": 4185, 
  "iyorlar": 4186, 
  "yapılanma": 4187, 
  "1989": 4188, 
  "eleştirilere": 4189, 
  "fiyatı": 4190, 
  "olmasa": 4191, 
  "mede": 4192, 
  "sorumluluğu": 4193, 
  "basınında": 4194, 
  "yüz@@": 4195, 
  "toplanan": 4196, 
  "Prizren": 4197, 
  "tartışmalara": 4198, 
  "buraya": 4199, 
  "Dejan": 4200, 
  "polise": 4201, 
  "Ak@@": 4202, 
  "KLA": 4203, 
  "kurumun": 4204, 
  "seviyesine": 4205, 
  "malların": 4206, 
  "dığı": 4207, 
  "çıkardılar": 4208, 
  "işareti": 4209, 
  "adımları": 4210, 
  "üyelerini": 4211, 
  "SP": 4212, 
  "uygulamak": 4213, 
  "hayat": 4214, 
  "acaklar": 4215, 
  "oyunu": 4216, 
  "hayatta": 4217, 
  "saatlik": 4218, 
  "görüş@@": 4219, 
  "sürmesi": 4220, 
  "görülmemiş": 4221, 
  "kurulmasına": 4222, 
  "ye@@": 4223, 
  "arabuluculuk": 4224, 
  "sektörün": 4225, 
  "alarına": 4226, 
  "konferansı": 4227, 
  "başsavcı": 4228, 
  "Dora": 4229, 
  "Lizbon": 4230, 
  "almıştı": 4231, 
  "konması": 4232, 
  "Esad": 4233, 
  "bulunuldu": 4234, 
  "Tuzla": 4235, 
  "şarap": 4236, 
  "eskiden": 4237, 
  "meşru": 4238, 
  "ışığında": 4239, 
  "Çerçeve": 4240, 
  "oy@@": 4241, 
  "cazip": 4242, 
  "miştir": 4243, 
  "etkileyen": 4244, 
  "komitesi": 4245, 
  "aşağı": 4246, 
  "olabilecek": 4247, 
  "Nobel": 4248, 
  "Rohan": 4249, 
  "ilerle@@": 4250, 
  "şartların": 4251, 
  "yazık": 4252, 
  "inci": 4253, 
  "bazen": 4254, 
  "şampiyonu": 4255, 
  "işlenmiş": 4256, 
  "kurmayı": 4257, 
  "savcılık": 4258, 
  "çoğunluğunun": 4259, 
  "Teşkilatı": 4260, 
  "hızlandırma": 4261, 
  "raporuna": 4262, 
  "bombalı": 4263, 
  "kurumu": 4264, 
  "bankanın": 4265, 
  "çıkarılan": 4266, 
  "Independent": 4267, 
  "yasada": 4268, 
  "kazanç": 4269, 
  "konusunu": 4270, 
  "tutan": 4271, 
  "lığı": 4272, 
  "düşünce": 4273, 
  "ır@@": 4274, 
  "tamamı": 4275, 
  "çıkarları": 4276, 
  "Dağı": 4277, 
  "yükselen": 4278, 
  "sürdürülen": 4279, 
  "bankalar": 4280, 
  "Mladen": 4281, 
  "A": 4282, 
  "boz@@": 4283, 
  "rakip": 4284, 
  "hepimiz": 4285, 
  "telekom": 4286, 
  "artırmaya": 4287, 
  "Press": 4288, 
  "İvanov": 4289, 
  "mektup": 4290, 
  "yerlerinden": 4291, 
  "eler": 4292, 
  "doğ@@": 4293, 
  "yıldızı": 4294, 
  "ılması": 4295, 
  "gününe": 4296, 
  "suçlamalar": 4297, 
  "gündeminde": 4298, 
  "fizibilite": 4299, 
  "hız": 4300, 
  "kaçır@@": 4301, 
  "imzaladığı": 4302, 
  "yaşanıyor": 4303, 
  "ılıyor": 4304, 
  "nihayet": 4305, 
  "ılan": 4306, 
  "ayrılan": 4307, 
  "kendine": 4308, 
  "riski": 4309, 
  "um": 4310, 
  "çıkmaza": 4311, 
  "dikkatli": 4312, 
  "Dnevnik.bg": 4313, 
  "len@@": 4314, 
  "nakil": 4315, 
  "1244": 4316, 
  "ihtiyacımız": 4317, 
  "savundu": 4318, 
  "gösterildi": 4319, 
  "liğe": 4320, 
  "miyor": 4321, 
  "haftaki": 4322, 
  "masa": 4323, 
  "açılacak": 4324, 
  "isimli": 4325, 
  "edeceğiz": 4326, 
  "öngörüyor": 4327, 
  "ürün": 4328, 
  "Kosteliç": 4329, 
  "kararlar": 4330, 
  "peki": 4331, 
  "programları": 4332, 
  "deprem": 4333, 
  "yararlan@@": 4334, 
  "zamanla": 4335, 
  "harcamaları": 4336, 
  "hükümetinden": 4337, 
  "elerin": 4338, 
  "desteklenen": 4339, 
  "turda": 4340, 
  "eylemleri": 4341, 
  "profesörü": 4342, 
  "diğine": 4343, 
  "çi": 4344, 
  "anlaşmayla": 4345, 
  "uydu": 4346, 
  "projelerin": 4347, 
  "ac@@": 4348, 
  "çabaların": 4349, 
  "reddediyor": 4350, 
  "ülkelerdeki": 4351, 
  "güveni": 4352, 
  "müdür": 4353, 
  "dönen": 4354, 
  "duyduğunu": 4355, 
  "birer": 4356, 
  "alara": 4357, 
  "ir@@": 4358, 
  "statüsünün": 4359, 
  "bölümünde": 4360, 
  "eksiksiz": 4361, 
  "öncesine": 4362, 
  "başkanının": 4363, 
  "vazgeç@@": 4364, 
  "mücadeleyi": 4365, 
  "işini": 4366, 
  "İslami": 4367, 
  "tabi": 4368, 
  "kurbanların": 4369, 
  "ko": 4370, 
  "kapasitesini": 4371, 
  "inanılan": 4372, 
  "anketler": 4373, 
  "protestolar": 4374, 
  "programının": 4375, 
  "Mar@@": 4376, 
  "1980": 4377, 
  "geçirdiği": 4378, 
  "suça": 4379, 
  "Katolik": 4380, 
  "başla@@": 4381, 
  "sonuçlandı": 4382, 
  "tütün": 4383, 
  "DPS": 4384, 
  "ık": 4385, 
  "onayı": 4386, 
  "gerçekleştirildi": 4387, 
  "zanlılarını": 4388, 
  "PIC": 4389, 
  "bakanlığına": 4390, 
  "yar@@": 4391, 
  "kan@@": 4392, 
  "Direktörü": 4393, 
  "santral": 4394, 
  "müzakerelerinde": 4395, 
  "merkezinin": 4396, 
  "seç@@": 4397, 
  "duyuyor": 4398, 
  "korumaya": 4399, 
  "seçimlerinden": 4400, 
  "açıklandı": 4401, 
  "hükümetten": 4402, 
  "takımının": 4403, 
  "lar@@": 4404, 
  "oylamada": 4405, 
  "kilo": 4406, 
  "yolları": 4407, 
  "başkanlığına": 4408, 
  "meyeceği": 4409, 
  "Holkeri": 4410, 
  "işadamı": 4411, 
  "bakanlığın": 4412, 
  "SNSD": 4413, 
  "diplomatlar": 4414, 
  "53": 4415, 
  "savun@@": 4416, 
  "etrafında": 4417, 
  "Konferansı": 4418, 
  "düzenleyen": 4419, 
  "kıyısındaki": 4420, 
  "ur@@": 4421, 
  "gözlemci": 4422, 
  "ANA": 4423, 
  "verirken": 4424, 
  "fabrikası": 4425, 
  "acağız": 4426, 
  "haberde": 4427, 
  "getirilen": 4428, 
  "kapsamındaki": 4429, 
  "teklifi": 4430, 
  "adamları": 4431, 
  "dikleri": 4432, 
  "kasabası": 4433, 
  "şirketlerinin": 4434, 
  "gitmek": 4435, 
  "fiyatlar": 4436, 
  "girmek": 4437, 
  "KSF": 4438, 
  "sporcu": 4439, 
  "izle@@": 4440, 
  "azaltılması": 4441, 
  "hasta": 4442, 
  "adan": 4443, 
  "Schwarz": 4444, 
  "BSP": 4445, 
  "Estonya": 4446, 
  "özgürlüğünü": 4447, 
  "teşekküllü": 4448, 
  "ov": 4449, 
  "açtığını": 4450, 
  "Daha": 4451, 
  "ordusu": 4452, 
  "ısı": 4453, 
  "Rasim": 4454, 
  "oluşturmak": 4455, 
  "programda": 4456, 
  "kalacağını": 4457, 
  "SDA": 4458, 
  "pazarı": 4459, 
  "inanıyoruz": 4460, 
  "sabah": 4461, 
  "Ivica": 4462, 
  "fiili": 4463, 
  "dahi": 4464, 
  "39": 4465, 
  "49": 4466, 
  "uygulan@@": 4467, 
  "alarını": 4468, 
  "başladılar": 4469, 
  "komite": 4470, 
  "programını": 4471, 
  "vermişti": 4472, 
  "makamların": 4473, 
  "hal": 4474, 
  "edecektir": 4475, 
  "açmayı": 4476, 
  "Papadopulos": 4477, 
  "kategorisinde": 4478, 
  "dılar": 4479, 
  "ıldı": 4480, 
  "kullanmak": 4481, 
  "büyümeyi": 4482, 
  "meseleyi": 4483, 
  "Uygulama": 4484, 
  "general": 4485, 
  "merkeziyet": 4486, 
  "durumlarda": 4487, 
  "finansmanı": 4488, 
  "Terziç": 4489, 
  "diyaloğu": 4490, 
  "cumhurbaşkanlığının": 4491, 
  "sunmak": 4492, 
  "ılmış": 4493, 
  "işlem": 4494, 
  "koordinatörü": 4495, 
  "bağlayan": 4496, 
  "değerli": 4497, 
  "Kal@@": 4498, 
  "Racan": 4499, 
  "inanılıyor": 4500, 
  "Traykovski": 4501, 
  "Euronews": 4502, 
  "ıları": 4503, 
  "2014": 4504, 
  "kim": 4505, 
  "santralinin": 4506, 
  "devletinin": 4507, 
  "aylarında": 4508, 
  "Son": 4509, 
  "suçlarıyla": 4510, 
  "Partisinin": 4511, 
  "uygulanacak": 4512, 
  "askerlerin": 4513, 
  "gerçekleştirilecek": 4514, 
  "ebilir": 4515, 
  "suçlarla": 4516, 
  "Iraklı": 4517, 
  "benzin": 4518, 
  "Group": 4519, 
  "intihar": 4520, 
  "etkinliğin": 4521, 
  "sahipler": 4522, 
  "bildirildiğine": 4523, 
  "eviç": 4524, 
  "masaya": 4525, 
  "gözardı": 4526, 
  "nu": 4527, 
  "eline": 4528, 
  "52": 4529, 
  "çıktığı": 4530, 
  "görüyoruz": 4531, 
  "fonları": 4532, 
  "54": 4533, 
  "Ermenistan": 4534, 
  "değerlendirmek": 4535, 
  "Foniki": 4536, 
  "sok@@": 4537, 
  "bölgeden": 4538, 
  "gerek@@": 4539, 
  "anma": 4540, 
  "SRS": 4541, 
  "kapsayacak": 4542, 
  "liderin": 4543, 
  "bağlamda": 4544, 
  "istifasını": 4545, 
  "hep": 4546, 
  "çıkma": 4547, 
  "yolun": 4548, 
  "kay@@": 4549, 
  "töreni": 4550, 
  "dönüş@@": 4551, 
  "gelirleri": 4552, 
  "ü@@": 4553, 
  "Tarım": 4554, 
  "değiller": 4555, 
  "tanınması": 4556, 
  "öneriyi": 4557, 
  "the": 4558, 
  "üstlen@@": 4559, 
  "çekme": 4560, 
  "tersine": 4561, 
  "git@@": 4562, 
  "savcıları": 4563, 
  "olayda": 4564, 
  "Ana": 4565, 
  "Journal": 4566, 
  "başbakanlık": 4567, 
  "denetimi": 4568, 
  "Birlikle": 4569, 
  "siyasileri": 4570, 
  "gücüne": 4571, 
  "öldürülmesi": 4572, 
  "man": 4573, 
  "Yolsuzlukla": 4574, 
  "man@@": 4575, 
  "artmasına": 4576, 
  "değeri": 4577, 
  "amaç": 4578, 
  "sitesinde": 4579, 
  "diklerini": 4580, 
  "çabalarında": 4581, 
  "kaydettiğini": 4582, 
  "binin": 4583, 
  "gerginlik": 4584, 
  "Bölge": 4585, 
  "bağlantısı": 4586, 
  "kaç@@": 4587, 
  "görevleri": 4588, 
  "mültecilerin": 4589, 
  "Van": 4590, 
  "başvuru": 4591, 
  "af@@": 4592, 
  "siyasete": 4593, 
  "yarattığı": 4594, 
  "İş@@": 4595, 
  "dığını": 4596, 
  "daydı": 4597, 
  "Ege": 4598, 
  "denk": 4599, 
  "olmadığına": 4600, 
  "toplumların": 4601, 
  "tartış@@": 4602, 
  "öngörülen": 4603, 
  "lüks": 4604, 
  "Welle": 4605, 
  "yat@@": 4606, 
  "temiz": 4607, 
  "başlattığı": 4608, 
  "merkezindeki": 4609, 
  "Novak": 4610, 
  "ımı": 4611, 
  "orman": 4612, 
  "mücadeleye": 4613, 
  "kredisi": 4614, 
  "uz@@": 4615, 
  "tarihlerinde": 4616, 
  "Papa": 4617, 
  "başlamasını": 4618, 
  "Predrag": 4619, 
  "işin": 4620, 
  "sakin": 4621, 
  "kazanması": 4622, 
  "potansiyeli": 4623, 
  "tümü": 4624, 
  "900": 4625, 
  "okula": 4626, 
  "Financial": 4627, 
  "MSK": 4628, 
  "Ramazanoviç": 4629, 
  "Ergenekon": 4630, 
  "ter@@": 4631, 
  "Araştırmalar": 4632, 
  "tahsis": 4633, 
  "kapasitesi": 4634, 
  "Sancak": 4635, 
  "gelip": 4636, 
  "alanlarındaki": 4637, 
  "basit": 4638, 
  "yasasının": 4639, 
  "seviyesi": 4640, 
  "kaldırmak": 4641, 
  "evi": 4642, 
  "Simeon": 4643, 
  "durumunun": 4644, 
  "li@@": 4645, 
  "çocuklara": 4646, 
  "kapasitesine": 4647, 
  "görüştüler": 4648, 
  "72": 4649, 
  "larımız": 4650, 
  "Ashton": 4651, 
  "resim": 4652, 
  "işlerini": 4653, 
  "hedefinin": 4654, 
  "Yahudi": 4655, 
  "üyeliğe": 4656, 
  "dijital": 4657, 
  "aklama": 4658, 
  "aylar": 4659, 
  "Simiç": 4660, 
  "başlamasına": 4661, 
  "harika": 4662, 
  "BDP": 4663, 
  "başarıyla": 4664, 
  "turistlerin": 4665, 
  "görüşü": 4666, 
  "Ljubljana": 4667, 
  "ağının": 4668, 
  "fonların": 4669, 
  "ajansının": 4670, 
  "bekliyorlar": 4671, 
  "dim": 4672, 
  "Vlora": 4673, 
  "NIS": 4674, 
  "liğini": 4675, 
  "57": 4676, 
  "uzanan": 4677, 
  "konudaki": 4678, 
  "memiz": 4679, 
  "Füle": 4680, 
  "kesimindeki": 4681, 
  "elverişli": 4682, 
  "Svetla": 4683, 
  "yen@@": 4684, 
  "yazısında": 4685, 
  "binası": 4686, 
  "elere": 4687, 
  "büyükelçisi": 4688, 
  "imkansız": 4689, 
  "öz@@": 4690, 
  "95": 4691, 
  "kapısı": 4692, 
  "kuralları": 4693, 
  "temsilcilerinin": 4694, 
  "Wisner": 4695, 
  "katılımcıların": 4696, 
  "Europe": 4697, 
  "parayı": 4698, 
  "Bilgi": 4699, 
  "sür@@": 4700, 
  "Eylem": 4701, 
  "gecesi": 4702, 
  "Haciç": 4703, 
  "tahmini": 4704, 
  "batı": 4705, 
  "kullandığı": 4706, 
  "ödemek": 4707, 
  "girişimleri": 4708, 
  "suikast": 4709, 
  "ayrılmış": 4710, 
  "Spiriç": 4711, 
  "edebiyat": 4712, 
  "siyasetçiler": 4713, 
  "etmekten": 4714, 
  "hedeflerini": 4715, 
  "anla@@": 4716, 
  "reformlarını": 4717, 
  "modernize": 4718, 
  "Hava": 4719, 
  "UNICEF": 4720, 
  "Yunanlılar": 4721, 
  "James": 4722, 
  "tanesi": 4723, 
  "Svetozar": 4724, 
  "Rücker": 4725, 
  "olmaz": 4726, 
  "66": 4727, 
  "reformunun": 4728, 
  "ur": 4729, 
  "ekonomisini": 4730, 
  "kullanmaya": 4731, 
  "ölümcül": 4732, 
  "yönetimin": 4733, 
  "tarihine": 4734, 
  "Serbest": 4735, 
  "anı": 4736, 
  "stand": 4737, 
  "işletme": 4738, 
  "alım": 4739, 
  "Arnavutça": 4740, 
  "döneme": 4741, 
  "Pamuk": 4742, 
  "tehlike": 4743, 
  "cumhurbaşkanları": 4744, 
  "şiddete": 4745, 
  "açmak": 4746, 
  "kimi": 4747, 
  "katılımının": 4748, 
  "sanatçılar": 4749, 
  "kaynaklarını": 4750, 
  "cezalandır@@": 4751, 
  "şans": 4752, 
  "tıpkı": 4753, 
  "ödülünün": 4754, 
  "planlandığı": 4755, 
  "sonuçların": 4756, 
  "firmaları": 4757, 
  "sağlamayı": 4758, 
  "patlak": 4759, 
  "örgütler": 4760, 
  "Hollandalı": 4761, 
  "sonundan": 4762, 
  "Sekerinska": 4763, 
  "evlerine": 4764, 
  "56": 4765, 
  "genellikle": 4766, 
  "ihtiyatlı": 4767, 
  "adamı": 4768, 
  "öğrencisi": 4769, 
  "savcıların": 4770, 
  "tutarında": 4771, 
  "arıyor": 4772, 
  "çıkmak": 4773, 
  "krizle": 4774, 
  "Alfred": 4775, 
  "patlama": 4776, 
  "kırmızı": 4777, 
  "Boc": 4778, 
  "makamlar": 4779, 
  "ilişkilere": 4780, 
  "Komsiç": 4781, 
  "hisse": 4782, 
  "taslak": 4783, 
  "çalışırken": 4784, 
  "açacağını": 4785, 
  "belirlenmesi": 4786, 
  "irade": 4787, 
  "ilgilen@@": 4788, 
  "Bogdanoviç": 4789, 
  "çelik": 4790, 
  "Maria": 4791, 
  "yöneticisi": 4792, 
  "düzeyindeki": 4793, 
  "isine": 4794, 
  "Brezilya": 4795, 
  "mal@@": 4796, 
  "firmanın": 4797, 
  "bulmaya": 4798, 
  "kalmayıp": 4799, 
  "anlaşmaların": 4800, 
  "çalışıyoruz": 4801, 
  "İkili": 4802, 
  "Gençlik": 4803, 
  "nüfusa": 4804, 
  "sürüyorlar": 4805, 
  "ene": 4806, 
  "farkla": 4807, 
  "sürdürmek": 4808, 
  "ikisinin": 4809, 
  "konan": 4810, 
  "Bugün": 4811, 
  "kaybeden": 4812, 
  "seçimi": 4813, 
  "güçlerin": 4814, 
  "engelle@@": 4815, 
  "yük": 4816, 
  "gerisinde": 4817, 
  "nitelikte": 4818, 
  "imajını": 4819, 
  "gelmesini": 4820, 
  "lığını": 4821, 
  "eğer": 4822, 
  "krediyi": 4823, 
  "geriye": 4824, 
  "kalmaya": 4825, 
  "esinde": 4826, 
  "asıyla": 4827, 
  "artıracak": 4828, 
  "topladı": 4829, 
  "takımın": 4830, 
  "güçlendirmek": 4831, 
  "başlamak": 4832, 
  "Jelena": 4833, 
  "konferansında": 4834, 
  "alındığını": 4835, 
  "atıl@@": 4836, 
  "ülkeleriyle": 4837, 
  "kalmak": 4838, 
  "veriler": 4839, 
  "sağladığını": 4840, 
  "tan@@": 4841, 
  "Hristofyas": 4842, 
  "yurtdışındaki": 4843, 
  "Burns": 4844, 
  "Selimay": 4845, 
  "devamı": 4846, 
  "duydukları": 4847, 
  "Yapılanma": 4848, 
  "törenle": 4849, 
  "kurulmuş": 4850, 
  "boyu": 4851, 
  "normale": 4852, 
  "tarihini": 4853, 
  "öğretmen": 4854, 
  "Biljana": 4855, 
  "finansal": 4856, 
  "gönderme": 4857, 
  "kuvvetlerinin": 4858, 
  "Kon@@": 4859, 
  "yatırımcılara": 4860, 
  "350": 4861, 
  "salt": 4862, 
  "ic@@": 4863, 
  "yurtdışına": 4864, 
  "test": 4865, 
  "başlatmak": 4866, 
  "Kovaceviç": 4867, 
  "ılar": 4868, 
  "ecekler": 4869, 
  "görüşlü": 4870, 
  "almakla": 4871, 
  "um@@": 4872, 
  "etmesinden": 4873, 
  "kesintileri": 4874, 
  "Müsteşarı": 4875, 
  "amaz": 4876, 
  "sar@@": 4877, 
  "yıldönümünü": 4878, 
  "D": 4879, 
  "yaparken": 4880, 
  "d": 4881, 
  "iktidarda": 4882, 
  "sürdürülmesi": 4883, 
  "ofisi": 4884, 
  "caz": 4885, 
  "gösterilen": 4886, 
  "ismi": 4887, 
  "1994": 4888, 
  "tartışmak": 4889, 
  "sıfır": 4890, 
  "yaratıyor": 4891, 
  "sağlan@@": 4892, 
  "önceliği": 4893, 
  "Erlis": 4894, 
  "l": 4895, 
  "musunuz": 4896, 
  "öneme": 4897, 
  "güvenini": 4898, 
  "unsur": 4899, 
  "yık@@": 4900, 
  "düzenlenmesi": 4901, 
  "Kermabon": 4902, 
  "konumunu": 4903, 
  "perakende": 4904, 
  "yaşlı": 4905, 
  "düzeni": 4906, 
  "dünyaya": 4907, 
  "koalisyonun": 4908, 
  "yatırımın": 4909, 
  "alıyordu": 4910, 
  "yerlerde": 4911, 
  "sunacak": 4912, 
  "yetecek": 4913, 
  "dıkları": 4914, 
  "biliyor": 4915, 
  "mayacağı": 4916, 
  "mahkemede": 4917, 
  "katılımın": 4918, 
  "ış": 4919, 
  "koyduğu": 4920, 
  "konuya": 4921, 
  "analisti": 4922, 
  "ziyade": 4923, 
  "rakamlar": 4924, 
  "kazanmak": 4925, 
  "leme": 4926, 
  "Bitola": 4927, 
  "veril@@": 4928, 
  "yaklaş@@": 4929, 
  "euroya": 4930, 
  "cari": 4931, 
  "bulunuyorlar": 4932, 
  "yapılıyor": 4933, 
  "süt": 4934, 
  "uyor": 4935, 
  "takdir": 4936, 
  "olmalıdır": 4937, 
  "bat@@": 4938, 
  "yatırımların": 4939, 
  "Stratejik": 4940, 
  "doğumlu": 4941, 
  "geçir@@": 4942, 
  "savunuyorlar": 4943, 
  "kesimi": 4944, 
  "ekonomiye": 4945, 
  "komşuluk": 4946, 
  "kullanılması": 4947, 
  "alardan": 4948, 
  "itibariyle": 4949, 
  "alındığı": 4950, 
  "eş": 4951, 
  "hükümetleri": 4952, 
  "hoşgörü": 4953, 
  "bulunma": 4954, 
  "hoş": 4955, 
  "kurul@@": 4956, 
  "to": 4957, 
  "olaylarının": 4958, 
  "muadili": 4959, 
  "yaşamını": 4960, 
  "sayısız": 4961, 
  "bina": 4962, 
  "suçlarından": 4963, 
  "istatistik": 4964, 
  "ilere": 4965, 
  "şeffaflık": 4966, 
  "hedefleyen": 4967, 
  "sürecindeki": 4968, 
  "ilerle": 4969, 
  "geliş@@": 4970, 
  "ılmasını": 4971, 
  "engellemek": 4972, 
  "bildiriyor": 4973, 
  "ce": 4974, 
  "adayları": 4975, 
  "beraat": 4976, 
  "arkeoloji": 4977, 
  "MPA": 4978, 
  "müze": 4979, 
  "Kosumi": 4980, 
  "bölümünün": 4981, 
  "varlık": 4982, 
  "öldü": 4983, 
  "şimdilerde": 4984, 
  "uyarı": 4985, 
  "adaylar": 4986, 
  "ıcı": 4987, 
  "edeceğine": 4988, 
  "altıncı": 4989, 
  "Çinli": 4990, 
  "zirveye": 4991, 
  "yardıma": 4992, 
  "kontrolünü": 4993, 
  "Kathimerini": 4994, 
  "şair": 4995, 
  "Steiner": 4996, 
  "ekibinin": 4997, 
  "mahkemesinde": 4998, 
  "görme": 4999, 
  "1,2": 5000, 
  "yapmaları": 5001, 
  "bağımsızlığına": 5002, 
  "gerektiren": 5003, 
  "ayrıl@@": 5004, 
  "görüyorlar": 5005, 
  "Bürosu": 5006, 
  "elerini": 5007, 
  "kaz@@": 5008, 
  "atık": 5009, 
  "boş": 5010, 
  "çekildi": 5011, 
  "kolayca": 5012, 
  "dolaylı": 5013, 
  "Fena": 5014, 
  "tanın@@": 5015, 
  "eri": 5016, 
  "özelleştirilmesi": 5017, 
  "evlat": 5018, 
  "almaları": 5019, 
  "ov@@": 5020, 
  "dış@@": 5021, 
  "defalarca": 5022, 
  "radyo": 5023, 
  "Dimitrov": 5024, 
  "kuruluşunun": 5025, 
  "unsuru": 5026, 
  "tutumu": 5027, 
  "final": 5028, 
  "Robertson": 5029, 
  "63": 5030, 
  "törene": 5031, 
  "Rupel": 5032, 
  "ezici": 5033, 
  "statüsüne": 5034, 
  "yenilenebilir": 5035, 
  "hükümetlerin": 5036, 
  "maaşları": 5037, 
  "geçtiğini": 5038, 
  "Müslümanlar": 5039, 
  "varlığı": 5040, 
  "sorunlardan": 5041, 
  "ıldığını": 5042, 
  "maz": 5043, 
  "mas@@": 5044, 
  "sal@@": 5045, 
  "rejim": 5046, 
  "yaşadı": 5047, 
  "üyle": 5048, 
  "Post": 5049, 
  "programında": 5050, 
  "aktar@@": 5051, 
  "nitelendirdiği": 5052, 
  "inandığını": 5053, 
  "seçilmiş": 5054, 
  "gözlem": 5055, 
  "performansı": 5056, 
  "ilişkilerinde": 5057, 
  "buluyor": 5058, 
  "adımı": 5059, 
  "ötesinde": 5060, 
  "Vetevendosje": 5061, 
  "yenerek": 5062, 
  "hızlandır@@": 5063, 
  "Kore": 5064, 
  "ıldığı": 5065, 
  "belgeler": 5066, 
  "sağlayarak": 5067, 
  "engeller": 5068, 
  "katına": 5069, 
  "Çocuk": 5070, 
  "vurgulayan": 5071, 
  "güçlükler": 5072, 
  "yapıldığı": 5073, 
  "tatmin": 5074, 
  "ecektir": 5075, 
  "buçuk": 5076, 
  "etkilenen": 5077, 
  "taşıyacak": 5078, 
  "Askeri": 5079, 
  "san@@": 5080, 
  "başlatmaya": 5081, 
  "anne": 5082, 
  "ihlali": 5083, 
  "firmaların": 5084, 
  "iydi": 5085, 
  "art@@": 5086, 
  "unut@@": 5087, 
  "sorunlu": 5088, 
  "ağ@@": 5089, 
  "mobil": 5090, 
  "edilmişti": 5091, 
  "etkisini": 5092, 
  "milyondan": 5093, 
  "operasyonun": 5094, 
  "projelerine": 5095, 
  "ND": 5096, 
  "reddeden": 5097, 
  "Sezer": 5098, 
  "larımızı": 5099, 
  "ili": 5100, 
  "130": 5101, 
  "Ortak": 5102, 
  "ilerlemesi": 5103, 
  "Müdürlüğü": 5104, 
  "Rasmussen": 5105, 
  "halkını": 5106, 
  "oranını": 5107, 
  "yüzyıl": 5108, 
  "zamanının": 5109, 
  "dır": 5110, 
  "ilerden": 5111, 
  "yaratma": 5112, 
  "dans": 5113, 
  "sekreteri": 5114, 
  "tablo": 5115, 
  "devraldı": 5116, 
  "yazdı": 5117, 
  "Bütün": 5118, 
  "it": 5119, 
  "güçlerini": 5120, 
  "geçmişi": 5121, 
  "J@@": 5122, 
  "oranına": 5123, 
  "zirvesine": 5124, 
  "dık": 5125, 
  "ölçekli": 5126, 
  "ilişkilerinin": 5127, 
  "sahiptir": 5128, 
  "58": 5129, 
  "koruyor": 5130, 
  "lama": 5131, 
  "liderlerle": 5132, 
  "Girişimi": 5133, 
  "edin@@": 5134, 
  "kazanma": 5135, 
  "siyasetçi": 5136, 
  "koruması": 5137, 
  "Planı": 5138, 
  "kaybettiği": 5139, 
  "Çevre": 5140, 
  "vermesini": 5141, 
  "gelişmekte": 5142, 
  "iklim": 5143, 
  "katılımıyla": 5144, 
  "çıkarak": 5145, 
  "Tiyatro": 5146, 
  "gelmesine": 5147, 
  "Bunun": 5148, 
  "parlamentosunun": 5149, 
  "belirlemek": 5150, 
  "idir": 5151, 
  "fabrika": 5152, 
  "soruşturmanın": 5153, 
  "tane": 5154, 
  "eğitimli": 5155, 
  "Christian": 5156, 
  "çalışanların": 5157, 
  "bulunmuyor": 5158, 
  "seçil@@": 5159, 
  "undaki": 5160, 
  "hızlandırmaya": 5161, 
  "söylemek": 5162, 
  "oyuncusu": 5163, 
  "savcısı": 5164, 
  "lerimiz": 5165, 
  "Bar@@": 5166, 
  "artırmayı": 5167, 
  "açığının": 5168, 
  "hızlandırmak": 5169, 
  "oyuncular": 5170, 
  "satışı": 5171, 
  "ılacak": 5172, 
  "malıyız": 5173, 
  "Djukanoviç": 5174, 
  "Ahmeti": 5175, 
  "duyur@@": 5176, 
  "ıma": 5177, 
  "coğrafi": 5178, 
  "getiril@@": 5179, 
  "kır@@": 5180, 
  "münferit": 5181, 
  "attığı": 5182, 
  "hükümetiyle": 5183, 
  "tren": 5184, 
  "hata": 5185, 
  "sayfalık": 5186, 
  "kazanarak": 5187, 
  "hazırlanması": 5188, 
  "zarara": 5189, 
  "bariz": 5190, 
  "dıklarını": 5191, 
  "sağlay@@": 5192, 
  "Japon": 5193, 
  "iflas": 5194, 
  "anoviç": 5195, 
  "em@@": 5196, 
  "olasılığının": 5197, 
  "düşünüyoruz": 5198, 
  "vatandaşın": 5199, 
  "uygulanmasında": 5200, 
  "3,5": 5201, 
  "davran@@": 5202, 
  "aileleri": 5203, 
  "muhalif": 5204, 
  "olurdu": 5205, 
  "yolsuzluğu": 5206, 
  "tutuklanan": 5207, 
  "temsilcileriyle": 5208, 
  "fonu": 5209, 
  "acağından": 5210, 
  "malları": 5211, 
  "kork@@": 5212, 
  "savaştan": 5213, 
  "Gaşi": 5214, 
  "Street": 5215, 
  "beklendiğini": 5216, 
  "çekilmesi": 5217, 
  "bankaların": 5218, 
  "sının": 5219, 
  "babası": 5220, 
  "ünde": 5221, 
  "edebilir": 5222, 
  "turistik": 5223, 
  "Boskovski": 5224, 
  "Mircea": 5225, 
  "sizin": 5226, 
  "Tito": 5227, 
  "görevlileri": 5228, 
  "özür": 5229, 
  "meclisteki": 5230, 
  "ilerini": 5231, 
  "grev": 5232, 
  "İmparatorluğu": 5233, 
  "gün@@": 5234, 
  "etmemesi": 5235, 
  "teröre": 5236, 
  "yer@@": 5237, 
  "anlaşmasına": 5238, 
  "gösteril@@": 5239, 
  "Prag": 5240, 
  "medyada": 5241, 
  "şüphelenilen": 5242, 
  "van": 5243, 
  "Kurtuluş": 5244, 
  "geçirilen": 5245, 
  "Mediafax": 5246, 
  "kapılarını": 5247, 
  "anlaşmazlıklar": 5248, 
  "ız": 5249, 
  "açıkla@@": 5250, 
  "atıyor": 5251, 
  "ö@@": 5252, 
  "ziyaretçi": 5253, 
  "etkilen@@": 5254, 
  "hesap": 5255, 
  "öz": 5256, 
  "bakanın": 5257, 
  "Romanlar": 5258, 
  "haberinde": 5259, 
  "bağış@@": 5260, 
  "faaliyetlerinin": 5261, 
  "kaynaklarının": 5262, 
  "hazırlanmış": 5263, 
  "Baş@@": 5264, 
  "fonlarının": 5265, 
  "Cenevre": 5266, 
  "belirle@@": 5267, 
  "Koridor": 5268, 
  "model": 5269, 
  "diğinde": 5270, 
  "yargıç": 5271, 
  "durdur@@": 5272, 
  "Yerel": 5273, 
  "kaynaklardan": 5274, 
  "çağırıyor": 5275, 
  "tepkiler": 5276, 
  "içer@@": 5277, 
  "Sovyet": 5278, 
  "110": 5279, 
  "os@@": 5280, 
  "başvurusunu": 5281, 
  "Litvanya": 5282, 
  "us": 5283, 
  "kullanılıyor": 5284, 
  "Rompres": 5285, 
  "bulunmuştu": 5286, 
  "tarafında": 5287, 
  "günün": 5288, 
  "askerlik": 5289, 
  "ılara": 5290, 
  "rahatsız": 5291, 
  "birleş@@": 5292, 
  "hakaret": 5293, 
  "ihtilafının": 5294, 
  "medyaya": 5295, 
  "kuruluşun": 5296, 
  "mesajı": 5297, 
  "sene": 5298, 
  "demokrasinin": 5299, 
  "Ağı": 5300, 
  "alarıyla": 5301, 
  "doktorlar": 5302, 
  "savunan": 5303, 
  "kuzeyinde": 5304, 
  "mayla": 5305, 
  "çabayı": 5306, 
  "İcra": 5307, 
  "sıraya": 5308, 
  "ımızın": 5309, 
  "ilerlemesini": 5310, 
  "ziyaretini": 5311, 
  "diyaloğun": 5312, 
  "INA": 5313, 
  "isimler": 5314, 
  "sürdürdüğü": 5315, 
  "Oliver": 5316, 
  "aralarındaki": 5317, 
  "herkese": 5318, 
  "bağlayıcı": 5319, 
  "CEO": 5320, 
  "ziyaretinin": 5321, 
  "anlat@@": 5322, 
  "68": 5323, 
  "10@@": 5324, 
  "öldürüldüğü": 5325, 
  "bayan": 5326, 
  "bölgeleri": 5327, 
  "anlamı": 5328, 
  "erteleme": 5329, 
  "bayrağı": 5330, 
  "yapmakla": 5331, 
  "İdari": 5332, 
  "taş@@": 5333, 
  "lay@@": 5334, 
  "basketbol": 5335, 
  "Emil": 5336, 
  "çiz@@": 5337, 
  "yarışı": 5338, 
  "şeker": 5339, 
  "eksik": 5340, 
  "merkezine": 5341, 
  "iyordu": 5342, 
  "anlatıyor": 5343, 
  "istiyorsa": 5344, 
  "topraklarının": 5345, 
  "geleceğine": 5346, 
  "tamamlamak": 5347, 
  "üçü": 5348, 
  "ger@@": 5349, 
  "ticaretin": 5350, 
  "ja": 5351, 
  "AIDS": 5352, 
  "götür@@": 5353, 
  "Kopenhag": 5354, 
  "geçmesine": 5355, 
  "politikalar": 5356, 
  "melerinin": 5357, 
  "cinsel": 5358, 
  "sonuçlanan": 5359, 
  "çıktığını": 5360, 
  "diğimiz": 5361, 
  "görüşmelerinin": 5362, 
  "yürütme": 5363, 
  "herşeyi": 5364, 
  "İzleme": 5365, 
  "ünden": 5366, 
  "avukatı": 5367, 
  "eylemi": 5368, 
  "deyimiyle": 5369, 
  "ab@@": 5370, 
  "seçilmesi": 5371, 
  "makul": 5372, 
  "78": 5373, 
  "söylerken": 5374, 
  "araştır@@": 5375, 
  "ılmasına": 5376, 
  "abil@@": 5377, 
  "dönüşü": 5378, 
  "up": 5379, 
  "gösterileri": 5380, 
  "sınıf": 5381, 
  "size": 5382, 
  "gösterecek": 5383, 
  "isinde": 5384, 
  "ifadesinin": 5385, 
  "İdaresi": 5386, 
  "Condoleezza": 5387, 
  "atma": 5388, 
  "gücün": 5389, 
  "suçlardan": 5390, 
  "gelişim": 5391, 
  "niyet": 5392, 
  "buldular": 5393, 
  "gelmek": 5394, 
  "kanıtı": 5395, 
  "ilerliyor": 5396, 
  "yaşandığı": 5397, 
  "yarattı": 5398, 
  "Parlamenterler": 5399, 
  "sağlandı": 5400, 
  "idam": 5401, 
  "çıkarına": 5402, 
  "Sanayi": 5403, 
  "Andy": 5404, 
  "desteğine": 5405, 
  "W@@": 5406, 
  "Frank": 5407, 
  "Çalışma": 5408, 
  "gösterisi": 5409, 
  "görüldüğü": 5410, 
  "enerjisi": 5411, 
  "ımızı": 5412, 
  "vurguladılar": 5413, 
  "tutulan": 5414, 
  "ıyoruz": 5415, 
  "standartlarının": 5416, 
  "kapsıyor": 5417, 
  "sürdürmesi": 5418, 
  "ümit": 5419, 
  "düşürdü": 5420, 
  "kazandılar": 5421, 
  "analiz": 5422, 
  "140": 5423, 
  "yaklaşmakta": 5424, 
  "başarısı": 5425, 
  "osu": 5426, 
  "kınadı": 5427, 
  "akaryakıt": 5428, 
  "dikten": 5429, 
  "olmuştur": 5430, 
  "katılanlar": 5431, 
  "Makedonlar": 5432, 
  "yansıtıyor": 5433, 
  "arasından": 5434, 
  "çalışanlarının": 5435, 
  "bölünme": 5436, 
  "ellerinde": 5437, 
  "uyguladığı": 5438, 
  "bağlayacak": 5439, 
  "durumdalar": 5440, 
  "başlayacağını": 5441, 
  "iddialı": 5442, 
  "listesine": 5443, 
  "ulustan": 5444, 
  "yayınladıkları": 5445, 
  "zamana": 5446, 
  "taş": 5447, 
  "temas": 5448, 
  "notu": 5449, 
  "beklemek": 5450, 
  "değiştirmek": 5451, 
  "lığa": 5452, 
  "ayrıldı": 5453, 
  "devletler": 5454, 
  "sonuca": 5455, 
  "tüketici": 5456, 
  "yapılmasına": 5457, 
  "edilmesinin": 5458, 
  "bağlantıları": 5459, 
  "veri": 5460, 
  "ölü": 5461, 
  "korun@@": 5462, 
  "büyümesi": 5463, 
  "Cokoviç": 5464, 
  "yakalan@@": 5465, 
  "alarla": 5466, 
  "gününde": 5467, 
  "Er@@": 5468, 
  "ateşli": 5469, 
  "çözümler": 5470, 
  "ha@@": 5471, 
  "yeraltı": 5472, 
  "demek": 5473, 
  "sayede": 5474, 
  "olayla": 5475, 
  "Mal@@": 5476, 
  "Aziz": 5477, 
  "çoğunu": 5478, 
  "yay@@": 5479, 
  "genişle@@": 5480, 
  "desteklediği": 5481, 
  "mühimmat": 5482, 
  "çoğunluğunu": 5483, 
  "nokta": 5484, 
  "yürütüyor": 5485, 
  "bomba": 5486, 
  "ses": 5487, 
  "ayla": 5488, 
  "Anlaşmasını": 5489, 
  "Prodi": 5490, 
  "söylemişti": 5491, 
  "kapatma": 5492, 
  "Nine": 5493, 
  "güneydoğu": 5494, 
  "yasalarını": 5495, 
  "başlamış": 5496, 
  "uzmanların": 5497, 
  "yardımın": 5498, 
  "şeyleri": 5499, 
  "nedenlerden": 5500, 
  "icra": 5501, 
  "Strazburg": 5502, 
  "ılarak": 5503, 
  "döneminden": 5504, 
  "Gümrük": 5505, 
  "faaliyetlerin": 5506, 
  "tesisi": 5507, 
  "rock": 5508, 
  "ilerletmek": 5509, 
  "dağ@@": 5510, 
  "gölge": 5511, 
  "ulaşım": 5512, 
  "rejimini": 5513, 
  "belediyeler": 5514, 
  "ladı": 5515, 
  "malarının": 5516, 
  "temsilcilerin": 5517, 
  "listede": 5518, 
  "yönetimini": 5519, 
  "mirası": 5520, 
  "ettiklerini": 5521, 
  "yorum@@": 5522, 
  "memur": 5523, 
  "yatırımcıları": 5524, 
  "başarısızlıkla": 5525, 
  "inşasına": 5526, 
  "oluşturduğunu": 5527, 
  "Lazarova": 5528, 
  "yapılarına": 5529, 
  "kapasiteye": 5530, 
  "tahliye": 5531, 
  "Bamir": 5532, 
  "üyeliğin": 5533, 
  "Hukuk": 5534, 
  "dayanışma": 5535, 
  "ekonomisine": 5536, 
  "uygulamasının": 5537, 
  "bar@@": 5538, 
  "y": 5539, 
  "atmaya": 5540, 
  "ş": 5541, 
  "anlara": 5542, 
  "puanı": 5543, 
  "Dink": 5544, 
  "meydan": 5545, 
  "belediyesi": 5546, 
  "Kriz": 5547, 
  "değerlendirdi": 5548, 
  "paylaş@@": 5549, 
  "Brajshori": 5550, 
  "der": 5551, 
  "akın": 5552, 
  "çocuğun": 5553, 
  "övgü": 5554, 
  "Daianu": 5555, 
  "SDS": 5556, 
  "değişiyor": 5557, 
  "ortamda": 5558, 
  "tekstil": 5559, 
  "BTA": 5560, 
  "partilere": 5561, 
  "Eroğlu": 5562, 
  "firmalar": 5563, 
  "kamuoyunda": 5564, 
  "politikalarını": 5565, 
  "ihtiyaçları": 5566, 
  "onlarca": 5567, 
  "noktasına": 5568, 
  "alıcı": 5569, 
  "milyonluk": 5570, 
  "pazar@@": 5571, 
  "yapıl@@": 5572, 
  "64": 5573, 
  "eceklerini": 5574, 
  "görüşünü": 5575, 
  "bulunmasına": 5576, 
  "adayların": 5577, 
  "hedef@@": 5578, 
  "milletvekilinin": 5579, 
  "İstihbarat": 5580, 
  "ilerinin": 5581, 
  "ia": 5582, 
  "1.@@": 5583, 
  "alt@@": 5584, 
  "çıkış": 5585, 
  "hedefler": 5586, 
  "etkileyici": 5587, 
  "C": 5588, 
  "makamlarını": 5589, 
  "katılmasını": 5590, 
  "gerekiyordu": 5591, 
  "şiddetin": 5592, 
  "referandumu": 5593, 
  "61": 5594, 
  "hiçbiri": 5595, 
  "SPS": 5596, 
  "bebek": 5597, 
  "kendileri": 5598, 
  "sız": 5599, 
  "bizzat": 5600, 
  "karşılama": 5601, 
  "Havaalanı": 5602, 
  "diğeri": 5603, 
  "kitabı": 5604, 
  "St.": 5605, 
  "kullanım": 5606, 
  "gelişmeleri": 5607, 
  "amayacağını": 5608, 
  "durumla": 5609, 
  "Kitap": 5610, 
  "ül@@": 5611, 
  "lerimizi": 5612, 
  "af": 5613, 
  "gitmesi": 5614, 
  "Radovanoviç": 5615, 
  "bekliyorum": 5616, 
  "seyirci": 5617, 
  "Hersekli": 5618, 
  "eleme": 5619, 
  "açıkladılar": 5620, 
  "gösteriler": 5621, 
  "kentte": 5622, 
  "İsrailli": 5623, 
  "görmüş": 5624, 
  "Yılmaz": 5625, 
  "tar@@": 5626, 
  "zaferi": 5627, 
  "dörtte": 5628, 
  "sonuçlarına": 5629, 
  "binasının": 5630, 
  "odaklan@@": 5631, 
  "referandumda": 5632, 
  "maktır": 5633, 
  "Yap@@": 5634, 
  "düzenleniyor": 5635, 
  "değiştir@@": 5636, 
  "Focus": 5637, 
  "ıyorum": 5638, 
  "Mali": 5639, 
  "edileceğini": 5640, 
  "67": 5641, 
  "kaçınılmaz": 5642, 
  "fiyatlarının": 5643, 
  "organizasyon": 5644, 
  "pazarının": 5645, 
  "gereksiz": 5646, 
  "taşı": 5647, 
  "davalar": 5648, 
  "sanmıyorum": 5649, 
  "karşılaştığı": 5650, 
  "adaylığı": 5651, 
  "istikrarını": 5652, 
  "davasında": 5653, 
  "üyeler": 5654, 
  "bilgiye": 5655, 
  "katılarak": 5656, 
  "Seselj": 5657, 
  "kıs@@": 5658, 
  "yirmi": 5659, 
  "rakamlara": 5660, 
  "ımın": 5661, 
  "liberal": 5662, 
  "üyeleriyle": 5663, 
  "kadınlara": 5664, 
  "umuduyla": 5665, 
  "geçmek": 5666, 
  "metreküp": 5667, 
  "yapısı": 5668, 
  "binanın": 5669, 
  "varsa": 5670, 
  "meselenin": 5671, 
  "bakıldığında": 5672, 
  "suçlamada": 5673, 
  "yararına": 5674, 
  "bakım": 5675, 
  "konumda": 5676, 
  "Gazeteciler": 5677, 
  "Diyarbakır": 5678, 
  "projesini": 5679, 
  "r": 5680, 
  "işgal": 5681, 
  "şok": 5682, 
  "yüzyıldan": 5683, 
  "faaliyetler": 5684, 
  "başvuruda": 5685, 
  "rejimin": 5686, 
  "ölümüne": 5687, 
  "hedeflere": 5688, 
  "saldırının": 5689, 
  "sistemleri": 5690, 
  "açılmasını": 5691, 
  "kolaylaştır@@": 5692, 
  "EIB": 5693, 
  "Edi": 5694, 
  "planında": 5695, 
  "insanı": 5696, 
  "vatandaşlık": 5697, 
  "asından": 5698, 
  "dernek": 5699, 
  "dolaşım": 5700, 
  "ihracatı": 5701, 
  "görül@@": 5702, 
  "konferansına": 5703, 
  "endişeler": 5704, 
  "Lavrov": 5705, 
  "kaynaklara": 5706, 
  "Dr.": 5707, 
  "fazlasının": 5708, 
  "potansiyeline": 5709, 
  "59": 5710, 
  "makamlarına": 5711, 
  "ebileceğini": 5712, 
  "Wall": 5713, 
  "kabinenin": 5714, 
  "istikrarsızlık": 5715, 
  "evde": 5716, 
  "faaliyetlerine": 5717, 
  "alarından": 5718, 
  "ufak": 5719, 
  "Ivanov": 5720, 
  "EXIT": 5721, 
  "atması": 5722, 
  "etkilerini": 5723, 
  "cezalar": 5724, 
  "Brcko": 5725, 
  "ışığına": 5726, 
  "alkol": 5727, 
  "Romanların": 5728, 
  "be@@": 5729, 
  "merkezleri": 5730, 
  "iadesi": 5731, 
  "ırsa": 5732, 
  "giriş@@": 5733, 
  "tik": 5734, 
  "sürülüyor": 5735, 
  "gerekirse": 5736, 
  "engelleri": 5737, 
  "hizmetler": 5738, 
  "Basın": 5739, 
  "katliamı": 5740, 
  "statüsüyle": 5741, 
  "CoE": 5742, 
  "Beyaz": 5743, 
  "Yunanlı": 5744, 
  "Coburg": 5745, 
  "tır": 5746, 
  "yangın": 5747, 
  "çıkart@@": 5748, 
  "etmeyeceğini": 5749, 
  "arz": 5750, 
  "programlar": 5751, 
  "uzat@@": 5752, 
  "iler@@": 5753, 
  "Saxe": 5754, 
  "çocuğu": 5755, 
  "demokrat": 5756, 
  "entegrasyonuna": 5757, 
  "ler@@": 5758, 
  "dar@@": 5759, 
  "oybirliğiyle": 5760, 
  "Mil@@": 5761, 
  "kaliteli": 5762, 
  "Hırvatların": 5763, 
  "yaşan@@": 5764, 
  "74": 5765, 
  "yapmakta": 5766, 
  "iniz": 5767, 
  "devreye": 5768, 
  "köy": 5769, 
  "görünüm": 5770, 
  "ulaşması": 5771, 
  "kamuoyunun": 5772, 
  "konunun": 5773, 
  "Araştırmaları": 5774, 
  "askerî": 5775, 
  "kapasite": 5776, 
  "Bekiri": 5777, 
  "onur": 5778, 
  "saatler": 5779, 
  "not": 5780, 
  "Kongresi": 5781, 
  "bulunuyordu": 5782, 
  "nüfuz": 5783, 
  "partiye": 5784, 
  "yasasında": 5785, 
  "1974": 5786, 
  "sorunuyla": 5787, 
  "acakları": 5788, 
  "inşaatı": 5789, 
  "zanlılar": 5790, 
  "ülkesini": 5791, 
  "eylemler": 5792, 
  "bulundukları": 5793, 
  "faydalan@@": 5794, 
  "rekabetçi": 5795, 
  "uygulamasına": 5796, 
  "abiliyor": 5797, 
  "standartlar": 5798, 
  "varlığının": 5799, 
  "reklam": 5800, 
  "Airlines": 5801, 
  "deneyim": 5802, 
  "felaket": 5803, 
  "nevi": 5804, 
  "Devletleri": 5805, 
  "sev@@": 5806, 
  "ortakları": 5807, 
  "teşkilatının": 5808, 
  "yüzyılın": 5809, 
  "tanı@@": 5810, 
  "mahkemelerin": 5811, 
  "vermesine": 5812, 
  "birbirinden": 5813, 
  "etkinlikler": 5814, 
  "Fatos": 5815, 
  "talebini": 5816, 
  "ılacağını": 5817, 
  "değiştirmeye": 5818, 
  "Simitis": 5819, 
  "dur": 5820, 
  "oluş@@": 5821, 
  "yetkilinin": 5822, 
  "etmiyor": 5823, 
  "izlemek": 5824, 
  "partiyi": 5825, 
  "ortamını": 5826, 
  "Filistin": 5827, 
  "Sırpça": 5828, 
  "öneriler": 5829, 
  "kararlarını": 5830, 
  "savunmasız": 5831, 
  "84": 5832, 
  "69": 5833, 
  "tuttu": 5834, 
  "politik": 5835, 
  "artışa": 5836, 
  "yapacakları": 5837, 
  "Kaletoviç": 5838, 
  "Özelleştirme": 5839, 
  "yönetmeni": 5840, 
  "parlak": 5841, 
  "Şu": 5842, 
  "eyi": 5843, 
  "yarışma": 5844, 
  "sağladılar": 5845, 
  "Gordana": 5846, 
  "meselelerin": 5847, 
  "duruşma": 5848, 
  "fikirde": 5849, 
  "plastik": 5850, 
  "duruyor": 5851, 
  "Bel@@": 5852, 
  "atılması": 5853, 
  "hazırladı": 5854, 
  "beklediği": 5855, 
  "açması": 5856, 
  "Koha": 5857, 
  "görüşmenin": 5858, 
  "ailenin": 5859, 
  "Sutanovac": 5860, 
  "bini": 5861, 
  "2015": 5862, 
  "kalp": 5863, 
  "iddialarını": 5864, 
  "2020": 5865, 
  "Struga": 5866, 
  "şirketlere": 5867, 
  "eleştiren": 5868, 
  "sembolik": 5869, 
  "kişiden": 5870, 
  "habere": 5871, 
  "sağla@@": 5872, 
  "özerk": 5873, 
  "önerisinde": 5874, 
  "bütçesini": 5875, 
  "denetleme": 5876, 
  "lenen": 5877, 
  "tüketim": 5878, 
  "erişimi": 5879, 
  "Nikolay": 5880, 
  "ziyaretçiler": 5881, 
  "ayrılması": 5882, 
  "kadının": 5883, 
  "devralacak": 5884, 
  "kurduğu": 5885, 
  "Yasası": 5886, 
  "sonrasındaki": 5887, 
  "hak@@": 5888, 
  "iden": 5889, 
  "bürosu": 5890, 
  "bütçesinin": 5891, 
  "Coviç": 5892, 
  "genelkurmay": 5893, 
  "gayrı": 5894, 
  "4,5": 5895, 
  "i-": 5896, 
  "istediklerini": 5897, 
  "cezaları": 5898, 
  "çıkmaya": 5899, 
  "otur@@": 5900, 
  "Telegraph": 5901, 
  "açıl@@": 5902, 
  "inceleme": 5903, 
  "tasar@@": 5904, 
  "eriyor": 5905, 
  "gönderilen": 5906, 
  "oynayan": 5907, 
  "orijinal": 5908, 
  "ICG": 5909, 
  "özelliğini": 5910, 
  "Gabriel": 5911, 
  "soğuk": 5912, 
  "gerçeği": 5913, 
  "lise": 5914, 
  "Ay@@": 5915, 
  "malarından": 5916, 
  "büyüklükteki": 5917, 
  "seviyeye": 5918, 
  "sınırın": 5919, 
  "liste": 5920, 
  "yapıyorlar": 5921, 
  "esinden": 5922, 
  "faal": 5923, 
  "tanınıyor": 5924, 
  "enler": 5925, 
  "toplamda": 5926, 
  "uygula@@": 5927, 
  "meslektaşı": 5928, 
  "liderlerini": 5929, 
  "gider@@": 5930, 
  "World": 5931, 
  "Petroviç": 5932, 
  "yakalanması": 5933, 
  "kişileri": 5934, 
  "beyan": 5935, 
  "kaydeden": 5936, 
  "nitelendirerek": 5937, 
  "partiden": 5938, 
  "kimliği": 5939, 
  "Standard": 5940, 
  "seçmek": 5941, 
  "çekil@@": 5942, 
  "Fiat": 5943, 
  "mahkemeler": 5944, 
  "imizi": 5945, 
  "başkanlığında": 5946, 
  "cinsiyet": 5947, 
  "açıklamalarda": 5948, 
  "öğrencileri": 5949, 
  "kullanımını": 5950, 
  "başbakanları": 5951, 
  "destekleyecek": 5952, 
  "1,3": 5953, 
  "Adnan": 5954, 
  "Özgürlük": 5955, 
  "yıl@@": 5956, 
  "eğ@@": 5957, 
  "sanıkların": 5958, 
  "Milos": 5959, 
  "taleplerini": 5960, 
  "ağını": 5961, 
  "mantıklı": 5962, 
  "atan": 5963, 
  "isinden": 5964, 
  "Parlamento": 5965, 
  "Petrov": 5966, 
  "1,6": 5967, 
  "Ardi": 5968, 
  "odak": 5969, 
  "Bedrana": 5970, 
  "içeriyor": 5971, 
  "tamamlan@@": 5972, 
  "koşulların": 5973, 
  "programa": 5974, 
  "krediler": 5975, 
  "kapasitesinin": 5976, 
  "başlay@@": 5977, 
  "San@@": 5978, 
  "olmalarına": 5979, 
  "vermekle": 5980, 
  "Pulaj": 5981, 
  "Stefanoviç": 5982, 
  "konuların": 5983, 
  "görev@@": 5984, 
  "yasama": 5985, 
  "tanım@@": 5986, 
  "çözmeye": 5987, 
  "etmesinin": 5988, 
  "day@@": 5989, 
  "gez@@": 5990, 
  "ış@@": 5991, 
  "g": 5992, 
  "EUobserver": 5993, 
  "dik@@": 5994, 
  "hemfikir": 5995, 
  "Türkleri": 5996, 
  "sular": 5997, 
  "yapmasına": 5998, 
  "men@@": 5999, 
  "ıya": 6000, 
  "bağ@@": 6001, 
  "balıkçılık": 6002, 
  "gözaltında": 6003, 
  "ri@@": 6004, 
  "komutan": 6005, 
  "komutası": 6006, 
  "madaki": 6007, 
  "üste": 6008, 
  "olmanın": 6009, 
  "Çok": 6010, 
  "miktarı": 6011, 
  "yaşamı": 6012, 
  "öldürüldü": 6013, 
  "yedek": 6014, 
  "Popoviç": 6015, 
  "yasağı": 6016, 
  "görün@@": 6017, 
  "İzmir": 6018, 
  "mülk": 6019, 
  "yoktu": 6020, 
  "yiyecek": 6021, 
  "dürüst": 6022, 
  "alar@@": 6023, 
  "yaşama": 6024, 
  "yol@@": 6025, 
  "Öz@@": 6026, 
  "yapıları": 6027, 
  "hastane": 6028, 
  "ilerleyen": 6029, 
  "Powell": 6030, 
  "edebileceğini": 6031, 
  "ola@@": 6032, 
  "ihtiyaçlarını": 6033, 
  "koordinasyon": 6034, 
  "kuvvetler": 6035, 
  "kurtar@@": 6036, 
  "Deniz": 6037, 
  "bulunurken": 6038, 
  "180": 6039, 
  "belgesel": 6040, 
  "hissesi": 6041, 
  "hazırlan@@": 6042, 
  "gösterme": 6043, 
  "ter": 6044, 
  "Misyonu": 6045, 
  "Tüzüğü": 6046, 
  "bizler": 6047, 
  "çalışanı": 6048, 
  "Kor@@": 6049, 
  "Gün@@": 6050, 
  "yasalarına": 6051, 
  "pazarlama": 6052, 
  "kabinesi": 6053, 
  "liğinin": 6054, 
  "önlenmesi": 6055, 
  "devriye": 6056, 
  "kapatılması": 6057, 
  "kalmasını": 6058, 
  "öğrencilere": 6059, 
  "çıkmasına": 6060, 
  "MW": 6061, 
  "tasarıyı": 6062, 
  "adının": 6063, 
  "doldur@@": 6064, 
  "ayının": 6065, 
  "DNA": 6066, 
  "ık@@": 6067, 
  "klasik": 6068, 
  "aileler": 6069, 
  "uğradığı": 6070, 
  "güvenliğin": 6071, 
  "aradaki": 6072, 
  "verdik": 6073, 
  "Elektrik": 6074, 
  "Suç": 6075, 
  "düzenle@@": 6076, 
  "gündemde": 6077, 
  "çıkarıl@@": 6078, 
  "Medvedev": 6079, 
  "umudunu": 6080, 
  "kaynaklı": 6081, 
  "Ramuş": 6082, 
  "Türklerin": 6083, 
  "işbirliğinde": 6084, 
  "II": 6085, 
  "Kabashi": 6086, 
  "geldiğinde": 6087, 
  "dığına": 6088, 
  "kişilere": 6089, 
  "işbirliğinden": 6090, 
  "söylemekle": 6091, 
  "haberleri": 6092, 
  "işadamları": 6093, 
  "modernizasyonu": 6094, 
  "araştırmaya": 6095, 
  "..": 6096, 
  "çoğunlukta": 6097, 
  "Orhan": 6098, 
  "Blair": 6099, 
  "yöndeki": 6100, 
  "yetkililerine": 6101, 
  "am": 6102, 
  "balık": 6103, 
  "maların": 6104, 
  "Doları": 6105, 
  "önerdiği": 6106, 
  "sergiledi": 6107, 
  "tutul@@": 6108, 
  "eceğiz": 6109, 
  "eğilimi": 6110, 
  "JAT": 6111, 
  "ebilecek": 6112, 
  "umuz": 6113, 
  "arttığını": 6114, 
  "ondan": 6115, 
  "eve": 6116, 
  "eti": 6117, 
  "olacaklar": 6118, 
  "sağ@@": 6119, 
  "sonuçlarının": 6120, 
  "Milli": 6121, 
  "tığını": 6122, 
  "başvurusunda": 6123, 
  "ilerlemesine": 6124, 
  "birliğine": 6125, 
  "şahıs": 6126, 
  "gönderil@@": 6127, 
  "Beth": 6128, 
  "çekmeye": 6129, 
  "istemiyor": 6130, 
  "seçme": 6131, 
  "Kadın": 6132, 
  "yakınında": 6133, 
  "eyalete": 6134, 
  "sürdürdüğünü": 6135, 
  "hesap@@": 6136, 
  "filmler": 6137, 
  "bölgesinden": 6138, 
  "karış@@": 6139, 
  "toplan@@": 6140, 
  "han@@": 6141, 
  "çalışmaların": 6142, 
  "liyor": 6143, 
  "Muammer": 6144, 
  "id@@": 6145, 
  "dönüşüm": 6146, 
  "sa@@": 6147, 
  "yazdığı": 6148, 
  "ser@@": 6149, 
  "uç@@": 6150, 
  "par@@": 6151, 
  "çabalara": 6152, 
  "Fatih": 6153, 
  "eceğinden": 6154, 
  "yarar": 6155, 
  "elerine": 6156, 
  "planlama": 6157, 
  "safhasında": 6158, 
  "dost": 6159, 
  "soldan": 6160, 
  "referanduma": 6161, 
  "kentine": 6162, 
  "gerçekleşiyor": 6163, 
  "değerindeki": 6164, 
  "KESH": 6165, 
  "girme": 6166, 
  "paketini": 6167, 
  "yenileme": 6168, 
  "diz@@": 6169, 
  "Sava": 6170, 
  "olmamakla": 6171, 
  "kullanımına": 6172, 
  "soktu": 6173, 
  "belirt@@": 6174, 
  "kapı": 6175, 
  "kü@@": 6176, 
  "landı": 6177, 
  "hi@@": 6178, 
  "Albert": 6179, 
  "servis": 6180, 
  "zorundayız": 6181, 
  "kimyasal": 6182, 
  "uğradı": 6183, 
  "koyuyor": 6184, 
  "örgüte": 6185, 
  "referandumun": 6186, 
  "komünizmin": 6187, 
  "Özgür": 6188, 
  "lığın": 6189, 
  "hızlandırılması": 6190, 
  "tasarı": 6191, 
  "lamaya": 6192, 
  "ettiğine": 6193, 
  "dendi": 6194, 
  "gelmiştir": 6195, 
  "sergilediği": 6196, 
  "bilet": 6197, 
  "sundular": 6198, 
  "parça": 6199, 
  "keskin": 6200, 
  "operasyonları": 6201, 
  "sektörde": 6202, 
  "misyonuna": 6203, 
  "suçlamaların": 6204, 
  "Karşı": 6205, 
  "kaçakçılıkla": 6206, 
  "Budapeşte": 6207, 
  "yolunun": 6208, 
  "karşılıyor": 6209, 
  "göstermektedir": 6210, 
  "komünizm": 6211, 
  "artarak": 6212, 
  "Miller": 6213, 
  "hükümette": 6214, 
  "geleneklerini": 6215, 
  "tur@@": 6216, 
  "elerinin": 6217, 
  "ilki": 6218, 
  "tamamını": 6219, 
  "alanlardaki": 6220, 
  "83": 6221, 
  "isiyle": 6222, 
  "hakimler": 6223, 
  "talimatı": 6224, 
  "kararlılık": 6225, 
  "verip": 6226, 
  "suçluların": 6227, 
  "sayım": 6228, 
  "noktaya": 6229, 
  "76": 6230, 
  "ıların": 6231, 
  "Novosti": 6232, 
  "Sasa": 6233, 
  "Caviç": 6234, 
  "olaydan": 6235, 
  "Madrid": 6236, 
  "beklen@@": 6237, 
  "Biden": 6238, 
  "Miroljub": 6239, 
  "alınıyor": 6240, 
  "birliğin": 6241, 
  "gruba": 6242, 
  "öldürülen": 6243, 
  "Holding": 6244, 
  "raporunun": 6245, 
  "birbirlerine": 6246, 
  "Corceviç": 6247, 
  "acaklarını": 6248, 
  "dışına": 6249, 
  "81": 6250, 
  "yendi": 6251, 
  "Anayasası": 6252, 
  "diğerlerinin": 6253, 
  "elerden": 6254, 
  "bulunmaya": 6255, 
  "geleceğinin": 6256, 
  "yayınlandı": 6257, 
  "kim@@": 6258, 
  "denli": 6259, 
  "kampanyanın": 6260, 
  "önlemleri": 6261, 
  "termik": 6262, 
  "sine": 6263, 
  "mallarının": 6264, 
  "ilgisini": 6265, 
  "yapılacağını": 6266, 
  "firmasının": 6267, 
  "Foniqi": 6268, 
  "çeyreğinde": 6269, 
  "adaletin": 6270, 
  "Poor": 6271, 
  "ziyaretin": 6272, 
  "Rahibe": 6273, 
  "haklar": 6274, 
  "seviyesini": 6275, 
  "alarında": 6276, 
  "sözler": 6277, 
  "aylarca": 6278, 
  "sağlayacaktır": 6279, 
  "tutuklan@@": 6280, 
  "lerse": 6281, 
  "standart": 6282, 
  "Priştineli": 6283, 
  "kavuş@@": 6284, 
  "verildiği": 6285, 
  "maçı": 6286, 
  "artışın": 6287, 
  "Fried": 6288, 
  "vermedi": 6289, 
  "bulunacağını": 6290, 
  "göstericiler": 6291, 
  "sivillere": 6292, 
  "mektir": 6293, 
  "sözünü": 6294, 
  "Sarayı": 6295, 
  "layan": 6296, 
  "baskısı": 6297, 
  "kadarki": 6298, 
  "eğitime": 6299, 
  "bildir@@": 6300, 
  "ilerinden": 6301, 
  "Razvan": 6302, 
  "ölümü": 6303, 
  "Kabaşi": 6304, 
  "teknolojik": 6305, 
  "dolaş@@": 6306, 
  "Radmanoviç": 6307, 
  "atıldı": 6308, 
  "belirsizlik": 6309, 
  "77": 6310, 
  "imizin": 6311, 
  "nakit": 6312, 
  "mutlu": 6313, 
  "Türklerinin": 6314, 
  "sürerken": 6315, 
  "cezaevi": 6316, 
  "çatışmaların": 6317, 
  "sağlamanın": 6318, 
  "serbestleştirme": 6319, 
  "edebil@@": 6320, 
  "tutma": 6321, 
  "Monitor": 6322, 
  "AAK": 6323, 
  "Geleceği": 6324, 
  "Mlacan": 6325, 
  "çıkmaz": 6326, 
  "ilgilendiren": 6327, 
  "ettik": 6328, 
  "iyileş@@": 6329, 
  "yükümlü": 6330, 
  "Nicolas": 6331, 
  "Ljiljana": 6332, 
  "bit@@": 6333, 
  "Feith": 6334, 
  "politikasına": 6335, 
  "dünyasının": 6336, 
  "kaygılarını": 6337, 
  "yarış@@": 6338, 
  "160": 6339, 
  "edecekler": 6340, 
  "Kariç": 6341, 
  "öde@@": 6342, 
  "ap@@": 6343, 
  "hat@@": 6344, 
  "ellerinden": 6345, 
  "konumu": 6346, 
  "belirleyici": 6347, 
  "getireceğini": 6348, 
  "umuyorum": 6349, 
  "konsorsiyum": 6350, 
  "T": 6351, 
  "yönettiği": 6352, 
  "yöneltilen": 6353, 
  "düşünülen": 6354, 
  "ajansına": 6355, 
  "Yorgos": 6356, 
  "tedbirlerini": 6357, 
  "açıkladığı": 6358, 
  "Kur@@": 6359, 
  "yetkilileriyle": 6360, 
  "Teknik": 6361, 
  "sınırında": 6362, 
  "Zannier": 6363, 
  "reddederek": 6364, 
  "bes@@": 6365, 
  "çıkarmaya": 6366, 
  "Hazar": 6367, 
  "engel@@": 6368, 
  "ihaleyi": 6369, 
  "ün@@": 6370, 
  "vur@@": 6371, 
  "RTK": 6372, 
  "türban": 6373, 
  "geçtiği": 6374, 
  "suya": 6375, 
  "ilkelerine": 6376, 
  "abilmesi": 6377, 
  "tavsiyede": 6378, 
  "+": 6379, 
  "tarafta": 6380, 
  "şansının": 6381, 
  "kurbanı": 6382, 
  "çetin": 6383, 
  "ebileceği": 6384, 
  "eşsiz": 6385, 
  "aktör": 6386, 
  "Sekreter": 6387, 
  "Gölü": 6388, 
  "kaldırmaya": 6389, 
  "iddianame": 6390, 
  "savaş@@": 6391, 
  "suç@@": 6392, 
  "gelirken": 6393, 
  "Katar": 6394, 
  "İskender": 6395, 
  "mama": 6396, 
  "kalanı": 6397, 
  "Meydanı": 6398, 
  "Mark": 6399, 
  "yapıldığını": 6400, 
  "ınca": 6401, 
  "82": 6402, 
  "gençlik": 6403, 
  "verileceğini": 6404, 
  "Hoca": 6405, 
  "anısına": 6406, 
  "ovski": 6407, 
  "getirmeyi": 6408, 
  "liğine": 6409, 
  "arkadaşı": 6410, 
  "televizyonu": 6411, 
  "şartlarından": 6412, 
  "Entegrasyon": 6413, 
  "satışa": 6414, 
  "çıkaran": 6415, 
  "Karolos": 6416, 
  "Katılım": 6417, 
  "geçirildi": 6418, 
  "dairenin": 6419, 
  "konferansın": 6420, 
  "oylamanın": 6421, 
  "pilot": 6422, 
  "entegre": 6423, 
  "piyasaya": 6424, 
  "Yıl": 6425, 
  "olamaz": 6426, 
  "vermeleri": 6427, 
  "ordusunun": 6428, 
  "şartlı": 6429, 
  "görünen": 6430, 
  "başkanlığının": 6431, 
  "eyaleti": 6432, 
  "çalışmalara": 6433, 
  "ileride": 6434, 
  "do@@": 6435, 
  "ayrılıkçı": 6436, 
  "ci@@": 6437, 
  "Bitiki": 6438, 
  "kararından": 6439, 
  "amadı": 6440, 
  "ı-": 6441, 
  "tasarısı": 6442, 
  "gittiğini": 6443, 
  "Jacques": 6444, 
  "cumhuriyetin": 6445, 
  "sevk": 6446, 
  "harcanacak": 6447, 
  "subay": 6448, 
  "konularını": 6449, 
  "üstü": 6450, 
  "zirvenin": 6451, 
  "akla": 6452, 
  "Derviş": 6453, 
  "pop": 6454, 
  "geçiril@@": 6455, 
  "Nicholas": 6456, 
  "talepleri": 6457, 
  "sunması": 6458, 
  "aylardır": 6459, 
  "bildirilen": 6460, 
  "oylamaya": 6461, 
  "değiştirilmesi": 6462, 
  "yönetimine": 6463, 
  "saldırıya": 6464, 
  "olaylarına": 6465, 
  "etkiliyor": 6466, 
  "derneği": 6467, 
  "kaçakçılığıyla": 6468, 
  "Tassos": 6469, 
  "Küresel": 6470, 
  "foruma": 6471, 
  "öncelikler": 6472, 
  "kısıtlamalar": 6473, 
  "azınlıklar": 6474, 
  "Burada": 6475, 
  "ildi": 6476, 
  "olağan": 6477, 
  "sürdüler": 6478, 
  "tatbikat": 6479, 
  "borçlarını": 6480, 
  "kararla": 6481, 
  "biyolojik": 6482, 
  "Mahkemesiyle": 6483, 
  "PACE": 6484, 
  "işletmelerin": 6485, 
  "çalışacağını": 6486, 
  "demir": 6487, 
  "sürülen": 6488, 
  "Zemun": 6489, 
  "etkileyecek": 6490, 
  "yansıt@@": 6491, 
  "biyometrik": 6492, 
  "ilişkisi": 6493, 
  "dönüm": 6494, 
  "Korgeneral": 6495, 
  "şartlarının": 6496, 
  "tarafa": 6497, 
  "doğusundaki": 6498, 
  "M": 6499, 
  "bine": 6500, 
  "kuruluşlar": 6501, 
  "bütçenin": 6502, 
  "kalitesini": 6503, 
  "elerle": 6504, 
  "araçları": 6505, 
  "televizyonuna": 6506, 
  "Organize": 6507, 
  "askerin": 6508, 
  "ör@@": 6509, 
  "lehinde": 6510, 
  "merkezin": 6511, 
  "sporcular": 6512, 
  "uncu": 6513, 
  "döneminin": 6514, 
  "buluş@@": 6515, 
  "0,@@": 6516, 
  "uzmanlara": 6517, 
  "prosedürleri": 6518, 
  "h": 6519, 
  "alarda": 6520, 
  "protestocular": 6521, 
  "Holbrooke": 6522, 
  "yanıt@@": 6523, 
  "18@@": 6524, 
  "Rompuy": 6525, 
  "toplumuna": 6526, 
  "eser": 6527, 
  "ılımlı": 6528, 
  "listesi": 6529, 
  "nefret": 6530, 
  "güce": 6531, 
  "köşe": 6532, 
  "gelmesinden": 6533, 
  "beraberinde": 6534, 
  "ayak": 6535, 
  "egemenlik": 6536, 
  "sürdüren": 6537, 
  "fırsatlar": 6538, 
  "Süreci": 6539, 
  "dar": 6540, 
  "ömür": 6541, 
  "arttığı": 6542, 
  "dostluk": 6543, 
  "sandalyeli": 6544, 
  "no": 6545, 
  "El@@": 6546, 
  "yıkıcı": 6547, 
  "etrafındaki": 6548, 
  "belirleyecek": 6549, 
  "sınav": 6550, 
  "meselesinin": 6551, 
  "yapacağız": 6552, 
  "se@@": 6553, 
  "tecavüz": 6554, 
  "ECB": 6555, 
  "Kampschror": 6556, 
  "sunmaya": 6557, 
  "dediler": 6558, 
  "okullar": 6559, 
  "sorguya": 6560, 
  "kalmadı": 6561, 
  "söylentiler": 6562, 
  "Moody": 6563, 
  "ılmasının": 6564, 
  "eleştir@@": 6565, 
  "anların": 6566, 
  "hakimlerin": 6567, 
  "duyurdular": 6568, 
  "zulüm": 6569, 
  "pasaport": 6570, 
  "oluşturdu": 6571, 
  "irler": 6572, 
  "ötesine": 6573, 
  "durdurmak": 6574, 
  "gruplarının": 6575, 
  "dıktan": 6576, 
  "katkılarıyla": 6577, 
  "hayatı": 6578, 
  "önle@@": 6579, 
  "çalışanlar": 6580, 
  "j": 6581, 
  "20.": 6582, 
  "tesisleri": 6583, 
  "yalanladı": 6584, 
  "çocuklarının": 6585, 
  "amaca": 6586, 
  "olmamasına": 6587, 
  "düşmesi": 6588, 
  "sorunlarının": 6589, 
  "saldırıların": 6590, 
  "yılını": 6591, 
  "-ki": 6592, 
  "değerleri": 6593, 
  "Martin": 6594, 
  "imkanı": 6595, 
  "jüri": 6596, 
  "tesisin": 6597, 
  "istismar": 6598, 
  "kokain": 6599, 
  "çıkmış": 6600, 
  "gönderildi": 6601, 
  "du@@": 6602, 
  "tamamlama": 6603, 
  "Pahor": 6604, 
  "kuvvet": 6605, 
  "güç@@": 6606, 
  "ge@@": 6607, 
  "geçirmesi": 6608, 
  "incele@@": 6609, 
  "kız@@": 6610, 
  "haftada": 6611, 
  "hayvan": 6612, 
  "ebil@@": 6613, 
  "atılacak": 6614, 
  "ekonomistler": 6615, 
  "Insight": 6616, 
  "Mitev": 6617, 
  "ata": 6618, 
  "amaması": 6619, 
  "sandalyelik": 6620, 
  "liğin": 6621, 
  "örgütlerinin": 6622, 
  "Vesna": 6623, 
  "Ohrid": 6624, 
  "ılacağı": 6625, 
  "bertaraf": 6626, 
  "gidip": 6627, 
  "yakıt": 6628, 
  "elerde": 6629, 
  "maç": 6630, 
  "Yargı": 6631, 
  "muhalefeti": 6632, 
  "mamak": 6633, 
  "FENA": 6634, 
  "eserleri": 6635, 
  "Papuliyas": 6636, 
  "Bulgarlar": 6637, 
  "kalacağı": 6638, 
  "vaatlerini": 6639, 
  "Ivanoviç": 6640, 
  "ters": 6641, 
  "teşhis": 6642, 
  "Baş": 6643, 
  "esiyle": 6644, 
  "karşıladılar": 6645, 
  "direktör": 6646, 
  "1@@": 6647, 
  "usta": 6648, 
  "artırması": 6649, 
  "abilmek": 6650, 
  "zor@@": 6651, 
  "Kulübü": 6652, 
  "olanakları": 6653, 
  "işlerin": 6654, 
  "bünyesindeki": 6655, 
  "silahlar": 6656, 
  "tanıma": 6657, 
  "kredinin": 6658, 
  "sürdüreceğini": 6659, 
  "düzenlemeler": 6660, 
  "haksız": 6661, 
  "Üyelik": 6662, 
  "ilen": 6663, 
  "parlamentodaki": 6664, 
  "temizleme": 6665, 
  "subayı": 6666, 
  "dü": 6667, 
  "generalin": 6668, 
  "organı": 6669, 
  "nakli": 6670, 
  "açıktır": 6671, 
  "Milenkoviç": 6672, 
  "onayla@@": 6673, 
  "borcunu": 6674, 
  "yatan": 6675, 
  "geleceğiyle": 6676, 
  "gribi": 6677, 
  "gözle": 6678, 
  "ere": 6679, 
  "yüzyılda": 6680, 
  "nedenleri": 6681, 
  "eleştirilerine": 6682, 
  "uygulamaları": 6683, 
  "lü": 6684, 
  "yetkililerden": 6685, 
  "da@@": 6686, 
  "saha": 6687, 
  "bulunmuş": 6688, 
  "bedeli": 6689, 
  "sınır@@": 6690, 
  "belirledi": 6691, 
  "Kış": 6692, 
  "gösterilmesi": 6693, 
  "Srbija": 6694, 
  "girmeye": 6695, 
  "S": 6696, 
  "kor@@": 6697, 
  "cu": 6698, 
  "olmayacağı": 6699, 
  "işletmeler": 6700, 
  "kentsel": 6701, 
  "Ver@@": 6702, 
  "güneydeki": 6703, 
  "gergin": 6704, 
  "ica": 6705, 
  "sınırlarını": 6706, 
  "Pekusiç": 6707, 
  "kaybet@@": 6708, 
  "başındaki": 6709, 
  "kanıtlar": 6710, 
  "operasyonda": 6711, 
  "saatlerinde": 6712, 
  "Libyalı": 6713, 
  "Ödülünü": 6714, 
  "tarzı": 6715, 
  "ertele@@": 6716, 
  "uyarısında": 6717, 
  "ecekleri": 6718, 
  "arsa": 6719, 
  "yatır@@": 6720, 
  "karşılay@@": 6721, 
  "G": 6722, 
  "yetkileri": 6723, 
  "ilanından": 6724, 
  "toplayan": 6725, 
  "ıyı": 6726, 
  "harcamalarını": 6727, 
  "Man@@": 6728, 
  "esnek": 6729, 
  "psikolojik": 6730, 
  "Teresa": 6731, 
  "liderlere": 6732, 
  "endişeyi": 6733, 
  "Necdet": 6734, 
  "köyü": 6735, 
  "masıdır": 6736, 
  "yakalamak": 6737, 
  "sürdür@@": 6738, 
  "açıklıyor": 6739, 
  "görüşleri": 6740, 
  "tiç": 6741, 
  "karşılan@@": 6742, 
  "yetkilerini": 6743, 
  "günümüz": 6744, 
  "Kürtlerin": 6745, 
  "işlevsel": 6746, 
  "attılar": 6747, 
  "suçlandı": 6748, 
  "değiştirme": 6749, 
  "bi": 6750, 
  "sözlerinin": 6751, 
  "tir": 6752, 
  "işine": 6753, 
  "uyruklu": 6754, 
  "ama@@": 6755, 
  "Lukoviç": 6756, 
  "ruhsat": 6757, 
  "ağ": 6758, 
  "tasarının": 6759, 
  "kitabın": 6760, 
  "ayr@@": 6761, 
  "yapmıştı": 6762, 
  "2,@@": 6763, 
  "ok@@": 6764, 
  "tedarik": 6765, 
  "aff@@": 6766, 
  "vurularak": 6767, 
  "siyaseti": 6768, 
  "halk@@": 6769, 
  "kurallar": 6770, 
  "istenen": 6771, 
  "muhafazakâr": 6772, 
  "ulaşma": 6773, 
  "niteliği": 6774, 
  "Thaci": 6775, 
  "arken": 6776, 
  "Drazen": 6777, 
  "ailesine": 6778, 
  "1.500": 6779, 
  "koş@@": 6780, 
  "kaldırdı": 6781, 
  "maaşlarını": 6782, 
  "tür@@": 6783, 
  "reformlarda": 6784, 
  "trafiği": 6785, 
  "Olympic": 6786, 
  "korkunç": 6787, 
  "silahların": 6788, 
  "uyarıyor": 6789, 
  "suçluyor": 6790, 
  "ürünler": 6791, 
  "üstünlüğünü": 6792, 
  "düzenlemeyi": 6793, 
  "min": 6794, 
  "noktaları": 6795, 
  "cevap": 6796, 
  "taraftarlar": 6797, 
  "katılımına": 6798, 
  "olaya": 6799, 
  "artırarak": 6800, 
  "taşıma": 6801, 
  "gözler": 6802, 
  "dergisi": 6803, 
  "73": 6804, 
  "amadığı": 6805, 
  "girdiği": 6806, 
  "Medya": 6807, 
  "ilerlemeler": 6808, 
  "emrini": 6809, 
  "Proeski": 6810, 
  "konuma": 6811, 
  "Petkoviç": 6812, 
  "beldesi": 6813, 
  "davasının": 6814, 
  "Bakanlığının": 6815, 
  "soruştur@@": 6816, 
  "Or@@": 6817, 
  "girmiş": 6818, 
  "serbestçe": 6819, 
  "çapındaki": 6820, 
  "Operasyonu": 6821, 
  "açılışı": 6822, 
  "tek@@": 6823, 
  "eleştirenler": 6824, 
  "Matthew": 6825, 
  "vurguluyor": 6826, 
  "kentinin": 6827, 
  "haklarında": 6828, 
  "sıklıkla": 6829, 
  "diren@@": 6830, 
  "samimi": 6831, 
  "açmaya": 6832, 
  "gecikme": 6833, 
  "Samarciç": 6834, 
  "dille": 6835, 
  "Novinite": 6836, 
  "Per@@": 6837, 
  "birisinin": 6838, 
  "ayır@@": 6839, 
  "tığı": 6840, 
  "işçiler": 6841, 
  "yükseltti": 6842, 
  "şeyden": 6843, 
  "aldık": 6844, 
  "azaldı": 6845, 
  "toplumla": 6846, 
  "stratejisini": 6847, 
  "uzlaşmanın": 6848, 
  "Georgievski": 6849, 
  "duran": 6850, 
  "pan@@": 6851, 
  "lanıyor": 6852, 
  "Polisi": 6853, 
  "bölgeler": 6854, 
  "okulu": 6855, 
  "soruşturmayı": 6856, 
  "umuyoruz": 6857, 
  "sanatçının": 6858, 
  "Enver": 6859, 
  "merak": 6860, 
  "bu@@": 6861, 
  "gösterilecek": 6862, 
  "yapmasını": 6863, 
  "muş": 6864, 
  "uçuş": 6865, 
  "fırsatları": 6866, 
  "ren": 6867, 
  "öden@@": 6868, 
  "belediyenin": 6869, 
  "mahrum": 6870, 
  "adaletten": 6871, 
  "Suudi": 6872, 
  "engelleyen": 6873, 
  "Trajkov": 6874, 
  "Radmila": 6875, 
  "türünün": 6876, 
  "konusuna": 6877, 
  "ışı": 6878, 
  "tarafları": 6879, 
  "Yovanoviç": 6880, 
  "heyetine": 6881, 
  "hedefe": 6882, 
  "iyoruz": 6883, 
  "sisteme": 6884, 
  "evlerini": 6885, 
  "yetersizliği": 6886, 
  "yaratacak": 6887, 
  "izlen@@": 6888, 
  "onaylaması": 6889, 
  "ko@@": 6890, 
  "kutluyor": 6891, 
  "Ne": 6892, 
  "fabrikanın": 6893, 
  "cumhurbaşkanını": 6894, 
  "ahlaki": 6895, 
  "alınmasına": 6896, 
  "ide": 6897, 
  "yönetiminde": 6898, 
  "oluşturmaya": 6899, 
  "şimdiyse": 6900, 
  "meler": 6901, 
  "komiser": 6902, 
  "sınırının": 6903, 
  "Finans": 6904, 
  "kaydederek": 6905, 
  "kasıtlı": 6906, 
  "ciddiye": 6907, 
  "toplantısının": 6908, 
  "Zastava": 6909, 
  "öl@@": 6910, 
  "enlerin": 6911, 
  "kaynaklandığını": 6912, 
  "ardında": 6913, 
  "Rumları": 6914, 
  "sakinleri": 6915, 
  "daireleri": 6916, 
  "ortalarında": 6917, 
  "biliyoruz": 6918, 
  "Başkanlığı": 6919, 
  "Projesi": 6920, 
  "sorunlarına": 6921, 
  "seçime": 6922, 
  "yen": 6923, 
  "kenara": 6924, 
  "yalnız": 6925, 
  "kaybı": 6926, 
  "Re@@": 6927, 
  "lığına": 6928, 
  "bakımından": 6929, 
  "koruy@@": 6930, 
  "sendikalar": 6931, 
  "kınayan": 6932, 
  "İnşaat": 6933, 
  "ılardan": 6934, 
  "olanların": 6935, 
  "ede": 6936, 
  "rahat": 6937, 
  "görevlilerinin": 6938, 
  "insanlığa": 6939, 
  "anlaştı": 6940, 
  "planlıyorlar": 6941, 
  "isimleri": 6942, 
  "unsurlar": 6943, 
  "yaratan": 6944, 
  "olaylara": 6945, 
  "ad": 6946, 
  "toplamak": 6947, 
  "Komünist": 6948, 
  "atı": 6949, 
  "tılar": 6950, 
  "Darko": 6951, 
  "bölün@@": 6952, 
  "has@@": 6953, 
  "geçme": 6954, 
  "bütünlüğü": 6955, 
  "belirlen@@": 6956, 
  "eye": 6957, 
  "sevilen": 6958, 
  "başlattılar": 6959, 
  "yakalama": 6960, 
  "Reisi": 6961, 
  "Arnavutlara": 6962, 
  "metal": 6963, 
  "kasaba": 6964, 
  "telekomünikasyon": 6965, 
  "kov@@": 6966, 
  "şiddeti": 6967, 
  "değiliz": 6968, 
  "Victor": 6969, 
  "dönüştür@@": 6970, 
  "Alakbar": 6971, 
  "özgürlüğüne": 6972, 
  "park": 6973, 
  "bütçesinden": 6974, 
  "uygulanmasının": 6975, 
  "okullarda": 6976, 
  "Kürtçe": 6977, 
  "Letonya": 6978, 
  "polisle": 6979, 
  "getirilecek": 6980, 
  "larsa": 6981, 
  "engelleme": 6982, 
  "Helsinki": 6983, 
  "sınırına": 6984, 
  "düşür@@": 6985, 
  "anlaşmazlığına": 6986, 
  "Hiseni": 6987, 
  "dost@@": 6988, 
  "mamakla": 6989, 
  "yerleri": 6990, 
  "önerileri": 6991, 
  "dinamik": 6992, 
  "akademik": 6993, 
  "rolünün": 6994, 
  "belirtilen": 6995, 
  "seçeneği": 6996, 
  "simgesi": 6997, 
  "DTP": 6998, 
  "Ditore": 6999, 
  "paketinin": 7000, 
  "geçmişteki": 7001, 
  "Stamboliç": 7002, 
  "cezasını": 7003, 
  "demokrasiye": 7004, 
  "oynuyor": 7005, 
  "sin": 7006, 
  "zorluklar": 7007, 
  "Pakistan": 7008, 
  "amayacağı": 7009, 
  "şüphelilerin": 7010, 
  "Sosyalistler": 7011, 
  "lemek": 7012, 
  "bakanların": 7013, 
  "kaydedil@@": 7014, 
  "Bu@@": 7015, 
  "yerleşim": 7016, 
  "tamamlayan": 7017, 
  "bölgelerdeki": 7018, 
  "yerek": 7019, 
  "belirlendi": 7020, 
  "Oyunlar": 7021, 
  "inizi": 7022, 
  "edilip": 7023, 
  "Wolfgang": 7024, 
  "azınlıklara": 7025, 
  "temsilcilerle": 7026, 
  "akşam": 7027, 
  "pazarında": 7028, 
  "engellerin": 7029, 
  "usu": 7030, 
  "alabil@@": 7031, 
  "kaç": 7032, 
  "adaylık": 7033, 
  "71": 7034, 
  "bulunmayan": 7035, 
  "fabrikasının": 7036, 
  "itibarını": 7037, 
  "vurdu": 7038, 
  "çevresel": 7039, 
  "rejimine": 7040, 
  "bakanlıkları": 7041, 
  "dalgası": 7042, 
  "büyü@@": 7043, 
  "Antonela": 7044, 
  "başkentin": 7045, 
  "pozitif": 7046, 
  "larımızın": 7047, 
  "durumuna": 7048, 
  "dışarı": 7049, 
  "şüphesiz": 7050, 
  "gol": 7051, 
  "özgürlüğünün": 7052, 
  "görüşmelerden": 7053, 
  "alışverişi": 7054, 
  "destekçileri": 7055, 
  "yasalarının": 7056, 
  "DDY": 7057, 
  "etmediğini": 7058, 
  "98": 7059, 
  "örgütlerin": 7060, 
  "Kurti": 7061, 
  "Mavi": 7062, 
  "lehine": 7063, 
  "Svilanoviç": 7064, 
  "abilirler": 7065, 
  "İç": 7066, 
  "Politikası": 7067, 
  "Ko@@": 7068, 
  "olduğumuzu": 7069, 
  "önlemlerin": 7070, 
  "Par@@": 7071, 
  "Bayramı": 7072, 
  "planlar": 7073, 
  "taciz": 7074, 
  "maaşlar": 7075, 
  "onaylandı": 7076, 
  "düzenlen@@": 7077, 
  "gi@@": 7078, 
  "doların": 7079, 
  "bütçesine": 7080, 
  "ılarla": 7081, 
  "isteği": 7082, 
  "düşüşe": 7083, 
  "halini": 7084, 
  "tutumlarını": 7085, 
  "bakıyor": 7086, 
  "düşünülüyor": 7087, 
  "atarak": 7088, 
  "kırıklığı": 7089, 
  "stratejisinin": 7090, 
  "etse": 7091, 
  "sonucun": 7092, 
  "bulunmasını": 7093, 
  "çalışmada": 7094, 
  "gerginlikler": 7095, 
  "Nenad": 7096, 
  "lerdi": 7097, 
  "eseri": 7098, 
  "sistemlerinin": 7099, 
  "uygulamasını": 7100, 
  "bulan": 7101, 
  "gazı": 7102, 
  "mücadeledeki": 7103, 
  "ağır@@": 7104, 
  "üstünde": 7105, 
  "arda": 7106, 
  "sessiz": 7107, 
  "İşler": 7108, 
  "Kızıl": 7109, 
  "bilgilerin": 7110, 
  "Petrescu": 7111, 
  "köyünde": 7112, 
  "sorunsuz": 7113, 
  "Filistinli": 7114, 
  "saydı": 7115, 
  "kendisiyle": 7116, 
  "festivalinde": 7117, 
  "sürecinden": 7118, 
  "kaynakların": 7119, 
  "ekonomileri": 7120, 
  "cumhuriyet": 7121, 
  "görevinin": 7122, 
  "havaalanı": 7123, 
  "günümüzde": 7124, 
  "partili": 7125, 
  "oda": 7126, 
  "reformlarının": 7127, 
  "yürütülecek": 7128, 
  "şeylerin": 7129, 
  "Destek": 7130, 
  "bağımsızlığa": 7131, 
  "Jovan": 7132, 
  "ortalamasının": 7133, 
  "sendika": 7134, 
  "aj": 7135, 
  "savunarak": 7136, 
  "I": 7137, 
  "dağ": 7138, 
  "ulaşan": 7139, 
  "süresini": 7140, 
  "zararlı": 7141, 
  "Franco": 7142, 
  "veda": 7143, 
  "tarihin": 7144, 
  "temizlik": 7145, 
  "başlandı": 7146, 
  "gününden": 7147, 
  "Leakey": 7148, 
  "insan@@": 7149, 
  "İl@@": 7150, 
  "harcama": 7151, 
  "verildiğini": 7152, 
  "madencilik": 7153, 
  "dairesinin": 7154, 
  "ro@@": 7155, 
  "soruya": 7156, 
  "UNHCR": 7157, 
  "hazırlıkları": 7158, 
  "sız@@": 7159, 
  "haftalar": 7160, 
  "sorularını": 7161, 
  "3.": 7162, 
  "görevler": 7163, 
  "şaibeli": 7164, 
  "Kürtler": 7165, 
  "ime": 7166, 
  "1984": 7167, 
  "kurallarına": 7168, 
  "yarışmasında": 7169, 
  "Gates": 7170, 
  "ıdan": 7171, 
  "Caz": 7172, 
  "zanlıyı": 7173, 
  "zorlan@@": 7174, 
  "gerginliği": 7175, 
  "Trakya": 7176, 
  "suyu": 7177, 
  "kampanyasının": 7178, 
  "vergileri": 7179, 
  "partisinden": 7180, 
  "Arjantin": 7181, 
  "gar@@": 7182, 
  "seçmenleri": 7183, 
  "4.": 7184, 
  "hız@@": 7185, 
  "egemenliğini": 7186, 
  "sağlayacağı": 7187, 
  "tanıt@@": 7188, 
  "fark@@": 7189, 
  "ortasına": 7190, 
  "korku": 7191, 
  "sınırlarının": 7192, 
  "yükümlülükleri": 7193, 
  "patlayıcı": 7194, 
  "zammı": 7195, 
  "reddetmesi": 7196, 
  "Biz": 7197, 
  "imize": 7198, 
  "PNL": 7199, 
  "ke@@": 7200, 
  "açıklanmayan": 7201, 
  "Popovski": 7202, 
  "elerinden": 7203, 
  "umudu": 7204, 
  "SEECP": 7205, 
  "Miliç": 7206, 
  "verileri": 7207, 
  "maddesi": 7208, 
  "kol@@": 7209, 
  "saldırısı": 7210, 
  "lis@@": 7211, 
  "od@@": 7212, 
  "geçirmeye": 7213, 
  "ciler": 7214, 
  "ıs@@": 7215, 
  "bankaları": 7216, 
  "şiir": 7217, 
  "arz@@": 7218, 
  "Ladin": 7219, 
  "liderinin": 7220, 
  "listenin": 7221, 
  "genişlemesi": 7222, 
  "ürünlerinin": 7223, 
  "kaçmasına": 7224, 
  "asyon": 7225, 
  "lojistik": 7226, 
  "girişimde": 7227, 
  "ibaret": 7228, 
  "karşılaşmasında": 7229, 
  "etmeli": 7230, 
  "dakikada": 7231, 
  "don@@": 7232, 
  "içinden": 7233, 
  "ım@@": 7234, 
  "Rocen": 7235, 
  "içinse": 7236, 
  "kesimlerinde": 7237, 
  "Google": 7238, 
  "likten": 7239, 
  "İzlanda": 7240, 
  "farkına": 7241, 
  "vardılar": 7242, 
  "kolaylaştırmak": 7243, 
  "olmaksızın": 7244, 
  "edebilecek": 7245, 
  "Serge": 7246, 
  "muhtemel": 7247, 
  "güdümlü": 7248, 
  "yargılan@@": 7249, 
  "iliyor": 7250, 
  "sınırlar": 7251, 
  "heyetin": 7252, 
  "değilim": 7253, 
  "gelmediğini": 7254, 
  "evine": 7255, 
  "polisine": 7256, 
  "milis": 7257, 
  "yaşamak": 7258, 
  "olaylarını": 7259, 
  "giderken": 7260, 
  "İdare": 7261, 
  "yarışacak": 7262, 
  "mallar": 7263, 
  "azalması": 7264, 
  "önerisine": 7265, 
  "sanığın": 7266, 
  "Erhard": 7267, 
  "Atatürk": 7268, 
  "Passy": 7269, 
  "açmış": 7270, 
  "om@@": 7271, 
  "dım": 7272, 
  "güçler": 7273, 
  "sabahı": 7274, 
  "evinde": 7275, 
  "galip": 7276, 
  "ail@@": 7277, 
  "toplantılar": 7278, 
  "yaşay@@": 7279, 
  "düzenlemek": 7280, 
  "mezun": 7281, 
  "mamasını": 7282, 
  "paylaşıyor": 7283, 
  "sonuçta": 7284, 
  "kemer": 7285, 
  "mini": 7286, 
  "yarışmada": 7287, 
  "değerlendiriyor": 7288, 
  "hareketle": 7289, 
  "kural": 7290, 
  "türü": 7291, 
  "cesur": 7292, 
  "değerlendir@@": 7293, 
  "niteledi": 7294, 
  "ülkesindeki": 7295, 
  "geliştirmeye": 7296, 
  "Bazı": 7297, 
  "belediyelerin": 7298, 
  "oyunun": 7299, 
  "çektiği": 7300, 
  "nedenlerinden": 7301, 
  "genelindeki": 7302, 
  "kulak": 7303, 
  "Yönetimi": 7304, 
  "yerleş@@": 7305, 
  "taze": 7306, 
  "ed@@": 7307, 
  "hatları": 7308, 
  "gerçekleştirmek": 7309, 
  "dığından": 7310, 
  "amayacak": 7311, 
  "bağlılığını": 7312, 
  "yazan": 7313, 
  "medyası": 7314, 
  "verilerine": 7315, 
  "tutmaya": 7316, 
  "hibe": 7317, 
  "A1": 7318, 
  "ele@@": 7319, 
  "başlarına": 7320, 
  "Lehne": 7321, 
  "safhada": 7322, 
  "Dairesinin": 7323, 
  "politikalarının": 7324, 
  "liderleriyle": 7325, 
  "hükümetlerinin": 7326, 
  "kararında": 7327, 
  "uyardılar": 7328, 
  "kolu": 7329, 
  "getirmede": 7330, 
  "RTS": 7331, 
  "tartışmaların": 7332, 
  "davalarının": 7333, 
  "Barack": 7334, 
  "arkadaşları": 7335, 
  "Denktaş": 7336, 
  "buradan": 7337, 
  "operasyonlar": 7338, 
  "Mahkemesine": 7339, 
  "kıdemli": 7340, 
  "Günleri": 7341, 
  "may@@": 7342, 
  "açıklamalar": 7343, 
  "açmıştı": 7344, 
  "Gjorge": 7345, 
  "sekreter": 7346, 
  "kalite": 7347, 
  "görüşler": 7348, 
  "herşey": 7349, 
  "bombalama": 7350, 
  "ımıza": 7351, 
  "taviz": 7352, 
  "açlık": 7353, 
  "Saray": 7354, 
  "piyasası": 7355, 
  "ifadesine": 7356, 
  "engellemeye": 7357, 
  "vermenin": 7358, 
  "ediyordu": 7359, 
  "üstlendi": 7360, 
  "layarak": 7361, 
  "hizmetlerini": 7362, 
  "tutuklamalar": 7363, 
  "likle": 7364, 
  "davalarını": 7365, 
  "ılarından": 7366, 
  "önerisinin": 7367, 
  "modernizasyon": 7368, 
  "kaldırılmasını": 7369, 
  "eni": 7370, 
  "getiriliyor": 7371, 
  "sağlıklı": 7372, 
  "gittikçe": 7373, 
  "duyan": 7374, 
  "ödemeye": 7375, 
  "görüşmeye": 7376, 
  "Zlatko": 7377, 
  "değişimi": 7378, 
  "çiftçiler": 7379, 
  "siyle": 7380, 
  "memurunun": 7381, 
  "işte": 7382, 
  "esas": 7383, 
  "suçundan": 7384, 
  "ürünü": 7385, 
  "azınlığın": 7386, 
  "girişimini": 7387, 
  "seçimlerle": 7388, 
  "Müslümanların": 7389, 
  "dal@@": 7390, 
  "kesinti": 7391, 
  "firmalarının": 7392, 
  "düzenliyor": 7393, 
  "yük@@": 7394, 
  "girişime": 7395, 
  "H5N1": 7396, 
  "toplumları": 7397, 
  "ilanı": 7398, 
  "fuhuş": 7399, 
  "bulması": 7400, 
  "kartı": 7401, 
  "tutuklanmasının": 7402, 
  "deniyor": 7403, 
  "karardan": 7404, 
  "kazandır@@": 7405, 
  "kalmasına": 7406, 
  "davayla": 7407, 
  "kararların": 7408, 
  "yeteri": 7409, 
  "bilir": 7410, 
  "çevir@@": 7411, 
  "Boşnaklar": 7412, 
  "vakit": 7413, 
  "gençleri": 7414, 
  "tü": 7415, 
  "yapılacağı": 7416, 
  "belirtmekle": 7417, 
  "sınırdışı": 7418, 
  "diğinden": 7419, 
  "askerlerini": 7420, 
  "cami": 7421, 
  "saldırıda": 7422, 
  "alama@@": 7423, 
  "komşusu": 7424, 
  "yse": 7425, 
  "nezaretinde": 7426, 
  "toplumdan": 7427, 
  "yasak@@": 7428, 
  "sahil": 7429, 
  "isyan": 7430, 
  "lendi": 7431, 
  "ilgilendiğini": 7432, 
  "Bizans": 7433, 
  "değişti": 7434, 
  "İşleri": 7435, 
  "kağıt": 7436, 
  "elerinde": 7437, 
  "görmeye": 7438, 
  "88": 7439, 
  "ilerine": 7440, 
  "tehditleri": 7441, 
  "duyuruldu": 7442, 
  "Fouere": 7443, 
  "tehditler": 7444, 
  "ilanının": 7445, 
  "lanması": 7446, 
  "açık@@": 7447, 
  "soruşturması": 7448, 
  "us@@": 7449, 
  "ydi": 7450, 
  "katılacağı": 7451, 
  "Yolsuzluk": 7452, 
  "170": 7453, 
  "şansına": 7454, 
  "başlangıcı": 7455, 
  "konserler": 7456, 
  "arananlar": 7457, 
  "adayın": 7458, 
  "kitle": 7459, 
  "kaydı": 7460, 
  "oloji": 7461, 
  "devletten": 7462, 
  "göçmenlerin": 7463, 
  "kazandığını": 7464, 
  "Çağrısı": 7465, 
  "Zirvesi": 7466, 
  "99": 7467, 
  "sanıklar": 7468, 
  "ez@@": 7469, 
  "koşullarının": 7470, 
  "US": 7471, 
  "sıkıntısı": 7472, 
  "hedeflenen": 7473, 
  "krizinin": 7474, 
  "ladığı": 7475, 
  "yarısından": 7476, 
  "to@@": 7477, 
  "çoklu": 7478, 
  "denetimli": 7479, 
  "büyümeye": 7480, 
  "Mu@@": 7481, 
  "tuttur@@": 7482, 
  "Orgeneral": 7483, 
  "yaşam@@": 7484, 
  "yumuşak": 7485, 
  "dili": 7486, 
  "grubuna": 7487, 
  "tanıtım": 7488, 
  "şaşırtıcı": 7489, 
  "yapıp": 7490, 
  "duğunu": 7491, 
  "sunma": 7492, 
  "dönmek": 7493, 
  "muhafazakar": 7494, 
  "Kap@@": 7495, 
  "kalmayı": 7496, 
  "setlerle": 7497, 
  "başlayıp": 7498, 
  "KPC": 7499, 
  "ortamında": 7500, 
  "hal@@": 7501, 
  "Bildt": 7502, 
  "sap@@": 7503, 
  "fiyatlarını": 7504, 
  "yargının": 7505, 
  "House": 7506, 
  "borç@@": 7507, 
  "dolaşımı": 7508, 
  "ısını": 7509, 
  "Catherine": 7510, 
  "mesleki": 7511, 
  "sen@@": 7512, 
  "kültürü": 7513, 
  "yaklaşırken": 7514, 
  "müzakerecisi": 7515, 
  "asındaki": 7516, 
  "düzine": 7517, 
  "şartıyla": 7518, 
  "kayb@@": 7519, 
  "sınırındaki": 7520, 
  "or": 7521, 
  "ec@@": 7522, 
  "güvenliğe": 7523, 
  "yanda": 7524, 
  "Eide": 7525, 
  "ledi": 7526, 
  "getirilmesini": 7527, 
  "çözümüne": 7528, 
  "Kozloduy": 7529, 
  "çalışmasını": 7530, 
  "nedeninin": 7531, 
  "gazetecinin": 7532, 
  "eriş@@": 7533, 
  "tutuklu": 7534, 
  "kulis": 7535, 
  "ılabilir": 7536, 
  "prestijli": 7537, 
  "sahiplerinin": 7538, 
  "çiziyor": 7539, 
  "ılarının": 7540, 
  "nehir": 7541, 
  "F": 7542, 
  "IOC": 7543, 
  "yakınındaki": 7544, 
  "nüfuzlu": 7545, 
  "uygulamayı": 7546, 
  "deydi": 7547, 
  "fikrine": 7548, 
  "bur@@": 7549, 
  "American": 7550, 
  "kurulunun": 7551, 
  "Ordu": 7552, 
  "istemediğini": 7553, 
  "dönemden": 7554, 
  "giriyor": 7555, 
  "üzüntü": 7556, 
  "malarında": 7557, 
  "Charles": 7558, 
  "alabilmek": 7559, 
  "kalk@@": 7560, 
  "kazanıyor": 7561, 
  "oynadı": 7562, 
  "bölgelere": 7563, 
  "eleştiri": 7564, 
  ".com": 7565, 
  "onlarla": 7566, 
  "taraf@@": 7567, 
  "geçmişe": 7568, 
  "1,4": 7569, 
  "lamak": 7570, 
  "kaybetmiş": 7571, 
  "Obradoviç": 7572, 
  "olma@@": 7573, 
  "basının": 7574, 
  "tasarısını": 7575, 
  "adımdır": 7576, 
  "olacağız": 7577, 
  "artı": 7578, 
  "bırakıp": 7579, 
  "koyma": 7580, 
  "değişikliğin": 7581, 
  "ayırdı": 7582, 
  "luğu": 7583, 
  "ınız": 7584, 
  "tesislerin": 7585, 
  "adaylığını": 7586, 
  "seviyesinin": 7587, 
  "tecrit": 7588, 
  "modeli": 7589, 
  "ölümünden": 7590, 
  "planla@@": 7591, 
  "tin": 7592, 
  "vaadinde": 7593, 
  "yüksel@@": 7594, 
  "ulus": 7595, 
  "je": 7596, 
  "Iliç": 7597, 
  "belirtirken": 7598, 
  "barışın": 7599, 
  "550": 7600, 
  "katılmasına": 7601, 
  "edebileceği": 7602, 
  "gelebilir": 7603, 
  "memurlarının": 7604, 
  "senaryo": 7605, 
  "attığını": 7606, 
  "Free": 7607, 
  "lıyor": 7608, 
  "dolayında": 7609, 
  "riske": 7610, 
  "saldır@@": 7611, 
  "ekipleri": 7612, 
  "sek": 7613, 
  "len": 7614, 
  "başlatılmasına": 7615, 
  "meselesini": 7616, 
  "yarattığını": 7617, 
  "hazırız": 7618, 
  "kayıtdışı": 7619, 
  "Dedeağaç": 7620, 
  "ilerletilmesi": 7621, 
  "yaptık": 7622, 
  "çağr@@": 7623, 
  "bugünkü": 7624, 
  "eder": 7625, 
  "konsey": 7626, 
  "seslenen": 7627, 
  "Ofisi": 7628, 
  "köklü": 7629, 
  "restoran": 7630, 
  "işçilerin": 7631, 
  "Der@@": 7632, 
  "lıklar": 7633, 
  "anlaşmazlığını": 7634, 
  "sayıları": 7635, 
  "Dnevni": 7636, 
  "yaşadıkları": 7637, 
  "medyasına": 7638, 
  "müdahalesi": 7639, 
  "top": 7640, 
  "lenmiş": 7641, 
  "gelme": 7642, 
  "Dabilis": 7643, 
  "yapılar": 7644, 
  "tamamında": 7645, 
  "grupta": 7646, 
  "girişiminin": 7647, 
  "Ürdün": 7648, 
  "memekle": 7649, 
  "istifaya": 7650, 
  "komşuları": 7651, 
  "yaptırım": 7652, 
  "korunmasını": 7653, 
  "gelince": 7654, 
  "olmazsa": 7655, 
  "siyasilere": 7656, 
  "ilkeleri": 7657, 
  "üretiminin": 7658, 
  "Transilvanya": 7659, 
  "korunmasına": 7660, 
  "kaygı": 7661, 
  "Avrasya": 7662, 
  "enflasyonun": 7663, 
  "ali": 7664, 
  "onayladığı": 7665, 
  "atmış": 7666, 
  "çıkıp": 7667, 
  "engeli": 7668, 
  "olursak": 7669, 
  "İsveçli": 7670, 
  "İliç": 7671, 
  "laş@@": 7672, 
  "eroin": 7673, 
  "gösterdiler": 7674, 
  "kas@@": 7675, 
  "değerlendiril@@": 7676, 
  "etme@@": 7677, 
  "2.": 7678, 
  "belgelerin": 7679, 
  "toplay@@": 7680, 
  "maliyetleri": 7681, 
  "ize": 7682, 
  "Pavkoviç": 7683, 
  "cumhurbaşkanlığına": 7684, 
  "Çiçek": 7685, 
  "vergiler": 7686, 
  "Kosanoviç": 7687, 
  "Gent": 7688, 
  "yaptırımlar": 7689, 
  "sahipti": 7690, 
  "ede@@": 7691, 
  "dondur@@": 7692, 
  "getireceği": 7693, 
  "hesaba": 7694, 
  "kalitesi": 7695, 
  "ardındaki": 7696, 
  "Gana": 7697, 
  "miras": 7698, 
  "uluslu": 7699, 
  "getirmesini": 7700, 
  "görecek": 7701, 
  "kutlamak": 7702, 
  "duyuruya": 7703, 
  "Iliescu": 7704, 
  "Philip": 7705, 
  "met@@": 7706, 
  "At@@": 7707, 
  "beklenmedik": 7708, 
  "konsorsiyumu": 7709, 
  "Gordon": 7710, 
  "bildirge": 7711, 
  "lik@@": 7712, 
  "amıyor": 7713, 
  "olabilmesi": 7714, 
  "Ordusunun": 7715, 
  "yedinci": 7716, 
  "sü@@": 7717, 
  "Türkçe": 7718, 
  "bulunmadığı": 7719, 
  "sağlanmasına": 7720, 
  "ri": 7721, 
  "edeceklerini": 7722, 
  "avantaj": 7723, 
  "gittiği": 7724, 
  "ofis": 7725, 
  "Kalfin": 7726, 
  "sürdüğünü": 7727, 
  "ne@@": 7728, 
  "Sibenik": 7729, 
  "Partinin": 7730, 
  "çalışmayı": 7731, 
  "hektarlık": 7732, 
  "delil": 7733, 
  "Polt": 7734, 
  "olaylarda": 7735, 
  "kurallara": 7736, 
  "ist": 7737, 
  "açıklan@@": 7738, 
  "endişeleri": 7739, 
  "şirketine": 7740, 
  "Hay@@": 7741, 
  "limanı": 7742, 
  "Hüseyin": 7743, 
  "forum": 7744, 
  "muhteşem": 7745, 
  "arkadaş@@": 7746, 
  "EU": 7747, 
  "In@@": 7748, 
  "bastır@@": 7749, 
  "çıkardığı": 7750, 
  "çalışmalarında": 7751, 
  "varlıklarını": 7752, 
  "Malta": 7753, 
  "belirtmiş": 7754, 
  "kararıyla": 7755, 
  "laması": 7756, 
  "listeye": 7757, 
  "ham": 7758, 
  "Milanoviç": 7759, 
  "zinciri": 7760, 
  "ısının": 7761, 
  "baskılar": 7762, 
  "borçları": 7763, 
  "gerçekleştir@@": 7764, 
  "iddialar": 7765, 
  "vatandaşının": 7766, 
  "savaşta": 7767, 
  "kıy@@": 7768, 
  "Öğretim": 7769, 
  "kuran": 7770, 
  "Çağdaş": 7771, 
  "edilirken": 7772, 
  "lerimizin": 7773, 
  "sınırsız": 7774, 
  "ihmal": 7775, 
  "göre@@": 7776, 
  "uk@@": 7777, 
  "maktı": 7778, 
  "imzalayan": 7779, 
  "Festivalinde": 7780, 
  "meliyiz": 7781, 
  "dengeli": 7782, 
  "bal@@": 7783, 
  "Bir@@": 7784, 
  "alana": 7785, 
  "önemdeki": 7786, 
  "lıkları": 7787, 
  "kimileri": 7788, 
  "projelerini": 7789, 
  "atanması": 7790, 
  "ah@@": 7791, 
  "vatandaşlarını": 7792, 
  "mafya": 7793, 
  "tamamlandı": 7794, 
  "etmede": 7795, 
  "Tahiri": 7796, 
  "taban": 7797, 
  "rütbeli": 7798, 
  "kaçın@@": 7799, 
  "sergileniyor": 7800, 
  "personelinin": 7801, 
  "hazırlamak": 7802, 
  "iti@@": 7803, 
  "bakanının": 7804, 
  "katılımcılara": 7805, 
  "danışman": 7806, 
  "Nesovski": 7807, 
  "gelmiyor": 7808, 
  "Plavsiç": 7809, 
  "dikkatle": 7810, 
  "yoğunlukta": 7811, 
  "noktasında": 7812, 
  "standby": 7813, 
  "değişikliklere": 7814, 
  "Daimi": 7815, 
  "festivaline": 7816, 
  "blog": 7817, 
  "bırakıldı": 7818, 
  "düşürülmesi": 7819, 
  "geleceğin": 7820, 
  "gerçekleştirdiler": 7821, 
  "isterken": 7822, 
  "gezi": 7823, 
  "sak@@": 7824, 
  "davasını": 7825, 
  "Rumlarının": 7826, 
  "ilik": 7827, 
  "bildirgede": 7828, 
  "maçında": 7829, 
  "tamamlanacak": 7830, 
  "müttefiki": 7831, 
  "güneyinde": 7832, 
  "ot@@": 7833, 
  "Ülke": 7834, 
  "Tose": 7835, 
  "meslek": 7836, 
  "mülteciler": 7837, 
  "mayacağına": 7838, 
  "birimleri": 7839, 
  "Borislav": 7840, 
  "çıkmasını": 7841, 
  "bulunmakla": 7842, 
  "ekmek": 7843, 
  "yorumları": 7844, 
  "olsaydı": 7845, 
  "sizi": 7846, 
  "Saraybosnalı": 7847, 
  "oyuncuları": 7848, 
  "mışlardı": 7849, 
  "alınarak": 7850, 
  "tu": 7851, 
  "atan@@": 7852, 
  "uçağı": 7853, 
  "istedikleri": 7854, 
  "SNS": 7855, 
  "hareketinin": 7856, 
  "sağlığı": 7857, 
  "skandal": 7858, 
  "ESM": 7859, 
  "ekipman": 7860, 
  "ofisinden": 7861, 
  "çoğunluğun": 7862, 
  "kuş@@": 7863, 
  "destekleyeceğini": 7864, 
  "hazırlama": 7865, 
  "6,@@": 7866, 
  "almanın": 7867, 
  "adımın": 7868, 
  "Be@@": 7869, 
  "Fitch": 7870, 
  "sözlerle": 7871, 
  "tepkilere": 7872, 
  "ğ@@": 7873, 
  "bankasının": 7874, 
  "edinme": 7875, 
  "Latin": 7876, 
  "Fonun": 7877, 
  "savcılığın": 7878, 
  "görüşmelerine": 7879, 
  "üyor": 7880, 
  "yapıların": 7881, 
  "Bizim": 7882, 
  "ifadesinde": 7883, 
  "P": 7884, 
  "oranlarını": 7885, 
  "paket": 7886, 
  "atandı": 7887, 
  "Bak@@": 7888, 
  "anlaşmadan": 7889, 
  "sonlarına": 7890, 
  "240": 7891, 
  "gündem": 7892, 
  "dağlık": 7893, 
  "karşıla@@": 7894, 
  "gayet": 7895, 
  "parasal": 7896, 
  "bilmiyorum": 7897, 
  "dinar": 7898, 
  "oluşacak": 7899, 
  "heykel": 7900, 
  "ardı": 7901, 
  "içme": 7902, 
  "aktris": 7903, 
  "kesiminin": 7904, 
  "lehte": 7905, 
  "veriyorlar": 7906, 
  "taşımacılığı": 7907, 
  "yanıtlayan": 7908, 
  "tü@@": 7909, 
  "amayan": 7910, 
  "uzmanlık": 7911, 
  "Shkullaku": 7912, 
  "kop@@": 7913, 
  "okuma": 7914, 
  "yaklaşımı": 7915, 
  "7,5": 7916, 
  "86": 7917, 
  "Cristian": 7918, 
  "temyiz": 7919, 
  "giy@@": 7920, 
  "dığında": 7921, 
  "imzalamak": 7922, 
  "düşündüğünü": 7923, 
  "ileriyle": 7924, 
  "yurtdışından": 7925, 
  "NMS": 7926, 
  "Telecom": 7927, 
  "bağımlılığını": 7928, 
  "Har@@": 7929, 
  "Rijeka": 7930, 
  "biliyorum": 7931, 
  "partisine": 7932, 
  "çalışarak": 7933, 
  "mensubu": 7934, 
  "üncü": 7935, 
  "yapılandırma": 7936, 
  "çağır@@": 7937, 
  "tık@@": 7938, 
  "açığa": 7939, 
  "değiştirilmiş": 7940, 
  "çekerek": 7941, 
  "kurulmasının": 7942, 
  "yapıyoruz": 7943, 
  "değişikliğe": 7944, 
  "projelere": 7945, 
  "soykırımla": 7946, 
  "güçlerine": 7947, 
  "açacağı": 7948, 
  "Sovyetler": 7949, 
  "yaşın": 7950, 
  "arkeolojik": 7951, 
  "forumda": 7952, 
  "layıp": 7953, 
  "Airways": 7954, 
  "Başbuğ": 7955, 
  "93": 7956, 
  "ip@@": 7957, 
  "donanım": 7958, 
  "sunuluyor": 7959, 
  "güvencesi": 7960, 
  "gerçekleştirilmesi": 7961, 
  "Avaz": 7962, 
  "düzenlemesi": 7963, 
  "Crvenkovski": 7964, 
  "başkent": 7965, 
  "Online": 7966, 
  "Pula": 7967, 
  "geliştir@@": 7968, 
  "haftadan": 7969, 
  "yaşadığını": 7970, 
  "Havayolları": 7971, 
  "kaldılar": 7972, 
  "dönmeye": 7973, 
  "tura": 7974, 
  "bahar": 7975, 
  "katılıma": 7976, 
  "hediye": 7977, 
  "za": 7978, 
  "gerçekleştiril@@": 7979, 
  "Müzik": 7980, 
  "650": 7981, 
  "ortaçağ": 7982, 
  "denet@@": 7983, 
  "Hillary": 7984, 
  "ge": 7985, 
  "ederse": 7986, 
  "korkuyor": 7987, 
  "değiştiril@@": 7988, 
  "fil@@": 7989, 
  "ihtilafından": 7990, 
  "iddianamede": 7991, 
  "yaşandığını": 7992, 
  "Balkanlarda": 7993, 
  "gezisi": 7994, 
  "tasarlanmış": 7995, 
  "kuruluşların": 7996, 
  "entegrasyonunun": 7997, 
  "kullanımının": 7998, 
  "karşılayacak": 7999, 
  "Kanadalı": 8000, 
  "devral@@": 8001, 
  "kasabasındaki": 8002, 
  "karşılayarak": 8003, 
  "adımların": 8004, 
  "çalışmanın": 8005, 
  "üstünlüğünün": 8006, 
  "gözlem@@": 8007, 
  "yönetilen": 8008, 
  "tedbirlere": 8009, 
  "Sadiku": 8010, 
  "ac": 8011, 
  "Traykov": 8012, 
  "riskli": 8013, 
  "Pierre": 8014, 
  "vermeden": 8015, 
  "-ve": 8016, 
  "iyorum": 8017, 
  "almadan": 8018, 
  "Vukceviç": 8019, 
  "gecik@@": 8020, 
  "istemiyoruz": 8021, 
  "taksi": 8022, 
  "onar@@": 8023, 
  "Ion": 8024, 
  "Nükleer": 8025, 
  "clock": 8026, 
  "kurallarını": 8027, 
  "gevşek": 8028, 
  "değer@@": 8029, 
  "meme": 8030, 
  "vaka": 8031, 
  "ermesi": 8032, 
  "hizmetlerinin": 8033, 
  "desteklemeyi": 8034, 
  "kamusal": 8035, 
  "anayasayı": 8036, 
  "önerilerini": 8037, 
  "otobüs": 8038, 
  "uyarıyorlar": 8039, 
  "TI": 8040, 
  "fiyatların": 8041, 
  "yaşamlarını": 8042, 
  "92": 8043, 
  "sunul@@": 8044, 
  "açarak": 8045, 
  "tartışmanın": 8046, 
  "azalıyor": 8047, 
  "görmezden": 8048, 
  "otomatik": 8049, 
  "şartlarda": 8050, 
  "endişeli": 8051, 
  "Koalisyon": 8052, 
  "keşf@@": 8053, 
  "cinayeti": 8054, 
  "st@@": 8055, 
  "Kragujevac": 8056, 
  "sıkma": 8057, 
  "galibi": 8058, 
  "diyaloğa": 8059, 
  "trafiğe": 8060, 
  "seviyelerde": 8061, 
  "ği": 8062, 
  "görmesi": 8063, 
  "Alina": 8064, 
  "kavuştu": 8065, 
  "edenler": 8066, 
  "ARM": 8067, 
  "4,@@": 8068, 
  "bildirgeyi": 8069, 
  "bira": 8070, 
  "saldırıyı": 8071, 
  "işlediği": 8072, 
  "düzenleyerek": 8073, 
  "kentteki": 8074, 
  "öldür@@": 8075, 
  "durdu": 8076, 
  "koyan": 8077, 
  "0,5": 8078, 
  "ettikten": 8079, 
  "sonsuza": 8080, 
  "Marty": 8081, 
  "çevirdi": 8082, 
  "kov": 8083, 
  "Bankasının": 8084, 
  "Kanunu": 8085, 
  "parti@@": 8086, 
  "yatıyor": 8087, 
  "kaynaklarına": 8088, 
  "Petrol": 8089, 
  "memnuniyeti": 8090, 
  "girişimler": 8091, 
  "gösterirken": 8092, 
  "seniz": 8093, 
  "çıktılar": 8094, 
  "uzaklaştır@@": 8095, 
  "oysa": 8096, 
  "araçlar": 8097, 
  "İvana": 8098, 
  "birim": 8099, 
  "aj@@": 8100, 
  "Şala": 8101, 
  "kaygılar": 8102, 
  "Genç": 8103, 
  "abiliriz": 8104, 
  "lığının": 8105, 
  "Lukoil": 8106, 
  "ıysa": 8107, 
  "paylaşımı": 8108, 
  "bırakan": 8109, 
  "eyleme": 8110, 
  "ag@@": 8111, 
  "tavrı": 8112, 
  "tav@@": 8113, 
  "Branislav": 8114, 
  "Dyukanoviç": 8115, 
  "aşamasında": 8116, 
  "Zenica": 8117, 
  "filminin": 8118, 
  "kutlama": 8119, 
  "beklentileri": 8120, 
  "bilin@@": 8121, 
  "belediyede": 8122, 
  "üreten": 8123, 
  "atmak": 8124, 
  "verilmesine": 8125, 
  "suçlama": 8126, 
  "kuvvetlerin": 8127, 
  "kurdular": 8128, 
  "oyn@@": 8129, 
  "malara": 8130, 
  "ailelerine": 8131, 
  "Kral": 8132, 
  "yatırımlarının": 8133, 
  "faydalı": 8134, 
  "ren@@": 8135, 
  "davaya": 8136, 
  "Freedom": 8137, 
  "ılarını": 8138, 
  "hukuka": 8139, 
  "karşılanması": 8140, 
  "tipi": 8141, 
  "hazırlanmasına": 8142, 
  "bildirisinde": 8143, 
  "geçmişin": 8144, 
  "hali": 8145, 
  "müreffeh": 8146, 
  "Oyunların": 8147, 
  "birliğini": 8148, 
  "saldırgan": 8149, 
  "yaşanacak": 8150, 
  "karşılamaya": 8151, 
  "tartıştılar": 8152, 
  "İddianamede": 8153, 
  "ayrılacak": 8154, 
  "Milutinoviç": 8155, 
  "ilk@@": 8156, 
  "sunmayı": 8157, 
  "Öcalan": 8158, 
  "UEFA": 8159, 
  "tir@@": 8160, 
  "evinin": 8161, 
  "alanların": 8162, 
  "Var@@": 8163, 
  "askere": 8164, 
  "Jones": 8165, 
  "Ser@@": 8166, 
  "kalmıştı": 8167, 
  "sayı": 8168, 
  "Securitate": 8169, 
  "ve@@": 8170, 
  "onlardan": 8171, 
  "gü@@": 8172, 
  "iken": 8173, 
  "gelirlerinin": 8174, 
  "tebrik": 8175, 
  "Aleksander": 8176, 
  "destekledi": 8177, 
  "ittifak": 8178, 
  "toplumda": 8179, 
  "Raufoğlu": 8180, 
  "anlayış": 8181, 
  "kullanıldığı": 8182, 
  "üyelerin": 8183, 
  "pazarındaki": 8184, 
  "ağına": 8185, 
  "durgunluk": 8186, 
  "hisset@@": 8187, 
  "anlaşmazlığa": 8188, 
  "egemenliği": 8189, 
  "kut@@": 8190, 
  "ihtilafın": 8191, 
  "bulundur@@": 8192, 
  "kur": 8193, 
  "eleştiriyor": 8194, 
  "kalacaklar": 8195, 
  "yetkisine": 8196, 
  "hatır@@": 8197, 
  "Mer@@": 8198, 
  "ilginç": 8199, 
  "bölgelerindeki": 8200, 
  "haftanın": 8201, 
  "Yves": 8202, 
  "borcunun": 8203, 
  "edileceği": 8204, 
  "irse": 8205, 
  "nesil": 8206, 
  "sanatçıların": 8207, 
  "hile": 8208, 
  "sanal": 8209, 
  "UDF": 8210, 
  "sürdürecek": 8211, 
  "başlatılmasını": 8212, 
  "kazanmıştı": 8213, 
  "arka": 8214, 
  "per@@": 8215, 
  "rehin": 8216, 
  "koruyan": 8217, 
  "sözlü": 8218, 
  "projelerinin": 8219, 
  "genişletme": 8220, 
  "mü@@": 8221, 
  "uzlaşmacı": 8222, 
  "zengin@@": 8223, 
  "Topiç": 8224, 
  "büyükelçileri": 8225, 
  "uğraş@@": 8226, 
  "mamaları": 8227, 
  "çağrı": 8228, 
  "yargıçlar": 8229, 
  "Mandiç": 8230, 
  "gelişmesi": 8231, 
  "gerektiriyor": 8232, 
  "bar": 8233, 
  "reformcu": 8234, 
  "yapımına": 8235, 
  "aday@@": 8236, 
  "Televizyonu": 8237, 
  "anlattı": 8238, 
  "yayınlanacak": 8239, 
  "Express": 8240, 
  "örgütlü": 8241, 
  "parası": 8242, 
  "reel": 8243, 
  "olmay@@": 8244, 
  "edilerek": 8245, 
  "müfettişler": 8246, 
  "lanmış": 8247, 
  "herkesi": 8248, 
  "müzakerelerindeki": 8249, 
  "olmadıklarını": 8250, 
  "Üniversite": 8251, 
  "pazarın": 8252, 
  "indir@@": 8253, 
  "anki": 8254, 
  "artırıyor": 8255, 
  "gerileme": 8256, 
  "kazanmaya": 8257, 
  "huzurunda": 8258, 
  "almakta": 8259, 
  "açılmasına": 8260, 
  "bula@@": 8261, 
  "ruhu": 8262, 
  "arayan": 8263, 
  "hamle": 8264, 
  "Vlatko": 8265, 
  "tartışmaları": 8266, 
  "Taleski": 8267, 
  "katılacağını": 8268, 
  "ikincisi": 8269, 
  "başlamadan": 8270, 
  "madıkları": 8271, 
  "Tatlıses": 8272, 
  "düzene": 8273, 
  "kuracak": 8274, 
  "urken": 8275, 
  "Güler": 8276, 
  "lıkla": 8277, 
  "ilinde": 8278, 
  "SEE": 8279, 
  "leniyor": 8280, 
  "reformun": 8281, 
  "hazırlıyor": 8282, 
  "gösteriliyor": 8283, 
  "yas@@": 8284, 
  "kuru": 8285, 
  "yemin": 8286, 
  "batısındaki": 8287, 
  "bölüm": 8288, 
  "gerçekleştiği": 8289, 
  "satan": 8290, 
  "ayrıntıları": 8291, 
  "hastanede": 8292, 
  "partisini": 8293, 
  "kurumlarında": 8294, 
  "raportörü": 8295, 
  "uzunluğundaki": 8296, 
  "kısıtlamaları": 8297, 
  "talebiyle": 8298, 
  "araştırmalar": 8299, 
  "kanser": 8300, 
  "derin@@": 8301, 
  "and@@": 8302, 
  "stratejinin": 8303, 
  "etkiledi": 8304, 
  "ressam": 8305, 
  "koruyacak": 8306, 
  "Budva": 8307, 
  "ISAF": 8308, 
  "uc@@": 8309, 
  "Dan": 8310, 
  "karanlık": 8311, 
  "ski": 8312, 
  "çekilen": 8313, 
  "Vadisi": 8314, 
  "isterim": 8315, 
  "kabinesinin": 8316, 
  "kullanıl@@": 8317, 
  "uygulamanın": 8318, 
  "gerekmektedir": 8319, 
  "vekili": 8320, 
  "Geçici": 8321, 
  "Limaj": 8322, 
  "dönüştürme": 8323, 
  "yon": 8324, 
  "maddeleri": 8325, 
  "kesimler": 8326, 
  "lisans": 8327, 
  "yaşamın": 8328, 
  "günden": 8329, 
  "koymak": 8330, 
  "Konseyinin": 8331, 
  "olmamız": 8332, 
  "onayına": 8333, 
  "Niş": 8334, 
  "riskler": 8335, 
  "duyuyorum": 8336, 
  "kir@@": 8337, 
  "reddettiği": 8338, 
  "karşıladığını": 8339, 
  "tenisçi": 8340, 
  "alışverişinde": 8341, 
  "DiCarlo": 8342, 
  "dum": 8343, 
  "olabil@@": 8344, 
  "gelişmelere": 8345, 
  "faktör": 8346, 
  "Tüm": 8347, 
  "araştırmacı": 8348, 
  "domuz": 8349, 
  "Bal@@": 8350, 
  "İn@@": 8351, 
  "zorluk": 8352, 
  "BNN": 8353, 
  "Olimpiyatlar": 8354, 
  "gerçekte": 8355, 
  "kab@@": 8356, 
  "tüketiciler": 8357, 
  "hav@@": 8358, 
  "çekmeyi": 8359, 
  "bölünmesi": 8360, 
  "dinle@@": 8361, 
  "Ger@@": 8362, 
  "yayımlanan": 8363, 
  "oz@@": 8364, 
  "tiği": 8365, 
  "gö@@": 8366, 
  "yürütecek": 8367, 
  "örgütlere": 8368, 
  "kurbanları": 8369, 
  "müstakbel": 8370, 
  "toplumlarının": 8371, 
  "farklılıkları": 8372, 
  "analistlere": 8373, 
  "mamaya": 8374, 
  "şirkete": 8375, 
  "suçlayan": 8376, 
  "uz": 8377, 
  "planlarına": 8378, 
  "evleri": 8379, 
  "lenmesi": 8380, 
  "ra": 8381, 
  "önleyici": 8382, 
  "Joachim": 8383, 
  "suçladılar": 8384, 
  "sağa": 8385, 
  "artıracağını": 8386, 
  "ük": 8387, 
  "top@@": 8388, 
  "gösterdikleri": 8389, 
  "Gazetecilik": 8390, 
  "keşif": 8391, 
  "çıkarmayı": 8392, 
  "Jansa": 8393, 
  "enflasyonu": 8394, 
  "anlamıyla": 8395, 
  "anayasada": 8396, 
  "bağları": 8397, 
  "denge": 8398, 
  "gündeminin": 8399, 
  "göstermeleri": 8400, 
  "lerken": 8401, 
  "birleşmiş": 8402, 
  "halkla": 8403, 
  "tahminlere": 8404, 
  "utanç": 8405, 
  "çağırıyorum": 8406, 
  "hazırla@@": 8407, 
  "biriminin": 8408, 
  "geçmeye": 8409, 
  "önlem": 8410, 
  "halihazırda": 8411, 
  "Bil@@": 8412, 
  "geril@@": 8413, 
  "kazı": 8414, 
  "gen@@": 8415, 
  "Antalya": 8416, 
  "sav@@": 8417, 
  "büyükelçiliği": 8418, 
  "sıralamasında": 8419, 
  "kızı": 8420, 
  "duyuru": 8421, 
  "reddettiler": 8422, 
  "gelişmelerin": 8423, 
  "umarım": 8424, 
  "sarf": 8425, 
  "Yabancı": 8426, 
  "Baran": 8427, 
  "FIFA": 8428, 
  "riskini": 8429, 
  "gal@@": 8430, 
  "düzenledikleri": 8431, 
  "Venizelos": 8432, 
  "Ben": 8433, 
  "Borissov": 8434, 
  "huzuruna": 8435, 
  "cenaze": 8436, 
  "İsa": 8437, 
  "gerçekleşmesini": 8438, 
  "abilecekleri": 8439, 
  "başkanlarının": 8440, 
  "olacağından": 8441, 
  "yarışmaya": 8442, 
  "tti": 8443, 
  "ödeyecek": 8444, 
  "Elçisi": 8445, 
  "kaçırma": 8446, 
  "Vlasiç": 8447, 
  "girmesini": 8448, 
  "ayrılma": 8449, 
  "landığı": 8450, 
  "Slovak": 8451, 
  "takviye": 8452, 
  "uzatma": 8453, 
  "Steel": 8454, 
  "fuarı": 8455, 
  "Clark": 8456, 
  "suçlarının": 8457, 
  "Irish": 8458, 
  "can@@": 8459, 
  "karşılanacak": 8460, 
  "çıkarken": 8461, 
  "gidil@@": 8462, 
  "becerilerini": 8463, 
  "hükümetinde": 8464, 
  "koşullarını": 8465, 
  "yapabil@@": 8466, 
  "Tümgeneral": 8467, 
  "Tetovo": 8468, 
  "medikleri": 8469, 
  "ekolojik": 8470, 
  "başarısını": 8471, 
  "Topalli": 8472, 
  "for": 8473, 
  "Kadare": 8474, 
  "anlaşmazlığın": 8475, 
  "değerlendirmesi": 8476, 
  "medeki": 8477, 
  "genişletilmesi": 8478, 
  "lanan": 8479, 
  "santralin": 8480, 
  "Patten": 8481, 
  "iliği": 8482, 
  "97": 8483, 
  "Ancak": 8484, 
  "gelişinden": 8485, 
  "RS": 8486, 
  "mekanizma": 8487, 
  "ifşa": 8488, 
  "hazırlıklı": 8489, 
  "teröristlerin": 8490, 
  "elbette": 8491, 
  "oranıyla": 8492, 
  "kırılgan": 8493, 
  "belirleyen": 8494, 
  "21.": 8495, 
  "vermekte": 8496, 
  "ülkesiyle": 8497, 
  "Tan@@": 8498, 
  "arabulucu": 8499, 
  "durdurma": 8500, 
  "havaya": 8501, 
  "ılarına": 8502, 
  "projeyle": 8503, 
  "kaygıları": 8504, 
  "0.000": 8505, 
  "Muhammed": 8506, 
  "sağlayabilir": 8507, 
  "Kan@@": 8508, 
  "sık@@": 8509, 
  "edilmemesi": 8510, 
  "Küçük": 8511, 
  "Bo@@": 8512, 
  "ihalesini": 8513, 
  "sezon": 8514, 
  "yet@@": 8515, 
  "Albay": 8516, 
  "cam": 8517, 
  "Romano": 8518, 
  "köprünün": 8519, 
  "sil@@": 8520, 
  "opera": 8521, 
  "adaya": 8522, 
  "başlan@@": 8523, 
  "Fotoğraflar": 8524, 
  "Pan": 8525, 
  "bunda": 8526, 
  "sahibiz": 8527, 
  "yukarı": 8528, 
  "işletmeleri": 8529, 
  "getirilmesine": 8530, 
  "elç@@": 8531, 
  "Demokratların": 8532, 
  "meyve": 8533, 
  "ekonomilerinin": 8534, 
  "aç": 8535, 
  "niyetinde": 8536, 
  "ödüllü": 8537, 
  "toplantısını": 8538, 
  "2.@@": 8539, 
  "gerçekleştiğini": 8540, 
  "azal@@": 8541, 
  "bağımsızlıktan": 8542, 
  "ba": 8543, 
  "böylesi": 8544, 
  "düşman@@": 8545, 
  "yarısını": 8546, 
  "eleştiriler": 8547, 
  "ni@@": 8548, 
  "fer@@": 8549, 
  "bölücü": 8550, 
  "protestolara": 8551, 
  "Kuvvetler": 8552, 
  "yapmaktan": 8553, 
  "güçlüklerle": 8554, 
  "ha": 8555, 
  "vermediğini": 8556, 
  "medyasında": 8557, 
  "kimliğini": 8558, 
  "zirvesinin": 8559, 
  "maaşlarına": 8560, 
  "Futbol": 8561, 
  "pahasına": 8562, 
  "Yunanlıların": 8563, 
  "14@@": 8564, 
  "gelebilecek": 8565, 
  "aran@@": 8566, 
  "alanına": 8567, 
  "Jonilda": 8568, 
  "alabilir": 8569, 
  "muştu": 8570, 
  "yaklaşıyor": 8571, 
  "PTK": 8572, 
  "f": 8573, 
  "sektördeki": 8574, 
  "87": 8575, 
  "kalırken": 8576, 
  "ebilmesi": 8577, 
  "andığı": 8578, 
  "maddelik": 8579, 
  "dergisinin": 8580, 
  "List": 8581, 
  "barajını": 8582, 
  "City": 8583, 
  "çoğunluğa": 8584, 
  "amaçlar": 8585, 
  "hızı": 8586, 
  "tedbiri": 8587, 
  "ödülüne": 8588, 
  "tedbirlerine": 8589, 
  "kovuştur@@": 8590, 
  "müş": 8591, 
  "Birliğinin": 8592, 
  "vaat": 8593, 
  "silahları": 8594, 
  "yapmanın": 8595, 
  "beklenirken": 8596, 
  "haberdar": 8597, 
  "göçmenler": 8598, 
  "ey@@": 8599, 
  "konseri": 8600, 
  "belirlediği": 8601, 
  "yanıtı": 8602, 
  "gençlere": 8603, 
  "görevinde": 8604, 
  "fotoğraf@@": 8605, 
  "Misko": 8606, 
  "imzalaması": 8607, 
  "ür@@": 8608, 
  "güçlendir@@": 8609, 
  "üstün": 8610, 
  "söyleşide": 8611, 
  "1,1": 8612, 
  "Okulu": 8613, 
  "Kat@@": 8614, 
  "borçlu": 8615, 
  "mücadelesi": 8616, 
  "mamasına": 8617, 
  "Gracanica": 8618, 
  "ten@@": 8619, 
  "yaptıklarını": 8620, 
  "gerçekleri": 8621, 
  "emir": 8622, 
  "başkanını": 8623, 
  "farklılıklar": 8624, 
  "bulabil@@": 8625, 
  "açtılar": 8626, 
  "performansını": 8627, 
  "kampanyasını": 8628, 
  "likleri": 8629, 
  "geliyorlar": 8630, 
  "Jandrokoviç": 8631, 
  "lardı": 8632, 
  "Şimdi": 8633, 
  "kazanırken": 8634, 
  "siyasetin": 8635, 
  "yor": 8636, 
  "dönemdeki": 8637, 
  "his@@": 8638, 
  "miktarlarda": 8639, 
  "görülmesi": 8640, 
  "dol@@": 8641, 
  "kalıntıları": 8642, 
  "Av@@": 8643, 
  "orduya": 8644, 
  "editörü": 8645, 
  "maaşlarının": 8646, 
  "amaç@@": 8647, 
  "üyesini": 8648, 
  "ülkemizin": 8649, 
  "katılmaları": 8650, 
  "artmasını": 8651, 
  "Arası": 8652, 
  "afet": 8653, 
  "Miodrag": 8654, 
  "arı": 8655, 
  "ölen": 8656, 
  "sınırların": 8657, 
  "yerlere": 8658, 
  "kısıtlı": 8659, 
  "konaklama": 8660, 
  "üretilen": 8661, 
  "ideal": 8662, 
  "dönüştü": 8663, 
  "Sırplarla": 8664, 
  "Besa": 8665, 
  "şüphesiyle": 8666, 
  "damgasını": 8667, 
  "sistematik": 8668, 
  "başladığında": 8669, 
  "Rumsfeld": 8670, 
  "hitap": 8671, 
  "suçlan@@": 8672, 
  "Jociç": 8673, 
  "tamamının": 8674, 
  "çekici": 8675, 
  "Zarko": 8676, 
  "çare": 8677, 
  "ılmasıyla": 8678, 
  "ürünlerin": 8679, 
  "davranış": 8680, 
  "Fuele": 8681, 
  "kanlı": 8682, 
  "MESS": 8683, 
  "yanındaki": 8684, 
  "soruşturmada": 8685, 
  "taşın@@": 8686, 
  "birincilik": 8687, 
  "suçlara": 8688, 
  "Corporation": 8689, 
  "sahada": 8690, 
  "3,3": 8691, 
  "kurumlarıyla": 8692, 
  "yabancılar": 8693, 
  "tamamlaması": 8694, 
  "üyeliğinden": 8695, 
  "1970": 8696, 
  "binaların": 8697, 
  "insanlarla": 8698, 
  "üzüntüyü": 8699, 
  "kısıtlama": 8700, 
  "sorular": 8701, 
  "başlamaya": 8702, 
  "etmediği": 8703, 
  "başarıya": 8704, 
  "taraftarları": 8705, 
  "Ev@@": 8706, 
  "bor@@": 8707, 
  "gencin": 8708, 
  "Hasan": 8709, 
  "sözleşmenin": 8710, 
  "leş@@": 8711, 
  "istek@@": 8712, 
  "kaçağın": 8713, 
  "sponsorluğunda": 8714, 
  "anları": 8715, 
  "Varşova": 8716, 
  "yarış": 8717, 
  "ithalatı": 8718, 
  "siyasetçilerin": 8719, 
  "görüşmesinde": 8720, 
  "buz": 8721, 
  "kapattı": 8722, 
  "restore": 8723, 
  "filmleri": 8724, 
  "kapatmak": 8725, 
  "haritası": 8726, 
  "olanları": 8727, 
  "muaf": 8728, 
  "Bur@@": 8729, 
  "tamamla@@": 8730, 
  "suçlular": 8731, 
  "kardeşi": 8732, 
  "Bill": 8733, 
  "imzalayarak": 8734, 
  "seyrediyor": 8735, 
  "gitmeye": 8736, 
  "hiçbirinin": 8737, 
  "ça": 8738, 
  "dönüşleri": 8739, 
  "imzal@@": 8740, 
  "imzalanacak": 8741, 
  "Mihai": 8742, 
  "mezar": 8743, 
  "dernekleri": 8744, 
  "gelişen": 8745, 
  "anlaşmazlıkların": 8746, 
  "Limay": 8747, 
  "Denetleme": 8748, 
  "kayda": 8749, 
  "indirim": 8750, 
  "Çavuşesku": 8751, 
  "dokun@@": 8752, 
  "kullanmayı": 8753, 
  "gelmektedir": 8754, 
  "Görev": 8755, 
  "üstlendiği": 8756, 
  "sıraladı": 8757, 
  "gaz@@": 8758, 
  "Dav@@": 8759, 
  "güçlük": 8760, 
  "ısına": 8761, 
  "iyileştir@@": 8762, 
  "E": 8763, 
  "uma": 8764, 
  "alev@@": 8765, 
  "kentlerinde": 8766, 
  "6,5": 8767, 
  "sağlamaları": 8768, 
  "yöneten": 8769, 
  "1500": 8770, 
  "Tarih": 8771, 
  "bulunduğumuz": 8772, 
  "koalisyona": 8773, 
  "görüşlere": 8774, 
  "Nis": 8775, 
  "ettiğimiz": 8776, 
  "rekabeti": 8777, 
  "sektörlerinde": 8778, 
  "sözleriyle": 8779, 
  "ra@@": 8780, 
  "Barbu": 8781, 
  "hakkının": 8782, 
  "suikast@@": 8783, 
  "emez": 8784, 
  "ist@@": 8785, 
  "tutuklanıp": 8786, 
  "Pliva": 8787, 
  "umuzu": 8788, 
  "mutlak": 8789, 
  "En@@": 8790, 
  "meyecektir": 8791, 
  "kredilerin": 8792, 
  "çocuğunun": 8793, 
  "eğilim": 8794, 
  "düzenlemeleri": 8795, 
  "tümünü": 8796, 
  "gereğinin": 8797, 
  "mahkemelerde": 8798, 
  "isimlerinden": 8799, 
  "militan": 8800, 
  "Ö@@": 8801, 
  "yenil@@": 8802, 
  "grup@@": 8803, 
  "pazarlarına": 8804, 
  "ovo": 8805, 
  "sorumluluklarını": 8806, 
  "bağlılık": 8807, 
  "Venedik": 8808, 
  "beğen@@": 8809, 
  "söylen@@": 8810, 
  "sosyalist": 8811, 
  "Orkestrası": 8812, 
  "farkı": 8813, 
  "gerektiğinin": 8814, 
  "meyle": 8815, 
  "MOL": 8816, 
  "fiyatlarına": 8817, 
  "Sınır": 8818, 
  "lanma": 8819, 
  "etmelerine": 8820, 
  "mallarını": 8821, 
  "müziği": 8822, 
  "Papademos": 8823, 
  "budur": 8824, 
  "ılığa": 8825, 
  "otuz": 8826, 
  "ilerlemesinin": 8827, 
  "Varna": 8828, 
  "güvenin": 8829, 
  "Colin": 8830, 
  "Nokia": 8831, 
  "bab@@": 8832, 
  "Anlaşmasına": 8833, 
  "efsanevi": 8834, 
  "işçilere": 8835, 
  "PD": 8836, 
  "Komisyonunun": 8837, 
  "KOBİ": 8838, 
  "Zbogar": 8839, 
  "Yıldız": 8840, 
  "açıklayan": 8841, 
  "Yas@@": 8842, 
  "devletlerin": 8843, 
  "ilkelerini": 8844, 
  "yaptığımız": 8845, 
  "ileriye": 8846, 
  "yarışında": 8847, 
  "kıyısında": 8848, 
  "nü": 8849, 
  "yürütülüyor": 8850, 
  "büyükelçilik": 8851, 
  "kolaylaştırma": 8852, 
  "turunda": 8853, 
  "açabileceği": 8854, 
  "parçaları": 8855, 
  "temiz@@": 8856, 
  "bütçeye": 8857, 
  "açıklamaları": 8858, 
  "engellen@@": 8859, 
  "geçiriyor": 8860, 
  "akşamı": 8861, 
  "istediler": 8862, 
  "çağrılarına": 8863, 
  "Daci": 8864, 
  "taslağını": 8865, 
  "korsan": 8866, 
  "imzalanmasının": 8867, 
  "maddenin": 8868, 
  "yayın@@": 8869, 
  "Kiril": 8870, 
  "dairesinden": 8871, 
  "mimari": 8872, 
  "Baba": 8873, 
  "1,7": 8874, 
  "yarıya": 8875, 
  "ortaklığı": 8876, 
  "oynadığını": 8877, 
  "metrekarelik": 8878, 
  "aldıklarını": 8879, 
  "kurbanlar": 8880, 
  "Yarışması": 8881, 
  "sektöre": 8882, 
  "Başa": 8883, 
  "kısmi": 8884, 
  "engelli": 8885, 
  "onunla": 8886, 
  "oluşturulan": 8887, 
  "Edebiyat": 8888, 
  "Sosyalistlerin": 8889, 
  "kurması": 8890, 
  "Havalimanı": 8891, 
  "baskının": 8892, 
  "oturumunda": 8893, 
  "düğü": 8894, 
  "kaza": 8895, 
  "soruşturmaya": 8896, 
  "lardır": 8897, 
  "ücreti": 8898, 
  "ular": 8899, 
  "gazetecilik": 8900, 
  "zamanlı": 8901, 
  "Fon": 8902, 
  "ilişkili": 8903, 
  "kriterler": 8904, 
  "birleştirilmesi": 8905, 
  "Soğuk": 8906, 
  "sığın@@": 8907, 
  "gördükleri": 8908, 
  "kalkınmayı": 8909, 
  "ant": 8910, 
  "imzalan@@": 8911, 
  "aşan": 8912, 
  "umu": 8913, 
  "sak": 8914, 
  "başlamasının": 8915, 
  "desteklen@@": 8916, 
  "yollar": 8917, 
  "tesisler": 8918, 
  "canlandırmak": 8919, 
  "doları": 8920, 
  "hareketini": 8921, 
  "filmiyle": 8922, 
  "geçirilmesini": 8923, 
  "uş@@": 8924, 
  "Mitreva": 8925, 
  "Scotsman": 8926, 
  "ödemesi": 8927, 
  "edebilmek": 8928, 
  "beyin": 8929, 
  "iktidarı": 8930, 
  "savaşa": 8931, 
  "çe": 8932, 
  "özel@@": 8933, 
  "edilmesinden": 8934, 
  "Koci": 8935, 
  "mak@@": 8936, 
  "kendisinden": 8937, 
  "oylamayı": 8938, 
  "eylemlerinin": 8939, 
  "Federasyon": 8940, 
  "uygulay@@": 8941, 
  "mazsa": 8942, 
  "gerginliğin": 8943, 
  "91": 8944, 
  "sokaklara": 8945, 
  "ımda": 8946, 
  "görüşmelerini": 8947, 
  "har@@": 8948, 
  "yürüyüş": 8949, 
  "seçmenlere": 8950, 
  "prosedür": 8951, 
  "Mahkemesinin": 8952, 
  "Şahin": 8953, 
  "Andrija": 8954, 
  "mayacaktır": 8955, 
  "evin": 8956, 
  "sını": 8957, 
  "Başsavcısı": 8958, 
  "çalışmakla": 8959, 
  "zi": 8960, 
  "Arabistan": 8961, 
  "Schook": 8962, 
  "Koalisyonu": 8963, 
  "Kristina": 8964, 
  "demokrasiyi": 8965, 
  "şehri": 8966, 
  "Reform": 8967, 
  "çağrıları": 8968, 
  "kentinden": 8969, 
  "anlaşmazlığının": 8970, 
  "izlediği": 8971, 
  "tutarlı": 8972, 
  "yöntem": 8973, 
  "kadını": 8974, 
  "ihtiyaçlarına": 8975, 
  "misyonunu": 8976, 
  "ans@@": 8977, 
  "posta": 8978, 
  "sıkça": 8979, 
  "Kumanovo": 8980, 
  "maden": 8981, 
  "asi": 8982, 
  "ses@@": 8983, 
  "çı": 8984, 
  "Mile": 8985, 
  "işlemleri": 8986, 
  "anlatan": 8987, 
  "Opera": 8988, 
  "Shantek": 8989, 
  "düzenlemenin": 8990, 
  "çekmesi": 8991, 
  "maliyet": 8992, 
  "ilerletmeye": 8993, 
  "gerektiğinde": 8994, 
  "atılım": 8995, 
  "altyapısı": 8996, 
  "bağımsızlığın": 8997, 
  "almasının": 8998, 
  "yon@@": 8999, 
  "anan": 9000, 
  "gözlerini": 9001, 
  "etkinlikleri": 9002, 
  "Mirasları": 9003, 
  "usulsüzlük": 9004, 
  "tanımlanan": 9005, 
  "bulgular": 9006, 
  "çıkıyorlar": 9007, 
  "Kouchner": 9008, 
  "gördük": 9009, 
  "görüşmelerinde": 9010, 
  "önerinin": 9011, 
  "tanımlan@@": 9012, 
  "büyükelçi": 9013, 
  "çözümünde": 9014, 
  "düzeyi": 9015, 
  "eylemlerine": 9016, 
  "Tanja": 9017, 
  "kente": 9018, 
  "tedbirlerinin": 9019, 
  "çıkarıyor": 9020, 
  "kaçakçılığının": 9021, 
  "Kandiç": 9022, 
  "cemaati": 9023, 
  "ailelerin": 9024, 
  "Her@@": 9025, 
  "barındıran": 9026, 
  "anahtarı": 9027, 
  "altyapının": 9028, 
  "siyasetten": 9029, 
  "desteğe": 9030, 
  "belgesi": 9031, 
  "yıldönümünde": 9032, 
  "alacaklar": 9033, 
  "Sözcüsü": 9034, 
  "layacak": 9035, 
  "entegrasyonunu": 9036, 
  "madıklarını": 9037, 
  "sınırını": 9038, 
  "soruşturmalar": 9039, 
  "kazanmış": 9040, 
  "soruyor": 9041, 
  "altyapısını": 9042, 
  "reformunu": 9043, 
  "Velchev": 9044, 
  "WHO": 9045, 
  "ismini": 9046, 
  "yönetimiyle": 9047, 
  "dönme": 9048, 
  "vaatleri": 9049, 
  "ulaştır@@": 9050, 
  "dokunulmazlık": 9051, 
  "ılar@@": 9052, 
  "if@@": 9053, 
  "96": 9054, 
  "ender": 9055, 
  "atanan": 9056, 
  "min@@": 9057, 
  "çözül@@": 9058, 
  "Osetya": 9059, 
  "Sibiu": 9060, 
  "görevlendir@@": 9061, 
  "Veles": 9062, 
  "giz@@": 9063, 
  "dayandığını": 9064, 
  "Vlahoviç": 9065, 
  "Kısa": 9066, 
  "yaratmaya": 9067, 
  "DOS": 9068, 
  "mesafe": 9069, 
  "ayrılmaz": 9070, 
  "üm@@": 9071, 
  "iyiye": 9072, 
  "başarılar": 9073, 
  "Bilimler": 9074, 
  "yaratılması": 9075, 
  "19.": 9076, 
  "faaliyetlerde": 9077, 
  "otoyolun": 9078, 
  "geriledi": 9079, 
  "dolandırıcılık": 9080, 
  "kaynaklarından": 9081, 
  "bulduğunu": 9082, 
  "yüzme": 9083, 
  "etkiler": 9084, 
  "dersler": 9085, 
  "hay@@": 9086, 
  "tanıklık": 9087, 
  "çoğunda": 9088, 
  "tanıtmak": 9089, 
  "ürünlerini": 9090, 
  "Gal@@": 9091, 
  "duyurduğu": 9092, 
  "uzlaşmayı": 9093, 
  "hasara": 9094, 
  "burası": 9095, 
  "dediği": 9096, 
  "3,2": 9097, 
  "Zukorliç": 9098, 
  "birinden": 9099, 
  "bitir@@": 9100, 
  "halktan": 9101, 
  "mirasının": 9102, 
  "onaylan@@": 9103, 
  "Kurumu": 9104, 
  "öldürül@@": 9105, 
  "krediyle": 9106, 
  "tahminler": 9107, 
  "artarken": 9108, 
  "ateşkes": 9109, 
  "Bor@@": 9110, 
  "biçimi": 9111, 
  "Mladenov": 9112, 
  "arazi": 9113, 
  "Borsası": 9114, 
  "araştırmacılar": 9115, 
  "getirmeleri": 9116, 
  "eserler": 9117, 
  "Gazze": 9118, 
  "telefonla": 9119, 
  "infaz": 9120, 
  "çalışmasının": 9121, 
  "IPA": 9122, 
  "bayrak": 9123, 
  "dığımız": 9124, 
  "bizlere": 9125, 
  "sıradaki": 9126, 
  "vatandaşlığı": 9127, 
  "işletmelere": 9128, 
  "festivalinin": 9129, 
  "düzenleyecek": 9130, 
  "3,6": 9131, 
  "ulaşmasını": 9132, 
  "oynamaya": 9133, 
  "yoğunlaş@@": 9134, 
  "ödemeyi": 9135, 
  "re": 9136, 
  "tamamlanmış": 9137, 
  "riskine": 9138, 
  "politikasında": 9139, 
  "ımları": 9140, 
  "topluluk": 9141, 
  "gazetenin": 9142, 
  "işçileri": 9143, 
  "atama": 9144, 
  "zanlısının": 9145, 
  "öğleden": 9146, 
  "evler": 9147, 
  "tanıyor": 9148, 
  "faktörler": 9149, 
  "ort@@": 9150, 
  "yaşları": 9151, 
  "haftasonu": 9152, 
  "sahiplerine": 9153, 
  "liklerini": 9154, 
  "niteliğinde": 9155, 
  "toprakları": 9156, 
  "başlı": 9157, 
  "2,3": 9158, 
  "bugünlerde": 9159, 
  "geçmesini": 9160, 
  "önlemeye": 9161, 
  "eylemlerin": 9162, 
  "şahısların": 9163, 
  "sahneye": 9164, 
  "Çalışmaları": 9165, 
  "Hala": 9166, 
  "kazanmasına": 9167, 
  "es": 9168, 
  "nereye": 9169, 
  "pazara": 9170, 
  "tarafındaki": 9171, 
  "sohbet": 9172, 
  "kullanmakla": 9173, 
  "oranın": 9174, 
  "yasaklayan": 9175, 
  "değerlendiriyorsunuz": 9176, 
  "Uz@@": 9177, 
  "çalışacağız": 9178, 
  "duğu": 9179, 
  "maz@@": 9180, 
  "düştüğünü": 9181, 
  "ilgilenen": 9182, 
  "İnsani": 9183, 
  "ürken": 9184, 
  "dir@@": 9185, 
  "liderlerinden": 9186, 
  "Şirketi": 9187, 
  "Zdravko": 9188, 
  "Ber@@": 9189, 
  "Para": 9190, 
  "etmiştir": 9191, 
  "hayatlarını": 9192, 
  "Galerisi": 9193, 
  "hazırlayan": 9194, 
  "oteller": 9195, 
  "tarafça": 9196, 
  "pazarda": 9197, 
  "biliniyor": 9198, 
  "fiyatlarında": 9199, 
  "sonuncusu": 9200, 
  "ıda": 9201, 
  "tanımaya": 9202, 
  "yönel@@": 9203, 
  "hepimizin": 9204, 
  "katkılarından": 9205, 
  "gözüyle": 9206, 
  "bırakma": 9207, 
  "kutladılar": 9208, 
  "mirasını": 9209, 
  "tutarındaki": 9210, 
  "planladıklarını": 9211, 
  "Günter": 9212, 
  "yönetime": 9213, 
  "ici": 9214, 
  "mam": 9215, 
  "değerlendiriliyor": 9216, 
  "tr@@": 9217, 
  "konum@@": 9218, 
  "kaydedildiğini": 9219, 
  "katılmış": 9220, 
  "ıc@@": 9221, 
  "ımının": 9222, 
  "Donald": 9223, 
  "meclisinin": 9224, 
  "yaşamış": 9225, 
  "Birimi": 9226, 
  "Jankulovska": 9227, 
  "birbirlerini": 9228, 
  "hızlandırması": 9229, 
  "likler": 9230, 
  "yerler": 9231, 
  "yetkililerinden": 9232, 
  "acağımız": 9233, 
  "Ne@@": 9234, 
  "adada": 9235, 
  "işgücü": 9236, 
  "biridir": 9237, 
  "De@@": 9238, 
  "Damir": 9239, 
  "suikasta": 9240, 
  "gelmeye": 9241, 
  "isteksiz": 9242, 
  "tereddüt": 9243, 
  "bileceği": 9244, 
  "istihdamı": 9245, 
  "sayımının": 9246, 
  "Air": 9247, 
  "Tıp": 9248, 
  "kapıları": 9249, 
  "demokratikleşme": 9250, 
  "hektar": 9251, 
  "Kararı": 9252, 
  "isteğiyle": 9253, 
  "Fırtına": 9254, 
  "ücretler": 9255, 
  "tutuklandığını": 9256, 
  "Downer": 9257, 
  "450": 9258, 
  "ga": 9259, 
  "2,2": 9260, 
  "makamlara": 9261, 
  "değiştirdi": 9262, 
  "olaylardan": 9263, 
  "organizatörler": 9264, 
  "sonuçlan@@": 9265, 
  "karşıt": 9266, 
  "organları": 9267, 
  "Anna": 9268, 
  "duğuna": 9269, 
  "ilmiş": 9270, 
  "ol": 9271, 
  "leşme": 9272, 
  "yanısıra": 9273, 
  "Rudoviç": 9274, 
  "Top@@": 9275, 
  "teklifini": 9276, 
  "koşul": 9277, 
  "istifası": 9278, 
  "AİHM": 9279, 
  "pat@@": 9280, 
  "bozul@@": 9281, 
  "meblağ": 9282, 
  "piyasaları": 9283, 
  "grubunda": 9284, 
  "sürenin": 9285, 
  "verebilir": 9286, 
  "yakınlardaki": 9287, 
  "Matiç": 9288, 
  "sivillerin": 9289, 
  "filmde": 9290, 
  "kovuşturma": 9291, 
  "5,5": 9292, 
  "Josip": 9293, 
  "Di@@": 9294, 
  "isten@@": 9295, 
  "protokolü": 9296, 
  "sitesine": 9297, 
  "süreceğini": 9298, 
  "esindeki": 9299, 
  "0@@": 9300, 
  "art": 9301, 
  "mekanizması": 9302, 
  "politikanın": 9303, 
  "karşılamada": 9304, 
  "gönderdiğini": 9305, 
  "imin": 9306, 
  "Nazi": 9307, 
  "unsurların": 9308, 
  "Birlikte": 9309, 
  "su@@": 9310, 
  "çiğne@@": 9311, 
  "kaçan": 9312, 
  "Joseph": 9313, 
  "lıktan": 9314, 
  "Marian": 9315, 
  "Fakat": 9316, 
  "umutlarına": 9317, 
  "azami": 9318, 
  "lider@@": 9319, 
  "duyul@@": 9320, 
  "hedefimiz": 9321, 
  "çatısı": 9322, 
  "Arhin": 9323, 
  "duruşmada": 9324, 
  "kutsal": 9325, 
  "olasılıkları": 9326, 
  "dönmesi": 9327, 
  "Anlaşmaları": 9328, 
  "ban@@": 9329, 
  "M.Ö.": 9330, 
  "masındaki": 9331, 
  "Ara@@": 9332, 
  "bayrağını": 9333, 
  "leştirme": 9334, 
  "gec@@": 9335, 
  "seçenekler": 9336, 
  "kullanması": 9337, 
  "kalabilir": 9338, 
  "hazırlanmıştır": 9339, 
  "soruyu": 9340, 
  "açılışında": 9341, 
  "barışçıl": 9342, 
  "eleriyle": 9343, 
  "kılıyor": 9344, 
  "suikastı": 9345, 
  "sezonu": 9346, 
  "şikayette": 9347, 
  "Cyprus": 9348, 
  "Tony": 9349, 
  "turistlere": 9350, 
  "sayıl@@": 9351, 
  "oranlarının": 9352, 
  "Şiir": 9353, 
  "suçluları": 9354, 
  "mer@@": 9355, 
  "eceklerine": 9356, 
  "eğil@@": 9357, 
  "milyona": 9358, 
  "Birinci": 9359, 
  "yapıyordu": 9360, 
  "Dimitar": 9361, 
  "ayaklanmalar": 9362, 
  "getirip": 9363, 
  "İnsanların": 9364, 
  "hissediyor": 9365, 
  "toplandılar": 9366, 
  "Zadar": 9367, 
  "oluşturacak": 9368, 
  "liler": 9369, 
  "verimsiz": 9370, 
  "Yılın": 9371, 
  "Petroleum": 9372, 
  "tüketicilerin": 9373, 
  "izlenmesi": 9374, 
  "baharda": 9375, 
  "çiler": 9376, 
  "çalıştıklarını": 9377, 
  "meclisten": 9378, 
  "Suç@@": 9379, 
  "izleyecek": 9380, 
  "süresince": 9381, 
  "yöntemleri": 9382, 
  "bırakarak": 9383, 
  "Resmi": 9384, 
  "okulun": 9385, 
  "yaptır@@": 9386, 
  "Dur@@": 9387, 
  "izm": 9388, 
  "kendimizi": 9389, 
  "ilişkilerine": 9390, 
  "haber@@": 9391, 
  "düzen": 9392, 
  "gelişimini": 9393, 
  "oradaki": 9394, 
  "elle": 9395, 
  "ertelendi": 9396, 
  "göstermiş": 9397, 
  "görünmüyor": 9398, 
  "tutuluyor": 9399, 
  "dikkatini": 9400, 
  "seçmenin": 9401, 
  "birincisi": 9402, 
  "işleyişini": 9403, 
  "uygunsuz": 9404, 
  "açarken": 9405, 
  "belirtmişti": 9406, 
  "konulardaki": 9407, 
  "kısıt@@": 9408, 
  "takas": 9409, 
  "istatistiklere": 9410, 
  "Osijek": 9411, 
  "Koordinasyon": 9412, 
  "saatten": 9413, 
  "Dick": 9414, 
  "ayıran": 9415, 
  "kararlaştırılan": 9416, 
  "dü@@": 9417, 
  "bölgelerine": 9418, 
  "üstlenecek": 9419, 
  "ertelenmesi": 9420, 
  "yakın@@": 9421, 
  "Balkanların": 9422, 
  "güçlükleri": 9423, 
  "şüphelinin": 9424, 
  "yakalandı": 9425, 
  "Busek": 9426, 
  "kredileri": 9427, 
  "yapının": 9428, 
  "750": 9429, 
  "plan@@": 9430, 
  "mallara": 9431, 
  "yetkililerini": 9432, 
  "gele@@": 9433, 
  "çarptırıldı": 9434, 
  "rolüyle": 9435, 
  "hemşire": 9436, 
  "imzalanmasından": 9437, 
  "topluluğun": 9438, 
  "yoğunlaştır@@": 9439, 
  "aşkın": 9440, 
  "taslağı": 9441, 
  "gelişimine": 9442, 
  "turizmin": 9443, 
  "Anders": 9444, 
  "kaydettiler": 9445, 
  "Eurostat": 9446, 
  "planlayan": 9447, 
  "hisselerinin": 9448, 
  "haklara": 9449, 
  "ilerek": 9450, 
  "EVN": 9451, 
  "Marin": 9452, 
  "kolaylaştıracak": 9453, 
  "Denis": 9454, 
  "bürokratik": 9455, 
  "özelleştirmenin": 9456, 
  "dayat@@": 9457, 
  "tutulması": 9458, 
  "ayları": 9459, 
  "6.": 9460, 
  "ayrımcılığa": 9461, 
  "ateşe": 9462, 
  "sağlamasını": 9463, 
  "İsviçreli": 9464, 
  "Daviniç": 9465, 
  "tahsil": 9466, 
  "devir": 9467, 
  "cezalarını": 9468, 
  "dostu": 9469, 
  "diyalogun": 9470, 
  "Kurulunun": 9471, 
  "olmadığının": 9472, 
  "tanıdı": 9473, 
  "Sayın": 9474, 
  "sıralamada": 9475, 
  "ekibin": 9476, 
  "altyapısının": 9477, 
  "tutukla@@": 9478, 
  "başlatmayı": 9479, 
  "Kipriyanu": 9480, 
  "dayanılarak": 9481, 
  "donanımı": 9482, 
  "Bernard": 9483, 
  "sağlamada": 9484, 
  "eksikliğinin": 9485, 
  "uğrayan": 9486, 
  "kutlamalar": 9487, 
  "Val@@": 9488, 
  "dav@@": 9489, 
  "yazın": 9490, 
  "altından": 9491, 
  "görülmeye": 9492, 
  "hazırlandı": 9493, 
  "görebil@@": 9494, 
  "ılmasında": 9495, 
  "göndermeyi": 9496, 
  "danışmanlarından": 9497, 
  "olanaklarını": 9498, 
  "seçimin": 9499, 
  "yüze": 9500, 
  "bağlan@@": 9501, 
  "şunu": 9502, 
  "futbol@@": 9503, 
  "ayar@@": 9504, 
  "adındaki": 9505, 
  "Suriyeli": 9506, 
  "ıklarını": 9507, 
  "platform": 9508, 
  "siç": 9509, 
  "liderlerine": 9510, 
  "Visegrad": 9511, 
  "izi": 9512, 
  "medikçe": 9513, 
  "ul": 9514, 
  "Europol": 9515, 
  "karar@@": 9516, 
  "karşılaştır@@": 9517, 
  "program@@": 9518, 
  "kuruluşundan": 9519, 
  "teftiş": 9520, 
  "korumanın": 9521, 
  "uzaklaş@@": 9522, 
  "bırakılması": 9523, 
  "devlet@@": 9524, 
  "heykeli": 9525, 
  "vak@@": 9526, 
  "Hükümetin": 9527, 
  "alarm": 9528, 
  "dönemini": 9529, 
  "Trablus": 9530, 
  "canlandır@@": 9531, 
  "gitme": 9532, 
  "düzeydeki": 9533, 
  "Mon@@": 9534, 
  "fikrinin": 9535, 
  "basını": 9536, 
  "destekten": 9537, 
  "bo@@": 9538, 
  "evlerinden": 9539, 
  "yavaşlat@@": 9540, 
  "refahı": 9541, 
  "incelemeye": 9542, 
  "ortamın": 9543, 
  "kriterlerine": 9544, 
  "ekonom@@": 9545, 
  "Ilir": 9546, 
  "olmayacaktır": 9547, 
  "ilerletmenin": 9548, 
  "Doğrudan": 9549, 
  "parlamentoyu": 9550, 
  "güçlendirmeye": 9551, 
  "Bunlar": 9552, 
  "korkuyorlar": 9553, 
  "Benim": 9554, 
  "vermeyeceğini": 9555, 
  "kurşun": 9556, 
  "kaf@@": 9557, 
  "boşalt@@": 9558, 
  "almıyor": 9559, 
  "düşünüyorlar": 9560, 
  "Özkök": 9561, 
  "kurumlarından": 9562, 
  "fuara": 9563, 
  "yerlerini": 9564, 
  "açıklık": 9565, 
  "reformunda": 9566, 
  "Scepanoviç": 9567, 
  "lerdir": 9568, 
  "diktatör": 9569, 
  "açıklamasını": 9570, 
  "x": 9571, 
  "Lulzim": 9572, 
  "bulduğu": 9573, 
  "göl@@": 9574, 
  "andı": 9575, 
  "dönemlerde": 9576, 
  "alınacağını": 9577, 
  "7.": 9578, 
  "yoldaki": 9579, 
  "konuyor": 9580, 
  "disiplin": 9581, 
  "Srebrenitsa": 9582, 
  "uğraşan": 9583, 
  "baştan": 9584, 
  "katliamının": 9585, 
  "değerler": 9586, 
  "Herman": 9587, 
  "meyeceğine": 9588, 
  "düzenleyici": 9589, 
  "Tahran": 9590, 
  "Oslo": 9591, 
  "istendi": 9592, 
  "Romenler": 9593, 
  "söyleyebilirim": 9594, 
  "12@@": 9595, 
  "yüzücü": 9596, 
  "umutlarının": 9597, 
  "lu@@": 9598, 
  "azınlığı": 9599, 
  "sinden": 9600, 
  "Seçimler": 9601, 
  "örgüt@@": 9602, 
  "yuvarlak": 9603, 
  "sistemde": 9604, 
  "Selimi": 9605, 
  "şahıslar": 9606, 
  "bulunuyoruz": 9607, 
  "ima": 9608, 
  "demektir": 9609, 
  "üz@@": 9610, 
  "masum": 9611, 
  "zorunluluğu": 9612, 
  "işlen@@": 9613, 
  "kaydediyor": 9614, 
  "okulların": 9615, 
  "geçirmeyi": 9616, 
  "devamında": 9617, 
  "kesimin": 9618, 
  "Topluluğu": 9619, 
  "Kazakistan": 9620, 
  "yaratacağı": 9621, 
  "tutuklanmasını": 9622, 
  "malzeme": 9623, 
  "sorunlarıyla": 9624, 
  "bazılarını": 9625, 
  "şüpheliler": 9626, 
  "yordu": 9627, 
  "skandalı": 9628, 
  "BiH": 9629, 
  "Hrant": 9630, 
  "Sariç": 9631, 
  "idaresinin": 9632, 
  "mensupları": 9633, 
  "sayfa": 9634, 
  "Bağdat": 9635, 
  "memnunum": 9636, 
  "olasılığına": 9637, 
  "metrajlı": 9638, 
  "eserlerinin": 9639, 
  "Ol@@": 9640, 
  "sunarak": 9641, 
  "ladılar": 9642, 
  "MHP": 9643, 
  "yetkisini": 9644, 
  "imzalama": 9645, 
  "kandır@@": 9646, 
  "depolama": 9647, 
  "umutlar": 9648, 
  "Bancroft": 9649, 
  "alan@@": 9650, 
  "imzalanmasını": 9651, 
  "yüzyıla": 9652, 
  "Ischinger": 9653, 
  "askerinin": 9654, 
  "dönemindeki": 9655, 
  "gündemine": 9656, 
  "aniden": 9657, 
  "sorun@@": 9658, 
  "imtiyaz": 9659, 
  "yürüt@@": 9660, 
  "hepsinin": 9661, 
  "Alkalay": 9662, 
  "ladığını": 9663, 
  "tören": 9664, 
  "ılabileceği": 9665, 
  "tır@@": 9666, 
  "ihracat@@": 9667, 
  "Anlaşma": 9668, 
  "onaylama": 9669, 
  "satışları": 9670, 
  "annesi": 9671, 
  "yapısını": 9672, 
  "cı": 9673, 
  "çatışmalarda": 9674, 
  "yağ@@": 9675, 
  "Stratejisi": 9676, 
  "görmeyi": 9677, 
  "vurgula@@": 9678, 
  "duyurusunda": 9679, 
  "sinyallerini": 9680, 
  "dığının": 9681, 
  "eşitliği": 9682, 
  "1,8": 9683, 
  "Filarmoni": 9684, 
  "kaldırıldı": 9685, 
  "tutuklayıp": 9686, 
  "bırakıyor": 9687, 
  "katıldığını": 9688, 
  "hissesinin": 9689, 
  "eti@@": 9690, 
  "GSM": 9691, 
  "kesintiler": 9692, 
  "endişelere": 9693, 
  "olasılık": 9694, 
  "vakası": 9695, 
  "Prosper": 9696, 
  "asayiş": 9697, 
  "madılar": 9698, 
  "savcının": 9699, 
  "verilerin": 9700, 
  "abileceklerini": 9701, 
  "mediklerini": 9702, 
  "civarındaki": 9703, 
  "harcamalarının": 9704, 
  "duvar@@": 9705, 
  "bağlıyor": 9706, 
  "etmeden": 9707, 
  "yaralandığı": 9708, 
  "larımıza": 9709, 
  "servisi": 9710, 
  "tarafını": 9711, 
  "kaybettiğini": 9712, 
  "liderliğinde": 9713, 
  "kentlerde": 9714, 
  "ekonomide": 9715, 
  "Janez": 9716, 
  "çalışmasına": 9717, 
  "zıt": 9718, 
  "çalıştıkları": 9719, 
  "Viktor": 9720, 
  "karşılaması": 9721, 
  "şehrin": 9722, 
  "kesimleri": 9723, 
  "etken": 9724, 
  "Kol@@": 9725, 
  "laştır@@": 9726, 
  "koyduğunu": 9727, 
  "atlat@@": 9728, 
  "Hellenic": 9729, 
  "unsurları": 9730, 
  "kökünü": 9731, 
  "Mladjan": 9732, 
  "imzalamış": 9733, 
  "mamıza": 9734, 
  "CD": 9735, 
  "genç@@": 9736, 
  "Yakup": 9737, 
  "Luksiç": 9738, 
  "vurgulayarak": 9739, 
  "hazırlıklar": 9740, 
  "prosedürü": 9741, 
  "görüldüğünü": 9742, 
  "reddedildi": 9743, 
  "anayasası": 9744, 
  "sarf@@": 9745, 
  "ımızda": 9746, 
  "terörizm": 9747, 
  "düzenlemeye": 9748, 
  "süreciyle": 9749, 
  "engelledi": 9750, 
  "politikaların": 9751, 
  "3,@@": 9752, 
  "tahminlerine": 9753, 
  "op@@": 9754, 
  "kabulü": 9755, 
  "söylenen": 9756, 
  "2,9": 9757, 
  "güvensizlik": 9758, 
  "öngörüldüğü": 9759, 
  "Remikoviç": 9760, 
  "konulardan": 9761, 
  "kurtul@@": 9762, 
  "kısım": 9763, 
  "www.@@": 9764, 
  "ent@@": 9765, 
  "kurmuş": 9766, 
  "etmelerini": 9767, 
  "gerekç@@": 9768, 
  "çabalarından": 9769, 
  "Tar@@": 9770, 
  "olduktan": 9771, 
  "kitapları": 9772, 
  "Sreten": 9773, 
  "getirmesine": 9774, 
  "Tak@@": 9775, 
  "bulunup": 9776, 
  "başkentinin": 9777, 
  "hepsinden": 9778, 
  "10.": 9779, 
  "usulsüzlükler": 9780, 
  "asa": 9781, 
  "iradeye": 9782, 
  "Kara": 9783, 
  "ilerde": 9784, 
  "Curoviç": 9785, 
  "olmalarını": 9786, 
  "faaliyetlere": 9787, 
  "Se@@": 9788, 
  "Yol@@": 9789, 
  "Sadece": 9790, 
  "ru@@": 9791, 
  "siber": 9792, 
  "tanıması": 9793, 
  "amaçları": 9794, 
  "Ab@@": 9795, 
  "Metohija": 9796, 
  "makamlarıyla": 9797, 
  "düştüğü": 9798, 
  "öldürülmesinin": 9799, 
  "bizden": 9800, 
  "borcun": 9801, 
  "oynayacak": 9802, 
  "teknolojisi": 9803, 
  "imzalamayı": 9804, 
  "memeleri": 9805, 
  "beklediklerini": 9806, 
  "doğur@@": 9807, 
  "Samir": 9808, 
  "dilinde": 9809, 
  "hastaneye": 9810, 
  "R": 9811, 
  "harcam@@": 9812, 
  "sistemindeki": 9813, 
  "Pol@@": 9814, 
  "verme@@": 9815, 
  "erkeklerin": 9816, 
  "engellerle": 9817, 
  "Krstiç": 9818, 
  "döne@@": 9819, 
  "15.": 9820, 
  "malî": 9821, 
  "hayat@@": 9822, 
  "kullanıldı": 9823, 
  "gensoru": 9824, 
  "bağlant@@": 9825, 
  "verimlilik": 9826, 
  "talebin": 9827, 
  "gruplara": 9828, 
  "imzalanmış": 9829, 
  "iyse": 9830, 
  "sorumlulukları": 9831, 
  "hazine": 9832, 
  "ham@@": 9833, 
  "çök@@": 9834, 
  "ödülün": 9835, 
  "Mir@@": 9836, 
  "kablosuz": 9837, 
  "amadığını": 9838, 
  "Rus@@": 9839, 
  "kullanıcı": 9840, 
  "rekabete": 9841, 
  "MAP": 9842, 
  "saklan@@": 9843, 
  "Konseyin": 9844, 
  "Mail": 9845, 
  "acele": 9846, 
  "bTV": 9847, 
  "hatırlattı": 9848, 
  "ekonomisinde": 9849, 
  "maliyetinin": 9850, 
  "Business": 9851, 
  "sahnesinde": 9852, 
  "gelirler": 9853, 
  "düzel@@": 9854, 
  "diyalogu": 9855, 
  "gittiler": 9856, 
  "yapılandır@@": 9857, 
  "seller": 9858, 
  "harcamalar": 9859, 
  "cm": 9860, 
  "verecektir": 9861, 
  "gönderilecek": 9862, 
  "sıralanıyor": 9863, 
  "kapısında": 9864, 
  "kadınları": 9865, 
  "gündemi": 9866, 
  "varlığına": 9867, 
  "yükünü": 9868, 
  "Dimitrij": 9869, 
  "akıl": 9870, 
  "ete": 9871, 
  "bileceğini": 9872, 
  "destekçisi": 9873, 
  "birbirleriyle": 9874, 
  "tamamlanmasını": 9875, 
  "ağında": 9876, 
  "memurlar": 9877, 
  "Miranda": 9878, 
  "diş": 9879, 
  "aradığı": 9880, 
  "piyasasında": 9881, 
  "üretimin": 9882, 
  "bazılarına": 9883, 
  "Verdi": 9884, 
  "fikirler": 9885, 
  "Bay": 9886, 
  "becerileri": 9887, 
  "zaferini": 9888, 
  "lıkların": 9889, 
  "kod": 9890, 
  "sinyal": 9891, 
  "uzmanlarının": 9892, 
  "mar@@": 9893, 
  "onayını": 9894, 
  "Veselin": 9895, 
  "va": 9896, 
  "kanıtlamak": 9897, 
  "mamalı": 9898, 
  "kaldırılmasına": 9899, 
  "Temsilcilik": 9900, 
  "hizmetlerin": 9901, 
  "Ford": 9902, 
  "gide@@": 9903, 
  "meşhur": 9904, 
  "Frankfurt": 9905, 
  "amacını": 9906, 
  "kraliyet": 9907, 
  "santralleri": 9908, 
  "düşünen": 9909, 
  "eylemin": 9910, 
  "ber@@": 9911, 
  "mezse": 9912, 
  "uyum@@": 9913, 
  "Haklar": 9914, 
  "ODIHR": 9915, 
  "vatandaş@@": 9916, 
  "Ro@@": 9917, 
  "inşasının": 9918, 
  "memleketi": 9919, 
  "Doğ@@": 9920, 
  "çete": 9921, 
  "ildiği": 9922, 
  "adamın": 9923, 
  "tehlikesi": 9924, 
  "bağışta": 9925, 
  "yip": 9926, 
  "ödemeleri": 9927, 
  "Sendikası": 9928, 
  "tahvil": 9929, 
  "kurarak": 9930, 
  "gelmişti": 9931, 
  "Listesi": 9932, 
  "sahipken": 9933, 
  "Nova": 9934, 
  "sol@@": 9935, 
  "getirmenin": 9936, 
  "girmeyi": 9937, 
  "Belçikalı": 9938, 
  "yöntemi": 9939, 
  "kavuştur@@": 9940, 
  "olaylarla": 9941, 
  "tim": 9942, 
  "tanımlayan": 9943, 
  "ou": 9944, 
  "Vulgarakis": 9945, 
  "uzunluğunda": 9946, 
  "siz@@": 9947, 
  "stratejiyi": 9948, 
  "düşünmeye": 9949, 
  "1960": 9950, 
  "komşularıyla": 9951, 
  "Baykal": 9952, 
  "girişi": 9953, 
  "maaşı": 9954, 
  "asker@@": 9955, 
  "doğdu": 9956, 
  "devletleri": 9957, 
  "ğini": 9958, 
  "başkanlığından": 9959, 
  "konuşmasını": 9960, 
  "kurumlardan": 9961, 
  "sal": 9962, 
  "kaya": 9963, 
  "yurt": 9964, 
  "abilen": 9965, 
  "işaretler": 9966, 
  "Yılı": 9967, 
  "krizini": 9968, 
  "çıkabilecek": 9969, 
  "Milletler": 9970, 
  "Bunu": 9971, 
  "ılmaya": 9972, 
  "araştırmada": 9973, 
  "ilerlediğini": 9974, 
  "Internet": 9975, 
  "Tudjman": 9976, 
  "şeye": 9977, 
  "ilmesi": 9978, 
[...]
