<blank> 1
<unk> 2
<s> 3
</s> 4
, 5
. 6
&apos; 7
ve 8
&quot; 9
bir 10
da 11
bu 12
için 13
de 14
/ 15
nin 16
AB 17
nın 18
ile 19
) 20
( 21
ın 22
@-@ 23
Sırbistan 24
günü 25
Kosova 26
olarak 27
olan 28
daha 29
in 30
dedi 31
: 32
Avrupa 33
- 34
söyledi 35
en 36
yeni 37
a 38
Türkiye 39
göre 40
olduğunu 41
&#93; 42
&#91; 43
Sırp 44
çok 45
daki 46
yer 47
iki 48
arasında 49
tarafından 50
Makedonya 51
büyük 52
yıl 53
son 54
devam 55
BH 56
etti 57
ilgili 58
kadar 59
dan 60
Hırvatistan 61
ancak 62
diğer 63
Belgrad 64
siyasi 65
Times 66
yaptığı 67
ya 68
konusunda 69
uluslararası 70
Arnavutluk 71
üzere 72
Bakanı 73
ülkenin 74
her 75
SETimes 76
ABD 77
olduğu 78
European 79
Southeast 80
Karadağ 81
Bulgaristan 82
milyon 83
önemli 84
-- 85
ye 86
sonra 87
karşı 88
eski 89
ilk 90
Romanya 91
Yunanistan 92
gibi 93
NATO 94
BM 95
10 96
fazla 97
e 98
% 99
haberi 100
un 101
yüzde 102
ise 103
yılında 104
verdiği 105
Cumhurbaşkanı 106
11 107
kabul 108
ülke 109
den 110
şekilde 111
olmak 112
ta 113
birlikte 114
Bosna 115
iyi 116
önce 117
Türk 118
; 119
nun 120
ekonomik 121
üç 122
sahip 123
içinde 124
sonrasında 125
yaklaşık 126
devlet 127
ediyor 128
ne 129
Pazartesi 130
yapılan 131
veya 132
üzerinde 133
başkanı 134
12 135
şöyle 136
savaş 137
Hersek 138
bin 139
Başbakan 140
oldu 141
gelen 142
değil 143
Hırvat 144
açıklamada 145
söz 146
ayında 147
geçen 148
genel 149
hükümet 150
Kıbrıs 151
bütün 152
fakat 153
deki 154
Dışişleri 155
Çarşamba 156
ayrıca 157
te 158
hafta 159
bunun 160
belirtti 161
yüksek 162
işbirliği 163
Başbakanı 164
yol 165
aynı 166
yerel 167
üyelik 168
düzenlenen 169
09 170
eden 171
i 172
geri 173
Getty 174
Salı 175
geldi 176
var 177
Images 178
yönelik 179
ay 180
avro 181
07 182
06 183
05 184
polis 185
yerine 186
sıra 187
Priştine 188
demeçte 189
bazı 190
Reuters 191
04 192
03 193
08 194
özel 195
alıyor 196
hakkında 197
AFP 198
konusu 199
yönünde 200
verdi 201
yanı 202
biri 203
arasındaki 204
karar 205
gerektiğini 206
pek 207
konuşan 208
Arnavut 209
yeniden 210
yardım 211
Mart 212
20 213
yana 214
? 215
tek 216
olacak 217
ortak 218
Mayıs 219
uzun 220
alan 221
Ekim 222
Haziran 223
Perşembe 224
çeşitli 225
sadece 226
iş 227
ı 228
Aralık 229
Başkanı 230
güvenlik 231
Ocak 232
diyen 233
tüm 234
aldı 235
amaçlı 236
Makedon 237
hükümetin 238
hükümeti 239
15 240
bulundu 241
1 242
anlaşma 243
dört 244
yetkililer 245
destek 246
Temmuz 247
şu 248
Kasım 249
karşın 250
Pazar 251
hem 252
enerji 253
Üsküp 254
gün 255
Nisan 256
açısından 257
etnik 258
Yunan 259
Balkan 260
bulunuyor 261
o 262
geçtiğimiz 263
30 264
araya 265
Saraybosna 266
ten 267
Dünya 268
yı 269
Balkanlar 270
dahil 271
Eylül 272
Bulgar 273
rağmen 274
az 275
mücadele 276
mevcut 277
tam 278
ziyaret 279
aldığı 280
Şubat 281
üyesi 282
Kosovalı 283
AP 284
ortaya 285
kendi 286
bekleniyor 287
2 288
gerekiyor 289
Bu 290
Atina 291
olması 292
resmi 293
sırasında 294
Konseyi 295
on 296
kamu 297
başka 298
etmek 299
ikinci 300
yapılacak 301
Komisyonu 302
zaman 303
yalnızca 304
anda 305
Tadiç 306
25 307
diyerek 308
milyar 309
Partisi 310
askeri 311
Uluslararası 312
Rusya 313
AK 314
para 315
kişi 316
li 317
ekledi 318
yi 319
üye 320
yıllık 321
söylüyor 322
avroluk 323
altında 324
17 325
nedeniyle 326
Cuma 327
görev 328
şey 329
yatırım 330
ulusal 331
seçim 332
bulunan 333
yakın 334
sayıda 335
Ağustos 336
Cumhuriyeti 337
katılım 338
insan 339
beş 340
amacıyla 341
edilen 342
Bosnalı 343
16 344
basın 345
02 346
Brüksel 347
üst 348
ilişkin 349
ciddi 350
hiçbir 351
dile 352
bunu 353
kaynaklar 354
13 355
3 356
gereken 357
kapsamında 358
eğitim 359
yönündeki 360
oy 361
ardından 362
ileri 363
ilerleme 364
dış 365
sona 366
başladı 367
18 368
inşa 369
kısa 370
kültür 371
14 372
Tiran 373
01 374
SC 375
derece 376
27 377
Lahey 378
meydana 379
altı 380
bölgesel 381
durumda 382
sınır 383
şeklinde 384
elde 385
2004 386
parti 387
adlı 388
bile 389
güçlü 390
5 391
Bankası 392
önümüzdeki 393
ana 394
Ankara 395
açık 396
ki 397
suç 398
IMF 399
sözlerine 400
İstanbul 401
mali 402
diyor 403
21 404
gelecek 405
günkü 406
Sofya 407
ev 408
ayı 409
kararı 410
ülkede 411
Güvenlik 412
Bakanlığı 413
bölge 414
ifade 415
toplam 416
Mladiç 417
Genel 418
Erdoğan 419
Bükreş 420
Güneydoğu 421
24 422
teki 423
barış 424
farklı 425
Demokrat 426
Batı 427
düşük 428
Almanya 429
çoğu 430
çözüm 431
süre 432
22 433
ekonomi 434
durum 435
ele 436
yaşanan 437
savunma 438
yılın 439
19 440
hale 441
üzerine 442
gerekli 443
23 444
hazır 445
28 446
küçük 447
aday 448
Yardımcısı 449
artık 450
düzey 451
iç 452
oluşan 453
ülkeleri 454
yolunda 455
yine 456
6 457
2007 458
suçları 459
yaşındaki 460
Rum 461
lideri 462
nde 463
yok 464
yabancı 465
ülkesinin 466
4 467
lik 468
26 469
edecek 470
olmadığını 471
halinde 472
bakan 473
2008 474
ülkedeki 475
günlük 476
katıldı 477
yargı 478
iddia 479
sorun 480
Ulusal 481
zorunda 482
etme 483
teslim 484
Irak 485
ettiği 486
olumlu 487
Yugoslavya 488
satın 489
zamanda 490
İki 491
organize 492
konuşmada 493
bağlı 494
sonunda 495
ICTY 496
kredi 497
başta 498
lider 499
la 500
taki 501
boyunca 502
Zagreb 503
7 504
dair 505
birkaç 506
tan 507
8 508
2006 509
çıkan 510
yasa 511
uygun 512
burada 513
29 514
u 515
ülkelerin 516
özellikle 517
reform 518
buna 519
sorumlu 520
kazandı 521
2005 522
kuzey 523
herhangi 524
kötü 525
Slovenya 526
sağlık 527
merkezli 528
ticaret 529
açıkladı 530
yüzünden 531
olacağını 532
yandan 533
nda 534
elektrik 535
getirdi 536
arada 537
hâlâ 538
yaptı 539
yetkili 540
bölgede 541
UNMIK 542
açtı 543
üyeliği 544
50 545
2009 546
Fransa 547
ama 548
öne 549
Romen 550
çağırdı 551
henüz 552
takdirde 553
raporda 554
konulu 555
adım 556
-@@ 557
Cumartesi 558
sahibi 559
muhalefet 560
tarihi 561
ülkeler 562
toplum 563
hükümetinin 564
Merkezi 565
ülkelerinin 566
Boris 567
bunların 568
mümkün 569
nasıl 570
temel 571
bağımsızlık 572
yapan 573
kentinde 574
gösteriyor 575
Mahkemesi 576
na 577
yolsuzluk 578
yardımcı 579
kaydetti 580
yayınlanan 581
yılı 582
Dairesi 583
2010 584
meclis 585
bağımsız 586
Kostunica 587
gerçekleşti 588
ler 589
bilim 590
lar 591
doğru 592
bölgedeki 593
başlarında 594
açıdan 595
Rehn 596
100 597
bilgi 598
olduğuna 599
yaşayan 600
sonuna 601
türlü 602
haline 603
zor 604
temsil 605
serbest 606
izin 607
Anlaşması 608
altına 609
edilmesi 610
süren 611
el 612
sivil 613
gerçek 614
yetkilileri 615
süreci 616
karşıya 617
yıldır 618
verilen 619
mevkidaşı 620
görülüyor 621
ülkeden 622
ettiğini 623
aralarında 624
B92 625
önceki 626
İtalya 627
turizm 628
Parti 629
doğrudan 630
vergi 631
şimdi 632
üyeleri 633
KFOR 634
haber 635
küresel 636
suçu 637
sosyal 638
an 639
başlıca 640
anlaşması 641
ötürü 642
ilişkileri 643
duyurdu 644
Birliği 645
AGİT 646
İnternet 647
üçüncü 648
gerçekleşen 649
dünya 650
proje 651
veren 652
İş 653
etmesi 654
dönemde 655
beri 656
yolsuzlukla 657
ini 658
1995 659
inin 660
ün 661
partisi 662
leri 663
oranında 664
ilan 665
grup 666
Ortaklık 667
etmeye 668
geliyor 669
Sorumlu 670
İngiltere 671
9 672
parlamento 673
olmasına 674
erken 675
Adalet 676
dünyanın 677
kez 678
le 679
2003 680
sözcüsü 681
Washington 682
çalışma 683
hakkındaki 684
Ahtisaari 685
demokratik 686
dışişleri 687
neden 688
40 689
işaret 690
oldukça 691
başarılı 692
PKK 693
hala 694
AKP 695
artış 696
The 697
başına 698
Sırplar 699
Zoran 700
ediliyor 701
petrol 702
31 703
kişinin 704
tür 705
toplantısında 706
cumhurbaşkanı 707
alacak 708
belediye 709
önde 710
EULEX 711
sağlayacak 712
vize 713
dışında 714
BBC 715
bütçe 716
ederek 717
üzerindeki 718
mahkeme 719
benzer 720
Nikola 721
ları 722
şirketi 723
durumu 724
ülkeye 725
şiddet 726
Sekreteri 727
bugüne 728
sorunu 729
edildi 730
konuştu 731
lerin 732
geniş 733
parçası 734
sonraki 735
genç 736
ait 737
yılından 738
anlamına 739
cumhurbaşkanlığı 740
film 741
rol 742
çağrısında 743
ların 744
yeterli 745
Rus 746
yedi 747
sahipliği 748
önünde 749
Barış 750
merkezi 751
sözlerinde 752
bundan 753
konusundaki 754
dönem 755
kalan 756
sekiz 757
gerektiği 758
ilişkiler 759
Festivali 760
anlaşmanın 761
seçimleri 762
halkın 763
sözü 764
böyle 765
sayısı 766
vurguladı 767
tekrar 768
Üniversitesi 769
yılki 770
ikili 771
liderleri 772
sağlamak 773
ordu 774
hakları 775
Savunma 776
yasal 777
anayasa 778
1999 779
Yüksek 780
yetkililerin 781
ülkeyi 782
olmayan 783
yüzden 784
şirket 785
dizi 786
Basescu 787
kontrol 788
istiyor 789
müzakerelerin 790
belli 791
teknik 792
İstikrar 793
tamamen 794
tehdit 795
bakanlığı 796
Komisyon 797
konu 798
diye 799
giderek 800
önem 801
boru 802
Alman 803
Sanader 804
reformları 805
kuruluşu 806
Berişa 807
statü 808
hava 809
sürekli 810
GSYİH 811
almak 812
bulunduğu 813
İçişleri 814
nden 815
halkı 816
işbirliğini 817
yardımcısı 818
çalışan 819
alma 820
politika 821
ülkesi 822
statüsü 823
olmaya 824
terör 825
koruma 826
ettiler 827
umut 828
yapılması 829
Rumen 830
nihai 831
çağrıda 832
birinci 833
halkının 834
adet 835
neredeyse 836
yılına 837
kadın 838
Avrupalı 839
merkez 840
hizmet 841
bakış 842
Gül 843
bugün 844
aşırı 845
Parlamentosu 846
net 847
Kürt 848
avroya 849
dikkat 850
DPA 851
yoluyla 852
Miloseviç 853
sürdü 854
müzakere 855
Karadziç 856
kaynak 857
medya 858
hareket 859
yönetim 860
baş 861
ek 862
yılda 863
yasadışı 864
lerini 865
başında 866
uzlaşma 867
öncesinde 868
halk 869
kriz 870
memnuniyetle 871
adayı 872
doğal 873
hemen 874
söylediler 875
olsa 876
toplumun 877
verildi 878
emekli 879
Atlantik 880
sistemi 881
spor 882
sırada 883
azınlık 884
mal 885
olası 886
olmadığı 887
ön 888
büyüme 889
su 890
ölçüde 891
düzenlediği 892
talep 893
Gruevski 894
Doğu 895
bunlar 896
Kalkınma 897
ndan 898
Recep 899
... 900
Üyesi 901
gümrük 902
Jovanoviç 903
sürecinin 904
ila 905
1990 906
del 907
soruşturma 908
anlaşmaya 909
seçimler 910
Tayyip 911
olabilir 912
çünkü 913
güvence 914
istikrar 915
giden 916
2002 917
görevi 918
nükleer 919
desteği 920
oranı 921
Enstitüsü 922
mi 923
liderler 924
Ponte 925
Yugoslav 926
uzmanlar 927
teşvik 928
zira 929
öte 930
hedef 931
Orta 932
Haber 933
baskı 934
defa 935
kesin 936
potansiyel 937
çalışıyor 938
iktidar 939
larını 940
isim 941
sorunları 942
Kurulu 943
hiç 944
Güney 945
al@@ 946
kendisini 947
başkan 948
500 949
ediyorlar 950
lerinin 951
200 952
gösteren 953
Avusturya 954
olma 955
lere 956
olup 957
zarar 958
milletvekili 959
lerine 960
çıktı 961
euro 962
Müslüman 963
adı 964
ortadan 965
larının 966
bölgenin 967
60 968
sürüyor 969
onun 970
2001 971
Sosyal 972
engel 973
Sırpların 974
olumsuz 975
sonuç 976
ını 977
alanında 978
taraf 979
Ajansı 980
ticari 981
civarında 982
binlerce 983
müdürü 984
bakanı 985
gerek 986
2011 987
ının 988
geçiş 989
yaşam 990
yapıyor 991
koalisyon 992
planlıyor 993
hızlı 994
kaçak 995
sürecini 996
bizim 997
Maliye 998
si 999
Ratko 1000
insanların 1001
demokrasi 1002
günlerde 1003
dini 1004
ısrar 1005
üyeliğine 1006
madalya 1007
Büyükelçisi 1008
artan 1009
söyleyerek 1010
yakında 1011
onu 1012
Gotovina 1013
söylüyorlar 1014
dava 1015
kaldı 1016
kültürel 1017
Yeni 1018
İngiliz 1019
Macaristan 1020
yapmak 1021
teşkil 1022
projenin 1023
gazetecilere 1024
tarım 1025
toplantı 1026
isteyen 1027
görüşme 1028
yanlısı 1029
yapacak 1030
Libya 1031
görüşmede 1032
dokuz 1033
tepki 1034
solda 1035
partinin 1036
ine 1037
hukuk 1038
verdiler 1039
yürürlüğe 1040
Demokratik 1041
yaptıkları 1042
göz 1043
protesto 1044
sorunlar 1045
olasılıkla 1046
planı 1047
bazıları 1048
Olimpiyat 1049
vadeli 1050
partiler 1051
uyardı 1052
Solana 1053
verme 1054
bekliyor 1055
New 1056
Vojislav 1057
İran 1058
üzerinden 1059
müzakereleri 1060
hattı 1061
Mesiç 1062
aylık 1063
faaliyet 1064
gaz 1065
liderliğindeki 1066
alınan 1067
Ashdown 1068
toplantıda 1069
işbirliğinin 1070
onayladı 1071
planlanan 1072
silah 1073
gösterdi 1074
beklenen 1075
rapor 1076
arası 1077
1992 1078
katılan 1079
ü 1080
İnsan 1081
silahlı 1082
at@@ 1083
orta 1084
lara 1085
konuda 1086
takım 1087
Cinciç 1088
anlaşmayı 1089
uyuşturucu 1090
yerli 1091
açıldı 1092
sonucunda 1093
lerinden 1094
sert 1095
stratejik 1096
etkili 1097
bildirildi 1098
doğalgaz 1099
altın 1100
mı 1101
analistler 1102
elçisi 1103
yürütülen 1104
olduklarını 1105
ihtiyaç 1106
kurulması 1107
komşu 1108
Film 1109
Kültür 1110
mahkemesi 1111
tarihli 1112
başbakan 1113
acil 1114
edeceğini 1115
Slobodan 1116
Ceza 1117
Devlet 1118
Hollanda 1119
Srebrenica 1120
asker 1121
İsrail 1122
çaba 1123
tarihleri 1124
araştırma 1125
sonuçlar 1126
2000 1127
Roman 1128
kararını 1129
davet 1130
bakanları 1131
çerçevesinde 1132
düşünüyor 1133
özelleştirme 1134
görüşmeler 1135
sonucu 1136
geçici 1137
katkıda 1138
Fransız 1139
gelecekte 1140
ayın 1141
uygulanması 1142
olmakla 1143
somut 1144
ına 1145
taşıyor 1146
tahmin 1147
gelir 1148
polisi 1149
alındı 1150
seçimlerin 1151
Sosyalist 1152
programı 1153
yerini 1154
kendisine 1155
lık 1156
larına 1157
İlk 1158
yapmaya 1159
iade 1160
haberlerinde 1161
ayrı 1162
çevre 1163
önüne 1164
devletin 1165
SAA 1166
partisinin 1167
grubu 1168
Ordusu 1169
övgüde 1170
hayata 1171
Arşiv 1172
açıkça 1173
STK 1174
oviç 1175
yolu 1176
lardan 1177
veriyor 1178
lerle 1179
çocuk 1180
güç 1181
alınması 1182
tedbirler 1183
işsizlik 1184
teklif 1185
gözden 1186
hakkı 1187
şirketin 1188
gerçekten 1189
Derneği 1190
larından 1191
raporunda 1192
karşılıklı 1193
Kesimi 1194
sık 1195
yönetimi 1196
başkanlık 1197
nitelendirdi 1198
larla 1199
kurulan 1200
görüşmelerde 1201
tarihte 1202
rekabet 1203
gücü 1204
oluşturuyor 1205
durumun 1206
Müdürü 1207
hapis 1208
diplomasi 1209
inden 1210
verecek 1211
Grubu 1212
kaydedilen 1213
Ticaret 1214
diplomatik 1215
dek 1216
oranda 1217
örgüt 1218
alanda 1219
saygı 1220
yanıt 1221
kilit 1222
yaz 1223
General 1224
yani 1225
yayınladığı 1226
alması 1227
finans 1228
Olli 1229
vermek 1230
35 1231
olmasını 1232
müzakerelerinin 1233
kesinlikle 1234
Meclis 1235
seçimlerde 1236
reformu 1237
seyahat 1238
reformların 1239
Dodik 1240
iktidardaki 1241
konuşmasında 1242
gizli 1243
300 1244
ağır 1245
lerden 1246
uygulamaya 1247
yılındaki 1248
insanlar 1249
siyaset 1250
Luka 1251
Ekonomi 1252
olmadan 1253
görülen 1254
bağımsızlığını 1255
ihtiyacı 1256
komutanı 1257
kenti 1258
değişiklik 1259
larda 1260
ortalama 1261
Dayton 1262
yönde 1263
İtalyan 1264
olanak 1265
uygulama 1266
yıldan 1267
geleneksel 1268
Podgorica 1269
York 1270
sürecinde 1271
altyapı 1272
Zagrep 1273
olacaktır 1274
nüfus 1275
70 1276
Papandreu 1277
istifa 1278
banka 1279
ından 1280
di 1281
edilmiş 1282
Annan 1283
Seydiu 1284
verilecek 1285
göreve 1286
geleceği 1287
belirtiyor 1288
sağ 1289
müzakereler 1290
temsilcileri 1291
Radovan 1292
adımlar 1293
inanıyor 1294
olay 1295
etkinlik 1296
endişe 1297
kurma 1298
Banja 1299
eyaletin 1300
Arnavutlar 1301
başlattı 1302
ziyarette 1303
imzalanan 1304
oluyor 1305
ziyareti 1306
İslam 1307
Genişlemeden 1308
dolar 1309
makamları 1310
belirten 1311
söyleyen 1312
yasanın 1313
diyalog 1314
olacağı 1315
hatta 1316
belirtildi 1317
reformlar 1318
sözleri 1319
Scheffer 1320
başkanlığını 1321
Eski 1322
içindeki 1323
reddetti 1324
me 1325
S@@ 1326
Hoop 1327
Federasyonu 1328
temsilcisi 1329
sisteminin 1330
kolay 1331
imzaladı 1332
Ortodoks 1333
çabalarını 1334
onları 1335
birisi 1336
idari 1337
lerde 1338
haberlerde 1339
sektörü 1340
imzaladılar 1341
toplumsal 1342
zamandır 1343
İspanya 1344
basında 1345
uyarınca 1346
Boşnak 1347
Tomislav 1348
Amerikan 1349
adalet 1350
Merkez 1351
inşaat 1352
istedi 1353
edilecek 1354
çalışmaları 1355
suçla 1356
görevdeki 1357
kapsamlı 1358
tanınmış 1359
ni 1360
kazanan 1361
biraz 1362
tur 1363
hayatını 1364
sayesinde 1365
kampanya 1366
sorunun 1367
lı 1368
durumunda 1369
örneğin 1370
hitaben 1371
çabaları 1372
ilişkilerin 1373
vatandaşların 1374
futbol 1375
ç@@ 1376
kurumları 1377
binden 1378
analist 1379
dışı 1380
partilerin 1381
Abdullah 1382
etmeyi 1383
saat 1384
Moskova 1385
oldukları 1386
sürecine 1387
yapma 1388
ilgi 1389
şart 1390
yıllarda 1391
Birliğe 1392
aldığını 1393
terk 1394
maya 1395
haberlere 1396
istediğini 1397
partileri 1398
Dragan 1399
borç 1400
s 1401
milletvekilleri 1402
belgede 1403
kararın 1404
Suriye 1405
Komitesi 1406
getirmek 1407
dolarlık 1408
Çin 1409
kısmı 1410
milliyetçi 1411
Afganistan 1412
müzakerelerini 1413
örgütü 1414
başlayan 1415
bölgesinde 1416
Ali 1417
imzalandı 1418
taraflı 1419
getiren 1420
gazeteci 1421
biçimde 1422
leriyle 1423
değişiklikler 1424
sağda 1425
sürecin 1426
mücadelede 1427
almaya 1428
öngörülüyor 1429
televizyon 1430
mahkemenin 1431
80 1432
yapacağı 1433
mahkemesiyle 1434
yıllardır 1435
ihlal 1436
geldiler 1437
Nikoliç 1438
sağlama 1439
vardı 1440
bunları 1441
İgor 1442
ıyla 1443
eşit 1444
bildiride 1445
bölgesi 1446
Fatmir 1447
belirtiliyor 1448
K@@ 1449
gitti 1450
geldiğini 1451
katılmak 1452
adil 1453
projesi 1454
erkek 1455
Adriyatik 1456
VOA 1457
herkes 1458
sayısının 1459
kalkınma 1460
gerçekleşecek 1461
Kuzey 1462
yıla 1463
etki 1464
bize 1465
görüşmek 1466
ödül 1467
içişleri 1468
k@@ 1469
sundu 1470
biz 1471
Zrvenkovski 1472
hukukun 1473
iyle 1474
Hakları 1475
toplantısı 1476
in@@ 1477
sergi 1478
krizin 1479
verdiğini 1480
üyelerinin 1481
Vladimir 1482
bildirdi 1483
kamuoyu 1484
yanında 1485
görüyor 1486
ma 1487
heyeti 1488
grubun 1489
röportajda 1490
çoğunluğu 1491
görünüyor 1492
şeyi 1493
hedefi 1494
gazetesinin 1495
uzak 1496
girişim 1497
puan 1498
Çek 1499
ülkelerine 1500
verilmesi 1501
ülkelere 1502
aile 1503
üretim 1504
komünist 1505
uygulanan 1506
kalma 1507
nüfusun 1508
amacı 1509
Örgütü 1510
başa 1511
tarih 1512
şartları 1513
mesine 1514
kararlı 1515
dayalı 1516
unun 1517
150 1518
Meclisi 1519
kal@@ 1520
onlara 1521
durumdaki 1522
olursa 1523
sonu 1524
Sali 1525
ifadesi 1526
Viyana 1527
kişilerin 1528
kurtarma 1529
Bir 1530
birçok 1531
zamanı 1532
an@@ 1533
getiriyor 1534
gazetesine 1535
Ohri 1536
Karamanlis 1537
bununla 1538
olasılığı 1539
yazar 1540
toprak 1541
ünlü 1542
2012 1543
uyarıda 1544
1991 1545
Goran 1546
ederken 1547
sonuçları 1548
karmaşık 1549
açıklama 1550
güvenli 1551
emin 1552
bölünmüş 1553
mak 1554
Vuk 1555
Jeremiç 1556
Mitrovica 1557
istikrarı 1558
90 1559
larında 1560
ında 1561
haberine 1562
süredir 1563
etmekle 1564
önceden 1565
Temsilci 1566
yakınlarındaki 1567
Haşim 1568
düşünüyorum 1569
görevden 1570
takımı 1571
başlayacak 1572
inde 1573
düzeyde 1574
RL 1575
memnun 1576
RFE 1577
Enerji 1578
pazar 1579
bloğun 1580
öğretim 1581
se 1582
Polonya 1583
duyduğu 1584
ikna 1585
400 1586
firması 1587
geçerli 1588
yayın 1589
SFOR 1590
Barroso 1591
olsun 1592
belge 1593
adına 1594
Savaş 1595
yönetmen 1596
derecede 1597
politikası 1598
sürece 1599
uzman 1600
bakanlık 1601
dünyası 1602
mesi 1603
gerekse 1604
ar@@ 1605
lük 1606
deniz 1607
1998 1608
verici 1609
görüş 1610
süreç 1611
döneminde 1612
altını 1613
itibaren 1614
kaçakçılığı 1615
yap@@ 1616
Kupası 1617
meye 1618
toplu 1619
yapmayı 1620
kurumsal 1621
seçimlerinde 1622
çoğunluk 1623
Moldova 1624
elinde 1625
onların 1626
vermeye 1627
zorlu 1628
yaygın 1629
askıya 1630
mayı 1631
değer 1632
şehir 1633
görüşündeler 1634
bildiriliyor 1635
Demokrasi 1636
FT 1637
konuyla 1638
güvenliği 1639
altındaki 1640
sigara 1641
Milorad 1642
hayal 1643
sürecek 1644
yoğun 1645
Bakanlar 1646
öğrenci 1647
aş@@ 1648
masına 1649
çekti 1650
hükümete 1651
Halk 1652
km 1653
4@@ 1654
girişimi 1655
Telekom 1656
başlaması 1657
görevli 1658
korunması 1659
artırmak 1660
asla 1661
mesini 1662
terörle 1663
sağlayan 1664
tedbirleri 1665
hazırlanan 1666
taşıyan 1667
Özel 1668
Traian 1669
program 1670
Bakan 1671
dolu 1672
Noel 1673
İttifak 1674
hak 1675
resmen 1676
sonlarında 1677
Yorgo 1678
bilgisayar 1679
telefon 1680
lerinde 1681
muhalefetteki 1682
birlik 1683
ülkelerde 1684
teknoloji 1685
temsilciler 1686
yüzlerce 1687
yetkililerle 1688
filmi 1689
sorumlusu 1690
istikrarlı 1691
zaten 1692
açılan 1693
düzenlendi 1694
larıyla 1695
mek 1696
tehlikeye 1697
noktası 1698
ceza 1699
önlemek 1700
George 1701
Paul 1702
tartışma 1703
ikisi 1704
manın 1705
Birliğin 1706
ulaştı 1707
görmek 1708
Belediye 1709
aldılar 1710
var@@ 1711
mahkemeye 1712
başarı 1713
vermesi 1714
düzenledi 1715
miş 1716
sorunların 1717
gerçekleştirilen 1718
turist 1719
birinin 1720
tespit 1721
gelecekteki 1722
Ahmet 1723
cep 1724
artırma 1725
sonrası 1726
derhal 1727
şunları 1728
yetkilisi 1729
seviyede 1730
harekete 1731
Başkan 1732
Georgi 1733
nı 1734
şimdiye 1735
referandum 1736
A@@ 1737
kimse 1738
siyasiler 1739
güven 1740
işbirliğine 1741
özgürlüğü 1742
sa 1743
yapması 1744
Bush 1745
gıda 1746
açtığı 1747
Branko 1748
yavaş 1749
seçimlere 1750
gazetesi 1751
raporu 1752
Tariceanu 1753
Geçen 1754
düşüş 1755
sağlanması 1756
ülkelerden 1757
bulundular 1758
masını 1759
Lajcak 1760
anlaşmasının 1761
Parvanov 1762
kişisel 1763
HDZ 1764
doğruladı 1765
rakam 1766
ıyor 1767
çalışmaya 1768
Antonio 1769
yanlış 1770
polisin 1771
istiyoruz 1772
SE 1773
3@@ 1774
Radiç 1775
Anayasa 1776
bekleyen 1777
sektöründe 1778
tercih 1779
Bank 1780
kendisi 1781
yasayı 1782
kara 1783
fikir 1784
kıyasla 1785
unu 1786
yardımı 1787
Linda 1788
İçin 1789
tatil 1790
örnek 1791
görüşmelerin 1792
EBRD 1793
görevini 1794
özgür 1795
ihracat 1796
rolü 1797
müzakerelere 1798
aç@@ 1799
kurulu 1800
öncesi 1801
düzenlenecek 1802
alarak 1803
İsviçre 1804
kendilerini 1805
koalisyonu 1806
profesyonel 1807
olanağı 1808
açıklamasında 1809
En 1810
merkezinde 1811
dikkate 1812
kişilik 1813
ak@@ 1814
geldiği 1815
katılma 1816
sıkı 1817
Akdeniz 1818
Karadağlı 1819
tasarruf 1820
müzakerelerine 1821
alanlarda 1822
süresi 1823
sağlam 1824
Karadaku 1825
genişleme 1826
getirilmesi 1827
krizi 1828
B@@ 1829
tartışmalı 1830
müzik 1831
Hafta 1832
ması 1833
İvo 1834
geçti 1835
suçlu 1836
plan 1837
mesele 1838
yılının 1839
eylem 1840
y@@ 1841
D@@ 1842
il@@ 1843
halka 1844
Londra 1845
masının 1846
sunduğu 1847
edip 1848
yu 1849
Amerika 1850
suçlanan 1851
standartlarına 1852
enflasyon 1853
popüler 1854
maaş 1855
Beta 1856
sağladı 1857
Sloven 1858
yılları 1859
çaplı 1860
birliği 1861
karşıladı 1862
katılıyor 1863
karşıtı 1864
Schengen 1865
bölgeye 1866
fırsat 1867
Ukrayna 1868
başkanlığı 1869
Dünyasında 1870
ankete 1871
üyeliğinin 1872
etmiş 1873
İyi 1874
Karadeniz 1875
vatandaşları 1876
kur@@ 1877
ayındaki 1878
haberlerine 1879
tarafı 1880
kişiler 1881
belirgin 1882
luk 1883
çıkar@@ 1884
bölümü 1885
karşılığında 1886
kalacak 1887
öngören 1888
sözde 1889
Georgiev 1890
sağlıyor 1891
seçmenlerin 1892
milli 1893
savunuyor 1894
Milan 1895
Stipe 1896
girdi 1897
sözlerini 1898
kaydettiği 1899
fazlası 1900
ekonominin 1901
üçte 1902
İşbirliği 1903
başsavcısı 1904
45 1905
kullan@@ 1906
E@@ 1907
yapıldı 1908
seçmen 1909
alanlarında 1910
meyi 1911
Javier 1912
olduğundan 1913
bulmak 1914
er@@ 1915
göster@@ 1916
ben 1917
çözüme 1918
şeklindeki 1919
kurumlarının 1920
eğlence 1921
şartlar 1922
mesaj 1923
yasaları 1924
tarihinde 1925
nedeni 1926
kaynağı 1927
toplumu 1928
bazda 1929
sorumluluk 1930
festival 1931
korumak 1932
Ban 1933
kentin 1934
Buckovski 1935
nün 1936
beklediğini 1937
çık@@ 1938
çabalarına 1939
insanları 1940
tarafın 1941
entegrasyon 1942
etmesini 1943
etkinlikte 1944
ödülü 1945
maları 1946
önerilen 1947
mesinin 1948
misyonu 1949
kurumlar 1950
malı 1951
temaslarda 1952
Nehri 1953
madan 1954
una 1955
önünü 1956
sırasıyla 1957
lardaki 1958
içeren 1959
Talat 1960
G@@ 1961
Novi 1962
diplomat 1963
Martti 1964
kilometre 1965
Macar 1966
artırılması 1967
yeşil 1968
görüşmesi 1969
idare 1970
dördüncü 1971
geç@@ 1972
programına 1973
başbakanı 1974
nüfusunun 1975
zafer 1976
katkı 1977
kullanılacak 1978
m@@ 1979
bizi 1980
makla 1981
ortasında 1982
dönemi 1983
ortaklık 1984
duyulan 1985
atılmış 1986
tamamlanması 1987
l@@ 1988
açan 1989
mülteci 1990
geç 1991
örgütün 1992
sandalye 1993
Ivo 1994
Afrika 1995
T@@ 1996
rapora 1997
Liberal 1998
acak 1999
mekle 2000
ortada 2001
müdahale 2002
olabileceğini 2003
Selanik 2004
almayı 2005
çapında 2006
genelinde 2007
ona 2008
suçladı 2009
zayıf 2010
yaşadığı 2011
getirme 2012
kurmak 2013
heyet 2014
okul 2015
bulunduğunu 2016
işe 2017
açılış 2018
yetkililere 2019
Radyosu 2020
operasyon 2021
etmesine 2022
çalışması 2023
meleri 2024
yaşıyor 2025
ekonomisi 2026
önündeki 2027
Petersen 2028
Sanat 2029
Kostas 2030
mensuplarına 2031
ayrıntılı 2032
devleti 2033
kritik 2034
bilinen 2035
verilere 2036
ndeki 2037
şansı 2038
dı 2039
alındığında 2040
radikal 2041
BHF 2042
arak 2043
d@@ 2044
Paris 2045
katıldığı 2046
antik 2047
iptal 2048
telefonu 2049
etkin 2050
normal 2051
anayasal 2052
düzenli 2053
haklarını 2054
birini 2055
güçleri 2056
aylarda 2057
toplantıya 2058
Jessen 2059
diği 2060
yolundaki 2061
vatandaşlar 2062
makamlarının 2063
etmişti 2064
dev 2065
duyuruda 2066
bulun@@ 2067
değildir 2068
International 2069
süreyle 2070
şüpheli 2071
ekliyor 2072
Hasani 2073
Rugova 2074
tiyatro 2075
kısmını 2076
zengin 2077
edilemez 2078
O@@ 2079
ulaş@@ 2080
et@@ 2081
katı 2082
İsveç 2083
soykırım 2084
inanıyorum 2085
metre 2086
bil@@ 2087
araç 2088
dolayısıyla 2089
gösterdiği 2090
olur 2091
şirketler 2092
kabine 2093
edilmesini 2094
Davutoğlu 2095
istihdam 2096
erdi 2097
planını 2098
5@@ 2099
ülkelerinde 2100
maruz 2101
anlaşmasını 2102
sayısını 2103
olmayı 2104
Hükümet 2105
kent 2106
etkisi 2107
çağrısı 2108
kaydedildi 2109
Merkel 2110
120 2111
mahkemesinin 2112
çağdaş 2113
ışık 2114
davanın 2115
Belçika 2116
Cukanoviç 2117
cezası 2118
Asya 2119
düzenleme 2120
Müzesi 2121
Seçim 2122
çıkıyor 2123
seçildi 2124
hukuki 2125
Osmanlı 2126
i@@ 2127
55 2128
alınacak 2129
işleri 2130
Mücadele 2131
yineledi 2132
dairesi 2133
M@@ 2134
bulunarak 2135
kuruluş 2136
Polis 2137
parlamentonun 2138
Tuna 2139
ım 2140
de@@ 2141
faaliyetleri 2142
edildiği 2143
doğrultusunda 2144
iletişim 2145
işlenen 2146
ası 2147
VMRO 2148
YTD 2149
makta 2150
İkinci 2151
ziyaretinde 2152
inşası 2153
konuşma 2154
PSD 2155
tanık 2156
katılması 2157
aktarılan 2158
liderlerinin 2159
Avusturyalı 2160
gösterdiğini 2161
planlarını 2162
hedefine 2163
aktif 2164
liderlerin 2165
bulunması 2166
aya 2167
üyeliğini 2168
sağlamaya 2169
sermaye 2170
Blic 2171
öncelik 2172
ediyoruz 2173
P@@ 2174
sahne 2175
benim 2176
genelde 2177
aslında 2178
Borisov 2179
firma 2180
diğini 2181
Josipoviç 2182
etkinliğe 2183
Teknoloji 2184
boykot 2185
çocuklar 2186
kalıyor 2187
adanın 2188
elçi 2189
kurulacak 2190
fırsatı 2191
istihbarat 2192
zam 2193
adını 2194
dünyada 2195
gruplar 2196
GDA 2197
sanayi 2198
üniversite 2199
görüşünde 2200
katılımı 2201
yapıcı 2202
Spor 2203
katılacak 2204
Batılı 2205
bulma 2206
kullanma 2207
bankacılık 2208
250 2209
Miroslav 2210
Sofia 2211
göç 2212
kentindeki 2213
ihraç 2214
yetki 2215
komisyon 2216
hizmetleri 2217
sistem 2218
onlar 2219
çıkardı 2220
Berlin 2221
gördüğü 2222
hazırladığı 2223
başlatma 2224
sorununun 2225
imza 2226
ver@@ 2227
derin 2228
bakanlığının 2229
ötesi 2230
olmaları 2231
verimli 2232
meden 2233
konular 2234
kaybetti 2235
mesinden 2236
c@@ 2237
çalışmalarını 2238
dışındaki 2239
din 2240
Büyük 2241
Dimitris 2242
euroluk 2243
yurtdışında 2244
z@@ 2245
kuzeydeki 2246
t@@ 2247
uyumlu 2248
SDP 2249
Savaşı 2250
açıklamaya 2251
şeyin 2252
sorununa 2253
kaldırılması 2254
meli 2255
alternatif 2256
kurumların 2257
finanse 2258
işi 2259
600 2260
tedbir 2261
gelişme 2262
kararının 2263
uzmanları 2264
vatandaşlarının 2265
saldırı 2266
güney 2267
kat 2268
başlangıçta 2269
C@@ 2270
Dinkiç 2271
açığı 2272
siz 2273
eleştirdi 2274
çekiyor 2275
cumhurbaşkanının 2276
6@@ 2277
eşi 2278
belirli 2279
öğrenciler 2280
gören 2281
çoğunlukla 2282
kendilerine 2283
Stefan 2284
mekte 2285
yaparak 2286
kullanılan 2287
ekonomisinin 2288
alanındaki 2289
kısmen 2290
DPMNE 2291
7@@ 2292
festivali 2293
er 2294
Yatırım 2295
as@@ 2296
katılmaya 2297
darbe 2298
yle 2299
ayda 2300
Y@@ 2301
standartları 2302
olayları 2303
yükümlülüklerini 2304
Finlandiya 2305
dir 2306
kurum 2307
olduğunda 2308
sayısında 2309
Ekonomik 2310
üreticisi 2311
izni 2312
şirketleri 2313
aları 2314
üçlü 2315
tavsiye 2316
Laura 2317
savcılar 2318
Kosor 2319
CNN 2320
ulaştırma 2321
EUFOR 2322
duruma 2323
of 2324
gözaltına 2325
Temsilciler 2326
kala 2327
değişiklikleri 2328
yıldönümü 2329
Şampiyonası 2330
direktörü 2331
mahkum 2332
Carla 2333
müzakerelerde 2334
2@@ 2335
kötüye 2336
Dış 2337
kişiyi 2338
kadınların 2339
umutları 2340
tutuklandı 2341
Ceku 2342
Mostar 2343
geleceğini 2344
gelerek 2345
mecliste 2346
planladığını 2347
şartlarını 2348
geliştirme 2349
sandık 2350
idi 2351
ihtilafı 2352
baş@@ 2353
sorunlara 2354
izleme 2355
abilir 2356
sınırları 2357
olmasının 2358
ıp 2359
Slovakya 2360
şimdiden 2361
Gürcistan 2362
erişim 2363
maması 2364
halen 2365
uzmanı 2366
desteklemek 2367
anlamda 2368
hakim 2369
tutuklama 2370
belirttiler 2371
Draskoviç 2372
Markoviç 2373
fiyat 2374
Mehmet 2375
ş@@ 2376
zamanlar 2377
bütünleşme 2378
kazan@@ 2379
sürede 2380
başlıklı 2381
geride 2382
Olimpiyatları 2383
getirmesi 2384
yolda 2385
İ@@ 2386
sınırlı 2387
is@@ 2388
Gazprom 2389
olduğunun 2390
planlanıyor 2391
Jose 2392
şirketlerin 2393
kaynakları 2394
faiz 2395
olağanüstü 2396
kadınlar 2397
indeki 2398
Komiseri 2399
DSS 2400
bana 2401
geçmişte 2402
avronun 2403
TV 2404
Paddy 2405
sunulan 2406
görüldü 2407
tehlikeli 2408
herkesin 2409
Bilim 2410
asıl 2411
sabit 2412
zirvesinde 2413
mış 2414
işten 2415
Stanişev 2416
kuruldu 2417
anın 2418
acağını 2419
alırken 2420
üretimi 2421
kon@@ 2422
olasılığını 2423
kazandığı 2424
İslamcı 2425
diğerleri 2426
başarısız 2427
Karaciç 2428
KDV 2429
olmaması 2430
H@@ 2431
News 2432
giriş 2433
n@@ 2434
uyum 2435
çocukların 2436
menin 2437
masından 2438
gelmesi 2439
Dnevnik 2440
kayıtlı 2441
amaçlayan 2442
mahkemesine 2443
Temsilcisi 2444
fark 2445
Eğitim 2446
oğlu 2447
Bloomberg 2448
ünü 2449
davası 2450
oranının 2451
ton 2452
dayanarak 2453
tanınan 2454
adli 2455
satış 2456
çalış@@ 2457
PASOK 2458
Jaap 2459
içine 2460
sel 2461
birimi 2462
yakınlarında 2463
aykırı 2464
sürdürüyor 2465
strateji 2466
vizesiz 2467
sanat 2468
yapısal 2469
şefi 2470
düştü 2471
bekliyoruz 2472
oranla 2473
Hükümeti 2474
bağış 2475
en@@ 2476
Milo 2477
koydu 2478
Kıbrıslı 2479
1,5 2480
konser 2481
yasası 2482
vatandaşı 2483
Birlik 2484
umuyor 2485
gündeme 2486
biraraya 2487
Birleşik 2488
fiyatları 2489
lu 2490
gerekçe 2491
bulunmak 2492
istediği 2493
yapımı 2494
Hareketi 2495
onaylanması 2496
karara 2497
vererek 2498
Japonya 2499
itiraz 2500
masıyla 2501
parlamentosu 2502
vereceğini 2503
bak@@ 2504
görevine 2505
32 2506
yoksa 2507
personel 2508
meselesi 2509
Anadolu 2510
görüştü 2511
yaptığını 2512
Taçi 2513
güzel 2514
ay@@ 2515
kampanyası 2516
bünyesinde 2517
iddiaları 2518
Turizm 2519
seçimlerden 2520
dayanan 2521
sat@@ 2522
konuları 2523
zanlısı 2524
iç@@ 2525
önemini 2526
ndaki 2527
Mediapool 2528
sınırı 2529
neler 2530
getirdiği 2531
kasabasında 2532
yaş 2533
saatlerde 2534
asının 2535
madığını 2536
bağımsızlığı 2537
standartlarını 2538
arama 2539
karşılık 2540
umduğunu 2541
sürdürülebilir 2542
çoğunun 2543
değerlendirme 2544
olaylar 2545
artması 2546
kimlik 2547
katılımcılar 2548
tamamladı 2549
Ante 2550
rejiminin 2551
gücünün 2552
Büyükelçiliği 2553
sanatçı 2554
ajansı 2555
yayınladı 2556
Nastase 2557
umutlarını 2558
ar 2559
kayıt 2560
sektörünün 2561
sürerek 2562
Günlüğü 2563
aranan 2564
e@@ 2565
Temas 2566
800 2567
Split 2568
dönemine 2569
Michael 2570
ettikleri 2571
me@@ 2572
maddi 2573
konferans 2574
daire 2575
belki 2576
döviz 2577
görüşmeleri 2578
m 2579
madı 2580
artıyor 2581
konferansta 2582
Haradinay 2583
suçlanıyor 2584
ilişkilerini 2585
CHP 2586
getirdiler 2587
haberleşme 2588
Ciocoiu 2589
Nabucco 2590
cezasına 2591
düzeyinde 2592
önerdi 2593
gerektiğine 2594
N@@ 2595
iyimser 2596
gece 2597
ordunun 2598
zirvede 2599
acağı 2600
Kilisesi 2601
ek@@ 2602
oylama 2603
Koruma 2604
demiryolu 2605
le@@ 2606
grupları 2607
açıklanan 2608
ünün 2609
erek 2610
azından 2611
statüsünü 2612
yapmış 2613
yıllar 2614
dünyasından 2615
çalışmalarının 2616
mayın 2617
yasaların 2618
Arnavutların 2619
alar 2620
Demokratlar 2621
plana 2622
hangi 2623
gerçekleştirdi 2624
nedenle 2625
65 2626
insanın 2627
bırak@@ 2628
ülkelerinden 2629
ayına 2630
Roma 2631
planları 2632
UNESCO 2633
parlamentoda 2634
terörist 2635
yürüten 2636
bağlantılı 2637
üne 2638
Marina 2639
iyor 2640
almış 2641
mişti 2642
Kaide 2643
açıyor 2644
ımız 2645
süreli 2646
iddiasıyla 2647
olmuş 2648
sistemini 2649
paketi 2650
yaşında 2651
uy@@ 2652
veriliyor 2653
seviyesinde 2654
başar@@ 2655
olayı 2656
avrodan 2657
memuru 2658
olmaktan 2659
yetersiz 2660
vatandaşlarına 2661
Mustafa 2662
gel@@ 2663
yerde 2664
entegrasyonu 2665
L@@ 2666
hizmete 2667
konumunda 2668
ankette 2669
Ljajiç 2670
gençler 2671
yatırımcılar 2672
75 2673
bulunacak 2674
oluşuyor 2675
Sergey 2676
oyuncu 2677
göstererek 2678
başlatılan 2679
birinde 2680
yasalar 2681
zanlı 2682
açılması 2683
kapsayan 2684
çoktan 2685
mesiyle 2686
desteğini 2687
olurken 2688
tartışmalar 2689
memesi 2690
yoksul 2691
gümüş 2692
ortamı 2693
Komutanı 2694
ara 2695
Taci 2696
tı 2697
Daciç 2698
hasar 2699
şiddetli 2700
destekleyen 2701
üstesinden 2702
buradaki 2703
projeler 2704
gerekecek 2705
siyasilerin 2706
dönüş 2707
et 2708
Babacan 2709
Radikal 2710
idaresi 2711
Blerta 2712
9@@ 2713
tarihinin 2714
aleyhinde 2715
Rama 2716
Arap 2717
yollarını 2718
UNDP 2719
unda 2720
geçirilmesi 2721
önerisini 2722
duy@@ 2723
olacağına 2724
sorununu 2725
santrali 2726
malarını 2727
ediyorum 2728
Recepi 2729
projeye 2730
Popescu 2731
sı 2732
güçlerinin 2733
değişim 2734
anlaşmazlık 2735
Hırvatlar 2736
kayıp 2737
modern 2738
bankası 2739
kondu 2740
planının 2741
arttı 2742
sun@@ 2743
çalışmalarına 2744
ödülünü 2745
oluşturan 2746
ıyorlar 2747
düşün@@ 2748
gelişmiş 2749
Kaddafi 2750
insani 2751
Araştırma 2752
EurActiv 2753
yapılmış 2754
havayolu 2755
yan 2756
daveti 2757
askerleri 2758
t 2759
fotoğraf 2760
hattının 2761
Nikolovski 2762
Manuel 2763
34 2764
işler 2765
denetim 2766
s@@ 2767
alı 2768
anlar 2769
ır 2770
ithal 2771
anlaşmada 2772
kurdu 2773
DUI 2774
yoksulluk 2775
temsilci 2776
adalete 2777
alt 2778
belirterek 2779
Dahası 2780
fon 2781
emlak 2782
V@@ 2783
ilave 2784
İlişkiler 2785
ik@@ 2786
kriterleri 2787
paralel 2788
işçi 2789
kalıcı 2790
milletvekillerinin 2791
madığı 2792
miktarda 2793
hazırlık 2794
ders 2795
geliştirilmesi 2796
itibarıyla 2797
yazarı 2798
karşısında 2799
sürmekte 2800
edil@@ 2801
acı 2802
liği 2803
cinayet 2804
ındaki 2805
özgürlük 2806
rekor 2807
barışçı 2808
sektör 2809
projeleri 2810
b@@ 2811
im 2812
aracılığıyla 2813
görüşmelere 2814
onay 2815
çözmek 2816
anlaşmalar 2817
2013 2818
görevlisi 2819
tutumunu 2820
eksikliği 2821
gazeteciler 2822
birbirine 2823
uyla 2824
buldu 2825
muamele 2826
ilerlemeyi 2827
ülkelerle 2828
verdikleri 2829
8@@ 2830
Z@@ 2831
azınlıkların 2832
öneri 2833
belirsiz 2834
alanı 2835
avroyu 2836
olmadı 2837
say@@ 2838
anlaşmazlığı 2839
Makfax 2840
İttifakın 2841
edilebilir 2842
önleme 2843
oyla 2844
LDK 2845
İbrahim 2846
halkına 2847
destekleme 2848
emniyet 2849
etmeleri 2850
F@@ 2851
erkekler 2852
ilerletme 2853
desteklediğini 2854
açacak 2855
oran 2856
ortam 2857
laik 2858
hidroelektrik 2859
çizdi 2860
güçlendirme 2861
bulunuluyor 2862
U@@ 2863
ticareti 2864
destekliyor 2865
maktan 2866
kurumlarına 2867
at 2868
üstünlüğü 2869
ademi 2870
sinin 2871
bunlardan 2872
Yeniden 2873
sözleşme 2874
faaliyete 2875
toplumunun 2876
geçmesi 2877
Kanada 2878
hareketi 2879
Vuyanoviç 2880
Guardian 2881
Sad 2882
zamanlarda 2883
ekibi 2884
enin 2885
zamanında 2886
Sırplara 2887
bıraktı 2888
DS 2889
hükümetini 2890
tip 2891
edeceği 2892
çözme 2893
tavır 2894
f@@ 2895
sonucuna 2896
700 2897
çözümü 2898
kökenli 2899
yasaya 2900
yapılmasını 2901
dur@@ 2902
Kofi 2903
haklarının 2904
hepsi 2905
borcu 2906
muhabiri 2907
ortağı 2908
Ermeni 2909
vermiş 2910
ortaklaşa 2911
esi 2912
takip 2913
bağlantı 2914
şeyler 2915
ödeme 2916
kuruluşları 2917
getirmeye 2918
Euro 2919
yoldan 2920
Lüksemburg 2921
Voyvodina 2922
şirketinin 2923
çıkması 2924
olmayacak 2925
günde 2926
komuta 2927
hayati 2928
v@@ 2929
Euobserver 2930
ada 2931
garanti 2932
Belgradlı 2933
! 2934
muhalefetin 2935
toplantının 2936
planın 2937
medi 2938
getirecek 2939
37 2940
festivalde 2941
böylelikle 2942
bölgelerde 2943
ücret 2944
hızla 2945
dolayı 2946
fayda 2947
kıyı 2948
meclise 2949
Robert 2950
danışmanlık 2951
gerçekçi 2952
koşulları 2953
abileceğini 2954
seçimlerinin 2955
r@@ 2956
konuk 2957
sizce 2958
Clinton 2959
bilişim 2960
gir@@ 2961
etmekte 2962
tesis 2963
hedefliyor 2964
yarı 2965
gelişmeler 2966
iste@@ 2967
mediği 2968
bence 2969
ilerlemenin 2970
eminim 2971
talebi 2972
nispeten 2973
meclisin 2974
bakanlarının 2975
çalışmalar 2976
hazırlanıyor 2977
vadede 2978
edici 2979
kısmının 2980
oyların 2981
1993 2982
aktardığına 2983
kâr 2984
dön@@ 2985
Putin 2986
Milososki 2987
Oyunları 2988
Aleksandar 2989
edilmesine 2990
şikayet 2991
madde 2992
ip 2993
mesinde 2994
kapalı 2995
kamuoyuna 2996
kuzeyindeki 2997
g@@ 2998
sahte 2999
oynadığı 3000
çözülmesi 3001
k 3002
kullanımı 3003
yaz@@ 3004
Sarkozy 3005
bloğa 3006
operatörü 3007
Konsey 3008
1996 3009
Davor 3010
giren 3011
konularda 3012
Hakkındaki 3013
gerçekleşmesi 3014
Eurovision 3015
çıkarıldı 3016
elektronik 3017
iş@@ 3018
Igor 3019
Yönetim 3020
savcı 3021
esine 3022
başkenti 3023
aksi 3024
ik 3025
maliye 3026
Milovanoviç 3027
Daniel 3028
kurulmasını 3029
os 3030
hapse 3031
33 3032
otomobil 3033
ecek 3034
Siyasi 3035
çabalarının 3036
istikrarın 3037
gidiyor 3038
emeklilik 3039
güvenliğini 3040
kitap 3041
izliyor 3042
göstermesi 3043
şartı 3044
kırsal 3045
kaçakçılık 3046
DP 3047
Stankoviç 3048
varlığını 3049
hareketin 3050
basına 3051
Bakoyanni 3052
iler 3053
söyleniyor 3054
sistemine 3055
rüşvet 3056
etkinliklere 3057
SDSM 3058
çalışmak 3059
kararına 3060
UAD 3061
aların 3062
&amp; 3063
sürdürdü 3064
Kar@@ 3065
sini 3066
adam 3067
43 3068
tabii 3069
bölgesindeki 3070
vermeyi 3071
askerler 3072
geçirme 3073
alın@@ 3074
gösteri 3075
it@@ 3076
ayından 3077
sağladığı 3078
Durres 3079
Miloşeviç 3080
işsiz 3081
Sağlık 3082
birleşme 3083
tut@@ 3084
mamış 3085
Plus 3086
sistemin 3087
mükemmel 3088
ihtilaf 3089
etkinliği 3090
fazlasını 3091
tutuklanması 3092
der@@ 3093
Yaz 3094
hükümetine 3095
desteklemeye 3096
ağı 3097
faaliyetlerini 3098
hakkına 3099
sisteminde 3100
çabuk 3101
aleyhindeki 3102
bildirdiğine 3103
yönetiminin 3104
R@@ 3105
am@@ 3106
konut 3107
vatandaş 3108
seçimlerine 3109
eren 3110
imha 3111
el@@ 3112
konuş@@ 3113
Vakfı 3114
ina 3115
te@@ 3116
Lefkoşe 3117
kap@@ 3118
orada 3119
üyesinin 3120
bul@@ 3121
zemin 3122
hassas 3123
sağlayacağını 3124
yolunu 3125
kanıt 3126
anayasaya 3127
önlemler 3128
aksine 3129
Bölgesi 3130
projeyi 3131
hafif 3132
gözlemciler 3133
krize 3134
Ortadoğu 3135
birleştirme 3136
olanlar 3137
çeken 3138
kimsenin 3139
mıştı 3140
bakanlar 3141
kontrolü 3142
mediğini 3143
halde 3144
sonuçlara 3145
Rice 3146
Akademisi 3147
hissesini 3148
ol@@ 3149
mülkiyet 3150
yükseldi 3151
ihale 3152
eceğini 3153
gazete 3154
geçmiş 3155
ti 3156
tıbbi 3157
edildiğini 3158
Echo 3159
yapacağını 3160
anket 3161
planına 3162
dik 3163
Bayram 3164
özerklik 3165
ka 3166
hizmeti 3167
Zivkoviç 3168
ücretsiz 3169
melerini 3170
başı 3171
ad@@ 3172
refah 3173
kullanarak 3174
trafik 3175
başından 3176
değişikliği 3177
oynanan 3178
göstermek 3179
on@@ 3180
PfP 3181
kar@@ 3182
kat@@ 3183
bekle@@ 3184
işkence 3185
Obama 3186
bakanlığından 3187
HINA 3188
gerekir 3189
İşçi 3190
Odası 3191
festivalin 3192
USAID 3193
Cumhuriyet 3194
dayanıyor 3195
mada 3196
kurmaya 3197
Kuvvetleri 3198
yeri 3199
bölgeyi 3200
performans 3201
ulaşmak 3202
alacağı 3203
karşılandı 3204
katılımcı 3205
anlaştılar 3206
Hürriyet 3207
varılan 3208
muhtemelen 3209
getirdiğini 3210
durumdan 3211
malıdır 3212
topluma 3213
Nebojsa 3214
geleceğe 3215
başkanlığındaki 3216
Krasniki 3217
seçilen 3218
mu 3219
internet 3220
isi 3221
Valentin 3222
Cumhurbaşkanlığı 3223
Sırpları 3224
Inzko 3225
rejimi 3226
açma 3227
programın 3228
miktar 3229
artışla 3230
ı@@ 3231
kesiminde 3232
ırken 3233
konularında 3234
durumunu 3235
gücünü 3236
Topi 3237
ilerlemeye 3238
lerindeki 3239
zanlının 3240
lerdeki 3241
attı 3242
diler 3243
aşırılık 3244
sürdürme 3245
amaçlanıyor 3246
malarına 3247
di@@ 3248
ülkelerini 3249
Avustralya 3250
taraflar 3251
sürdürmeye 3252
çıkarılması 3253
elden 3254
güven@@ 3255
1000 3256
ölüm 3257
ateş 3258
günleri 3259
doğum 3260
Tanjug 3261
yarat@@ 3262
süreçte 3263
verilmiş 3264
milyonlarca 3265
karşılamak 3266
h@@ 3267
Genelkurmay 3268
asını 3269
araba 3270
Açık 3271
sözcü 3272
ani 3273
sıcak 3274
maktadır 3275
emek 3276
Politika 3277
oyun 3278
konferansa 3279
deyişle 3280
Dusan 3281
acağına 3282
Suçları 3283
sunuyor 3284
hedefleniyor 3285
kriterlerini 3286
toplandı 3287
önemlidir 3288
is 3289
vereceği 3290
Petar 3291
yetkililerinin 3292
grupların 3293
olmayacağını 3294
açılışını 3295
Deutsche 3296
dil 3297
farkında 3298
Jean 3299
çabalar 3300
gazetesinde 3301
elinden 3302
yatırımlar 3303
başvur@@ 3304
bunlara 3305
Microsoft 3306
gönderdi 3307
yatırımı 3308
cesaret 3309
ürünleri 3310
iyileştirme 3311
nedir 3312
belgeleri 3313
la@@ 3314
davada 3315
can 3316
örgütleri 3317
yeterince 3318
geçirdi 3319
değişikliklerin 3320
kaldır@@ 3321
ikiye 3322
mağlup 3323
asgari 3324
savaşı 3325
beşinci 3326
Kürdistan 3327
başlangıç 3328
eleri 3329
u@@ 3330
hedefleri 3331
başlat@@ 3332
Prlenda 3333
başlatılması 3334
başardı 3335
ayrımcılık 3336
Nano 3337
başlama 3338
36 3339
İstatistik 3340
pazarlık 3341
Günü 3342
Ödülü 3343
uygulanmasını 3344
sitesi 3345
aktardığı 3346
p@@ 3347
raporun 3348
KKTC 3349
yıllarında 3350
gençlerin 3351
Moisiu 3352
töreninde 3353
getirildi 3354
sonbaharda 3355
şimdilik 3356
makroekonomik 3357
festivale 3358
sağlaması 3359
tazminat 3360
içi 3361
yüz 3362
Calin 3363
arkasında 3364
soru 3365
ekip 3366
gerçekleştirdiği 3367
öner@@ 3368
söylediği 3369
47 3370
Maroviç 3371
bronz 3372
açıklaması 3373
geçecek 3374
karayolu 3375
getir@@ 3376
çek@@ 3377
eyalet 3378
çatışmalar 3379
olmuştu 3380
misyon 3381
haberler 3382
kişiye 3383
kalması 3384
göçmen 3385
48 3386
numaralı 3387
İlerleme 3388
köprü 3389
Muhamet 3390
51 3391
aldıkları 3392
artır@@ 3393
Genişleme 3394
yönetimindeki 3395
uygulamada 3396
mekten 3397
meseleler 3398
gerçekleş@@ 3399
Zaman 3400
çerçeve 3401
kurban 3402
alarının 3403
kimin 3404
eğitimi 3405
PDK 3406
nerede 3407
canlı 3408
men 3409
Altın 3410
pahalı 3411
katıl@@ 3412
istiyorlar 3413
paranın 3414
göstergesi 3415
suçlamaları 3416
finansman 3417
tutuyor 3418
yere 3419
toplama 3420
larındaki 3421
yla 3422
mektupta 3423
İspanyol 3424
oluşturulması 3425
42 3426
meyeceğini 3427
and 3428
yaklaşım 3429
tanıyan 3430
Natasa 3431
birden 3432
çalıştı 3433
iktidara 3434
Mısır 3435
çalıştığı 3436
ıdır 3437
destekle@@ 3438
koy@@ 3439
Vlado 3440
fikri 3441
mensup 3442
iy@@ 3443
kaynaklanıyor 3444
sanık 3445
MIA 3446
noktada 3447
taşıdığı 3448
yakından 3449
başbakanın 3450
sağlanacak 3451
seçimlerini 3452
törende 3453
koşullar 3454
savaşın 3455
gelmiş 3456
G17 3457
operasyonu 3458
başlıyor 3459
tedbirlerin 3460
eceği 3461
Gücü 3462
sorunlarla 3463
Divanı 3464
gönderdiği 3465
ülkelerindeki 3466
seçti 3467
il 3468
Celiç 3469
John 3470
almasına 3471
danışmanı 3472
istikrara 3473
çıkar 3474
dolara 3475
rolünü 3476
belirleme 3477
ilaç 3478
Tribune 3479
1997 3480
mutabakat 3481
yaşandı 3482
sol 3483
W. 3484
konuyu 3485
Radyo 3486
ülkesinde 3487
büyüyen 3488
olmasından 3489
Fuarı 3490
zorunlu 3491
azalt@@ 3492
Facebook 3493
sektöründeki 3494
sektörüne 3495
bilgileri 3496
Avro 3497
yetkisi 3498
teşekkür 3499
beni 3500
kullanan 3501
katılmayı 3502
melidir 3503
yerinde 3504
yazı 3505
hedefini 3506
düzenlediler 3507
alacağını 3508
Amerikalı 3509
bi@@ 3510
yolsuzluğa 3511
olduğumuz 3512
izledi 3513
Programı 3514
gördüğünü 3515
Vukovar 3516
saldırıları 3517
bayanlar 3518
desteğiyle 3519
es@@ 3520
gör@@ 3521
Akımı 3522
çift 3523
tarafsız 3524
ken 3525
organ 3526
iz@@ 3527
kutladı 3528
yan@@ 3529
tarihten 3530
av@@ 3531
kuş 3532
alışveriş 3533
liman 3534
İvan 3535
oluşturma 3536
kalmış 3537
belirlenen 3538
İktidardaki 3539
zanlılarının 3540
sırayı 3541
asına 3542
Mirko 3543
Haris 3544
güvenilir 3545
olayların 3546
gereğini 3547
doğu 3548
acaktır 3549
çalışanları 3550
ıl@@ 3551
Filip 3552
kesim 3553
yanından 3554
göstermeye 3555
yaş@@ 3556
koviç 3557
seçmenler 3558
mektedir 3559
yolsuzluğun 3560
katıldılar 3561
önemi 3562
ilerin 3563
gördü 3564
Anlaşmasının 3565
eyalette 3566
törenine 3567
reformlara 3568
0 3569
etmektedir 3570
Geoana 3571
insanlara 3572
al 3573
ucuz 3574
suçlar 3575
irken 3576
sürdüğü 3577
öyle 3578
sorumluluğunu 3579
baskın 3580
Yusuf 3581
Schilling 3582
bilgilere 3583
büyümenin 3584
aydan 3585
üyeli 3586
iye 3587
ca 3588
düşen 3589
verilmesini 3590
mayan 3591
Portekiz 3592
sergide 3593
muazzam 3594
böylece 3595
melerine 3596
rüzgar 3597
iyileştirilmesi 3598
hedeflerine 3599
yardımıyla 3600
oyu 3601
liderlik 3602
Alexander 3603
ermesinden 3604
ev@@ 3605
n 3606
Ki 3607
Tihiç 3608
öğrenim 3609
O 3610
Zeljko 3611
uygulanmasına 3612
Dubrovnik 3613
etmenin 3614
avukat 3615
Ar@@ 3616
tarafların 3617
Bütünleşme 3618
Fonu 3619
bilimsel 3620
ıydı 3621
kendisinin 3622
mamız 3623
zanlıları 3624
ak 3625
abilecek 3626
sayıdaki 3627
dalında 3628
şiddetle 3629
kan 3630
insanlık 3631
bildiri 3632
Herald 3633
Zvetkoviç 3634
birine 3635
haftalık 3636
Yardım 3637
blok 3638
oluşturduğu 3639
üyelerinden 3640
barışı 3641
projesinin 3642
iyileşme 3643
gönüllü 3644
zorla 3645
yoktur 3646
itiraf 3647
karışık 3648
Pekin 3649
Bölgesel 3650
işbirliğiyle 3651
bilgiler 3652
Ş@@ 3653
Stojanovska 3654
kaynaklanan 3655
masında 3656
ma@@ 3657
kuruluşlarının 3658
Hristofiyas 3659
.@@ 3660
istekli 3661
sonuçlarını 3662
kış 3663
Peter 3664
dil@@ 3665
Konjikusiç 3666
re@@ 3667
Xinhua 3668
listesinde 3669
süresinin 3670
haklı 3671
abileceği 3672
meseleleri 3673
krizden 3674
zanlıların 3675
çıkarlarını 3676
p 3677
görevinden 3678
zirve 3679
başkanları 3680
Nataşa 3681
turu 3682
geçiyor 3683
sayılı 3684
kayak 3685
sorunlarını 3686
ekonomist 3687
karşılaş@@ 3688
Turkish 3689
Ulaştırma 3690
kaldığı 3691
Ramazan 3692
örgütünün 3693
2,5 3694
meyecek 3695
ailesinin 3696
değişen 3697
Banka 3698
kapat@@ 3699
oranları 3700
risk 3701
44 3702
üyelerine 3703
hayır 3704
topraklarında 3705
bölgesine 3706
ırklı 3707
alanları 3708
dağıt@@ 3709
pazarına 3710
dahilinde 3711
46 3712
İngilizce 3713
davaları 3714
yararlı 3715
yürüttüğü 3716
Taki 3717
mıştır 3718
Agim 3719
girmesi 3720
piyasa 3721
imi 3722
tak@@ 3723
kurul 3724
azaltmak 3725
kilise 3726
izleyen 3727
yorum 3728
başkentinde 3729
uygulaması 3730
ülkesinden 3731
çifte 3732
amacının 3733
B 3734
HIV 3735
çağırdılar 3736
görevde 3737
aydır 3738
günler 3739
katılanların 3740
stratejisi 3741
Türkler 3742
I@@ 3743
doktor 3744
nüfusu 3745
gereği 3746
sıradan 3747
eşlik 3748
bas@@ 3749
değerinde 3750
şüphe 3751
UPI 3752
dünyadaki 3753
münasebetiyle 3754
komisyonu 3755
veto 3756
kırıklığına 3757
bir@@ 3758
sayımı 3759
yoluna 3760
belgenin 3761
Bozidar 3762
Labus 3763
Lübnan 3764
Ç@@ 3765
Bağımsız 3766
Profesör 3767
Richard 3768
layık 3769
Barbutov 3770
işleyen 3771
rakibi 3772
değiş@@ 3773
yatırımcıların 3774
ertesi 3775
arkeologlar 3776
Mahkeme 3777
koordine 3778
alanlar 3779
Her 3780
anlaş@@ 3781
taraftan 3782
ülkesine 3783
teşkilatı 3784
Norveç 3785
esinin 3786
Brammertz 3787
gerekçesiyle 3788
olmalı 3789
ul@@ 3790
İlgili 3791
den@@ 3792
asında 3793
AKI 3794
ir 3795
dakika 3796
artışı 3797
sor@@ 3798
az@@ 3799
video 3800
Marko 3801
planladığı 3802
41 3803
çalıştığını 3804
değin 3805
mayacak 3806
projede 3807
standartların 3808
almasını 3809
nci 3810
o@@ 3811
bin@@ 3812
filmin 3813
toplantısına 3814
planda 3815
meyen 3816
38 3817
medyanın 3818
Nimetz 3819
düzgün 3820
emri 3821
sokak 3822
taşımacılık 3823
yatırımları 3824
esini 3825
Ivan 3826
olayın 3827
partilerinin 3828
du 3829
başladığı 3830
notunu 3831
girecek 3832
sürüldü 3833
undan 3834
uçak 3835
çalışacak 3836
hüküm 3837
maliyeti 3838
yaralandı 3839
çocukları 3840
güçlendirilmesi 3841
kararları 3842
düş@@ 3843
sefer 3844
zamanın 3845
ister 3846
açabilir 3847
moon 3848
devlete 3849
kuvvetleri 3850
heyetinin 3851
İvica 3852
Paktı 3853
öncelikli 3854
standartlara 3855
yola 3856
zamandan 3857
im@@ 3858
sergisi 3859
sağlanan 3860
or@@ 3861
yasak 3862
eli 3863
saldırılar 3864
Jankoviç 3865
sahipleri 3866
kendini 3867
listesinin 3868
İttifaka 3869
Meta 3870
önemlisi 3871
döndü 3872
azaltma 3873
kararlılığını 3874
ciç 3875
Hareket 3876
söyle@@ 3877
turizmi 3878
ayakta 3879
bölgelerinde 3880
sanayii 3881
kes@@ 3882
değildi 3883
atılan 3884
eceğine 3885
İvanoviç 3886
derecelendirme 3887
sunan 3888
yatırımcı 3889
suretiyle 3890
bağımsızlığının 3891
Sivil 3892
yollardan 3893
anlaşmaları 3894
misyonun 3895
Bojana 3896
kilometrelik 3897
ilişkilerde 3898
başlatıldı 3899
girişimin 3900
iyileştirmek 3901
şansını 3902
Haberleşme 3903
misyonunun 3904
Boyko 3905
kalabalık 3906
oldular 3907
Süleyman 3908
1.000 3909
beyaz 3910
An@@ 3911
yapım 3912
alınmış 3913
grubunun 3914
dünyasında 3915
payı 3916
alıyorlar 3917
çatışma 3918
Hindistan 3919
Belene 3920
uzlaşmaya 3921
Adrian 3922
mahkemeyle 3923
Dimitrova 3924
yıllarca 3925
Burgaz 3926
yemek 3927
koalisyonunun 3928
geçerek 3929
Toplum 3930
çıkarma 3931
sinema 3932
kademeli 3933
etkileri 3934
toplantıdan 3935
mez 3936
geliştirmek 3937
politikasını 3938
desteğin 3939
eyaletteki 3940
ova 3941
toplumlar 3942
yazılı 3943
Fakültesi 3944
yaratmak 3945
kullandı 3946
haklarına 3947
Silayciç 3948
gidecek 3949
pratik 3950
kız 3951
otoyol 3952
şarkı 3953
Kamu 3954
hükümetle 3955
tedavi 3956
İrlanda 3957
göz@@ 3958
kurumlara 3959
inan@@ 3960
yarısı 3961
projesine 3962
yaptılar 3963
doğan 3964
bulunmadığını 3965
çekmek 3966
tutukladı 3967
zirvesi 3968
yolcu 3969
Al@@ 3970
Hıristiyan 3971
rakamın 3972
benzeri 3973
yoksun 3974
vergisi 3975
yazılım 3976
seçenek 3977
alınmasını 3978
parlamentoya 3979
kaldırma 3980
politikasının 3981
si@@ 3982
ithalat 3983
bütçesi 3984
olabileceği 3985
ekonomiyi 3986
görüşlerini 3987
geleni 3988
yasasını 3989
İnsanlar 3990
imzalanması 3991
anayasanın 3992
açığını 3993
destekli 3994
ilgisi 3995
Lukiç 3996
birleşik 3997
Silahlı 3998
sığınma 3999
çözümün 4000
yarısında 4001
onaylanan 4002
tartışmaya 4003
hakkını 4004
kullanıyor 4005
öncelikleri 4006
örneği 4007
personeli 4008
ülkeyle 4009
isinin 4010
suçların 4011
hükümetler 4012
as 4013
oluştur@@ 4014
otel 4015
güneyindeki 4016
komisyonun 4017
yak@@ 4018
önerisi 4019
Denizi 4020
fikrini 4021
gönder@@ 4022
taşıdığını 4023
iz 4024
mayacağını 4025
ince 4026
dayan@@ 4027
atıfta 4028
gemi 4029
davaların 4030
daimi 4031
vatandaşlara 4032
uyar@@ 4033
getirerek 4034
sunuldu 4035
milletvekillerine 4036
yaklaşan 4037
füze 4038
egemen 4039
desteklenmesi 4040
istiyorum 4041
çalışıyorlar 4042
başlamasından 4043
askerlerinin 4044
Verheugen 4045
Kostov 4046
web 4047
amaçlıyor 4048
Danimarka 4049
ın@@ 4050
davayı 4051
dönemin 4052
çıkarlarına 4053
işle@@ 4054
David 4055
sürpriz 4056
ilişki 4057
şarkıcı 4058
artırdı 4059
bazılarının 4060
kaldığını 4061
Şimşek 4062
karşılayan 4063
lan@@ 4064
tutum 4065
Şeffaflık 4066
sorunla 4067
Radio 4068
işleme 4069
alıp 4070
gurur 4071
ıyordu 4072
aracı 4073
evet 4074
raporunu 4075
azalma 4076
Daily 4077
şeffaf 4078
ailesi 4079
vardır 4080
yasalara 4081
un@@ 4082
erecek 4083
isini 4084
tıp 4085
endişelerini 4086
tarihe 4087
Azerbaycan 4088
kurucusu 4089
polisinin 4090
Frattini 4091
malar 4092
varan 4093
İttifakı 4094
tutmak 4095
haftalarda 4096
yarım 4097
tarafının 4098
çöz@@ 4099
Ayhan 4100
puanla 4101
kurucu 4102
görevlerini 4103
Kemal 4104
belirlenmiş 4105
harici 4106
z 4107
arasına 4108
talebinde 4109
imiz 4110
belgeyi 4111
ön@@ 4112
devi 4113
öğrencilerin 4114
85 4115
memiş 4116
by 4117
geçersiz 4118
bölümünü 4119
Soren 4120
biriydi 4121
sunulacak 4122
sigorta 4123
Angela 4124
kurumlarını 4125
çıkarmak 4126
kar 4127
Forumu 4128
federal 4129
gelişimi 4130
Büyükelçi 4131
nitelendiren 4132
düzinelerce 4133
ç 4134
kuzeyde 4135
ci 4136
güneş 4137
meclisi 4138
çıkacak 4139
politikaları 4140
fonlar 4141
j@@ 4142
eş@@ 4143
62 4144
dağıtım 4145
turistler 4146
öğren@@ 4147
beklendiği 4148
başladığını 4149
öncelikle 4150
adıyla 4151
açıklamasına 4152
oturum 4153
bölgesinin 4154
geçirmek 4155
Marija 4156
birliğinin 4157
suçun 4158
inanıyorlar 4159
tehdidi 4160
gazetecilerin 4161
sadık 4162
kanalı 4163
CEFTA 4164
mıyor 4165
sektörünü 4166
katılımını 4167
İktidar 4168
kararda 4169
duruldu 4170
alandaki 4171
fiziksel 4172
din@@ 4173
Tiyatrosu 4174
tenis 4175
sahası 4176
El 4177
mücadelenin 4178
soruna 4179
bireysel 4180
çağıran 4181
Jadranka 4182
yapı 4183
a@@ 4184
ti@@ 4185
memurları 4186
1,@@ 4187
GERB 4188
iyorlar 4189
yapılanma 4190
1989 4191
eleştirilere 4192
fiyatı 4193
olmasa 4194
mede 4195
sorumluluğu 4196
basınında 4197
yüz@@ 4198
toplanan 4199
Prizren 4200
tartışmalara 4201
buraya 4202
Dejan 4203
polise 4204
Ak@@ 4205
KLA 4206
kurumun 4207
seviyesine 4208
malların 4209
dığı 4210
çıkardılar 4211
işareti 4212
adımları 4213
üyelerini 4214
SP 4215
uygulamak 4216
hayat 4217
acaklar 4218
oyunu 4219
hayatta 4220
saatlik 4221
görüş@@ 4222
sürmesi 4223
görülmemiş 4224
kurulmasına 4225
ye@@ 4226
arabuluculuk 4227
sektörün 4228
alarına 4229
konferansı 4230
başsavcı 4231
Dora 4232
Lizbon 4233
almıştı 4234
konması 4235
Esad 4236
bulunuldu 4237
Tuzla 4238
şarap 4239
eskiden 4240
meşru 4241
ışığında 4242
Çerçeve 4243
oy@@ 4244
cazip 4245
miştir 4246
etkileyen 4247
komitesi 4248
aşağı 4249
olabilecek 4250
Nobel 4251
Rohan 4252
ilerle@@ 4253
şartların 4254
yazık 4255
inci 4256
bazen 4257
şampiyonu 4258
işlenmiş 4259
kurmayı 4260
savcılık 4261
çoğunluğunun 4262
Teşkilatı 4263
hızlandırma 4264
raporuna 4265
bombalı 4266
kurumu 4267
bankanın 4268
çıkarılan 4269
Independent 4270
yasada 4271
kazanç 4272
konusunu 4273
tutan 4274
lığı 4275
düşünce 4276
ır@@ 4277
tamamı 4278
çıkarları 4279
Dağı 4280
yükselen 4281
sürdürülen 4282
bankalar 4283
Mladen 4284
A 4285
boz@@ 4286
rakip 4287
hepimiz 4288
telekom 4289
artırmaya 4290
Press 4291
İvanov 4292
mektup 4293
yerlerinden 4294
eler 4295
doğ@@ 4296
yıldızı 4297
ılması 4298
gününe 4299
suçlamalar 4300
gündeminde 4301
fizibilite 4302
hız 4303
kaçır@@ 4304
imzaladığı 4305
yaşanıyor 4306
ılıyor 4307
nihayet 4308
ılan 4309
ayrılan 4310
kendine 4311
riski 4312
um 4313
çıkmaza 4314
dikkatli 4315
Dnevnik.bg 4316
len@@ 4317
nakil 4318
1244 4319
ihtiyacımız 4320
savundu 4321
gösterildi 4322
liğe 4323
miyor 4324
haftaki 4325
masa 4326
açılacak 4327
isimli 4328
edeceğiz 4329
öngörüyor 4330
ürün 4331
Kosteliç 4332
kararlar 4333
peki 4334
programları 4335
deprem 4336
yararlan@@ 4337
zamanla 4338
harcamaları 4339
hükümetinden 4340
elerin 4341
desteklenen 4342
turda 4343
eylemleri 4344
profesörü 4345
diğine 4346
çi 4347
anlaşmayla 4348
uydu 4349
projelerin 4350
ac@@ 4351
çabaların 4352
reddediyor 4353
ülkelerdeki 4354
güveni 4355
müdür 4356
dönen 4357
duyduğunu 4358
birer 4359
alara 4360
ir@@ 4361
statüsünün 4362
bölümünde 4363
eksiksiz 4364
öncesine 4365
başkanının 4366
vazgeç@@ 4367
mücadeleyi 4368
işini 4369
İslami 4370
tabi 4371
kurbanların 4372
ko 4373
kapasitesini 4374
inanılan 4375
anketler 4376
protestolar 4377
programının 4378
Mar@@ 4379
1980 4380
geçirdiği 4381
suça 4382
Katolik 4383
başla@@ 4384
sonuçlandı 4385
tütün 4386
DPS 4387
ık 4388
onayı 4389
gerçekleştirildi 4390
zanlılarını 4391
PIC 4392
bakanlığına 4393
yar@@ 4394
kan@@ 4395
Direktörü 4396
santral 4397
müzakerelerinde 4398
merkezinin 4399
seç@@ 4400
duyuyor 4401
korumaya 4402
seçimlerinden 4403
açıklandı 4404
hükümetten 4405
takımının 4406
lar@@ 4407
oylamada 4408
kilo 4409
yolları 4410
başkanlığına 4411
meyeceği 4412
Holkeri 4413
işadamı 4414
bakanlığın 4415
SNSD 4416
diplomatlar 4417
53 4418
savun@@ 4419
etrafında 4420
Konferansı 4421
düzenleyen 4422
kıyısındaki 4423
ur@@ 4424
gözlemci 4425
ANA 4426
verirken 4427
fabrikası 4428
acağız 4429
haberde 4430
getirilen 4431
kapsamındaki 4432
teklifi 4433
adamları 4434
dikleri 4435
kasabası 4436
şirketlerinin 4437
gitmek 4438
fiyatlar 4439
girmek 4440
KSF 4441
sporcu 4442
izle@@ 4443
azaltılması 4444
hasta 4445
adan 4446
Schwarz 4447
BSP 4448
Estonya 4449
özgürlüğünü 4450
teşekküllü 4451
ov 4452
açtığını 4453
Daha 4454
ordusu 4455
ısı 4456
Rasim 4457
oluşturmak 4458
programda 4459
kalacağını 4460
SDA 4461
pazarı 4462
inanıyoruz 4463
sabah 4464
Ivica 4465
fiili 4466
dahi 4467
39 4468
49 4469
uygulan@@ 4470
alarını 4471
başladılar 4472
komite 4473
programını 4474
vermişti 4475
makamların 4476
hal 4477
edecektir 4478
açmayı 4479
Papadopulos 4480
kategorisinde 4481
dılar 4482
ıldı 4483
kullanmak 4484
büyümeyi 4485
meseleyi 4486
Uygulama 4487
general 4488
merkeziyet 4489
durumlarda 4490
finansmanı 4491
Terziç 4492
diyaloğu 4493
cumhurbaşkanlığının 4494
sunmak 4495
ılmış 4496
işlem 4497
koordinatörü 4498
bağlayan 4499
değerli 4500
Kal@@ 4501
Racan 4502
inanılıyor 4503
Traykovski 4504
Euronews 4505
ıları 4506
2014 4507
kim 4508
santralinin 4509
devletinin 4510
aylarında 4511
Son 4512
suçlarıyla 4513
Partisinin 4514
uygulanacak 4515
askerlerin 4516
gerçekleştirilecek 4517
ebilir 4518
suçlarla 4519
Iraklı 4520
benzin 4521
Group 4522
intihar 4523
etkinliğin 4524
sahipler 4525
bildirildiğine 4526
eviç 4527
masaya 4528
gözardı 4529
nu 4530
eline 4531
52 4532
çıktığı 4533
görüyoruz 4534
fonları 4535
54 4536
Ermenistan 4537
değerlendirmek 4538
Foniki 4539
sok@@ 4540
bölgeden 4541
gerek@@ 4542
anma 4543
SRS 4544
kapsayacak 4545
liderin 4546
bağlamda 4547
istifasını 4548
hep 4549
çıkma 4550
yolun 4551
kay@@ 4552
töreni 4553
dönüş@@ 4554
gelirleri 4555
ü@@ 4556
Tarım 4557
değiller 4558
tanınması 4559
öneriyi 4560
the 4561
üstlen@@ 4562
çekme 4563
tersine 4564
git@@ 4565
savcıları 4566
olayda 4567
Ana 4568
Journal 4569
başbakanlık 4570
denetimi 4571
Birlikle 4572
siyasileri 4573
gücüne 4574
öldürülmesi 4575
man 4576
Yolsuzlukla 4577
man@@ 4578
artmasına 4579
değeri 4580
amaç 4581
sitesinde 4582
diklerini 4583
çabalarında 4584
kaydettiğini 4585
binin 4586
gerginlik 4587
Bölge 4588
bağlantısı 4589
kaç@@ 4590
görevleri 4591
mültecilerin 4592
Van 4593
başvuru 4594
af@@ 4595
siyasete 4596
yarattığı 4597
İş@@ 4598
dığını 4599
daydı 4600
Ege 4601
denk 4602
olmadığına 4603
toplumların 4604
tartış@@ 4605
öngörülen 4606
lüks 4607
Welle 4608
yat@@ 4609
temiz 4610
başlattığı 4611
merkezindeki 4612
Novak 4613
ımı 4614
orman 4615
mücadeleye 4616
kredisi 4617
uz@@ 4618
tarihlerinde 4619
Papa 4620
başlamasını 4621
Predrag 4622
işin 4623
sakin 4624
kazanması 4625
potansiyeli 4626
tümü 4627
900 4628
okula 4629
Financial 4630
MSK 4631
Ramazanoviç 4632
Ergenekon 4633
ter@@ 4634
Araştırmalar 4635
tahsis 4636
kapasitesi 4637
Sancak 4638
gelip 4639
alanlarındaki 4640
basit 4641
yasasının 4642
seviyesi 4643
kaldırmak 4644
evi 4645
Simeon 4646
durumunun 4647
li@@ 4648
çocuklara 4649
kapasitesine 4650
görüştüler 4651
72 4652
larımız 4653
Ashton 4654
resim 4655
işlerini 4656
hedefinin 4657
Yahudi 4658
üyeliğe 4659
dijital 4660
aklama 4661
aylar 4662
Simiç 4663
başlamasına 4664
harika 4665
BDP 4666
başarıyla 4667
turistlerin 4668
görüşü 4669
Ljubljana 4670
ağının 4671
fonların 4672
ajansının 4673
bekliyorlar 4674
dim 4675
Vlora 4676
NIS 4677
liğini 4678
57 4679
uzanan 4680
konudaki 4681
memiz 4682
Füle 4683
kesimindeki 4684
elverişli 4685
Svetla 4686
yen@@ 4687
yazısında 4688
binası 4689
elere 4690
büyükelçisi 4691
imkansız 4692
öz@@ 4693
95 4694
kapısı 4695
kuralları 4696
temsilcilerinin 4697
Wisner 4698
katılımcıların 4699
Europe 4700
parayı 4701
Bilgi 4702
sür@@ 4703
Eylem 4704
gecesi 4705
Haciç 4706
tahmini 4707
batı 4708
kullandığı 4709
ödemek 4710
girişimleri 4711
suikast 4712
ayrılmış 4713
Spiriç 4714
edebiyat 4715
siyasetçiler 4716
etmekten 4717
hedeflerini 4718
anla@@ 4719
reformlarını 4720
modernize 4721
Hava 4722
UNICEF 4723
Yunanlılar 4724
James 4725
tanesi 4726
Svetozar 4727
Rücker 4728
olmaz 4729
66 4730
reformunun 4731
ur 4732
ekonomisini 4733
kullanmaya 4734
ölümcül 4735
yönetimin 4736
tarihine 4737
Serbest 4738
anı 4739
stand 4740
işletme 4741
alım 4742
Arnavutça 4743
döneme 4744
Pamuk 4745
tehlike 4746
cumhurbaşkanları 4747
şiddete 4748
açmak 4749
kimi 4750
katılımının 4751
sanatçılar 4752
kaynaklarını 4753
cezalandır@@ 4754
şans 4755
tıpkı 4756
ödülünün 4757
planlandığı 4758
sonuçların 4759
firmaları 4760
sağlamayı 4761
patlak 4762
örgütler 4763
Hollandalı 4764
sonundan 4765
Sekerinska 4766
evlerine 4767
56 4768
genellikle 4769
ihtiyatlı 4770
adamı 4771
öğrencisi 4772
savcıların 4773
tutarında 4774
arıyor 4775
çıkmak 4776
krizle 4777
Alfred 4778
patlama 4779
kırmızı 4780
Boc 4781
makamlar 4782
ilişkilere 4783
Komsiç 4784
hisse 4785
taslak 4786
çalışırken 4787
açacağını 4788
belirlenmesi 4789
irade 4790
ilgilen@@ 4791
Bogdanoviç 4792
çelik 4793
Maria 4794
yöneticisi 4795
düzeyindeki 4796
isine 4797
Brezilya 4798
mal@@ 4799
firmanın 4800
bulmaya 4801
kalmayıp 4802
anlaşmaların 4803
çalışıyoruz 4804
İkili 4805
Gençlik 4806
nüfusa 4807
sürüyorlar 4808
ene 4809
farkla 4810
sürdürmek 4811
ikisinin 4812
konan 4813
Bugün 4814
kaybeden 4815
seçimi 4816
güçlerin 4817
engelle@@ 4818
yük 4819
gerisinde 4820
nitelikte 4821
imajını 4822
gelmesini 4823
lığını 4824
eğer 4825
krediyi 4826
geriye 4827
kalmaya 4828
esinde 4829
asıyla 4830
artıracak 4831
topladı 4832
takımın 4833
güçlendirmek 4834
başlamak 4835
Jelena 4836
konferansında 4837
alındığını 4838
atıl@@ 4839
ülkeleriyle 4840
kalmak 4841
veriler 4842
sağladığını 4843
tan@@ 4844
Hristofyas 4845
yurtdışındaki 4846
Burns 4847
Selimay 4848
devamı 4849
duydukları 4850
Yapılanma 4851
törenle 4852
kurulmuş 4853
boyu 4854
normale 4855
tarihini 4856
öğretmen 4857
Biljana 4858
finansal 4859
gönderme 4860
kuvvetlerinin 4861
Kon@@ 4862
yatırımcılara 4863
350 4864
salt 4865
ic@@ 4866
yurtdışına 4867
test 4868
başlatmak 4869
Kovaceviç 4870
ılar 4871
ecekler 4872
görüşlü 4873
almakla 4874
um@@ 4875
etmesinden 4876
kesintileri 4877
Müsteşarı 4878
amaz 4879
sar@@ 4880
yıldönümünü 4881
D 4882
yaparken 4883
d 4884
iktidarda 4885
sürdürülmesi 4886
ofisi 4887
caz 4888
gösterilen 4889
ismi 4890
1994 4891
tartışmak 4892
sıfır 4893
yaratıyor 4894
sağlan@@ 4895
önceliği 4896
Erlis 4897
l 4898
musunuz 4899
öneme 4900
güvenini 4901
unsur 4902
yık@@ 4903
düzenlenmesi 4904
Kermabon 4905
konumunu 4906
perakende 4907
yaşlı 4908
düzeni 4909
dünyaya 4910
koalisyonun 4911
yatırımın 4912
alıyordu 4913
yerlerde 4914
sunacak 4915
yetecek 4916
dıkları 4917
biliyor 4918
mayacağı 4919
mahkemede 4920
katılımın 4921
ış 4922
koyduğu 4923
konuya 4924
analisti 4925
ziyade 4926
rakamlar 4927
kazanmak 4928
leme 4929
Bitola 4930
veril@@ 4931
yaklaş@@ 4932
euroya 4933
cari 4934
bulunuyorlar 4935
yapılıyor 4936
süt 4937
uyor 4938
takdir 4939
olmalıdır 4940
bat@@ 4941
yatırımların 4942
Stratejik 4943
doğumlu 4944
geçir@@ 4945
savunuyorlar 4946
kesimi 4947
ekonomiye 4948
komşuluk 4949
kullanılması 4950
alardan 4951
itibariyle 4952
alındığı 4953
eş 4954
hükümetleri 4955
hoşgörü 4956
bulunma 4957
hoş 4958
kurul@@ 4959
to 4960
olaylarının 4961
muadili 4962
yaşamını 4963
sayısız 4964
bina 4965
suçlarından 4966
istatistik 4967
ilere 4968
şeffaflık 4969
hedefleyen 4970
sürecindeki 4971
ilerle 4972
geliş@@ 4973
ılmasını 4974
engellemek 4975
bildiriyor 4976
ce 4977
adayları 4978
beraat 4979
arkeoloji 4980
MPA 4981
müze 4982
Kosumi 4983
bölümünün 4984
varlık 4985
öldü 4986
şimdilerde 4987
uyarı 4988
adaylar 4989
ıcı 4990
edeceğine 4991
altıncı 4992
Çinli 4993
zirveye 4994
yardıma 4995
kontrolünü 4996
Kathimerini 4997
şair 4998
Steiner 4999
ekibinin 5000
mahkemesinde 5001
görme 5002
1,2 5003
yapmaları 5004
bağımsızlığına 5005
gerektiren 5006
ayrıl@@ 5007
görüyorlar 5008
Bürosu 5009
elerini 5010
kaz@@ 5011
atık 5012
boş 5013
çekildi 5014
kolayca 5015
dolaylı 5016
Fena 5017
tanın@@ 5018
eri 5019
özelleştirilmesi 5020
evlat 5021
almaları 5022
ov@@ 5023
dış@@ 5024
defalarca 5025
radyo 5026
Dimitrov 5027
kuruluşunun 5028
unsuru 5029
tutumu 5030
final 5031
Robertson 5032
63 5033
törene 5034
Rupel 5035
ezici 5036
statüsüne 5037
yenilenebilir 5038
hükümetlerin 5039
maaşları 5040
geçtiğini 5041
Müslümanlar 5042
varlığı 5043
sorunlardan 5044
ıldığını 5045
maz 5046
mas@@ 5047
sal@@ 5048
rejim 5049
yaşadı 5050
üyle 5051
Post 5052
programında 5053
aktar@@ 5054
nitelendirdiği 5055
inandığını 5056
seçilmiş 5057
gözlem 5058
performansı 5059
ilişkilerinde 5060
buluyor 5061
adımı 5062
ötesinde 5063
Vetevendosje 5064
yenerek 5065
hızlandır@@ 5066
Kore 5067
ıldığı 5068
belgeler 5069
sağlayarak 5070
engeller 5071
katına 5072
Çocuk 5073
vurgulayan 5074
güçlükler 5075
yapıldığı 5076
tatmin 5077
ecektir 5078
buçuk 5079
etkilenen 5080
taşıyacak 5081
Askeri 5082
san@@ 5083
başlatmaya 5084
anne 5085
ihlali 5086
firmaların 5087
iydi 5088
art@@ 5089
unut@@ 5090
sorunlu 5091
ağ@@ 5092
mobil 5093
edilmişti 5094
etkisini 5095
milyondan 5096
operasyonun 5097
projelerine 5098
ND 5099
reddeden 5100
Sezer 5101
larımızı 5102
ili 5103
130 5104
Ortak 5105
ilerlemesi 5106
Müdürlüğü 5107
Rasmussen 5108
halkını 5109
oranını 5110
yüzyıl 5111
zamanının 5112
dır 5113
ilerden 5114
yaratma 5115
dans 5116
sekreteri 5117
tablo 5118
devraldı 5119
yazdı 5120
Bütün 5121
it 5122
güçlerini 5123
geçmişi 5124
J@@ 5125
oranına 5126
zirvesine 5127
dık 5128
ölçekli 5129
ilişkilerinin 5130
sahiptir 5131
58 5132
koruyor 5133
lama 5134
liderlerle 5135
Girişimi 5136
edin@@ 5137
kazanma 5138
siyasetçi 5139
koruması 5140
Planı 5141
kaybettiği 5142
Çevre 5143
vermesini 5144
gelişmekte 5145
iklim 5146
katılımıyla 5147
çıkarak 5148
Tiyatro 5149
gelmesine 5150
Bunun 5151
parlamentosunun 5152
belirlemek 5153
idir 5154
fabrika 5155
soruşturmanın 5156
tane 5157
eğitimli 5158
Christian 5159
çalışanların 5160
bulunmuyor 5161
seçil@@ 5162
undaki 5163
hızlandırmaya 5164
söylemek 5165
oyuncusu 5166
savcısı 5167
lerimiz 5168
Bar@@ 5169
artırmayı 5170
açığının 5171
hızlandırmak 5172
oyuncular 5173
satışı 5174
ılacak 5175
malıyız 5176
Djukanoviç 5177
Ahmeti 5178
duyur@@ 5179
ıma 5180
coğrafi 5181
getiril@@ 5182
kır@@ 5183
münferit 5184
attığı 5185
hükümetiyle 5186
tren 5187
hata 5188
sayfalık 5189
kazanarak 5190
hazırlanması 5191
zarara 5192
bariz 5193
dıklarını 5194
sağlay@@ 5195
Japon 5196
iflas 5197
anoviç 5198
em@@ 5199
olasılığının 5200
düşünüyoruz 5201
vatandaşın 5202
uygulanmasında 5203
3,5 5204
davran@@ 5205
aileleri 5206
muhalif 5207
olurdu 5208
yolsuzluğu 5209
tutuklanan 5210
temsilcileriyle 5211
fonu 5212
acağından 5213
malları 5214
kork@@ 5215
savaştan 5216
Gaşi 5217
Street 5218
beklendiğini 5219
çekilmesi 5220
bankaların 5221
sının 5222
babası 5223
ünde 5224
edebilir 5225
turistik 5226
Boskovski 5227
Mircea 5228
sizin 5229
Tito 5230
görevlileri 5231
özür 5232
meclisteki 5233
ilerini 5234
grev 5235
İmparatorluğu 5236
gün@@ 5237
etmemesi 5238
teröre 5239
yer@@ 5240
anlaşmasına 5241
gösteril@@ 5242
Prag 5243
medyada 5244
şüphelenilen 5245
van 5246
Kurtuluş 5247
geçirilen 5248
Mediafax 5249
kapılarını 5250
anlaşmazlıklar 5251
ız 5252
açıkla@@ 5253
atıyor 5254
ö@@ 5255
ziyaretçi 5256
etkilen@@ 5257
hesap 5258
öz 5259
bakanın 5260
Romanlar 5261
haberinde 5262
bağış@@ 5263
faaliyetlerinin 5264
kaynaklarının 5265
hazırlanmış 5266
Baş@@ 5267
fonlarının 5268
Cenevre 5269
belirle@@ 5270
Koridor 5271
model 5272
diğinde 5273
yargıç 5274
durdur@@ 5275
Yerel 5276
kaynaklardan 5277
çağırıyor 5278
tepkiler 5279
içer@@ 5280
Sovyet 5281
110 5282
os@@ 5283
başvurusunu 5284
Litvanya 5285
us 5286
kullanılıyor 5287
Rompres 5288
bulunmuştu 5289
tarafında 5290
günün 5291
askerlik 5292
ılara 5293
rahatsız 5294
birleş@@ 5295
hakaret 5296
ihtilafının 5297
medyaya 5298
kuruluşun 5299
mesajı 5300
sene 5301
demokrasinin 5302
Ağı 5303
alarıyla 5304
doktorlar 5305
savunan 5306
kuzeyinde 5307
mayla 5308
çabayı 5309
İcra 5310
sıraya 5311
ımızın 5312
ilerlemesini 5313
ziyaretini 5314
diyaloğun 5315
INA 5316
isimler 5317
sürdürdüğü 5318
Oliver 5319
aralarındaki 5320
herkese 5321
bağlayıcı 5322
CEO 5323
ziyaretinin 5324
anlat@@ 5325
68 5326
10@@ 5327
öldürüldüğü 5328
bayan 5329
bölgeleri 5330
anlamı 5331
erteleme 5332
bayrağı 5333
yapmakla 5334
İdari 5335
taş@@ 5336
lay@@ 5337
basketbol 5338
Emil 5339
çiz@@ 5340
yarışı 5341
şeker 5342
eksik 5343
merkezine 5344
iyordu 5345
anlatıyor 5346
istiyorsa 5347
topraklarının 5348
geleceğine 5349
tamamlamak 5350
üçü 5351
ger@@ 5352
ticaretin 5353
ja 5354
AIDS 5355
götür@@ 5356
Kopenhag 5357
geçmesine 5358
politikalar 5359
melerinin 5360
cinsel 5361
sonuçlanan 5362
çıktığını 5363
diğimiz 5364
görüşmelerinin 5365
yürütme 5366
herşeyi 5367
İzleme 5368
ünden 5369
avukatı 5370
eylemi 5371
deyimiyle 5372
ab@@ 5373
seçilmesi 5374
makul 5375
78 5376
söylerken 5377
araştır@@ 5378
ılmasına 5379
abil@@ 5380
dönüşü 5381
up 5382
gösterileri 5383
sınıf 5384
size 5385
gösterecek 5386
isinde 5387
ifadesinin 5388
İdaresi 5389
Condoleezza 5390
atma 5391
gücün 5392
suçlardan 5393
gelişim 5394
niyet 5395
buldular 5396
gelmek 5397
kanıtı 5398
ilerliyor 5399
yaşandığı 5400
yarattı 5401
Parlamenterler 5402
sağlandı 5403
idam 5404
çıkarına 5405
Sanayi 5406
Andy 5407
desteğine 5408
W@@ 5409
Frank 5410
Çalışma 5411
gösterisi 5412
görüldüğü 5413
enerjisi 5414
ımızı 5415
vurguladılar 5416
tutulan 5417
ıyoruz 5418
standartlarının 5419
kapsıyor 5420
sürdürmesi 5421
ümit 5422
düşürdü 5423
kazandılar 5424
analiz 5425
140 5426
yaklaşmakta 5427
başarısı 5428
osu 5429
kınadı 5430
akaryakıt 5431
dikten 5432
olmuştur 5433
katılanlar 5434
Makedonlar 5435
yansıtıyor 5436
arasından 5437
çalışanlarının 5438
bölünme 5439
ellerinde 5440
uyguladığı 5441
bağlayacak 5442
durumdalar 5443
başlayacağını 5444
iddialı 5445
listesine 5446
ulustan 5447
yayınladıkları 5448
zamana 5449
taş 5450
temas 5451
notu 5452
beklemek 5453
değiştirmek 5454
lığa 5455
ayrıldı 5456
devletler 5457
sonuca 5458
tüketici 5459
yapılmasına 5460
edilmesinin 5461
bağlantıları 5462
veri 5463
ölü 5464
korun@@ 5465
büyümesi 5466
Cokoviç 5467
yakalan@@ 5468
alarla 5469
gününde 5470
Er@@ 5471
ateşli 5472
çözümler 5473
ha@@ 5474
yeraltı 5475
demek 5476
sayede 5477
olayla 5478
Mal@@ 5479
Aziz 5480
çoğunu 5481
yay@@ 5482
genişle@@ 5483
desteklediği 5484
mühimmat 5485
çoğunluğunu 5486
nokta 5487
yürütüyor 5488
bomba 5489
ses 5490
ayla 5491
Anlaşmasını 5492
Prodi 5493
söylemişti 5494
kapatma 5495
Nine 5496
güneydoğu 5497
yasalarını 5498
başlamış 5499
uzmanların 5500
yardımın 5501
şeyleri 5502
nedenlerden 5503
icra 5504
Strazburg 5505
ılarak 5506
döneminden 5507
Gümrük 5508
faaliyetlerin 5509
tesisi 5510
rock 5511
ilerletmek 5512
dağ@@ 5513
gölge 5514
ulaşım 5515
rejimini 5516
belediyeler 5517
ladı 5518
malarının 5519
temsilcilerin 5520
listede 5521
yönetimini 5522
mirası 5523
ettiklerini 5524
yorum@@ 5525
memur 5526
yatırımcıları 5527
başarısızlıkla 5528
inşasına 5529
oluşturduğunu 5530
Lazarova 5531
yapılarına 5532
kapasiteye 5533
tahliye 5534
Bamir 5535
üyeliğin 5536
Hukuk 5537
dayanışma 5538
ekonomisine 5539
uygulamasının 5540
bar@@ 5541
y 5542
atmaya 5543
ş 5544
anlara 5545
puanı 5546
Dink 5547
meydan 5548
belediyesi 5549
Kriz 5550
değerlendirdi 5551
paylaş@@ 5552
Brajshori 5553
der 5554
akın 5555
çocuğun 5556
övgü 5557
Daianu 5558
SDS 5559
değişiyor 5560
ortamda 5561
tekstil 5562
BTA 5563
partilere 5564
Eroğlu 5565
firmalar 5566
kamuoyunda 5567
politikalarını 5568
ihtiyaçları 5569
onlarca 5570
noktasına 5571
alıcı 5572
milyonluk 5573
pazar@@ 5574
yapıl@@ 5575
64 5576
eceklerini 5577
görüşünü 5578
bulunmasına 5579
adayların 5580
hedef@@ 5581
milletvekilinin 5582
İstihbarat 5583
ilerinin 5584
ia 5585
1.@@ 5586
alt@@ 5587
çıkış 5588
hedefler 5589
etkileyici 5590
C 5591
makamlarını 5592
katılmasını 5593
gerekiyordu 5594
şiddetin 5595
referandumu 5596
61 5597
hiçbiri 5598
SPS 5599
bebek 5600
kendileri 5601
sız 5602
bizzat 5603
karşılama 5604
Havaalanı 5605
diğeri 5606
kitabı 5607
St. 5608
kullanım 5609
gelişmeleri 5610
amayacağını 5611
durumla 5612
Kitap 5613
ül@@ 5614
lerimizi 5615
af 5616
gitmesi 5617
Radovanoviç 5618
bekliyorum 5619
seyirci 5620
Hersekli 5621
eleme 5622
açıkladılar 5623
gösteriler 5624
kentte 5625
İsrailli 5626
görmüş 5627
Yılmaz 5628
tar@@ 5629
zaferi 5630
dörtte 5631
sonuçlarına 5632
binasının 5633
odaklan@@ 5634
referandumda 5635
maktır 5636
Yap@@ 5637
düzenleniyor 5638
değiştir@@ 5639
Focus 5640
ıyorum 5641
Mali 5642
edileceğini 5643
67 5644
kaçınılmaz 5645
fiyatlarının 5646
organizasyon 5647
pazarının 5648
gereksiz 5649
taşı 5650
davalar 5651
sanmıyorum 5652
karşılaştığı 5653
adaylığı 5654
istikrarını 5655
davasında 5656
üyeler 5657
bilgiye 5658
katılarak 5659
Seselj 5660
kıs@@ 5661
yirmi 5662
rakamlara 5663
ımın 5664
liberal 5665
üyeleriyle 5666
kadınlara 5667
umuduyla 5668
geçmek 5669
metreküp 5670
yapısı 5671
binanın 5672
varsa 5673
meselenin 5674
bakıldığında 5675
suçlamada 5676
yararına 5677
bakım 5678
konumda 5679
Gazeteciler 5680
Diyarbakır 5681
projesini 5682
r 5683
işgal 5684
şok 5685
yüzyıldan 5686
faaliyetler 5687
başvuruda 5688
rejimin 5689
ölümüne 5690
hedeflere 5691
saldırının 5692
sistemleri 5693
açılmasını 5694
kolaylaştır@@ 5695
EIB 5696
Edi 5697
planında 5698
insanı 5699
vatandaşlık 5700
asından 5701
dernek 5702
dolaşım 5703
ihracatı 5704
görül@@ 5705
konferansına 5706
endişeler 5707
Lavrov 5708
kaynaklara 5709
Dr. 5710
fazlasının 5711
potansiyeline 5712
59 5713
makamlarına 5714
ebileceğini 5715
Wall 5716
kabinenin 5717
istikrarsızlık 5718
evde 5719
faaliyetlerine 5720
alarından 5721
ufak 5722
Ivanov 5723
EXIT 5724
atması 5725
etkilerini 5726
cezalar 5727
Brcko 5728
ışığına 5729
alkol 5730
Romanların 5731
be@@ 5732
merkezleri 5733
iadesi 5734
ırsa 5735
giriş@@ 5736
tik 5737
sürülüyor 5738
gerekirse 5739
engelleri 5740
hizmetler 5741
Basın 5742
katliamı 5743
statüsüyle 5744
CoE 5745
Beyaz 5746
Yunanlı 5747
Coburg 5748
tır 5749
yangın 5750
çıkart@@ 5751
etmeyeceğini 5752
arz 5753
programlar 5754
uzat@@ 5755
iler@@ 5756
Saxe 5757
çocuğu 5758
demokrat 5759
entegrasyonuna 5760
ler@@ 5761
dar@@ 5762
oybirliğiyle 5763
Mil@@ 5764
kaliteli 5765
Hırvatların 5766
yaşan@@ 5767
74 5768
yapmakta 5769
iniz 5770
devreye 5771
köy 5772
görünüm 5773
ulaşması 5774
kamuoyunun 5775
konunun 5776
Araştırmaları 5777
askerî 5778
kapasite 5779
Bekiri 5780
onur 5781
saatler 5782
not 5783
Kongresi 5784
bulunuyordu 5785
nüfuz 5786
partiye 5787
yasasında 5788
1974 5789
sorunuyla 5790
acakları 5791
inşaatı 5792
zanlılar 5793
ülkesini 5794
eylemler 5795
bulundukları 5796
faydalan@@ 5797
rekabetçi 5798
uygulamasına 5799
abiliyor 5800
standartlar 5801
varlığının 5802
reklam 5803
Airlines 5804
deneyim 5805
felaket 5806
nevi 5807
Devletleri 5808
sev@@ 5809
ortakları 5810
teşkilatının 5811
yüzyılın 5812
tanı@@ 5813
mahkemelerin 5814
vermesine 5815
birbirinden 5816
etkinlikler 5817
Fatos 5818
talebini 5819
ılacağını 5820
değiştirmeye 5821
Simitis 5822
dur 5823
oluş@@ 5824
yetkilinin 5825
etmiyor 5826
izlemek 5827
partiyi 5828
ortamını 5829
Filistin 5830
Sırpça 5831
öneriler 5832
kararlarını 5833
savunmasız 5834
84 5835
69 5836
tuttu 5837
politik 5838
artışa 5839
yapacakları 5840
Kaletoviç 5841
Özelleştirme 5842
yönetmeni 5843
parlak 5844
Şu 5845
eyi 5846
yarışma 5847
sağladılar 5848
Gordana 5849
meselelerin 5850
duruşma 5851
fikirde 5852
plastik 5853
duruyor 5854
Bel@@ 5855
atılması 5856
hazırladı 5857
beklediği 5858
açması 5859
Koha 5860
görüşmenin 5861
ailenin 5862
Sutanovac 5863
bini 5864
2015 5865
kalp 5866
iddialarını 5867
2020 5868
Struga 5869
şirketlere 5870
eleştiren 5871
sembolik 5872
kişiden 5873
habere 5874
sağla@@ 5875
özerk 5876
önerisinde 5877
bütçesini 5878
denetleme 5879
lenen 5880
tüketim 5881
erişimi 5882
Nikolay 5883
ziyaretçiler 5884
ayrılması 5885
kadının 5886
devralacak 5887
kurduğu 5888
Yasası 5889
sonrasındaki 5890
hak@@ 5891
iden 5892
bürosu 5893
bütçesinin 5894
Coviç 5895
genelkurmay 5896
gayrı 5897
4,5 5898
i- 5899
istediklerini 5900
cezaları 5901
çıkmaya 5902
otur@@ 5903
Telegraph 5904
açıl@@ 5905
inceleme 5906
tasar@@ 5907
eriyor 5908
gönderilen 5909
oynayan 5910
orijinal 5911
ICG 5912
özelliğini 5913
Gabriel 5914
soğuk 5915
gerçeği 5916
lise 5917
Ay@@ 5918
malarından 5919
büyüklükteki 5920
seviyeye 5921
sınırın 5922
liste 5923
yapıyorlar 5924
esinden 5925
faal 5926
tanınıyor 5927
enler 5928
toplamda 5929
uygula@@ 5930
meslektaşı 5931
liderlerini 5932
gider@@ 5933
World 5934
Petroviç 5935
yakalanması 5936
kişileri 5937
beyan 5938
kaydeden 5939
nitelendirerek 5940
partiden 5941
kimliği 5942
Standard 5943
seçmek 5944
çekil@@ 5945
Fiat 5946
mahkemeler 5947
imizi 5948
başkanlığında 5949
cinsiyet 5950
açıklamalarda 5951
öğrencileri 5952
kullanımını 5953
başbakanları 5954
destekleyecek 5955
1,3 5956
Adnan 5957
Özgürlük 5958
yıl@@ 5959
eğ@@ 5960
sanıkların 5961
Milos 5962
taleplerini 5963
ağını 5964
mantıklı 5965
atan 5966
isinden 5967
Parlamento 5968
Petrov 5969
1,6 5970
Ardi 5971
odak 5972
Bedrana 5973
içeriyor 5974
tamamlan@@ 5975
koşulların 5976
programa 5977
krediler 5978
kapasitesinin 5979
başlay@@ 5980
San@@ 5981
olmalarına 5982
vermekle 5983
Pulaj 5984
Stefanoviç 5985
konuların 5986
görev@@ 5987
yasama 5988
tanım@@ 5989
çözmeye 5990
etmesinin 5991
day@@ 5992
gez@@ 5993
ış@@ 5994
g 5995
EUobserver 5996
dik@@ 5997
hemfikir 5998
Türkleri 5999
sular 6000
yapmasına 6001
men@@ 6002
ıya 6003
bağ@@ 6004
balıkçılık 6005
gözaltında 6006
ri@@ 6007
komutan 6008
komutası 6009
madaki 6010
üste 6011
olmanın 6012
Çok 6013
miktarı 6014
yaşamı 6015
öldürüldü 6016
yedek 6017
Popoviç 6018
yasağı 6019
görün@@ 6020
İzmir 6021
mülk 6022
yoktu 6023
yiyecek 6024
dürüst 6025
alar@@ 6026
yaşama 6027
yol@@ 6028
Öz@@ 6029
yapıları 6030
hastane 6031
ilerleyen 6032
Powell 6033
edebileceğini 6034
ola@@ 6035
ihtiyaçlarını 6036
koordinasyon 6037
kuvvetler 6038
kurtar@@ 6039
Deniz 6040
bulunurken 6041
180 6042
belgesel 6043
hissesi 6044
hazırlan@@ 6045
gösterme 6046
ter 6047
Misyonu 6048
Tüzüğü 6049
bizler 6050
çalışanı 6051
Kor@@ 6052
Gün@@ 6053
yasalarına 6054
pazarlama 6055
kabinesi 6056
liğinin 6057
önlenmesi 6058
devriye 6059
kapatılması 6060
kalmasını 6061
öğrencilere 6062
çıkmasına 6063
MW 6064
tasarıyı 6065
adının 6066
doldur@@ 6067
ayının 6068
DNA 6069
ık@@ 6070
klasik 6071
aileler 6072
uğradığı 6073
güvenliğin 6074
aradaki 6075
verdik 6076
Elektrik 6077
Suç 6078
düzenle@@ 6079
gündemde 6080
çıkarıl@@ 6081
Medvedev 6082
umudunu 6083
kaynaklı 6084
Ramuş 6085
Türklerin 6086
işbirliğinde 6087
II 6088
Kabashi 6089
geldiğinde 6090
dığına 6091
kişilere 6092
işbirliğinden 6093
söylemekle 6094
haberleri 6095
işadamları 6096
modernizasyonu 6097
araştırmaya 6098
.. 6099
çoğunlukta 6100
Orhan 6101
Blair 6102
yöndeki 6103
yetkililerine 6104
am 6105
balık 6106
maların 6107
Doları 6108
önerdiği 6109
sergiledi 6110
tutul@@ 6111
eceğiz 6112
eğilimi 6113
JAT 6114
ebilecek 6115
umuz 6116
arttığını 6117
ondan 6118
eve 6119
eti 6120
olacaklar 6121
sağ@@ 6122
sonuçlarının 6123
Milli 6124
tığını 6125
başvurusunda 6126
ilerlemesine 6127
birliğine 6128
şahıs 6129
gönderil@@ 6130
Beth 6131
çekmeye 6132
istemiyor 6133
seçme 6134
Kadın 6135
yakınında 6136
eyalete 6137
sürdürdüğünü 6138
hesap@@ 6139
filmler 6140
bölgesinden 6141
karış@@ 6142
toplan@@ 6143
han@@ 6144
çalışmaların 6145
liyor 6146
Muammer 6147
id@@ 6148
dönüşüm 6149
sa@@ 6150
yazdığı 6151
ser@@ 6152
uç@@ 6153
par@@ 6154
çabalara 6155
Fatih 6156
eceğinden 6157
yarar 6158
elerine 6159
planlama 6160
safhasında 6161
dost 6162
soldan 6163
referanduma 6164
kentine 6165
gerçekleşiyor 6166
değerindeki 6167
KESH 6168
girme 6169
paketini 6170
yenileme 6171
diz@@ 6172
Sava 6173
olmamakla 6174
kullanımına 6175
soktu 6176
belirt@@ 6177
kapı 6178
kü@@ 6179
landı 6180
hi@@ 6181
Albert 6182
servis 6183
zorundayız 6184
kimyasal 6185
uğradı 6186
koyuyor 6187
örgüte 6188
referandumun 6189
komünizmin 6190
Özgür 6191
lığın 6192
hızlandırılması 6193
tasarı 6194
lamaya 6195
ettiğine 6196
dendi 6197
gelmiştir 6198
sergilediği 6199
bilet 6200
sundular 6201
parça 6202
keskin 6203
operasyonları 6204
sektörde 6205
misyonuna 6206
suçlamaların 6207
Karşı 6208
kaçakçılıkla 6209
Budapeşte 6210
yolunun 6211
karşılıyor 6212
göstermektedir 6213
komünizm 6214
artarak 6215
Miller 6216
hükümette 6217
geleneklerini 6218
tur@@ 6219
elerinin 6220
ilki 6221
tamamını 6222
alanlardaki 6223
83 6224
isiyle 6225
hakimler 6226
talimatı 6227
kararlılık 6228
verip 6229
suçluların 6230
sayım 6231
noktaya 6232
76 6233
ıların 6234
Novosti 6235
Sasa 6236
Caviç 6237
olaydan 6238
Madrid 6239
beklen@@ 6240
Biden 6241
Miroljub 6242
alınıyor 6243
birliğin 6244
gruba 6245
öldürülen 6246
Holding 6247
raporunun 6248
birbirlerine 6249
Corceviç 6250
acaklarını 6251
dışına 6252
81 6253
yendi 6254
Anayasası 6255
diğerlerinin 6256
elerden 6257
bulunmaya 6258
geleceğinin 6259
yayınlandı 6260
kim@@ 6261
denli 6262
kampanyanın 6263
önlemleri 6264
termik 6265
sine 6266
mallarının 6267
ilgisini 6268
yapılacağını 6269
firmasının 6270
Foniqi 6271
çeyreğinde 6272
adaletin 6273
Poor 6274
ziyaretin 6275
Rahibe 6276
haklar 6277
seviyesini 6278
alarında 6279
sözler 6280
aylarca 6281
sağlayacaktır 6282
tutuklan@@ 6283
lerse 6284
standart 6285
Priştineli 6286
kavuş@@ 6287
verildiği 6288
maçı 6289
artışın 6290
Fried 6291
vermedi 6292
bulunacağını 6293
göstericiler 6294
sivillere 6295
mektir 6296
sözünü 6297
Sarayı 6298
layan 6299
baskısı 6300
kadarki 6301
eğitime 6302
bildir@@ 6303
ilerinden 6304
Razvan 6305
ölümü 6306
Kabaşi 6307
teknolojik 6308
dolaş@@ 6309
Radmanoviç 6310
atıldı 6311
belirsizlik 6312
77 6313
imizin 6314
nakit 6315
mutlu 6316
Türklerinin 6317
sürerken 6318
cezaevi 6319
çatışmaların 6320
sağlamanın 6321
serbestleştirme 6322
edebil@@ 6323
tutma 6324
Monitor 6325
AAK 6326
Geleceği 6327
Mlacan 6328
çıkmaz 6329
ilgilendiren 6330
ettik 6331
iyileş@@ 6332
yükümlü 6333
Nicolas 6334
Ljiljana 6335
bit@@ 6336
Feith 6337
politikasına 6338
dünyasının 6339
kaygılarını 6340
yarış@@ 6341
160 6342
edecekler 6343
Kariç 6344
öde@@ 6345
ap@@ 6346
hat@@ 6347
ellerinden 6348
konumu 6349
belirleyici 6350
getireceğini 6351
umuyorum 6352
konsorsiyum 6353
T 6354
yönettiği 6355
yöneltilen 6356
düşünülen 6357
ajansına 6358
Yorgos 6359
tedbirlerini 6360
açıkladığı 6361
Kur@@ 6362
yetkilileriyle 6363
Teknik 6364
sınırında 6365
Zannier 6366
reddederek 6367
bes@@ 6368
çıkarmaya 6369
Hazar 6370
engel@@ 6371
ihaleyi 6372
ün@@ 6373
vur@@ 6374
RTK 6375
türban 6376
geçtiği 6377
suya 6378
ilkelerine 6379
abilmesi 6380
tavsiyede 6381
+ 6382
tarafta 6383
şansının 6384
kurbanı 6385
çetin 6386
ebileceği 6387
eşsiz 6388
aktör 6389
Sekreter 6390
Gölü 6391
kaldırmaya 6392
iddianame 6393
savaş@@ 6394
suç@@ 6395
gelirken 6396
Katar 6397
İskender 6398
mama 6399
kalanı 6400
Meydanı 6401
Mark 6402
yapıldığını 6403
ınca 6404
82 6405
gençlik 6406
verileceğini 6407
Hoca 6408
anısına 6409
ovski 6410
getirmeyi 6411
liğine 6412
arkadaşı 6413
televizyonu 6414
şartlarından 6415
Entegrasyon 6416
satışa 6417
çıkaran 6418
Karolos 6419
Katılım 6420
geçirildi 6421
dairenin 6422
konferansın 6423
oylamanın 6424
pilot 6425
entegre 6426
piyasaya 6427
Yıl 6428
olamaz 6429
vermeleri 6430
ordusunun 6431
şartlı 6432
görünen 6433
başkanlığının 6434
eyaleti 6435
çalışmalara 6436
ileride 6437
do@@ 6438
ayrılıkçı 6439
ci@@ 6440
Bitiki 6441
kararından 6442
amadı 6443
ı- 6444
tasarısı 6445
gittiğini 6446
Jacques 6447
cumhuriyetin 6448
sevk 6449
harcanacak 6450
subay 6451
konularını 6452
üstü 6453
zirvenin 6454
akla 6455
Derviş 6456
pop 6457
geçiril@@ 6458
Nicholas 6459
talepleri 6460
sunması 6461
aylardır 6462
bildirilen 6463
oylamaya 6464
değiştirilmesi 6465
yönetimine 6466
saldırıya 6467
olaylarına 6468
etkiliyor 6469
derneği 6470
kaçakçılığıyla 6471
Tassos 6472
Küresel 6473
foruma 6474
öncelikler 6475
kısıtlamalar 6476
azınlıklar 6477
Burada 6478
ildi 6479
olağan 6480
sürdüler 6481
tatbikat 6482
borçlarını 6483
kararla 6484
biyolojik 6485
Mahkemesiyle 6486
PACE 6487
işletmelerin 6488
çalışacağını 6489
demir 6490
sürülen 6491
Zemun 6492
etkileyecek 6493
yansıt@@ 6494
biyometrik 6495
ilişkisi 6496
dönüm 6497
Korgeneral 6498
şartlarının 6499
tarafa 6500
doğusundaki 6501
M 6502
bine 6503
kuruluşlar 6504
bütçenin 6505
kalitesini 6506
elerle 6507
araçları 6508
televizyonuna 6509
Organize 6510
askerin 6511
ör@@ 6512
lehinde 6513
merkezin 6514
sporcular 6515
uncu 6516
döneminin 6517
buluş@@ 6518
0,@@ 6519
uzmanlara 6520
prosedürleri 6521
h 6522
alarda 6523
protestocular 6524
Holbrooke 6525
yanıt@@ 6526
18@@ 6527
Rompuy 6528
toplumuna 6529
eser 6530
ılımlı 6531
listesi 6532
nefret 6533
güce 6534
köşe 6535
gelmesinden 6536
beraberinde 6537
ayak 6538
egemenlik 6539
sürdüren 6540
fırsatlar 6541
Süreci 6542
dar 6543
ömür 6544
arttığı 6545
dostluk 6546
sandalyeli 6547
no 6548
El@@ 6549
yıkıcı 6550
etrafındaki 6551
belirleyecek 6552
sınav 6553
meselesinin 6554
yapacağız 6555
se@@ 6556
tecavüz 6557
ECB 6558
Kampschror 6559
sunmaya 6560
dediler 6561
okullar 6562
sorguya 6563
kalmadı 6564
söylentiler 6565
Moody 6566
ılmasının 6567
eleştir@@ 6568
anların 6569
hakimlerin 6570
duyurdular 6571
zulüm 6572
pasaport 6573
oluşturdu 6574
irler 6575
ötesine 6576
durdurmak 6577
gruplarının 6578
dıktan 6579
katkılarıyla 6580
hayatı 6581
önle@@ 6582
çalışanlar 6583
j 6584
20. 6585
tesisleri 6586
yalanladı 6587
çocuklarının 6588
amaca 6589
olmamasına 6590
düşmesi 6591
sorunlarının 6592
saldırıların 6593
yılını 6594
-ki 6595
değerleri 6596
Martin 6597
imkanı 6598
jüri 6599
tesisin 6600
istismar 6601
kokain 6602
çıkmış 6603
gönderildi 6604
du@@ 6605
tamamlama 6606
Pahor 6607
kuvvet 6608
güç@@ 6609
ge@@ 6610
geçirmesi 6611
incele@@ 6612
kız@@ 6613
haftada 6614
hayvan 6615
ebil@@ 6616
atılacak 6617
ekonomistler 6618
Insight 6619
Mitev 6620
ata 6621
amaması 6622
sandalyelik 6623
liğin 6624
örgütlerinin 6625
Vesna 6626
Ohrid 6627
ılacağı 6628
bertaraf 6629
gidip 6630
yakıt 6631
elerde 6632
maç 6633
Yargı 6634
muhalefeti 6635
mamak 6636
FENA 6637
eserleri 6638
Papuliyas 6639
Bulgarlar 6640
kalacağı 6641
vaatlerini 6642
Ivanoviç 6643
ters 6644
teşhis 6645
Baş 6646
esiyle 6647
karşıladılar 6648
direktör 6649
1@@ 6650
usta 6651
artırması 6652
abilmek 6653
zor@@ 6654
Kulübü 6655
olanakları 6656
işlerin 6657
bünyesindeki 6658
silahlar 6659
tanıma 6660
kredinin 6661
sürdüreceğini 6662
düzenlemeler 6663
haksız 6664
Üyelik 6665
ilen 6666
parlamentodaki 6667
temizleme 6668
subayı 6669
dü 6670
generalin 6671
organı 6672
nakli 6673
açıktır 6674
Milenkoviç 6675
onayla@@ 6676
borcunu 6677
yatan 6678
geleceğiyle 6679
gribi 6680
gözle 6681
ere 6682
yüzyılda 6683
nedenleri 6684
eleştirilerine 6685
uygulamaları 6686
lü 6687
yetkililerden 6688
da@@ 6689
saha 6690
bulunmuş 6691
bedeli 6692
sınır@@ 6693
belirledi 6694
Kış 6695
gösterilmesi 6696
Srbija 6697
girmeye 6698
S 6699
kor@@ 6700
cu 6701
olmayacağı 6702
işletmeler 6703
kentsel 6704
Ver@@ 6705
güneydeki 6706
gergin 6707
ica 6708
sınırlarını 6709
Pekusiç 6710
kaybet@@ 6711
başındaki 6712
kanıtlar 6713
operasyonda 6714
saatlerinde 6715
Libyalı 6716
Ödülünü 6717
tarzı 6718
ertele@@ 6719
uyarısında 6720
ecekleri 6721
arsa 6722
yatır@@ 6723
karşılay@@ 6724
G 6725
yetkileri 6726
ilanından 6727
toplayan 6728
ıyı 6729
harcamalarını 6730
Man@@ 6731
esnek 6732
psikolojik 6733
Teresa 6734
liderlere 6735
endişeyi 6736
Necdet 6737
köyü 6738
masıdır 6739
yakalamak 6740
sürdür@@ 6741
açıklıyor 6742
görüşleri 6743
tiç 6744
karşılan@@ 6745
yetkilerini 6746
günümüz 6747
Kürtlerin 6748
işlevsel 6749
attılar 6750
suçlandı 6751
değiştirme 6752
bi 6753
sözlerinin 6754
tir 6755
işine 6756
uyruklu 6757
ama@@ 6758
Lukoviç 6759
ruhsat 6760
ağ 6761
tasarının 6762
kitabın 6763
ayr@@ 6764
yapmıştı 6765
2,@@ 6766
ok@@ 6767
tedarik 6768
aff@@ 6769
vurularak 6770
siyaseti 6771
halk@@ 6772
kurallar 6773
istenen 6774
muhafazakâr 6775
ulaşma 6776
niteliği 6777
Thaci 6778
arken 6779
Drazen 6780
ailesine 6781
1.500 6782
koş@@ 6783
kaldırdı 6784
maaşlarını 6785
tür@@ 6786
reformlarda 6787
trafiği 6788
Olympic 6789
korkunç 6790
silahların 6791
uyarıyor 6792
suçluyor 6793
ürünler 6794
üstünlüğünü 6795
düzenlemeyi 6796
min 6797
noktaları 6798
cevap 6799
taraftarlar 6800
katılımına 6801
olaya 6802
artırarak 6803
taşıma 6804
gözler 6805
dergisi 6806
73 6807
amadığı 6808
girdiği 6809
Medya 6810
ilerlemeler 6811
emrini 6812
Proeski 6813
konuma 6814
Petkoviç 6815
beldesi 6816
davasının 6817
Bakanlığının 6818
soruştur@@ 6819
Or@@ 6820
girmiş 6821
serbestçe 6822
çapındaki 6823
Operasyonu 6824
açılışı 6825
tek@@ 6826
eleştirenler 6827
Matthew 6828
vurguluyor 6829
kentinin 6830
haklarında 6831
sıklıkla 6832
diren@@ 6833
samimi 6834
açmaya 6835
gecikme 6836
Samarciç 6837
dille 6838
Novinite 6839
Per@@ 6840
birisinin 6841
ayır@@ 6842
tığı 6843
işçiler 6844
yükseltti 6845
şeyden 6846
aldık 6847
azaldı 6848
toplumla 6849
stratejisini 6850
uzlaşmanın 6851
Georgievski 6852
duran 6853
pan@@ 6854
lanıyor 6855
Polisi 6856
bölgeler 6857
okulu 6858
soruşturmayı 6859
umuyoruz 6860
sanatçının 6861
Enver 6862
merak 6863
bu@@ 6864
gösterilecek 6865
yapmasını 6866
muş 6867
uçuş 6868
fırsatları 6869
ren 6870
öden@@ 6871
belediyenin 6872
mahrum 6873
adaletten 6874
Suudi 6875
engelleyen 6876
Trajkov 6877
Radmila 6878
türünün 6879
konusuna 6880
ışı 6881
tarafları 6882
Yovanoviç 6883
heyetine 6884
hedefe 6885
iyoruz 6886
sisteme 6887
evlerini 6888
yetersizliği 6889
yaratacak 6890
izlen@@ 6891
onaylaması 6892
ko@@ 6893
kutluyor 6894
Ne 6895
fabrikanın 6896
cumhurbaşkanını 6897
ahlaki 6898
alınmasına 6899
ide 6900
yönetiminde 6901
oluşturmaya 6902
şimdiyse 6903
meler 6904
komiser 6905
sınırının 6906
Finans 6907
kaydederek 6908
kasıtlı 6909
ciddiye 6910
toplantısının 6911
Zastava 6912
öl@@ 6913
enlerin 6914
kaynaklandığını 6915
ardında 6916
Rumları 6917
sakinleri 6918
daireleri 6919
ortalarında 6920
biliyoruz 6921
Başkanlığı 6922
Projesi 6923
sorunlarına 6924
seçime 6925
yen 6926
kenara 6927
yalnız 6928
kaybı 6929
Re@@ 6930
lığına 6931
bakımından 6932
koruy@@ 6933
sendikalar 6934
kınayan 6935
İnşaat 6936
ılardan 6937
olanların 6938
ede 6939
rahat 6940
görevlilerinin 6941
insanlığa 6942
anlaştı 6943
planlıyorlar 6944
isimleri 6945
unsurlar 6946
yaratan 6947
olaylara 6948
ad 6949
toplamak 6950
Komünist 6951
atı 6952
tılar 6953
Darko 6954
bölün@@ 6955
has@@ 6956
geçme 6957
bütünlüğü 6958
belirlen@@ 6959
eye 6960
sevilen 6961
başlattılar 6962
yakalama 6963
Reisi 6964
Arnavutlara 6965
metal 6966
kasaba 6967
telekomünikasyon 6968
kov@@ 6969
şiddeti 6970
değiliz 6971
Victor 6972
dönüştür@@ 6973
Alakbar 6974
özgürlüğüne 6975
park 6976
bütçesinden 6977
uygulanmasının 6978
okullarda 6979
Kürtçe 6980
Letonya 6981
polisle 6982
getirilecek 6983
larsa 6984
engelleme 6985
Helsinki 6986
sınırına 6987
düşür@@ 6988
anlaşmazlığına 6989
Hiseni 6990
dost@@ 6991
mamakla 6992
yerleri 6993
önerileri 6994
dinamik 6995
akademik 6996
rolünün 6997
belirtilen 6998
seçeneği 6999
simgesi 7000
DTP 7001
Ditore 7002
paketinin 7003
geçmişteki 7004
Stamboliç 7005
cezasını 7006
demokrasiye 7007
oynuyor 7008
sin 7009
zorluklar 7010
Pakistan 7011
amayacağı 7012
şüphelilerin 7013
Sosyalistler 7014
lemek 7015
bakanların 7016
kaydedil@@ 7017
Bu@@ 7018
yerleşim 7019
tamamlayan 7020
bölgelerdeki 7021
yerek 7022
belirlendi 7023
Oyunlar 7024
inizi 7025
edilip 7026
Wolfgang 7027
azınlıklara 7028
temsilcilerle 7029
akşam 7030
pazarında 7031
engellerin 7032
usu 7033
alabil@@ 7034
kaç 7035
adaylık 7036
71 7037
bulunmayan 7038
fabrikasının 7039
itibarını 7040
vurdu 7041
çevresel 7042
rejimine 7043
bakanlıkları 7044
dalgası 7045
büyü@@ 7046
Antonela 7047
başkentin 7048
pozitif 7049
larımızın 7050
durumuna 7051
dışarı 7052
şüphesiz 7053
gol 7054
özgürlüğünün 7055
görüşmelerden 7056
alışverişi 7057
destekçileri 7058
yasalarının 7059
DDY 7060
etmediğini 7061
98 7062
örgütlerin 7063
Kurti 7064
Mavi 7065
lehine 7066
Svilanoviç 7067
abilirler 7068
İç 7069
Politikası 7070
Ko@@ 7071
olduğumuzu 7072
önlemlerin 7073
Par@@ 7074
Bayramı 7075
planlar 7076
taciz 7077
maaşlar 7078
onaylandı 7079
düzenlen@@ 7080
gi@@ 7081
doların 7082
bütçesine 7083
ılarla 7084
isteği 7085
düşüşe 7086
halini 7087
tutumlarını 7088
bakıyor 7089
düşünülüyor 7090
atarak 7091
kırıklığı 7092
stratejisinin 7093
etse 7094
sonucun 7095
bulunmasını 7096
çalışmada 7097
gerginlikler 7098
Nenad 7099
lerdi 7100
eseri 7101
sistemlerinin 7102
uygulamasını 7103
bulan 7104
gazı 7105
mücadeledeki 7106
ağır@@ 7107
üstünde 7108
arda 7109
sessiz 7110
İşler 7111
Kızıl 7112
bilgilerin 7113
Petrescu 7114
köyünde 7115
sorunsuz 7116
Filistinli 7117
saydı 7118
kendisiyle 7119
festivalinde 7120
sürecinden 7121
kaynakların 7122
ekonomileri 7123
cumhuriyet 7124
görevinin 7125
havaalanı 7126
günümüzde 7127
partili 7128
oda 7129
reformlarının 7130
yürütülecek 7131
şeylerin 7132
Destek 7133
bağımsızlığa 7134
Jovan 7135
ortalamasının 7136
sendika 7137
aj 7138
savunarak 7139
I 7140
dağ 7141
ulaşan 7142
süresini 7143
zararlı 7144
Franco 7145
veda 7146
tarihin 7147
temizlik 7148
başlandı 7149
gününden 7150
Leakey 7151
insan@@ 7152
İl@@ 7153
harcama 7154
verildiğini 7155
madencilik 7156
dairesinin 7157
ro@@ 7158
soruya 7159
UNHCR 7160
hazırlıkları 7161
sız@@ 7162
haftalar 7163
sorularını 7164
3. 7165
görevler 7166
şaibeli 7167
Kürtler 7168
ime 7169
1984 7170
kurallarına 7171
yarışmasında 7172
Gates 7173
ıdan 7174
Caz 7175
zanlıyı 7176
zorlan@@ 7177
gerginliği 7178
Trakya 7179
suyu 7180
kampanyasının 7181
vergileri 7182
partisinden 7183
Arjantin 7184
gar@@ 7185
seçmenleri 7186
4. 7187
hız@@ 7188
egemenliğini 7189
sağlayacağı 7190
tanıt@@ 7191
fark@@ 7192
ortasına 7193
korku 7194
sınırlarının 7195
yükümlülükleri 7196
patlayıcı 7197
zammı 7198
reddetmesi 7199
Biz 7200
imize 7201
PNL 7202
ke@@ 7203
açıklanmayan 7204
Popovski 7205
elerinden 7206
umudu 7207
SEECP 7208
Miliç 7209
verileri 7210
maddesi 7211
kol@@ 7212
saldırısı 7213
lis@@ 7214
od@@ 7215
geçirmeye 7216
ciler 7217
ıs@@ 7218
bankaları 7219
şiir 7220
arz@@ 7221
Ladin 7222
liderinin 7223
listenin 7224
genişlemesi 7225
ürünlerinin 7226
kaçmasına 7227
asyon 7228
lojistik 7229
girişimde 7230
ibaret 7231
karşılaşmasında 7232
etmeli 7233
dakikada 7234
don@@ 7235
içinden 7236
ım@@ 7237
Rocen 7238
içinse 7239
kesimlerinde 7240
Google 7241
likten 7242
İzlanda 7243
farkına 7244
vardılar 7245
kolaylaştırmak 7246
olmaksızın 7247
edebilecek 7248
Serge 7249
muhtemel 7250
güdümlü 7251
yargılan@@ 7252
iliyor 7253
sınırlar 7254
heyetin 7255
değilim 7256
gelmediğini 7257
evine 7258
polisine 7259
milis 7260
yaşamak 7261
olaylarını 7262
giderken 7263
İdare 7264
yarışacak 7265
mallar 7266
azalması 7267
önerisine 7268
sanığın 7269
Erhard 7270
Atatürk 7271
Passy 7272
açmış 7273
om@@ 7274
dım 7275
güçler 7276
sabahı 7277
evinde 7278
galip 7279
ail@@ 7280
toplantılar 7281
yaşay@@ 7282
düzenlemek 7283
mezun 7284
mamasını 7285
paylaşıyor 7286
sonuçta 7287
kemer 7288
mini 7289
yarışmada 7290
değerlendiriyor 7291
hareketle 7292
kural 7293
türü 7294
cesur 7295
değerlendir@@ 7296
niteledi 7297
ülkesindeki 7298
geliştirmeye 7299
Bazı 7300
belediyelerin 7301
oyunun 7302
çektiği 7303
nedenlerinden 7304
genelindeki 7305
kulak 7306
Yönetimi 7307
yerleş@@ 7308
taze 7309
ed@@ 7310
hatları 7311
gerçekleştirmek 7312
dığından 7313
amayacak 7314
bağlılığını 7315
yazan 7316
medyası 7317
verilerine 7318
tutmaya 7319
hibe 7320
A1 7321
ele@@ 7322
başlarına 7323
Lehne 7324
safhada 7325
Dairesinin 7326
politikalarının 7327
liderleriyle 7328
hükümetlerinin 7329
kararında 7330
uyardılar 7331
kolu 7332
getirmede 7333
RTS 7334
tartışmaların 7335
davalarının 7336
Barack 7337
arkadaşları 7338
Denktaş 7339
buradan 7340
operasyonlar 7341
Mahkemesine 7342
kıdemli 7343
Günleri 7344
may@@ 7345
açıklamalar 7346
açmıştı 7347
Gjorge 7348
sekreter 7349
kalite 7350
görüşler 7351
herşey 7352
bombalama 7353
ımıza 7354
taviz 7355
açlık 7356
Saray 7357
piyasası 7358
ifadesine 7359
engellemeye 7360
vermenin 7361
ediyordu 7362
üstlendi 7363
layarak 7364
hizmetlerini 7365
tutuklamalar 7366
likle 7367
davalarını 7368
ılarından 7369
önerisinin 7370
modernizasyon 7371
kaldırılmasını 7372
eni 7373
getiriliyor 7374
sağlıklı 7375
gittikçe 7376
duyan 7377
ödemeye 7378
görüşmeye 7379
Zlatko 7380
değişimi 7381
çiftçiler 7382
siyle 7383
memurunun 7384
işte 7385
esas 7386
suçundan 7387
ürünü 7388
azınlığın 7389
girişimini 7390
seçimlerle 7391
Müslümanların 7392
dal@@ 7393
kesinti 7394
firmalarının 7395
düzenliyor 7396
yük@@ 7397
girişime 7398
H5N1 7399
toplumları 7400
ilanı 7401
fuhuş 7402
bulması 7403
kartı 7404
tutuklanmasının 7405
deniyor 7406
karardan 7407
kazandır@@ 7408
kalmasına 7409
davayla 7410
kararların 7411
yeteri 7412
bilir 7413
çevir@@ 7414
Boşnaklar 7415
vakit 7416
gençleri 7417
tü 7418
yapılacağı 7419
belirtmekle 7420
sınırdışı 7421
diğinden 7422
askerlerini 7423
cami 7424
saldırıda 7425
alama@@ 7426
komşusu 7427
yse 7428
nezaretinde 7429
toplumdan 7430
yasak@@ 7431
sahil 7432
isyan 7433
lendi 7434
ilgilendiğini 7435
Bizans 7436
değişti 7437
İşleri 7438
kağıt 7439
elerinde 7440
görmeye 7441
88 7442
ilerine 7443
tehditleri 7444
duyuruldu 7445
Fouere 7446
tehditler 7447
ilanının 7448
lanması 7449
açık@@ 7450
soruşturması 7451
us@@ 7452
ydi 7453
katılacağı 7454
Yolsuzluk 7455
170 7456
şansına 7457
başlangıcı 7458
konserler 7459
arananlar 7460
adayın 7461
kitle 7462
kaydı 7463
oloji 7464
devletten 7465
göçmenlerin 7466
kazandığını 7467
Çağrısı 7468
Zirvesi 7469
99 7470
sanıklar 7471
ez@@ 7472
koşullarının 7473
US 7474
sıkıntısı 7475
hedeflenen 7476
krizinin 7477
ladığı 7478
yarısından 7479
to@@ 7480
çoklu 7481
denetimli 7482
büyümeye 7483
Mu@@ 7484
tuttur@@ 7485
Orgeneral 7486
yaşam@@ 7487
yumuşak 7488
dili 7489
grubuna 7490
tanıtım 7491
şaşırtıcı 7492
yapıp 7493
duğunu 7494
sunma 7495
dönmek 7496
muhafazakar 7497
Kap@@ 7498
kalmayı 7499
setlerle 7500
başlayıp 7501
KPC 7502
ortamında 7503
hal@@ 7504
Bildt 7505
sap@@ 7506
fiyatlarını 7507
yargının 7508
House 7509
borç@@ 7510
dolaşımı 7511
ısını 7512
Catherine 7513
mesleki 7514
sen@@ 7515
kültürü 7516
yaklaşırken 7517
müzakerecisi 7518
asındaki 7519
düzine 7520
şartıyla 7521
kayb@@ 7522
sınırındaki 7523
or 7524
ec@@ 7525
güvenliğe 7526
yanda 7527
Eide 7528
ledi 7529
getirilmesini 7530
çözümüne 7531
Kozloduy 7532
çalışmasını 7533
nedeninin 7534
gazetecinin 7535
eriş@@ 7536
tutuklu 7537
kulis 7538
ılabilir 7539
prestijli 7540
sahiplerinin 7541
çiziyor 7542
ılarının 7543
nehir 7544
F 7545
IOC 7546
yakınındaki 7547
nüfuzlu 7548
uygulamayı 7549
deydi 7550
fikrine 7551
bur@@ 7552
American 7553
kurulunun 7554
Ordu 7555
istemediğini 7556
dönemden 7557
giriyor 7558
üzüntü 7559
malarında 7560
Charles 7561
alabilmek 7562
kalk@@ 7563
kazanıyor 7564
oynadı 7565
bölgelere 7566
eleştiri 7567
.com 7568
onlarla 7569
taraf@@ 7570
geçmişe 7571
1,4 7572
lamak 7573
kaybetmiş 7574
Obradoviç 7575
olma@@ 7576
basının 7577
tasarısını 7578
adımdır 7579
olacağız 7580
artı 7581
bırakıp 7582
koyma 7583
değişikliğin 7584
ayırdı 7585
luğu 7586
ınız 7587
tesislerin 7588
adaylığını 7589
seviyesinin 7590
tecrit 7591
modeli 7592
ölümünden 7593
planla@@ 7594
tin 7595
vaadinde 7596
yüksel@@ 7597
ulus 7598
je 7599
Iliç 7600
belirtirken 7601
barışın 7602
550 7603
katılmasına 7604
edebileceği 7605
gelebilir 7606
memurlarının 7607
senaryo 7608
attığını 7609
Free 7610
lıyor 7611
dolayında 7612
riske 7613
saldır@@ 7614
ekipleri 7615
sek 7616
len 7617
başlatılmasına 7618
meselesini 7619
yarattığını 7620
hazırız 7621
kayıtdışı 7622
Dedeağaç 7623
ilerletilmesi 7624
yaptık 7625
çağr@@ 7626
bugünkü 7627
eder 7628
konsey 7629
seslenen 7630
Ofisi 7631
köklü 7632
restoran 7633
işçilerin 7634
Der@@ 7635
lıklar 7636
anlaşmazlığını 7637
sayıları 7638
Dnevni 7639
yaşadıkları 7640
medyasına 7641
müdahalesi 7642
top 7643
lenmiş 7644
gelme 7645
Dabilis 7646
yapılar 7647
tamamında 7648
grupta 7649
girişiminin 7650
Ürdün 7651
memekle 7652
istifaya 7653
komşuları 7654
yaptırım 7655
korunmasını 7656
gelince 7657
olmazsa 7658
siyasilere 7659
ilkeleri 7660
üretiminin 7661
Transilvanya 7662
korunmasına 7663
kaygı 7664
Avrasya 7665
enflasyonun 7666
ali 7667
onayladığı 7668
atmış 7669
çıkıp 7670
engeli 7671
olursak 7672
İsveçli 7673
İliç 7674
laş@@ 7675
eroin 7676
gösterdiler 7677
kas@@ 7678
değerlendiril@@ 7679
etme@@ 7680
2. 7681
belgelerin 7682
toplay@@ 7683
maliyetleri 7684
ize 7685
Pavkoviç 7686
cumhurbaşkanlığına 7687
Çiçek 7688
vergiler 7689
Kosanoviç 7690
Gent 7691
yaptırımlar 7692
sahipti 7693
ede@@ 7694
dondur@@ 7695
getireceği 7696
hesaba 7697
kalitesi 7698
ardındaki 7699
Gana 7700
miras 7701
uluslu 7702
getirmesini 7703
görecek 7704
kutlamak 7705
duyuruya 7706
Iliescu 7707
Philip 7708
met@@ 7709
At@@ 7710
beklenmedik 7711
konsorsiyumu 7712
Gordon 7713
bildirge 7714
lik@@ 7715
amıyor 7716
olabilmesi 7717
Ordusunun 7718
yedinci 7719
sü@@ 7720
Türkçe 7721
bulunmadığı 7722
sağlanmasına 7723
ri 7724
edeceklerini 7725
avantaj 7726
gittiği 7727
ofis 7728
Kalfin 7729
sürdüğünü 7730
ne@@ 7731
Sibenik 7732
Partinin 7733
çalışmayı 7734
hektarlık 7735
delil 7736
Polt 7737
olaylarda 7738
kurallara 7739
ist 7740
açıklan@@ 7741
endişeleri 7742
şirketine 7743
Hay@@ 7744
limanı 7745
Hüseyin 7746
forum 7747
muhteşem 7748
arkadaş@@ 7749
EU 7750
In@@ 7751
bastır@@ 7752
çıkardığı 7753
çalışmalarında 7754
varlıklarını 7755
Malta 7756
belirtmiş 7757
kararıyla 7758
laması 7759
listeye 7760
ham 7761
Milanoviç 7762
zinciri 7763
ısının 7764
baskılar 7765
borçları 7766
gerçekleştir@@ 7767
iddialar 7768
vatandaşının 7769
savaşta 7770
kıy@@ 7771
Öğretim 7772
kuran 7773
Çağdaş 7774
edilirken 7775
lerimizin 7776
sınırsız 7777
ihmal 7778
göre@@ 7779
uk@@ 7780
maktı 7781
imzalayan 7782
Festivalinde 7783
meliyiz 7784
dengeli 7785
bal@@ 7786
Bir@@ 7787
alana 7788
önemdeki 7789
lıkları 7790
kimileri 7791
projelerini 7792
atanması 7793
ah@@ 7794
vatandaşlarını 7795
mafya 7796
tamamlandı 7797
etmede 7798
Tahiri 7799
taban 7800
rütbeli 7801
kaçın@@ 7802
sergileniyor 7803
personelinin 7804
hazırlamak 7805
iti@@ 7806
bakanının 7807
katılımcılara 7808
danışman 7809
Nesovski 7810
gelmiyor 7811
Plavsiç 7812
dikkatle 7813
yoğunlukta 7814
noktasında 7815
standby 7816
değişikliklere 7817
Daimi 7818
festivaline 7819
blog 7820
bırakıldı 7821
düşürülmesi 7822
geleceğin 7823
gerçekleştirdiler 7824
isterken 7825
gezi 7826
sak@@ 7827
davasını 7828
Rumlarının 7829
ilik 7830
bildirgede 7831
maçında 7832
tamamlanacak 7833
müttefiki 7834
güneyinde 7835
ot@@ 7836
Ülke 7837
Tose 7838
meslek 7839
mülteciler 7840
mayacağına 7841
birimleri 7842
Borislav 7843
çıkmasını 7844
bulunmakla 7845
ekmek 7846
yorumları 7847
olsaydı 7848
sizi 7849
Saraybosnalı 7850
oyuncuları 7851
mışlardı 7852
alınarak 7853
tu 7854
atan@@ 7855
uçağı 7856
istedikleri 7857
SNS 7858
hareketinin 7859
sağlığı 7860
skandal 7861
ESM 7862
ekipman 7863
ofisinden 7864
çoğunluğun 7865
kuş@@ 7866
destekleyeceğini 7867
hazırlama 7868
6,@@ 7869
almanın 7870
adımın 7871
Be@@ 7872
Fitch 7873
sözlerle 7874
tepkilere 7875
ğ@@ 7876
bankasının 7877
edinme 7878
Latin 7879
Fonun 7880
savcılığın 7881
görüşmelerine 7882
üyor 7883
yapıların 7884
Bizim 7885
ifadesinde 7886
P 7887
oranlarını 7888
paket 7889
atandı 7890
Bak@@ 7891
anlaşmadan 7892
sonlarına 7893
240 7894
gündem 7895
dağlık 7896
karşıla@@ 7897
gayet 7898
parasal 7899
bilmiyorum 7900
dinar 7901
oluşacak 7902
heykel 7903
ardı 7904
içme 7905
aktris 7906
kesiminin 7907
lehte 7908
veriyorlar 7909
taşımacılığı 7910
yanıtlayan 7911
tü@@ 7912
amayan 7913
uzmanlık 7914
Shkullaku 7915
kop@@ 7916
okuma 7917
yaklaşımı 7918
7,5 7919
86 7920
Cristian 7921
temyiz 7922
giy@@ 7923
dığında 7924
imzalamak 7925
düşündüğünü 7926
ileriyle 7927
yurtdışından 7928
NMS 7929
Telecom 7930
bağımlılığını 7931
Har@@ 7932
Rijeka 7933
biliyorum 7934
partisine 7935
çalışarak 7936
mensubu 7937
üncü 7938
yapılandırma 7939
çağır@@ 7940
tık@@ 7941
açığa 7942
değiştirilmiş 7943
çekerek 7944
kurulmasının 7945
yapıyoruz 7946
değişikliğe 7947
projelere 7948
soykırımla 7949
güçlerine 7950
açacağı 7951
Sovyetler 7952
yaşın 7953
arkeolojik 7954
forumda 7955
layıp 7956
Airways 7957
Başbuğ 7958
93 7959
ip@@ 7960
donanım 7961
sunuluyor 7962
güvencesi 7963
gerçekleştirilmesi 7964
Avaz 7965
düzenlemesi 7966
Crvenkovski 7967
başkent 7968
Online 7969
Pula 7970
geliştir@@ 7971
haftadan 7972
yaşadığını 7973
Havayolları 7974
kaldılar 7975
dönmeye 7976
tura 7977
bahar 7978
katılıma 7979
hediye 7980
za 7981
gerçekleştiril@@ 7982
Müzik 7983
650 7984
ortaçağ 7985
denet@@ 7986
Hillary 7987
ge 7988
ederse 7989
korkuyor 7990
değiştiril@@ 7991
fil@@ 7992
ihtilafından 7993
iddianamede 7994
yaşandığını 7995
Balkanlarda 7996
gezisi 7997
tasarlanmış 7998
kuruluşların 7999
entegrasyonunun 8000
kullanımının 8001
karşılayacak 8002
Kanadalı 8003
devral@@ 8004
kasabasındaki 8005
karşılayarak 8006
adımların 8007
çalışmanın 8008
üstünlüğünün 8009
gözlem@@ 8010
yönetilen 8011
tedbirlere 8012
Sadiku 8013
ac 8014
Traykov 8015
riskli 8016
Pierre 8017
vermeden 8018
-ve 8019
iyorum 8020
almadan 8021
Vukceviç 8022
gecik@@ 8023
istemiyoruz 8024
taksi 8025
onar@@ 8026
Ion 8027
Nükleer 8028
clock 8029
kurallarını 8030
gevşek 8031
değer@@ 8032
meme 8033
vaka 8034
ermesi 8035
hizmetlerinin 8036
desteklemeyi 8037
kamusal 8038
anayasayı 8039
önerilerini 8040
otobüs 8041
uyarıyorlar 8042
TI 8043
fiyatların 8044
yaşamlarını 8045
92 8046
sunul@@ 8047
açarak 8048
tartışmanın 8049
azalıyor 8050
görmezden 8051
otomatik 8052
şartlarda 8053
endişeli 8054
Koalisyon 8055
keşf@@ 8056
cinayeti 8057
st@@ 8058
Kragujevac 8059
sıkma 8060
galibi 8061
diyaloğa 8062
trafiğe 8063
seviyelerde 8064
ği 8065
görmesi 8066
Alina 8067
kavuştu 8068
edenler 8069
ARM 8070
4,@@ 8071
bildirgeyi 8072
bira 8073
saldırıyı 8074
işlediği 8075
düzenleyerek 8076
kentteki 8077
öldür@@ 8078
durdu 8079
koyan 8080
0,5 8081
ettikten 8082
sonsuza 8083
Marty 8084
çevirdi 8085
kov 8086
Bankasının 8087
Kanunu 8088
parti@@ 8089
yatıyor 8090
kaynaklarına 8091
Petrol 8092
memnuniyeti 8093
girişimler 8094
gösterirken 8095
seniz 8096
çıktılar 8097
uzaklaştır@@ 8098
oysa 8099
araçlar 8100
İvana 8101
birim 8102
aj@@ 8103
Şala 8104
kaygılar 8105
Genç 8106
abiliriz 8107
lığının 8108
Lukoil 8109
ıysa 8110
paylaşımı 8111
bırakan 8112
eyleme 8113
ag@@ 8114
tavrı 8115
tav@@ 8116
Branislav 8117
Dyukanoviç 8118
aşamasında 8119
Zenica 8120
filminin 8121
kutlama 8122
beklentileri 8123
bilin@@ 8124
belediyede 8125
üreten 8126
atmak 8127
verilmesine 8128
suçlama 8129
kuvvetlerin 8130
kurdular 8131
oyn@@ 8132
malara 8133
ailelerine 8134
Kral 8135
yatırımlarının 8136
faydalı 8137
ren@@ 8138
davaya 8139
Freedom 8140
ılarını 8141
hukuka 8142
karşılanması 8143
tipi 8144
hazırlanmasına 8145
bildirisinde 8146
geçmişin 8147
hali 8148
müreffeh 8149
Oyunların 8150
birliğini 8151
saldırgan 8152
yaşanacak 8153
karşılamaya 8154
tartıştılar 8155
İddianamede 8156
ayrılacak 8157
Milutinoviç 8158
ilk@@ 8159
sunmayı 8160
Öcalan 8161
UEFA 8162
tir@@ 8163
evinin 8164
alanların 8165
Var@@ 8166
askere 8167
Jones 8168
Ser@@ 8169
kalmıştı 8170
sayı 8171
Securitate 8172
ve@@ 8173
onlardan 8174
gü@@ 8175
iken 8176
gelirlerinin 8177
tebrik 8178
Aleksander 8179
destekledi 8180
ittifak 8181
toplumda 8182
Raufoğlu 8183
anlayış 8184
kullanıldığı 8185
üyelerin 8186
pazarındaki 8187
ağına 8188
durgunluk 8189
hisset@@ 8190
anlaşmazlığa 8191
egemenliği 8192
kut@@ 8193
ihtilafın 8194
bulundur@@ 8195
kur 8196
eleştiriyor 8197
kalacaklar 8198
yetkisine 8199
hatır@@ 8200
Mer@@ 8201
ilginç 8202
bölgelerindeki 8203
haftanın 8204
Yves 8205
borcunun 8206
edileceği 8207
irse 8208
nesil 8209
sanatçıların 8210
hile 8211
sanal 8212
UDF 8213
sürdürecek 8214
başlatılmasını 8215
kazanmıştı 8216
arka 8217
per@@ 8218
rehin 8219
koruyan 8220
sözlü 8221
projelerinin 8222
genişletme 8223
mü@@ 8224
uzlaşmacı 8225
zengin@@ 8226
Topiç 8227
büyükelçileri 8228
uğraş@@ 8229
mamaları 8230
çağrı 8231
yargıçlar 8232
Mandiç 8233
gelişmesi 8234
gerektiriyor 8235
bar 8236
reformcu 8237
yapımına 8238
aday@@ 8239
Televizyonu 8240
anlattı 8241
yayınlanacak 8242
Express 8243
örgütlü 8244
parası 8245
reel 8246
olmay@@ 8247
edilerek 8248
müfettişler 8249
lanmış 8250
herkesi 8251
müzakerelerindeki 8252
olmadıklarını 8253
Üniversite 8254
pazarın 8255
indir@@ 8256
anki 8257
artırıyor 8258
gerileme 8259
kazanmaya 8260
huzurunda 8261
almakta 8262
açılmasına 8263
bula@@ 8264
ruhu 8265
arayan 8266
hamle 8267
Vlatko 8268
tartışmaları 8269
Taleski 8270
katılacağını 8271
ikincisi 8272
başlamadan 8273
madıkları 8274
Tatlıses 8275
düzene 8276
kuracak 8277
urken 8278
Güler 8279
lıkla 8280
ilinde 8281
SEE 8282
leniyor 8283
reformun 8284
hazırlıyor 8285
gösteriliyor 8286
yas@@ 8287
kuru 8288
yemin 8289
batısındaki 8290
bölüm 8291
gerçekleştiği 8292
satan 8293
ayrıntıları 8294
hastanede 8295
partisini 8296
kurumlarında 8297
raportörü 8298
uzunluğundaki 8299
kısıtlamaları 8300
talebiyle 8301
araştırmalar 8302
kanser 8303
derin@@ 8304
and@@ 8305
stratejinin 8306
etkiledi 8307
ressam 8308
koruyacak 8309
Budva 8310
ISAF 8311
uc@@ 8312
Dan 8313
karanlık 8314
ski 8315
çekilen 8316
Vadisi 8317
isterim 8318
kabinesinin 8319
kullanıl@@ 8320
uygulamanın 8321
gerekmektedir 8322
vekili 8323
Geçici 8324
Limaj 8325
dönüştürme 8326
yon 8327
maddeleri 8328
kesimler 8329
lisans 8330
yaşamın 8331
günden 8332
koymak 8333
Konseyinin 8334
olmamız 8335
onayına 8336
Niş 8337
riskler 8338
duyuyorum 8339
kir@@ 8340
reddettiği 8341
karşıladığını 8342
tenisçi 8343
alışverişinde 8344
DiCarlo 8345
dum 8346
olabil@@ 8347
gelişmelere 8348
faktör 8349
Tüm 8350
araştırmacı 8351
domuz 8352
Bal@@ 8353
İn@@ 8354
zorluk 8355
BNN 8356
Olimpiyatlar 8357
gerçekte 8358
kab@@ 8359
tüketiciler 8360
hav@@ 8361
çekmeyi 8362
bölünmesi 8363
dinle@@ 8364
Ger@@ 8365
yayımlanan 8366
oz@@ 8367
tiği 8368
gö@@ 8369
yürütecek 8370
örgütlere 8371
kurbanları 8372
müstakbel 8373
toplumlarının 8374
farklılıkları 8375
analistlere 8376
mamaya 8377
şirkete 8378
suçlayan 8379
uz 8380
planlarına 8381
evleri 8382
lenmesi 8383
ra 8384
önleyici 8385
Joachim 8386
suçladılar 8387
sağa 8388
artıracağını 8389
ük 8390
top@@ 8391
gösterdikleri 8392
Gazetecilik 8393
keşif 8394
çıkarmayı 8395
Jansa 8396
enflasyonu 8397
anlamıyla 8398
anayasada 8399
bağları 8400
denge 8401
gündeminin 8402
göstermeleri 8403
lerken 8404
birleşmiş 8405
halkla 8406
tahminlere 8407
utanç 8408
çağırıyorum 8409
hazırla@@ 8410
biriminin 8411
geçmeye 8412
önlem 8413
halihazırda 8414
Bil@@ 8415
geril@@ 8416
kazı 8417
gen@@ 8418
Antalya 8419
sav@@ 8420
büyükelçiliği 8421
sıralamasında 8422
kızı 8423
duyuru 8424
reddettiler 8425
gelişmelerin 8426
umarım 8427
sarf 8428
Yabancı 8429
Baran 8430
FIFA 8431
riskini 8432
gal@@ 8433
düzenledikleri 8434
Venizelos 8435
Ben 8436
Borissov 8437
huzuruna 8438
cenaze 8439
İsa 8440
gerçekleşmesini 8441
abilecekleri 8442
başkanlarının 8443
olacağından 8444
yarışmaya 8445
tti 8446
ödeyecek 8447
Elçisi 8448
kaçırma 8449
Vlasiç 8450
girmesini 8451
ayrılma 8452
landığı 8453
Slovak 8454
takviye 8455
uzatma 8456
Steel 8457
fuarı 8458
Clark 8459
suçlarının 8460
Irish 8461
can@@ 8462
karşılanacak 8463
çıkarken 8464
gidil@@ 8465
becerilerini 8466
hükümetinde 8467
koşullarını 8468
yapabil@@ 8469
Tümgeneral 8470
Tetovo 8471
medikleri 8472
ekolojik 8473
başarısını 8474
Topalli 8475
for 8476
Kadare 8477
anlaşmazlığın 8478
değerlendirmesi 8479
medeki 8480
genişletilmesi 8481
lanan 8482
santralin 8483
Patten 8484
iliği 8485
97 8486
Ancak 8487
gelişinden 8488
RS 8489
mekanizma 8490
ifşa 8491
hazırlıklı 8492
teröristlerin 8493
elbette 8494
oranıyla 8495
kırılgan 8496
belirleyen 8497
21. 8498
vermekte 8499
ülkesiyle 8500
Tan@@ 8501
arabulucu 8502
durdurma 8503
havaya 8504
ılarına 8505
projeyle 8506
kaygıları 8507
0.000 8508
Muhammed 8509
sağlayabilir 8510
Kan@@ 8511
sık@@ 8512
edilmemesi 8513
Küçük 8514
Bo@@ 8515
ihalesini 8516
sezon 8517
yet@@ 8518
Albay 8519
cam 8520
Romano 8521
köprünün 8522
sil@@ 8523
opera 8524
adaya 8525
başlan@@ 8526
Fotoğraflar 8527
Pan 8528
bunda 8529
sahibiz 8530
yukarı 8531
işletmeleri 8532
getirilmesine 8533
elç@@ 8534
Demokratların 8535
meyve 8536
ekonomilerinin 8537
aç 8538
niyetinde 8539
ödüllü 8540
toplantısını 8541
2.@@ 8542
gerçekleştiğini 8543
azal@@ 8544
bağımsızlıktan 8545
ba 8546
böylesi 8547
düşman@@ 8548
yarısını 8549
eleştiriler 8550
ni@@ 8551
fer@@ 8552
bölücü 8553
protestolara 8554
Kuvvetler 8555
yapmaktan 8556
güçlüklerle 8557
ha 8558
vermediğini 8559
medyasında 8560
kimliğini 8561
zirvesinin 8562
maaşlarına 8563
Futbol 8564
pahasına 8565
Yunanlıların 8566
14@@ 8567
gelebilecek 8568
aran@@ 8569
alanına 8570
Jonilda 8571
alabilir 8572
muştu 8573
yaklaşıyor 8574
PTK 8575
f 8576
sektördeki 8577
87 8578
kalırken 8579
ebilmesi 8580
andığı 8581
maddelik 8582
dergisinin 8583
List 8584
barajını 8585
City 8586
çoğunluğa 8587
amaçlar 8588
hızı 8589
tedbiri 8590
ödülüne 8591
tedbirlerine 8592
kovuştur@@ 8593
müş 8594
Birliğinin 8595
vaat 8596
silahları 8597
yapmanın 8598
beklenirken 8599
haberdar 8600
göçmenler 8601
ey@@ 8602
konseri 8603
belirlediği 8604
yanıtı 8605
gençlere 8606
görevinde 8607
fotoğraf@@ 8608
Misko 8609
imzalaması 8610
ür@@ 8611
güçlendir@@ 8612
üstün 8613
söyleşide 8614
1,1 8615
Okulu 8616
Kat@@ 8617
borçlu 8618
mücadelesi 8619
mamasına 8620
Gracanica 8621
ten@@ 8622
yaptıklarını 8623
gerçekleri 8624
emir 8625
başkanını 8626
farklılıklar 8627
bulabil@@ 8628
açtılar 8629
performansını 8630
kampanyasını 8631
likleri 8632
geliyorlar 8633
Jandrokoviç 8634
lardı 8635
Şimdi 8636
kazanırken 8637
siyasetin 8638
yor 8639
dönemdeki 8640
his@@ 8641
miktarlarda 8642
görülmesi 8643
dol@@ 8644
kalıntıları 8645
Av@@ 8646
orduya 8647
editörü 8648
maaşlarının 8649
amaç@@ 8650
üyesini 8651
ülkemizin 8652
katılmaları 8653
artmasını 8654
Arası 8655
afet 8656
Miodrag 8657
arı 8658
ölen 8659
sınırların 8660
yerlere 8661
kısıtlı 8662
konaklama 8663
üretilen 8664
ideal 8665
dönüştü 8666
Sırplarla 8667
Besa 8668
şüphesiyle 8669
damgasını 8670
sistematik 8671
başladığında 8672
Rumsfeld 8673
hitap 8674
suçlan@@ 8675
Jociç 8676
tamamının 8677
çekici 8678
Zarko 8679
çare 8680
ılmasıyla 8681
ürünlerin 8682
davranış 8683
Fuele 8684
kanlı 8685
MESS 8686
yanındaki 8687
soruşturmada 8688
taşın@@ 8689
birincilik 8690
suçlara 8691
Corporation 8692
sahada 8693
3,3 8694
kurumlarıyla 8695
yabancılar 8696
tamamlaması 8697
üyeliğinden 8698
1970 8699
binaların 8700
insanlarla 8701
üzüntüyü 8702
kısıtlama 8703
sorular 8704
başlamaya 8705
etmediği 8706
başarıya 8707
taraftarları 8708
Ev@@ 8709
bor@@ 8710
gencin 8711
Hasan 8712
sözleşmenin 8713
leş@@ 8714
istek@@ 8715
kaçağın 8716
sponsorluğunda 8717
anları 8718
Varşova 8719
yarış 8720
ithalatı 8721
siyasetçilerin 8722
görüşmesinde 8723
buz 8724
kapattı 8725
restore 8726
filmleri 8727
kapatmak 8728
haritası 8729
olanları 8730
muaf 8731
Bur@@ 8732
tamamla@@ 8733
suçlular 8734
kardeşi 8735
Bill 8736
imzalayarak 8737
seyrediyor 8738
gitmeye 8739
hiçbirinin 8740
ça 8741
dönüşleri 8742
imzal@@ 8743
imzalanacak 8744
Mihai 8745
mezar 8746
dernekleri 8747
gelişen 8748
anlaşmazlıkların 8749
Limay 8750
Denetleme 8751
kayda 8752
indirim 8753
Çavuşesku 8754
dokun@@ 8755
kullanmayı 8756
gelmektedir 8757
Görev 8758
üstlendiği 8759
sıraladı 8760
gaz@@ 8761
Dav@@ 8762
güçlük 8763
ısına 8764
iyileştir@@ 8765
E 8766
uma 8767
alev@@ 8768
kentlerinde 8769
6,5 8770
sağlamaları 8771
yöneten 8772
1500 8773
Tarih 8774
bulunduğumuz 8775
koalisyona 8776
görüşlere 8777
Nis 8778
ettiğimiz 8779
rekabeti 8780
sektörlerinde 8781
sözleriyle 8782
ra@@ 8783
Barbu 8784
hakkının 8785
suikast@@ 8786
emez 8787
ist@@ 8788
tutuklanıp 8789
Pliva 8790
umuzu 8791
mutlak 8792
En@@ 8793
meyecektir 8794
kredilerin 8795
çocuğunun 8796
eğilim 8797
düzenlemeleri 8798
tümünü 8799
gereğinin 8800
mahkemelerde 8801
isimlerinden 8802
militan 8803
Ö@@ 8804
yenil@@ 8805
grup@@ 8806
pazarlarına 8807
ovo 8808
sorumluluklarını 8809
bağlılık 8810
Venedik 8811
beğen@@ 8812
söylen@@ 8813
sosyalist 8814
Orkestrası 8815
farkı 8816
gerektiğinin 8817
meyle 8818
MOL 8819
fiyatlarına 8820
Sınır 8821
lanma 8822
etmelerine 8823
mallarını 8824
müziği 8825
Papademos 8826
budur 8827
ılığa 8828
otuz 8829
ilerlemesinin 8830
Varna 8831
güvenin 8832
Colin 8833
Nokia 8834
bab@@ 8835
Anlaşmasına 8836
efsanevi 8837
işçilere 8838
PD 8839
Komisyonunun 8840
KOBİ 8841
Zbogar 8842
Yıldız 8843
açıklayan 8844
Yas@@ 8845
devletlerin 8846
ilkelerini 8847
yaptığımız 8848
ileriye 8849
yarışında 8850
kıyısında 8851
nü 8852
yürütülüyor 8853
büyükelçilik 8854
kolaylaştırma 8855
turunda 8856
açabileceği 8857
parçaları 8858
temiz@@ 8859
bütçeye 8860
açıklamaları 8861
engellen@@ 8862
geçiriyor 8863
akşamı 8864
istediler 8865
çağrılarına 8866
Daci 8867
taslağını 8868
korsan 8869
imzalanmasının 8870
maddenin 8871
yayın@@ 8872
Kiril 8873
dairesinden 8874
mimari 8875
Baba 8876
1,7 8877
yarıya 8878
ortaklığı 8879
oynadığını 8880
metrekarelik 8881
aldıklarını 8882
kurbanlar 8883
Yarışması 8884
sektöre 8885
Başa 8886
kısmi 8887
engelli 8888
onunla 8889
oluşturulan 8890
Edebiyat 8891
Sosyalistlerin 8892
kurması 8893
Havalimanı 8894
baskının 8895
oturumunda 8896
düğü 8897
kaza 8898
soruşturmaya 8899
lardır 8900
ücreti 8901
ular 8902
gazetecilik 8903
zamanlı 8904
Fon 8905
ilişkili 8906
kriterler 8907
birleştirilmesi 8908
Soğuk 8909
sığın@@ 8910
gördükleri 8911
kalkınmayı 8912
ant 8913
imzalan@@ 8914
aşan 8915
umu 8916
sak 8917
başlamasının 8918
desteklen@@ 8919
yollar 8920
tesisler 8921
canlandırmak 8922
doları 8923
hareketini 8924
filmiyle 8925
geçirilmesini 8926
uş@@ 8927
Mitreva 8928
Scotsman 8929
ödemesi 8930
edebilmek 8931
beyin 8932
iktidarı 8933
savaşa 8934
çe 8935
özel@@ 8936
edilmesinden 8937
Koci 8938
mak@@ 8939
kendisinden 8940
oylamayı 8941
eylemlerinin 8942
Federasyon 8943
uygulay@@ 8944
mazsa 8945
gerginliğin 8946
91 8947
sokaklara 8948
ımda 8949
görüşmelerini 8950
har@@ 8951
yürüyüş 8952
seçmenlere 8953
prosedür 8954
Mahkemesinin 8955
Şahin 8956
Andrija 8957
mayacaktır 8958
evin 8959
sını 8960
Başsavcısı 8961
çalışmakla 8962
zi 8963
Arabistan 8964
Schook 8965
Koalisyonu 8966
Kristina 8967
demokrasiyi 8968
şehri 8969
Reform 8970
çağrıları 8971
kentinden 8972
anlaşmazlığının 8973
izlediği 8974
tutarlı 8975
yöntem 8976
kadını 8977
ihtiyaçlarına 8978
misyonunu 8979
ans@@ 8980
posta 8981
sıkça 8982
Kumanovo 8983
maden 8984
asi 8985
ses@@ 8986
çı 8987
Mile 8988
işlemleri 8989
anlatan 8990
Opera 8991
Shantek 8992
düzenlemenin 8993
çekmesi 8994
maliyet 8995
ilerletmeye 8996
gerektiğinde 8997
atılım 8998
altyapısı 8999
bağımsızlığın 9000
almasının 9001
yon@@ 9002
anan 9003
gözlerini 9004
etkinlikleri 9005
Mirasları 9006
usulsüzlük 9007
tanımlanan 9008
bulgular 9009
çıkıyorlar 9010
Kouchner 9011
gördük 9012
görüşmelerinde 9013
önerinin 9014
tanımlan@@ 9015
büyükelçi 9016
çözümünde 9017
düzeyi 9018
eylemlerine 9019
Tanja 9020
kente 9021
tedbirlerinin 9022
çıkarıyor 9023
kaçakçılığının 9024
Kandiç 9025
cemaati 9026
ailelerin 9027
Her@@ 9028
barındıran 9029
anahtarı 9030
altyapının 9031
siyasetten 9032
desteğe 9033
belgesi 9034
yıldönümünde 9035
alacaklar 9036
Sözcüsü 9037
layacak 9038
entegrasyonunu 9039
madıklarını 9040
sınırını 9041
soruşturmalar 9042
kazanmış 9043
soruyor 9044
altyapısını 9045
reformunu 9046
Velchev 9047
WHO 9048
ismini 9049
yönetimiyle 9050
dönme 9051
vaatleri 9052
ulaştır@@ 9053
dokunulmazlık 9054
ılar@@ 9055
if@@ 9056
96 9057
ender 9058
atanan 9059
min@@ 9060
çözül@@ 9061
Osetya 9062
Sibiu 9063
görevlendir@@ 9064
Veles 9065
giz@@ 9066
dayandığını 9067
Vlahoviç 9068
Kısa 9069
yaratmaya 9070
DOS 9071
mesafe 9072
ayrılmaz 9073
üm@@ 9074
iyiye 9075
başarılar 9076
Bilimler 9077
yaratılması 9078
19. 9079
faaliyetlerde 9080
otoyolun 9081
geriledi 9082
dolandırıcılık 9083
kaynaklarından 9084
bulduğunu 9085
yüzme 9086
etkiler 9087
dersler 9088
hay@@ 9089
tanıklık 9090
çoğunda 9091
tanıtmak 9092
ürünlerini 9093
Gal@@ 9094
duyurduğu 9095
uzlaşmayı 9096
hasara 9097
burası 9098
dediği 9099
3,2 9100
Zukorliç 9101
birinden 9102
bitir@@ 9103
halktan 9104
mirasının 9105
onaylan@@ 9106
Kurumu 9107
öldürül@@ 9108
krediyle 9109
tahminler 9110
artarken 9111
ateşkes 9112
Bor@@ 9113
biçimi 9114
Mladenov 9115
arazi 9116
Borsası 9117
araştırmacılar 9118
getirmeleri 9119
eserler 9120
Gazze 9121
telefonla 9122
infaz 9123
çalışmasının 9124
IPA 9125
bayrak 9126
dığımız 9127
bizlere 9128
sıradaki 9129
vatandaşlığı 9130
işletmelere 9131
festivalinin 9132
düzenleyecek 9133
3,6 9134
ulaşmasını 9135
oynamaya 9136
yoğunlaş@@ 9137
ödemeyi 9138
re 9139
tamamlanmış 9140
riskine 9141
politikasında 9142
ımları 9143
topluluk 9144
gazetenin 9145
işçileri 9146
atama 9147
zanlısının 9148
öğleden 9149
evler 9150
tanıyor 9151
faktörler 9152
ort@@ 9153
yaşları 9154
haftasonu 9155
sahiplerine 9156
liklerini 9157
niteliğinde 9158
toprakları 9159
başlı 9160
2,3 9161
bugünlerde 9162
geçmesini 9163
önlemeye 9164
eylemlerin 9165
şahısların 9166
sahneye 9167
Çalışmaları 9168
Hala 9169
kazanmasına 9170
es 9171
nereye 9172
pazara 9173
tarafındaki 9174
sohbet 9175
kullanmakla 9176
oranın 9177
yasaklayan 9178
değerlendiriyorsunuz 9179
Uz@@ 9180
çalışacağız 9181
duğu 9182
maz@@ 9183
düştüğünü 9184
ilgilenen 9185
İnsani 9186
ürken 9187
dir@@ 9188
liderlerinden 9189
Şirketi 9190
Zdravko 9191
Ber@@ 9192
Para 9193
etmiştir 9194
hayatlarını 9195
Galerisi 9196
hazırlayan 9197
oteller 9198
tarafça 9199
pazarda 9200
biliniyor 9201
fiyatlarında 9202
sonuncusu 9203
ıda 9204
tanımaya 9205
yönel@@ 9206
hepimizin 9207
katkılarından 9208
gözüyle 9209
bırakma 9210
kutladılar 9211
mirasını 9212
tutarındaki 9213
planladıklarını 9214
Günter 9215
yönetime 9216
ici 9217
mam 9218
değerlendiriliyor 9219
tr@@ 9220
konum@@ 9221
kaydedildiğini 9222
katılmış 9223
ıc@@ 9224
ımının 9225
Donald 9226
meclisinin 9227
yaşamış 9228
Birimi 9229
Jankulovska 9230
birbirlerini 9231
hızlandırması 9232
likler 9233
yerler 9234
yetkililerinden 9235
acağımız 9236
Ne@@ 9237
adada 9238
işgücü 9239
biridir 9240
De@@ 9241
Damir 9242
suikasta 9243
gelmeye 9244
isteksiz 9245
tereddüt 9246
bileceği 9247
istihdamı 9248
sayımının 9249
Air 9250
Tıp 9251
kapıları 9252
demokratikleşme 9253
hektar 9254
Kararı 9255
isteğiyle 9256
Fırtına 9257
ücretler 9258
tutuklandığını 9259
Downer 9260
450 9261
ga 9262
2,2 9263
makamlara 9264
değiştirdi 9265
olaylardan 9266
organizatörler 9267
sonuçlan@@ 9268
karşıt 9269
organları 9270
Anna 9271
duğuna 9272
ilmiş 9273
ol 9274
leşme 9275
yanısıra 9276
Rudoviç 9277
Top@@ 9278
teklifini 9279
koşul 9280
istifası 9281
AİHM 9282
pat@@ 9283
bozul@@ 9284
meblağ 9285
piyasaları 9286
grubunda 9287
sürenin 9288
verebilir 9289
yakınlardaki 9290
Matiç 9291
sivillerin 9292
filmde 9293
kovuşturma 9294
5,5 9295
Josip 9296
Di@@ 9297
isten@@ 9298
protokolü 9299
sitesine 9300
süreceğini 9301
esindeki 9302
0@@ 9303
art 9304
mekanizması 9305
politikanın 9306
karşılamada 9307
gönderdiğini 9308
imin 9309
Nazi 9310
unsurların 9311
Birlikte 9312
su@@ 9313
çiğne@@ 9314
kaçan 9315
Joseph 9316
lıktan 9317
Marian 9318
Fakat 9319
umutlarına 9320
azami 9321
lider@@ 9322
duyul@@ 9323
hedefimiz 9324
çatısı 9325
Arhin 9326
duruşmada 9327
kutsal 9328
olasılıkları 9329
dönmesi 9330
Anlaşmaları 9331
ban@@ 9332
M.Ö. 9333
masındaki 9334
Ara@@ 9335
bayrağını 9336
leştirme 9337
gec@@ 9338
seçenekler 9339
kullanması 9340
kalabilir 9341
hazırlanmıştır 9342
soruyu 9343
açılışında 9344
barışçıl 9345
eleriyle 9346
kılıyor 9347
suikastı 9348
sezonu 9349
şikayette 9350
Cyprus 9351
Tony 9352
turistlere 9353
sayıl@@ 9354
oranlarının 9355
Şiir 9356
suçluları 9357
mer@@ 9358
eceklerine 9359
eğil@@ 9360
milyona 9361
Birinci 9362
yapıyordu 9363
Dimitar 9364
ayaklanmalar 9365
getirip 9366
İnsanların 9367
hissediyor 9368
toplandılar 9369
Zadar 9370
oluşturacak 9371
liler 9372
verimsiz 9373
Yılın 9374
Petroleum 9375
tüketicilerin 9376
izlenmesi 9377
baharda 9378
çiler 9379
çalıştıklarını 9380
meclisten 9381
Suç@@ 9382
izleyecek 9383
süresince 9384
yöntemleri 9385
bırakarak 9386
Resmi 9387
okulun 9388
yaptır@@ 9389
Dur@@ 9390
izm 9391
kendimizi 9392
ilişkilerine 9393
haber@@ 9394
düzen 9395
gelişimini 9396
oradaki 9397
elle 9398
ertelendi 9399
göstermiş 9400
görünmüyor 9401
tutuluyor 9402
dikkatini 9403
seçmenin 9404
birincisi 9405
işleyişini 9406
uygunsuz 9407
açarken 9408
belirtmişti 9409
konulardaki 9410
kısıt@@ 9411
takas 9412
istatistiklere 9413
Osijek 9414
Koordinasyon 9415
saatten 9416
Dick 9417
ayıran 9418
kararlaştırılan 9419
dü@@ 9420
bölgelerine 9421
üstlenecek 9422
ertelenmesi 9423
yakın@@ 9424
Balkanların 9425
güçlükleri 9426
şüphelinin 9427
yakalandı 9428
Busek 9429
kredileri 9430
yapının 9431
750 9432
plan@@ 9433
mallara 9434
yetkililerini 9435
gele@@ 9436
çarptırıldı 9437
rolüyle 9438
hemşire 9439
imzalanmasından 9440
topluluğun 9441
yoğunlaştır@@ 9442
aşkın 9443
taslağı 9444
gelişimine 9445
turizmin 9446
Anders 9447
kaydettiler 9448
Eurostat 9449
planlayan 9450
hisselerinin 9451
haklara 9452
ilerek 9453
EVN 9454
Marin 9455
kolaylaştıracak 9456
Denis 9457
bürokratik 9458
özelleştirmenin 9459
dayat@@ 9460
tutulması 9461
ayları 9462
6. 9463
ayrımcılığa 9464
ateşe 9465
sağlamasını 9466
İsviçreli 9467
Daviniç 9468
tahsil 9469
devir 9470
cezalarını 9471
dostu 9472
diyalogun 9473
Kurulunun 9474
olmadığının 9475
tanıdı 9476
Sayın 9477
sıralamada 9478
ekibin 9479
altyapısının 9480
tutukla@@ 9481
başlatmayı 9482
Kipriyanu 9483
dayanılarak 9484
donanımı 9485
Bernard 9486
sağlamada 9487
eksikliğinin 9488
uğrayan 9489
kutlamalar 9490
Val@@ 9491
dav@@ 9492
yazın 9493
altından 9494
görülmeye 9495
hazırlandı 9496
görebil@@ 9497
ılmasında 9498
göndermeyi 9499
danışmanlarından 9500
olanaklarını 9501
seçimin 9502
yüze 9503
bağlan@@ 9504
şunu 9505
futbol@@ 9506
ayar@@ 9507
adındaki 9508
Suriyeli 9509
ıklarını 9510
platform 9511
siç 9512
liderlerine 9513
Visegrad 9514
izi 9515
medikçe 9516
ul 9517
Europol 9518
karar@@ 9519
karşılaştır@@ 9520
program@@ 9521
kuruluşundan 9522
teftiş 9523
korumanın 9524
uzaklaş@@ 9525
bırakılması 9526
devlet@@ 9527
heykeli 9528
vak@@ 9529
Hükümetin 9530
alarm 9531
dönemini 9532
Trablus 9533
canlandır@@ 9534
gitme 9535
düzeydeki 9536
Mon@@ 9537
fikrinin 9538
basını 9539
destekten 9540
bo@@ 9541
evlerinden 9542
yavaşlat@@ 9543
refahı 9544
incelemeye 9545
ortamın 9546
kriterlerine 9547
ekonom@@ 9548
Ilir 9549
olmayacaktır 9550
ilerletmenin 9551
Doğrudan 9552
parlamentoyu 9553
güçlendirmeye 9554
Bunlar 9555
korkuyorlar 9556
Benim 9557
vermeyeceğini 9558
kurşun 9559
kaf@@ 9560
boşalt@@ 9561
almıyor 9562
düşünüyorlar 9563
Özkök 9564
kurumlarından 9565
fuara 9566
yerlerini 9567
açıklık 9568
reformunda 9569
Scepanoviç 9570
lerdir 9571
diktatör 9572
açıklamasını 9573
x 9574
Lulzim 9575
bulduğu 9576
göl@@ 9577
andı 9578
dönemlerde 9579
alınacağını 9580
7. 9581
yoldaki 9582
konuyor 9583
disiplin 9584
Srebrenitsa 9585
uğraşan 9586
baştan 9587
katliamının 9588
değerler 9589
Herman 9590
meyeceğine 9591
düzenleyici 9592
Tahran 9593
Oslo 9594
istendi 9595
Romenler 9596
söyleyebilirim 9597
12@@ 9598
yüzücü 9599
umutlarının 9600
lu@@ 9601
azınlığı 9602
sinden 9603
Seçimler 9604
örgüt@@ 9605
yuvarlak 9606
sistemde 9607
Selimi 9608
şahıslar 9609
bulunuyoruz 9610
ima 9611
demektir 9612
üz@@ 9613
masum 9614
zorunluluğu 9615
işlen@@ 9616
kaydediyor 9617
okulların 9618
geçirmeyi 9619
devamında 9620
kesimin 9621
Topluluğu 9622
Kazakistan 9623
yaratacağı 9624
tutuklanmasını 9625
malzeme 9626
sorunlarıyla 9627
bazılarını 9628
şüpheliler 9629
yordu 9630
skandalı 9631
BiH 9632
Hrant 9633
Sariç 9634
idaresinin 9635
mensupları 9636
sayfa 9637
Bağdat 9638
memnunum 9639
olasılığına 9640
metrajlı 9641
eserlerinin 9642
Ol@@ 9643
sunarak 9644
ladılar 9645
MHP 9646
yetkisini 9647
imzalama 9648
kandır@@ 9649
depolama 9650
umutlar 9651
Bancroft 9652
alan@@ 9653
imzalanmasını 9654
yüzyıla 9655
Ischinger 9656
askerinin 9657
dönemindeki 9658
gündemine 9659
aniden 9660
sorun@@ 9661
imtiyaz 9662
yürüt@@ 9663
hepsinin 9664
Alkalay 9665
ladığını 9666
tören 9667
ılabileceği 9668
tır@@ 9669
ihracat@@ 9670
Anlaşma 9671
onaylama 9672
satışları 9673
annesi 9674
yapısını 9675
cı 9676
çatışmalarda 9677
yağ@@ 9678
Stratejisi 9679
görmeyi 9680
vurgula@@ 9681
duyurusunda 9682
sinyallerini 9683
dığının 9684
eşitliği 9685
1,8 9686
Filarmoni 9687
kaldırıldı 9688
tutuklayıp 9689
bırakıyor 9690
katıldığını 9691
hissesinin 9692
eti@@ 9693
GSM 9694
kesintiler 9695
endişelere 9696
olasılık 9697
vakası 9698
Prosper 9699
asayiş 9700
madılar 9701
savcının 9702
verilerin 9703
abileceklerini 9704
mediklerini 9705
civarındaki 9706
harcamalarının 9707
duvar@@ 9708
bağlıyor 9709
etmeden 9710
yaralandığı 9711
larımıza 9712
servisi 9713
tarafını 9714
kaybettiğini 9715
liderliğinde 9716
kentlerde 9717
ekonomide 9718
Janez 9719
çalışmasına 9720
zıt 9721
çalıştıkları 9722
Viktor 9723
karşılaması 9724
şehrin 9725
kesimleri 9726
etken 9727
Kol@@ 9728
laştır@@ 9729
koyduğunu 9730
atlat@@ 9731
Hellenic 9732
unsurları 9733
kökünü 9734
Mladjan 9735
imzalamış 9736
mamıza 9737
CD 9738
genç@@ 9739
Yakup 9740
Luksiç 9741
vurgulayarak 9742
hazırlıklar 9743
prosedürü 9744
görüldüğünü 9745
reddedildi 9746
anayasası 9747
sarf@@ 9748
ımızda 9749
terörizm 9750
düzenlemeye 9751
süreciyle 9752
engelledi 9753
politikaların 9754
3,@@ 9755
tahminlerine 9756
op@@ 9757
kabulü 9758
söylenen 9759
2,9 9760
güvensizlik 9761
öngörüldüğü 9762
Remikoviç 9763
konulardan 9764
kurtul@@ 9765
kısım 9766
www.@@ 9767
ent@@ 9768
kurmuş 9769
etmelerini 9770
gerekç@@ 9771
çabalarından 9772
Tar@@ 9773
olduktan 9774
kitapları 9775
Sreten 9776
getirmesine 9777
Tak@@ 9778
bulunup 9779
başkentinin 9780
hepsinden 9781
10. 9782
usulsüzlükler 9783
asa 9784
iradeye 9785
Kara 9786
ilerde 9787
Curoviç 9788
olmalarını 9789
faaliyetlere 9790
Se@@ 9791
Yol@@ 9792
Sadece 9793
ru@@ 9794
siber 9795
tanıması 9796
amaçları 9797
Ab@@ 9798
Metohija 9799
makamlarıyla 9800
düştüğü 9801
öldürülmesinin 9802
bizden 9803
borcun 9804
oynayacak 9805
teknolojisi 9806
imzalamayı 9807
memeleri 9808
beklediklerini 9809
doğur@@ 9810
Samir 9811
dilinde 9812
hastaneye 9813
R 9814
harcam@@ 9815
sistemindeki 9816
Pol@@ 9817
verme@@ 9818
erkeklerin 9819
engellerle 9820
Krstiç 9821
döne@@ 9822
15. 9823
malî 9824
hayat@@ 9825
kullanıldı 9826
gensoru 9827
bağlant@@ 9828
verimlilik 9829
talebin 9830
gruplara 9831
imzalanmış 9832
iyse 9833
sorumlulukları 9834
hazine 9835
ham@@ 9836
çök@@ 9837
ödülün 9838
Mir@@ 9839
kablosuz 9840
amadığını 9841
Rus@@ 9842
kullanıcı 9843
rekabete 9844
MAP 9845
saklan@@ 9846
Konseyin 9847
Mail 9848
acele 9849
bTV 9850
hatırlattı 9851
ekonomisinde 9852
maliyetinin 9853
Business 9854
sahnesinde 9855
gelirler 9856
düzel@@ 9857
diyalogu 9858
gittiler 9859
yapılandır@@ 9860
seller 9861
harcamalar 9862
cm 9863
verecektir 9864
gönderilecek 9865
sıralanıyor 9866
kapısında 9867
kadınları 9868
gündemi 9869
varlığına 9870
yükünü 9871
Dimitrij 9872
akıl 9873
ete 9874
bileceğini 9875
destekçisi 9876
birbirleriyle 9877
tamamlanmasını 9878
ağında 9879
memurlar 9880
Miranda 9881
diş 9882
aradığı 9883
piyasasında 9884
üretimin 9885
bazılarına 9886
Verdi 9887
fikirler 9888
Bay 9889
becerileri 9890
zaferini 9891
lıkların 9892
kod 9893
sinyal 9894
uzmanlarının 9895
mar@@ 9896
onayını 9897
Veselin 9898
va 9899
kanıtlamak 9900
mamalı 9901
kaldırılmasına 9902
Temsilcilik 9903
hizmetlerin 9904
Ford 9905
gide@@ 9906
meşhur 9907
Frankfurt 9908
amacını 9909
kraliyet 9910
santralleri 9911
düşünen 9912
eylemin 9913
ber@@ 9914
mezse 9915
uyum@@ 9916
Haklar 9917
ODIHR 9918
vatandaş@@ 9919
Ro@@ 9920
inşasının 9921
memleketi 9922
Doğ@@ 9923
çete 9924
ildiği 9925
adamın 9926
tehlikesi 9927
bağışta 9928
yip 9929
ödemeleri 9930
Sendikası 9931
tahvil 9932
kurarak 9933
gelmişti 9934
Listesi 9935
sahipken 9936
Nova 9937
sol@@ 9938
getirmenin 9939
girmeyi 9940
Belçikalı 9941
yöntemi 9942
kavuştur@@ 9943
olaylarla 9944
tim 9945
tanımlayan 9946
ou 9947
Vulgarakis 9948
uzunluğunda 9949
siz@@ 9950
stratejiyi 9951
düşünmeye 9952
1960 9953
komşularıyla 9954
Baykal 9955
girişi 9956
maaşı 9957
asker@@ 9958
doğdu 9959
devletleri 9960
ğini 9961
başkanlığından 9962
konuşmasını 9963
kurumlardan 9964
sal 9965
kaya 9966
yurt 9967
abilen 9968
işaretler 9969
Yılı 9970
krizini 9971
çıkabilecek 9972
Milletler 9973
Bunu 9974
ılmaya 9975
araştırmada 9976
ilerlediğini 9977
Internet 9978
Tudjman 9979
şeye 9980
ilmesi 9981
mamıştır 9982
diç 9983
savcılarının 9984
öneriyor 9985
kaydet@@ 9986
tutacak 9987
28. 9988
reddet@@ 9989
şehit 9990
birbiriyle 9991
cumhurbaşkanına 9992
dayak 9993
kullandığını 9994
adeta 9995
larken 9996
beklemeye 9997
kurum@@ 9998
lıklarını 9999
emeyeceğini 10000
tabanlı 10001
olduklarına 10002
generaller 10003
ih@@ 10004
güne 10005
sergiler 10006
Cannes 10007
olmasıdır 10008
Ön@@ 10009
v 10010
sinde 10011
anlardan 10012
verdiklerini 10013
öldürülmesiyle 10014
faaliyetlerinde 10015
danış@@ 10016
işaret@@ 10017
protestocu 10018
Af 10019
öncülük 10020
Tesla 10021
temeli 10022
sigortası 10023
bırakıl@@ 10024
kurtarmak 10025
yarışan 10026
mark@@ 10027
cumhuriyetinin 10028
Su 10029
kazançlı 10030
örgütüne 10031
yükselerek 10032
kanundan 10033
Security 10034
Ceriç 10035
ılırken 10036
melerin 10037
ğe 10038
teklifinde 10039
kongre 10040
zararı 10041
dokuzuncu 10042
bakanlıklar 10043
telif 10044
Bekay 10045
barikatların 10046
mavi 10047
sah@@ 10048
acağım 10049
eşitlik 10050
geçişi 10051
operasyonlarına 10052
beklentiler 10053
çözümlen@@ 10054
dönüyor 10055
gönderiyor 10056
ebiliyor 10057
olmuyor 10058
Li@@ 10059
telaffuz 10060
destekleniyor 10061
iyet 10062
kuzeydoğusundaki 10063
kutlandı 10064
tüketimi 10065
ari 10066
hazırdır 10067
öneride 10068
yükü 10069
tanımlanıyor 10070
Duliç 10071
eşliğinde 10072
sonuçsuz 10073
benzersiz 10074
suçsuz 10075
paylaştı 10076
diniz 10077
binalar 10078
tarihsel 10079
İzetbegoviç 10080
mesajlar 10081
Br@@ 10082
alık 10083
dolardan 10084
kaydetmek 10085
ska 10086
çevrimiçi 10087
Müdür 10088
ılarıyla 10089
farklılık 10090
merkez@@ 10091
eserlerin 10092
çıkarılmasını 10093
kalarak 10094
Momcilo 10095
olmadıkları 10096
Ad@@ 10097
suçlamalarla 10098
Ranko 10099
inanan 10100
artacak 10101
madıkça 10102
kok@@ 10103
ICC 10104
suçlarında 10105
olayının 10106
feci 10107
çıkardığını 10108
büyük@@ 10109
işyeri 10110
üstlenen 10111
hacmi 10112
Soruşturma 10113
edilmesinde 10114
Brayşori 10115
izlemeye 10116
Yol 10117
Toplumu 10118
abileceğine 10119
anketin 10120
kazanacak 10121
ICO 10122
tekrar@@ 10123
teşkilatlarının 10124
lat@@ 10125
trajik 10126
dilde 10127
vermiştir 10128
edilmesiyle 10129
girmesine 10130
sırasındaki 10131
zayıf@@ 10132
çatış@@ 10133
Ülkenin 10134
anketine 10135
eceğimiz 10136
Berisha 10137
Fogh 10138
hakemlik 10139
memnuniyet 10140
kutlamaları 10141
hüküm@@ 10142
Elena 10143
istediğimiz 10144
uyguluyor 10145
olabiliyor 10146
anlatılıyor 10147
ılıp 10148
gelin@@ 10149
Sorumlusu 10150
kalkınması 10151
etkile@@ 10152
kapısının 10153
Araştırmacı 10154
İz@@ 10155
tık 10156
Görüş@@ 10157
bulunmayı 10158
Kuruluşu 10159
On 10160
Federal 10161
alam@@ 10162
kurulun 10163
ücretleri 10164
Düzenleme 10165
toplantıları 10166
yapay 10167
topu 10168
ulaştığını 10169
anti 10170
istasyonu 10171
seçilecek 10172
İsmail 10173
Herseğin 10174
sunulması 10175
suçlamalarıyla 10176
felaket@@ 10177
harekatı 10178
saldırılara 10179
bilecek 10180
açabilecek 10181
mensuplarının 10182
göstermesine 10183
iyileştirmeye 10184
İs@@ 10185
atlet 10186
Krivokapiç 10187
anlaşmalara 10188
eyle 10189
çıkarılacak 10190
kullanırken 10191
soy@@ 10192
küçül@@ 10193
saldırılarda 10194
donan@@ 10195
Artık 10196
Bayrami 10197
dağıtmak 10198
çözüm@@ 10199
ret 10200
birlikleri 10201
sloganı 10202
Yan@@ 10203
kararsız 10204
tercihli 10205
aza 10206
Güçler 10207
becer@@ 10208
Harri 10209
tasarım 10210
ke 10211
Rekabet 10212
edilmek 10213
yön@@ 10214
tep@@ 10215
yaktı 10216
muyor 10217
C. 10218
karşılamakla 10219
Tabii 10220
kuvvet@@ 10221
rota 10222
İle 10223
almadığını 10224
konumuna 10225
çeşit 10226
likte 10227
ılmıştı 10228
spor@@ 10229
almalarını 10230
grafik 10231
taşıy@@ 10232
dördü 10233
mese 10234
anlaşmazlıkları 10235
vermekten 10236
kuruluşlarından 10237
tanıkların 10238
taraftar 10239
landığını 10240
bel@@ 10241
ardılı 10242
rotası 10243
sayısındaki 10244
tutulacak 10245
bölgelerinden 10246
tarihinden 10247
uluyor 10248
parasını 10249
saklandığına 10250
ati@@ 10251
sokaklarda 10252
Raporunda 10253
boy@@ 10254
Bağış 10255
ihtimali 10256
Yayın 10257
belirtiyorlar 10258
rolüne 10259
memesini 10260
ölümünün 10261
müttefikleri 10262
ikisini 10263
aşı 10264
bilimler 10265
zorluklarla 10266
Tzanis 10267
şartına 10268
kaydedilmesi 10269
kuruluşlarına 10270
çarptır@@ 10271
efsanesi 10272
yıkılan 10273
Ge@@ 10274
kamyon 10275
halklarının 10276
Koştunitsa 10277
fikirleri 10278
zan 10279
ofisinin 10280
asyona 10281
4,4 10282
cumhuriyeti 10283
gelecekler 10284
Vodafone 10285
başbakana 10286
verimliliği 10287
taşımak 10288
ığı 10289
zamları 10290
hizmetlerine 10291
eşit@@ 10292
çocuğa 10293
verdim 10294
Butler 10295
sergiliyor 10296
kaldırarak 10297
ağın 10298
görevin 10299
alanlara 10300
bütünlüğünü 10301
Lazareviç 10302
barındır@@ 10303
kanıt@@ 10304
mesidir 10305
değerlendirmede 10306
analizi 10307
suçlamasıyla 10308
arkeolog 10309
hayatına 10310
Packett 10311
asyonu 10312
kanseri 10313
uymak 10314
temsilcilerinden 10315
raf@@ 10316
aradan 10317
engelliyor 10318
YouTube 10319
ithalat@@ 10320
doktora 10321
Amariei 10322
katma 10323
Kralı 10324
miktarın 10325
belir@@ 10326
Surroi 10327
oyuncuların 10328
edi@@ 10329
görevlerinden 10330
verilirken 10331
Koridoru 10332
lanacak 10333
Cluj 10334
Jan 10335
Centre 10336
for@@ 10337
Samaras 10338
devasa 10339
ısıtma 10340
role 10341
ufukta 10342
PDL 10343
Ter@@ 10344
maçın 10345
hattına 10346
fonlarından 10347
Chris 10348
ılı 10349
yapmaması 10350
yaralan@@ 10351
Tuğgeneral 10352
irdi 10353
Kotor 10354
öneminin 10355
Fon@@ 10356
Borut 10357
Yar@@ 10358
Vatikan 10359
tüfek 10360
üretiminde 10361
barikatları 10362
havacılık 10363
söylenebilir 10364
hareket@@ 10365
cam@@ 10366
Voice 10367
siyasette 10368
aktan 10369
ilke 10370
Zupljanin 10371
2,7 10372
varış 10373
Pack 10374
kilisenin 10375
topluluğu 10376
eva 10377
ündeki 10378
inanç 10379
kampında 10380
Marshall 10381
imizde 10382
bilinmiyor 10383
yaratması 10384
yatırıma 10385
tiğini 10386
Evenimentul 10387
getirmiş 10388
gecikmeler 10389
gerçek@@ 10390
elimizde 10391
arab@@ 10392
son@@ 10393
vermektedir 10394
misyonlarına 10395
Sljivancanin 10396
eleştiriliyor 10397
İşletmeleri 10398
yazarlarından 10399
nitelikteki 10400
Önümüzdeki 10401
Tek@@ 10402
British 10403
Srpske 10404
Zeri 10405
boyun 10406
aki 10407
hisselerini 10408
H 10409
hastalığın 10410
tazeledi 10411
laiklik 10412
eleştirerek 10413
2,6 10414
lo@@ 10415
lamış 10416
tu@@ 10417
teması 10418
eleştirdiler 10419
Interpol 10420
dükkan 10421
duyg@@ 10422
yal@@ 10423
santral@@ 10424
Perisiç 10425
Moratinos 10426
başkentine 10427
gündemin 10428
teçhizat 10429
zehirli 10430
kimliklerini 10431
KPT 10432
tanımayı 10433
geçirilmiş 10434
ödenmemiş 10435
eğitimin 10436
dayandır@@ 10437
Kir@@ 10438
görüştüğü 10439
iddialarıyla 10440
geliri 10441
Ben@@ 10442
hazır@@ 10443
Nedjeljko 10444
Pan@@ 10445
üretecek 10446
istemeyen 10447
gerileyerek 10448
kanun 10449
muştur 10450
şekil@@ 10451
Hizbullah 10452
şimdiki 10453
Christie 10454
havada 10455
Claude 10456
süper 10457
pasaportlar 10458
3,8 10459
OMV 10460
maçta 10461
değerlendirmeye 10462
aramaya 10463
Bölümü 10464
seviyedeki 10465
Belediyesi 10466
kardeş@@ 10467
ovska 10468
sanılıyor 10469
Butmir 10470
lenecek 10471
revize 10472
lakaplı 10473
hariç 10474
yoksulluğu 10475
imajı 10476
alanının 10477
moda 10478
değerinin 10479
Savcılığı 10480
çatışmada 10481
Haftası 10482
Marmara 10483
doğa 10484
yarısının 10485
yakalay@@ 10486
teröristler 10487
Büyükanıt 10488
süre@@ 10489
JNA 10490
getirebil@@ 10491
rafa 10492
saygın 10493
Hollywood 10494
bölgelerinin 10495
Sar@@ 10496
niyeti 10497
araçların 10498
mesindeki 10499
c 10500
davetlisi 10501
Hiçbir 10502
ğin 10503
basınına 10504
tıklarını 10505
çeyrek 10506
hentbol 10507
mişlerdi 10508
Bonn 10509
Bingazi 10510
ürünlerine 10511
ilerlemeden 10512
öncesindeki 10513
kaybetme 10514
medik 10515
etin 10516
of@@ 10517
N 10518
kısmında 10519
tolere 10520
genişlemesinin 10521
bilmek 10522
operasyona 10523
kapısını 10524
yönlü 10525
Hilmi 10526
arzı 10527
milyarlarca 10528
Kav@@ 10529
okulda 10530
Vukoviç 10531
yazıyor 10532
ahşap 10533
süregelen 10534
kontrolündeki 10535
1,9 10536
kuraklık 10537
bakana 10538
Önemli 10539
azaltmaya 10540
savc@@ 10541
etkisiz 10542
düşünül@@ 10543
tavrını 10544
yaratacağını 10545
bütünlüğüne 10546
Markac 10547
yansıyan 10548
yönetiliyor 10549
sonuçlanması 10550
korum@@ 10551
sözleşmesi 10552
Ek@@ 10553
zam@@ 10554
değerlendirilmesi 10555
istişareler 10556
kazanmayı 10557
gül@@ 10558
durumlar 10559
deneyim@@ 10560
turunun 10561
Sch@@ 10562
3,4 10563
Mevcut 10564
220 10565
Johnson 10566
Janica 10567
opulos 10568
ulusun 10569
azalan 10570
teşkilatları 10571
ılabilecek 10572
özgürce 10573
sekizinci 10574
kültürünün 10575
tartışılan 10576
bağımlı 10577
Stavrevski 10578
şi 10579
ödüle 10580
canlandırma 10581
tarama 10582
parayla 10583
erdiği 10584
sanatçıları 10585
fikre 10586
avukatlar 10587
büyüyor 10588
Cor@@ 10589
yön 10590
yenler 10591
kapanış 10592
niçin 10593
evlerin 10594
iri 10595
topraklarındaki 10596
memesine 10597
personelin 10598
Kom@@ 10599
belgelerini 10600
aynısını 10601
şubesi 10602
düşman 10603
yok@@ 10604
çerçevesi 10605
gerçekleşeceğini 10606
profesyonel@@ 10607
çocuklarına 10608
ark@@ 10609
sunacağı 10610
çalıştır@@ 10611
taraflara 10612
Planlama 10613
yetenekli 10614
telafi 10615
ısıyla 10616
Danimarkalı 10617
seçtiler 10618
tem@@ 10619
sistemli 10620
sömür@@ 10621
büyüklüğü 10622
yükümlülüklerin 10623
he@@ 10624
istemiyorum 10625
söz@@ 10626
79 10627
uk 10628
yardımcıları 10629
koşullarda 10630
özelliği 10631
iyimserliğini 10632
ifadede 10633
işletim 10634
varken 10635
mine 10636
iddianameyi 10637
bütç@@ 10638
OECD 10639
kıyısı 10640
bütçesinde 10641
Polonyalı 10642
Cuk 10643
gerçeğini 10644
inşaatın 10645
masi 10646
Girit 10647
analiz@@ 10648
dünyaca 10649
havaalanının 10650
tanımlanmış 10651
bölgesini 10652
grev@@ 10653
ekle@@ 10654
oturma 10655
televizyonda 10656
çıkarması 10657
piyanist 10658
düşürme 10659
düşüşün 10660
yazarlar 10661
yerden 10662
salonu 10663
taşı@@ 10664
uğramış 10665
yaşartıcı 10666
yöneti@@ 10667
Festivalinin 10668
Kukes 10669
alabilecek 10670
saldırılarına 10671
inkar 10672
genişlemenin 10673
ekoloji 10674
sahasında 10675
alet 10676
Snezana 10677
ihtilafları 10678
seviyeleri 10679
hikay@@ 10680
Balkanlardaki 10681
düşüncelerini 10682
yardımda 10683
rekabetin 10684
a- 10685
keyfini 10686
Özgürlükler 10687
ekibine 10688
Doğan 10689
suz 10690
uldu 10691
görmüyor 10692
protokol 10693
adlarını 10694
yum@@ 10695
belirsizliğini 10696
elçinin 10697
operasyonlarda 10698
yüklü 10699
ihtilaflar 10700
maddeler 10701
Veljoviç 10702
yıldızlı 10703
okulları 10704
felç 10705
ilerlemek 10706
yorumlarında 10707
WTO 10708
Hari 10709
kulübü 10710
kalmayacak 10711
düşüşle 10712
kaçınmaya 10713
sonradan 10714
etik 10715
besteci 10716
Bas@@ 10717
gelmedi 10718
organlarının 10719
yapıya 10720
bahset@@ 10721
sayısına 10722
bölünmüşlüğüne 10723
mektubu 10724
topluyor 10725
Başk@@ 10726
Fil@@ 10727
yinelediler 10728
safhası 10729
insana 10730
limanına 10731
adlandır@@ 10732
bek@@ 10733
Alpha 10734
mediğine 10735
diğinin 10736
onaylanmış 10737
Mitiç 10738
CARDS 10739
olabilmek 10740
kaybına 10741
tamamlamış 10742
halkları 10743
piyasasına 10744
mahkemesince 10745
emiyor 10746
Sitesi 10747
vurgulandı 10748
Karadağlılar 10749
çekiliyor 10750
Zilei 10751
karşısına 10752
değindi 10753
Kay@@ 10754
anlaşmalarının 10755
yorumcu 10756
ayki 10757
tanınma 10758
borçlarının 10759
nüfuslu 10760
bayram 10761
Emir 10762
oylaması 10763
eylemlerini 10764
Sven 10765
bitiminden 10766
ada@@ 10767
ımını 10768
etmedi 10769
verir 10770
savunucuları 10771
b 10772
dağıtılacak 10773
değerlendirmesini 10774
tipik 10775
vermesinden 10776
görüşmeyi 10777
mekti 10778
uğra@@ 10779
nihayetinde 10780
üretken 10781
5. 10782
kararlılığı 10783
belediyesinde 10784
Safet 10785
Top 10786
ödüller 10787
ettim 10788
seçenekleri 10789
kafa 10790
güvenliğine 10791
istikrarsız 10792
gri 10793
Su@@ 10794
sektörleri 10795
kurtulmak 10796
karşısındaki 10797
sunmaları 10798
programlarına 10799
Andreas 10800
Pacolli 10801
taşımaktadır 10802
komitenin 10803
bağladı 10804
inşasında 10805
kampanyaları 10806
çıkacağını 10807
yayınlayarak 10808
girdiğini 10809
Kosovo 10810
buluşma 10811
Kos@@ 10812
yenildi 10813
uzakta 10814
özgü 10815
00 10816
övgüyle 10817
biyo@@ 10818
şekli 10819
Ungureanu 10820
düğünü 10821
İşsizlik 10822
acilen 10823
itfaiye 10824
enlere 10825
vergisini 10826
sutopu 10827
şampiyon@@ 10828
görevlerine 10829
mevzuatı 10830
piyasasının 10831
tarihçi 10832
avukatları 10833
yardımları 10834
Yıl@@ 10835
Bakanlığından 10836
etkileyebilir 10837
OTE 10838
ale 10839
müttefik@@ 10840
Sydney 10841
farkındayız 10842
müz@@ 10843
müşteri 10844
onayladılar 10845
sinyaller 10846
sandalyeye 10847
kaderini 10848
görüşmesinin 10849
yarışması 10850
uzlaş@@ 10851
Global 10852
suistimal 10853
varsay@@ 10854
Tur@@ 10855
bütçede 10856
yoğunluklu 10857
çocuk@@ 10858
onay@@ 10859
çöp 10860
tutması 10861
gecikmeden 10862
Schröder 10863
mahkemelere 10864
kargaşa 10865
varıldı 10866
nöbet 10867
atmosfer 10868
sokmak 10869
kimseye 10870
Cedomir 10871
ast@@ 10872
Mediu 10873
Mariç 10874
hazırlandığı 10875
belediyesinin 10876
Vujanoviç 10877
çıkarlarının 10878
gerçeğe 10879
yenilik 10880
1.200 10881
ucu 10882
şartını 10883
alıyoruz 10884
diğim 10885
denetle@@ 10886
ji 10887
politikalarına 10888
adaki 10889
daireler 10890
Stadyumu 10891
arac@@ 10892
mu@@ 10893
sıkıntı 10894
iddiası 10895
taraflardan 10896
Divac 10897
imz@@ 10898
işaretleri 10899
gelirlerin 10900
raporlar 10901
Şampiyonasında 10902
liğiyle 10903
sır@@ 10904
ağları 10905
nadiren 10906
hareketleri 10907
be 10908
uluslar 10909
ulaştığı 10910
onuruna 10911
Car@@ 10912
adasında 10913
satmak 10914
getirirken 10915
göstermiştir 10916
inoviç 10917
evski 10918
bol 10919
başkalarının 10920
okuyan 10921
hattını 10922
Gheorghe 10923
gelir@@ 10924
Oscar 10925
siyah 10926
gerçekleştirme 10927
kapılarının 10928
çıkaracak 10929
sağlamakla 10930
memurların 10931
siniz 10932
gelmeleri 10933
operasyonunda 10934
cesaret@@ 10935
aylığı 10936
eşgüdüm 10937
bütçeyi 10938
adanmış 10939
aldıktan 10940
meselelerde 10941
kapatmaya 10942
düşüyor 10943
birleştiren 10944
ATP 10945
ulaşacak 10946
kalmıyor 10947
Delta 10948
CNA 10949
toplanması 10950
güçleriyle 10951
suçlarını 10952
işlemler 10953
ta@@ 10954
ıyorlardı 10955
Grossman 10956
Baconschi 10957
değişikliklerini 10958
veritabanı 10959
yanına 10960
fiyata 10961
gecede 10962
adasının 10963
oruç 10964
göndermeye 10965
komisyonunun 10966
anketlerde 10967
ziyarete 10968
kart 10969
so@@ 10970
kızgın 10971
Evangelos 10972
Pet@@ 10973
uğraşıyor 10974
William 10975
restoranlar 10976
eleştirel 10977
hikayesi 10978
jeopolitik 10979
verilmedi 10980
mağaza 10981
kalitesinin 10982
acaktı 10983
Emniyet 10984
br@@ 10985
avukat@@ 10986
sivilin 10987
kurumlarla 10988
olu 10989
çeşitlilik 10990
iv@@ 10991
ekonomiler 10992
amay@@ 10993
öğrenmek 10994
Tasarruf 10995
Benedikt 10996
mamıştı 10997
irsiniz 10998
KADEK 10999
görüşülen 11000
ımına 11001
temsilcinin 11002
kaldırılmasının 11003
öğretmenler 11004
sağlayıcısı 11005
madık 11006
tesislerinin 11007
BB 11008
kararlaştır@@ 11009
karşılaştı 11010
Ligi 11011
ız@@ 11012
imizden 11013
alış@@ 11014
yolsuzluktan 11015
saatte 11016
arkasındaki 11017
devralan 11018
genişletmek 11019
böl@@ 11020
hatırlat@@ 11021
tedbirin 11022
devredil@@ 11023
kanunu 11024
hapishan@@ 11025
uzman@@ 11026
potansiyelinin 11027
verimliliğini 11028
yineleyen 11029
koymaya 11030
etkil@@ 11031
Thomas 11032
ihalesi 11033
binaları 11034
doğudaki 11035
azınlığa 11036
mahkemeleri 11037
geleneği 11038
ımdan 11039
Manastırı 11040
seviyelere 11041
tanımak 11042
azalmaya 11043
oynay@@ 11044
fasıl 11045
nitelendiriyor 11046
tal@@ 11047
satma 11048
alg@@ 11049
yönü 11050
Kuveyt 11051
denildi 11052
duyuyoruz 11053
hastaların 11054
ların@@ 11055
açığın 11056
Cermak 11057
müzakerelerdeki 11058
renkli 11059
iti 11060
biç@@ 11061
gerekeceğini 11062
Mitroviç 11063
şike 11064
yıldız 11065
Energy 11066
imtiyazlı 11067
ortaklar 11068
Ljube 11069
ifadesini 11070
reformuna 11071
Sami 11072
beşte 11073
karşıtlar 11074
süreleri 11075
rot@@ 11076
ailelerinin 11077
beklentilerini 11078
Başpiskopos 11079
geli@@ 11080
yargılanması 11081
yapılandırılması 11082
profesör 11083
nitelendirilen 11084
ziyaretçilerin 11085
generali 11086
Antiç 11087
kuvvetlerine 11088
tel 11089
iya 11090
yargılanmakta 11091
rol@@ 11092
Parkı 11093
ihtiyacının 11094
ameliyat 11095
emekliler 11096
Suçu 11097
ulaşarak 11098
süreçleri 11099
çağrısını 11100
kimlikleri 11101
öncülü 11102
yumuş@@ 11103
yılların 11104
devr@@ 11105
ulması 11106
tıkları 11107
Arena 11108
başvurusu 11109
popülist 11110
125 11111
karıştığı 11112
herşeyin 11113
deneyimli 11114
parlamentodan 11115
katılmıyor 11116
Saranda 11117
eceğim 11118
Antonescu 11119
operasyonel 11120
müttefik 11121
gerektirdiği 11122
geçeceğini 11123
girişiminde 11124
sürü 11125
tutuklanarak 11126
kleri 11127
amayız 11128
ör 11129
Trandafir 11130
yas 11131
asyon@@ 11132
ınızı 11133
temasa 11134
finansmanına 11135
Çek@@ 11136
hevesli 11137
devamını 11138
etkilediğini 11139
işlemlerini 11140
maddelerin 11141
kapan@@ 11142
kurulduğu 11143
94 11144
zede@@ 11145
içerisinde 11146
imde 11147
demokras@@ 11148
eleştirildi 11149
ilç@@ 11150
erin 11151
ithalatına 11152
Marnhac 11153
döv@@ 11154
kalkınmanın 11155
satmayı 11156
Macovei 11157
çevresinde 11158
politikayı 11159
pazarlara 11160
baraj 11161
Jolie 11162
parlamentosunda 11163
Vukotiç 11164
kapatıldı 11165
yansıttığını 11166
biti@@ 11167
Mihayloviç 11168
2,8 11169
kömür 11170
Fischer 11171
memişti 11172
gözetiminde 11173
paylaşan 11174
leyen 11175
İletişim 11176
Papandreou 11177
benz@@ 11178
reformlarla 11179
ığına 11180
bildiri@@ 11181
çatışmalara 11182
öldüğü 11183
televizyondan 11184
13@@ 11185
RECOM 11186
sebep 11187
nüfuzunu 11188
yükümlülüğü 11189
uygulanıyor 11190
siyas@@ 11191
Geliştirme 11192
eme@@ 11193
başlarken 11194
yapacağına 11195
ikamet 11196
açısı 11197
Mem@@ 11198
ifadeleri 11199
kartları 11200
tanınmasına 11201
met 11202
not@@ 11203
taleplerine 11204
iyet@@ 11205
duyuran 11206
ie 11207
Usame 11208
euronun 11209
Bojan 11210
Mahkemesinde 11211
onaylanmasını 11212
voleybol 11213
çözmesi 11214
ülkeler@@ 11215
Romania 11216
kutla@@ 11217
Radu 11218
köken@@ 11219
ödeme@@ 11220
artmaya 11221
Tomiç 11222
şartlara 11223
edemeyiz 11224
oluşturulmasını 11225
Bi@@ 11226
geçmeden 11227
Gora 11228
konuşmak 11229
yayılmasını 11230
bırakmak 11231
uğradığını 11232
finalde 11233
çıkarı 11234
ce@@ 11235
kullanılmasını 11236
partilerle 11237
oturup 11238
mimar@@ 11239
ran@@ 11240
Et@@ 11241
güçlendirecek 11242
hâlen 11243
bankalarının 11244
Norveçli 11245
göndererek 11246
seri 11247
Tarculovski 11248
gereğine 11249
safhasına 11250
Etti 11251
bilgisi 11252
aram@@ 11253
emsal 11254
Üsküplü 11255
üm 11256
bakılıyor 11257
yargılanan 11258
adları 11259
ayakkabı 11260
yebilir 11261
yürürlükte 11262
ulu 11263
gitmeyi 11264
harit@@ 11265
serbestleştirilmesi 11266
yakalanan 11267
koleksiyon@@ 11268
Pek 11269
değerlendirecek 11270
turistleri 11271
Durum 11272
değişik 11273
olmasıyla 11274
yenilikçi 11275
pay 11276
baskıya 11277
sahasına 11278
vergilerini 11279
dostane 11280
adamlarının 11281
çöküşünden 11282
2,4 11283
etmesiyle 11284
gidiş@@ 11285
edildiler 11286
hazırlayacak 11287
belgelere 11288
girişimiyle 11289
artırmanın 11290
yüzüne 11291
BIRN 11292
sandalyenin 11293
Kusturica 11294
safhaya 11295
prosedürler 11296
görünür 11297
yaşıyorlar 11298
sonucunu 11299
yapacaklar 11300
akademisyen 11301
Mak@@ 11302
kaydıyla 11303
Petkov 11304
oylamadan 11305
360 11306
kurbanlarının 11307
yebil@@ 11308
ihanet 11309
uyordu 11310
Tokyo 11311
bombası 11312
atam@@ 11313
memiştir 11314
katlı 11315
RIA 11316
alınmıştı 11317
puanını 11318
değerlerini 11319
cezai 11320
kalıp 11321
Davis 11322
sahasını 11323
geçirmesini 11324
sistemlerini 11325
imalat 11326
meselelere 11327
fuar 11328
desteğinin 11329
girebil@@ 11330
sonuçlardan 11331
disiplin@@ 11332
Vekili 11333
odaklanması 11334
benimse@@ 11335
Türkmenistan 11336
Diyalog 11337
başarmış 11338
minin 11339
Merkezinin 11340
Mi@@ 11341
lendiği 11342
eşyalar 11343
muhalefetle 11344
sen 11345
puanları 11346
ulan 11347
akta 11348
troyka 11349
mayarak 11350
Raporu 11351
saldırılarının 11352
anmak 11353
ağaç 11354
ertelen@@ 11355
duktan 11356
CEZ 11357
sanatçısı 11358
Heyeti 11359
düzenini 11360
oturumda 11361
katılmasından 11362
Bağımsızlık 11363
üzer@@ 11364
bazında 11365
kampanyada 11366
göze 11367
eğilim@@ 11368
Andriç 11369
Az@@ 11370
Reformu 11371
azaltması 11372
pahalıya 11373
kurumunun 11374
aracılığında 11375
kullanıldığını 11376
akl@@ 11377
alınıp 11378
eşzamanlı 11379
yöneticileri 11380
kapasiteli 11381
uçur@@ 11382
koru@@ 11383
Meron 11384
çalışmış 11385
Sev@@ 11386
düzen@@ 11387
müştü 11388
301 11389
başarıları 11390
kın@@ 11391
gi 11392
dığım 11393
Stephen 11394
merkezini 11395
Hadziç 11396
Raduloviç 11397
ödenecek 11398
Si@@ 11399
etkisinin 11400
Bulatoviç 11401
Cemaati 11402
kentini 11403
koşulu 11404
elimizden 11405
düzelme 11406
Say@@ 11407
sübvansiyon 11408
üyesinden 11409
enleri 11410
şampiyon 11411
Plan@@ 11412
Murat 11413
destekliyoruz 11414
dökül@@ 11415
gemisi 11416
gire@@ 11417
ortamına 11418
kullanıcıları 11419
heyetleri 11420
birleşmesi 11421
giderleri 11422
Operasyon 11423
yaşından 11424
Gu@@ 11425
değerlendiren 11426
aydın 11427
Genc 11428
Pas@@ 11429
programlarının 11430
yarışmanın 11431
lim 11432
Komisyonun 11433
Carl 11434
oyları 11435
zaferin 11436
Dalmaçya 11437
varlıkları 11438
idaresinde 11439
Krajina 11440
3G 11441
karıştır@@ 11442
sağlamaktadır 11443
bilmesi 11444
Chirac 11445
bakanlığını 11446
onaylandığı 11447
bitki 11448
Geri 11449
ortak@@ 11450
yaratıcı 11451
Han@@ 11452
kanalizasyon 11453
ansa 11454
liğinden 11455
yapısının 11456
artıran 11457
binasına 11458
yetkilisinin 11459
ulaşmış 11460
işleyişi 11461
konularla 11462
eder@@ 11463
anlaşmasıyla 11464
Sal@@ 11465
mazken 11466
kalıntılarını 11467
mekanizmaları 11468
Company 11469
Gelişimi 11470
kaçakçılığına 11471
bırakması 11472
ilkokul 11473
bay@@ 11474
ihracatının 11475
tamamlay@@ 11476
laşma 11477
temsilc@@ 11478
hızlandıracak 11479
Azınlık 11480
etkilerinin 11481
hil@@ 11482
ımla 11483
devredilmesi 11484
resmî 11485
Cankov 11486
üp 11487
Köstence 11488
Cemil 11489
zaferle 11490
Mitroviça 11491
çalışmakta 11492
evrensel 11493
meyiz 11494
belirttiği 11495
Manjola 11496
bloğu 11497
Yaşar 11498
düzenlenmiş 11499
güncel@@ 11500
yayınlanması 11501
malarıyla 11502
sın@@ 11503
sağlanıyor 11504
CERN 11505
Arben 11506
gelirin 11507
demeç 11508
askerlere 11509
Peres 11510
niyetli 11511
sesli 11512
korumayı 11513
görüyorum 11514
uzmanlardan 11515
tasarıda 11516
Çalış@@ 11517
fiyatlarındaki 11518
faydalar 11519
tutumuna 11520
besleyen 11521
Ti@@ 11522
iadesini 11523
Musliu 11524
olanlara 11525
val@@ 11526
x@@ 11527
piyade 11528
sayımına 11529
ortamının 11530
lilik 11531
planlarının 11532
inda 11533
sistemiyle 11534
Markos 11535
projesinde 11536
kalabalığa 11537
işlemi 11538
lüğü 11539
kullanmaktan 11540
Corce 11541
mü 11542
Karar 11543
çılar 11544
etler 11545
kg 11546
kârlı 11547
çerçevenin 11548
turnuvada 11549
tırman@@ 11550
normalde 11551
servis@@ 11552
dev@@ 11553
üniversiteler 11554
Sesi 11555
sur@@ 11556
ifa 11557
karşılaşmada 11558
dokunulmazlığı 11559
başarısızlığa 11560
kart@@ 11561
hac@@ 11562
elindeki 11563
eler@@ 11564
geldik 11565
JSO 11566
kafe 11567
davasıyla 11568
Gelu 11569
platformu 11570
prosedür@@ 11571
oturan 11572
tığına 11573
irtibat 11574
bizimle 11575
Klaus 11576
konseyi 11577
Sistemi 11578
yorumcusu 11579
müzakereci 11580
sağlanmış 11581
çarp@@ 11582
vefat 11583
tümünün 11584
Angel 11585
Meksika 11586
suikastın 11587
altyap@@ 11588
üs@@ 11589
oranından 11590
festival@@ 11591
kurulmasından 11592
Mungiu 11593
evlerinde 11594
redde@@ 11595
edildikten 11596
mimar 11597
aylıkları 11598
inc@@ 11599
belirtil@@ 11600
hafifle@@ 11601
bilinmeyen 11602
hedefin 11603
tanımla@@ 11604
nitelik 11605
olduk 11606
Şarkı 11607
yürütmekte 11608
ölç@@ 11609
verileceği 11610
Merkezinde 11611
halindeki 11612
sağlandığını 11613
iriz 11614
Zafer 11615
Srdjan 11616
sosyolog 11617
amadılar 11618
kullanılarak 11619
Tek 11620
zaman@@ 11621
talimat 11622
ho@@ 11623
üst@@ 11624
Plevneliev 11625
olamayacağını 11626
Bay@@ 11627
Ukraynalı 11628
Gordan 11629
litre 11630
gereksinim 11631
bakanlığa 11632
dağıtımı 11633
yineleyerek 11634
yaral@@ 11635
söylendi 11636
dönüp 11637
takımları 11638
etkenler 11639
mallarına 11640
rakamı 11641
kanıtları 11642
Terörle 11643
hayal@@ 11644
konusunun 11645
ateş@@ 11646
harekat 11647
kesin@@ 11648
ze 11649
arabulucusu 11650
lığından 11651
planladıkları 11652
döndür@@ 11653
Olimpiyatlarının 11654
tele@@ 11655
nehrin 11656
tutumunun 11657
adımlara 11658
yaşlılar 11659
çocuklarını 11660
hedeflerin 11661
metro 11662
çıkmıştı 11663
Göç 11664
yaşıyoruz 11665
haftadır 11666
Nikos 11667
kriterlerin 11668
baskılara 11669
açabileceğini 11670
Kaz@@ 11671
madığına 11672
ilkesini 11673
sivilleri 11674
bekleniyordu 11675
ülkemiz 11676
yardımlar 11677
imzalamaya 11678
turnuvanın 11679
Halkın 11680
Gerçek 11681
iyileştirmeler 11682
taleplerinin 11683
icin 11684
ekler 11685
ısında 11686
ihtiyacını 11687
yönetici 11688
Avrupalılar 11689
Mısırlı 11690
kılan 11691
isti@@ 11692
şarkısı 11693
imal 11694
yarın 11695
patlamada 11696
Cirokastra 11697
Lutovska 11698
savunmak 11699
tatbikatı 11700
babasının 11701
gideceğini 11702
yokluğu 11703
mah@@ 11704
þ@@ 11705
As@@ 11706
işverenler 11707
tabana 11708
müzisyen 11709
eleştirileri 11710
güneydoğusundaki 11711
abilecekler 11712
röportaj 11713
tartışması 11714
yakal@@ 11715
geçin@@ 11716
mekaniz@@ 11717
5,@@ 11718
gönderilmesi 11719
akışı 11720
heyecan 11721
Kri@@ 11722
alınacağı 11723
patlaması 11724
ödemesiz 11725
savcılığı 11726
sin@@ 11727
oturumu 11728
dan@@ 11729
temsilcilerini 11730
üs 11731
üret@@ 11732
destekleyenler 11733
kampanyasına 11734
hiss@@ 11735
baskıyı 11736
tedarikçisi 11737
rehberlik 11738
memeli 11739
ifadeler 11740
Mobile 11741
propaganda 11742
sunduğunu 11743
İşlerinden 11744
fikir@@ 11745
konulara 11746
çevril@@ 11747
enerjinin 11748
yapılmadı 11749
gösteride 11750
alınmasının 11751
Ulemek 11752
ilkesi 11753
toplumunu 11754
kampanyasında 11755
anayasasına 11756
başbakanının 11757
Steinberg 11758
NTV 11759
bilgilendir@@ 11760
ilmesini 11761
yürütülmesi 11762
niyet@@ 11763
barışa 11764
sorumsuz 11765
ATHOC 11766
varlıklarına 11767
istler 11768
çizgi 11769
soruları 11770
atlama 11771
finale 11772
aldığımız 11773
imkânsız 11774
abildi 11775
gidilmesi 11776
Steven 11777
toplum@@ 11778
sebze 11779
şeydir 11780
bölgelerin 11781
yayınlan@@ 11782
geçiren 11783
megawatt 11784
raporlarını 11785
Hristos 11786
anlaşmasında 11787
yapılan@@ 11788
izniyle 11789
kanal 11790
olaylarından 11791
makamı 11792
iddiaların 11793
istem@@ 11794
Geç@@ 11795
başkanına 11796
gruplardan 11797
koyarak 11798
vaz@@ 11799
Senato 11800
başkentte 11801
teminat 11802
sözcülerinden 11803
kışkırtıcı 11804
becerisini 11805
yolların 11806
kararlarının 11807
fiyatlara 11808
satılan 11809
stratejide 11810
büyümesinin 11811
Miletiç 11812
kırıklığını 11813
göndermesi 11814
Kovac 11815
çağırıyoruz 11816
id 11817
Kostiç 11818
adadaki 11819
Bayanlar 11820
Bağ@@ 11821
Şehir 11822
bulaş@@ 11823
yebileceği 11824
önem@@ 11825
incelen@@ 11826
seferler 11827
ut@@ 11828
kararlılıkla 11829
Paskalya 11830
yazma 11831
Babiç 11832
gazeteler 11833
bahç@@ 11834
kentleri 11835
etmemiz 11836
takımını 11837
engelin 11838
koyması 11839
gözaltı 11840
yarıştı 11841
one 11842
toprağa 11843
ihracatını 11844
birleştir@@ 11845
durma 11846
Kent 11847
Batının 11848
değinen 11849
erdiren 11850
sel@@ 11851
reform@@ 11852
çekilme 11853
şahsın 11854
ulaşılması 11855
zorlaştır@@ 11856
gelenek 11857
temelini 11858
açıklamıştı 11859
iyimserlik 11860
maksızın 11861
yükseltmek 11862
etkiye 11863
arasındaydı 11864
bilim@@ 11865
sıkınt@@ 11866
anlama 11867
Müzesinde 11868
kullanacak 11869
uğrat@@ 11870
davalarında 11871
doğrulandı 11872
anketinde 11873
tutuldu 11874
çağırarak 11875
uygulamalar 11876
Kusari 11877
kanıtlay@@ 11878
Veton 11879
amacımız 11880
büro 11881
payını 11882
anlaşmalarını 11883
bütçeden 11884
yakaladı 11885
indirmek 11886
tesi 11887
Vecernje 11888
kesil@@ 11889
konmasını 11890
yorlar 11891
Ku@@ 11892
çekiş@@ 11893
kesinleş@@ 11894
düzeye 11895
suçlularının 11896
yaratabilir 11897
Lefkoşa 11898
kullanılmak 11899
eleştirmenler 11900
ereceği 11901
devletini 11902
ð@@ 11903
kesimde 11904
Generali 11905
pragmatik 11906
PDP 11907
Min@@ 11908
gazete@@ 11909
Salih 11910
harcanan 11911
kirlilik 11912
sahip@@ 11913
adası 11914
devret@@ 11915
yararı 11916
sekizi 11917
mezar@@ 11918
azı 11919
blog@@ 11920
hazırlaması 11921
kuralların 11922
çatışması 11923
Bechtel 11924
atölye 11925
Bekir 11926
çabası 11927
Pukaniç 11928
almasından 11929
asıllı 11930
şunlar 11931
melerinde 11932
aştı 11933
medyayı 11934
öneriye 11935
vizyon 11936
Siyaset 11937
sem 11938
birleştirmek 11939
ut 11940
isteniyor 11941
biçim@@ 11942
bulacak 11943
maddesinin 11944
melerinden 11945
hissedil@@ 11946
kot@@ 11947
Pavle 11948
ilerlemeleri 11949
sektörlerde 11950
Broz 11951
abilmeleri 11952
planlan@@ 11953
raporları 11954
tesiste 11955
çatışmaya 11956
ük@@ 11957
las@@ 11958
varmak 11959
alay 11960
bağlamında 11961
Cooper 11962
öğrencinin 11963
kovski 11964
menkul 11965
katılımcıları 11966
ıza 11967
Rogge 11968
gelmeden 11969
seçkin 11970
güvenliğinin 11971
ihtimalle 11972
ley@@ 11973
düzey@@ 11974
tutumları 11975
kurmanın 11976
seyahat@@ 11977
atacağı 11978
eg@@ 11979
duyurulan 11980
Köprüsü 11981
Raiffeisen 11982
başlayacağı 11983
tutuklamaya 11984
ihaleye 11985
atları 11986
Marie 11987
kalacaktır 11988
kütüphan@@ 11989
endişelen@@ 11990
iyice 11991
ruhsatı 11992
şüpheyle 11993
tutuklamaların 11994
vermiyor 11995
umutlu 11996
sahnede 11997
yayınla@@ 11998
umuzun 11999
katkısı 12000
Afrikalı 12001
yerleşti 12002
kıl@@ 12003
geldiğine 12004
aras@@ 12005
üreticileri 12006
bulunul@@ 12007
Pat@@ 12008
oynayacağı 12009
yumdu 12010
akıllıca 12011
katılmakla 12012
sayan 12013
Pal@@ 12014
harek@@ 12015
güvende 12016
rahat@@ 12017
nezaret 12018
makamının 12019
elli 12020
çiftçi 12021
çalışıp 12022
Acil 12023
hedeflerinin 12024
heyetler 12025
geçmeyi 12026
Todoroviç 12027
boş@@ 12028
Presevo 12029
yapılmasının 12030
konsolosluk 12031
derken 12032
çözülmemiş 12033
eksiklikleri 12034
sözleşmeyi 12035
tehdidinde 12036
diğ@@ 12037
herşeyden 12038
sokakta 12039
Makedonca 12040
müzesi 12041
sağlanmasını 12042
ulmasını 12043
kayn@@ 12044
Morina 12045
göndermek 12046
ihtilafında 12047
edenlerin 12048
Kai 12049
Fullani 12050
ika 12051
sebebiyle 12052
yum 12053
üç@@ 12054
ihalenin 12055
LDP 12056
adaylığına 12057
France 12058
Janjiç 12059
ilkesinin 12060
lılar 12061
piyasasını 12062
azaltacak 12063
üyeden 12064
kanıtladığını 12065
bağl@@ 12066
talepte 12067
Amiral 12068
ımlar 12069
ıy@@ 12070
Kütüphanesi 12071
Anagnostopoulos 12072
yağmur 12073
kırdı 12074
Mirjana 12075
lem@@ 12076
benziyor 12077
MRF 12078
ılığı 12079
ula@@ 12080
bağlantılar 12081
tüken@@ 12082
inanmıyorum 12083
girişimine 12084
rolünden 12085
yorumlar 12086
yargıçları 12087
dışarıda 12088
temsilcilerine 12089
turuna 12090
tekeli 12091
dağılmış 12092
dersleri 12093
aracılık 12094
bulunacağı 12095
sınav@@ 12096
İl 12097
göreceğiz 12098
doğusunda 12099
gazetecileri 12100
reddedil@@ 12101
göstereceğini 12102
kazanmasından 12103
beklenmiyor 12104
bırakacak 12105
nadir 12106
Ordusuna 12107
Hak@@ 12108
att@@ 12109
sunacağını 12110
nitelendirdiler 12111
restorasyon 12112
siyasetinde 12113
yenilgi 12114
eme 12115
Med@@ 12116
sıkıntılar 12117
acaklarına 12118
Kurul 12119
brüt 12120
elit 12121
görüşüne 12122
fon@@ 12123
uş 12124
mektubunda 12125
Brown 12126
Gregorian 12127
ihlalleri 12128
Filmleri 12129
yükseltme 12130
ihtimal 12131
verebileceği 12132
galası 12133
çalışıyordu 12134
bakanlığında 12135
indirdi 12136
Lazar 12137
çatışmaları 12138
iddianamenin 12139
Yahyaga 12140
anlay@@ 12141
yükselt@@ 12142
Bulletin 12143
lenme 12144
katılmasının 12145
kişilerden 12146
aktaran 12147
önemine 12148
Gallup 12149
başkent@@ 12150
kaldırmayı 12151
başlığı 12152
önü 12153
luğun 12154
durağan 12155
turnuva 12156
yönetmenliğini 12157
verilmemesi 12158
niteliğindeki 12159
tedavisi 12160
yalan 12161
kararlılıklarını 12162
azılı 12163
şantaj 12164
maaş@@ 12165
sahasının 12166
tarih@@ 12167
doğrultuda 12168
çıkış@@ 12169
tehlikede 12170
Koordinatörü 12171
düşündüğü 12172
yönetiminden 12173
mücadelesinde 12174
Hal@@ 12175
Fajon 12176
Ra@@ 12177
blokla 12178
seviy@@ 12179
üssü 12180
dönem@@ 12181
bağıml@@ 12182
atlar 12183
itibar 12184
kesimine 12185
korkusuyla 12186
Filipoviç 12187
dağıtmaya 12188
lıyorlar 12189
Kurul@@ 12190
tutuklamak 12191
haklarıyla 12192
Sinema 12193
paraya 12194
İyon 12195
On@@ 12196
cezaevinde 12197
otomotiv 12198
lerimize 12199
elini 12200
katılıp 12201
yaratarak 12202
edemez 12203
2,1 12204
kanalları 12205
minden 12206
rebilir 12207
izlenecek 12208
Kos 12209
açıklamayı 12210
model@@ 12211
derinden 12212
aşamada 12213
şans@@ 12214
epey 12215
Dev@@ 12216
sergiye 12217
girişimlerine 12218
organizasyonu 12219
komşusunun 12220
lari 12221
çıkmazın 12222
rastlanan 12223
atadı 12224
Sabah 12225
girip 12226
etmeliyiz 12227
yemeği 12228
Pre@@ 12229
ihracatın 12230
gelişiminin 12231
işsizliğin 12232
hazırlanırken 12233
Anlaş@@ 12234
gerçekleştiren 12235
hatalı 12236
Erwan 12237
kapılarında 12238
düşerek 12239
isteyeceğini 12240
Elektroprivreda 12241
Ivana 12242
değerlere 12243
topar@@ 12244
Meclisinin 12245
anahtar 12246
dramatik 12247
ölçekte 12248
atacak 12249
ödün 12250
çalışmalarından 12251
değiştirecek 12252
malarda 12253
lük@@ 12254
bekleme 12255
nakledil@@ 12256
olsalar 12257
toplayarak 12258
dür 12259
fonlarını 12260
şist 12261
kaydır@@ 12262
çekimser 12263
indirimi 12264
yorumcular 12265
kullanıma 12266
basit@@ 12267
saklandığı 12268
dosya 12269
bedelini 12270
hedefinde 12271
İrlandalı 12272
amacına 12273
ermesinin 12274
seviyesinden 12275
meniz 12276
forumun 12277
NBS 12278
Havacılık 12279
okullara 12280
kronik 12281
bildirdiler 12282
uya 12283
Ker@@ 12284
net@@ 12285
sorunlarından 12286
şüpheler 12287
Samuel 12288
Srcan 12289
sayının 12290
yapmadığını 12291
Macarlar 12292
IFC 12293
bağlılığı 12294
İşte 12295
devletine 12296
Yolları 12297
davalarda 12298
ıcısı 12299
kısıtlamaların 12300
yarıdan 12301
sın 12302
hastalar 12303
güvenlikle 12304
onarım 12305
saygılı 12306
nak@@ 12307
Koyu 12308
kökleri 12309
çift@@ 12310
manız 12311
Mobtel 12312
koydular 12313
yönetme@@ 12314
katkıları 12315
davranış@@ 12316
hastan@@ 12317
Muhafız 12318
sistemlerine 12319
mamalıdır 12320
fiilen 12321
Am@@ 12322
kriterlerinin 12323
Sol 12324
Velimir 12325
Cumhur@@ 12326
yüzyıllar 12327
prensipte 12328
Stan@@ 12329
oğlan 12330
iyileştiril@@ 12331
Türk@@ 12332
gelişmede 12333
DSB 12334
Caddesi 12335
Vasile 12336
bankalara 12337
bakmak 12338
fiyatının 12339
İç@@ 12340
3.@@ 12341
Belarus 12342
kiş@@ 12343
Sil@@ 12344
Con@@ 12345
harc@@ 12346
lam@@ 12347
taahhüt 12348
gelişmenin 12349
bilinci 12350
kışkırt@@ 12351
alır 12352
bilgilendirme 12353
Gar@@ 12354
evsiz 12355
birimin 12356
esneklik 12357
hikaye 12358
girmesinden 12359
karışan 12360
kategoride 12361
özetliyor 12362
kom@@ 12363
değişikliklerle 12364
gelişi 12365
güneydoğusunda 12366
koruyucu 12367
Kelmendi 12368
oylarını 12369
hat 12370
Uzun 12371
tutuklandığı 12372
şüpheleri 12373
aca 12374
yarg@@ 12375
yarışa 12376
eyaletinin 12377
Arkeoloji 12378
digi 12379
Pantiç 12380
desteklemesi 12381
Atletizm 12382
yerinden 12383
Alogoskufis 12384
ılabil@@ 12385
fır@@ 12386
bakacak 12387
komitesinin 12388
savunmasını 12389
zimmete 12390
lazım 12391
sorulan 12392
Olimpiyatlara 12393
Solomon 12394
Hocay 12395
kalın@@ 12396
dukları 12397
Kam@@ 12398
uzaklıktaki 12399
avroyla 12400
Ma@@ 12401
beklenenden 12402
itiraz@@ 12403
alanlarının 12404
14. 12405
sandalyesi 12406
yarışıyor 12407
sırf 12408
listesini 12409
Straw 12410
bedel 12411
duyguları 12412
eceğinin 12413
Göz@@ 12414
Gashi 12415
ihtiyati 12416
tesis@@ 12417
lüğe 12418
ihracata 12419
suçlayarak 12420
Romanları 12421
VRS 12422
Vasiç 12423
EUpolitix 12424
aşma 12425
itham 12426
University 12427
belgele@@ 12428
yolculuk 12429
görüşecek 12430
Demir 12431
silah@@ 12432
ödüyor 12433
başk@@ 12434
gelecektir 12435
azaldığını 12436
güveniyor 12437
yetkilerin 12438
kötüleş@@ 12439
almaktadır 12440
nelerdir 12441
görüp 12442
arıyorlar 12443
zanlısını 12444
açılmış 12445
istedik 12446
tutum@@ 12447
İvaniç 12448
yoklamaları 12449
pozisyon@@ 12450
olan@@ 12451
bilincini 12452
getirmişti 12453
ılıkla 12454
tanımlanması 12455
olayını 12456
Önleme 12457
ekonomisti 12458
gazeteye 12459
sığınmacı 12460
gündem@@ 12461
manları 12462
Nezavisne 12463
ihal@@ 12464
yorumda 12465
Konvansiyonu 12466
sars@@ 12467
kurucularından 12468
mağdur 12469
larca 12470
şarttır 12471
Franjo 12472
belediyelerde 12473
tartışmayı 12474
satışından 12475
Arnavutları 12476
Sh@@ 12477
endeksi 12478
kurbanlara 12479
8,5 12480
Ban@@ 12481
getirebilir 12482
Sağ@@ 12483
Arşivi 12484
yoksullukla 12485
Gönül 12486
miz 12487
mayacaklarını 12488
kümes 12489
müzik@@ 12490
Evi 12491
itirazları 12492
aramak 12493
olaysız 12494
öğle 12495
Ljubiciç 12496
azalmasına 12497
binasında 12498
Sah@@ 12499
başlayarak 12500
barajı 12501
cezasının 12502
kavg@@ 12503
deme@@ 12504
teşhisi 12505
çilerin 12506
uyu 12507
kararlara 12508
eklen@@ 12509
yapilan 12510
otoriter 12511
edileceğine 12512
makine 12513
metrekare 12514
anayas@@ 12515
mez@@ 12516
Destekleme 12517
Renault 12518
çabalıyor 12519
sü 12520
adlandırılan 12521
16. 12522
merkezlerinde 12523
engellemekle 12524
güneydoğudaki 12525
dinin 12526
boğ@@ 12527
turnuvası 12528
arayışında 12529
Do@@ 12530
Kovaçeviç 12531
yasaklama 12532
dünyayı 12533
Trans 12534
Zelanda 12535
denetimini 12536
izde 12537
birim@@ 12538
kazanılan 12539
sinyalini 12540
yarışmasını 12541
yapmamız 12542
mamızı 12543
fazlasına 12544
deneme 12545
komut@@ 12546
durum@@ 12547
şaşır@@ 12548
South 12549
tatil@@ 12550
gıyaben 12551
lıkta 12552
Jozefina 12553
Türklüğe 12554
iciç 12555
birliklerinin 12556
gösterici 12557
üzücü 12558
çalıntı 12559
demir@@ 12560
başlık 12561
Asselborn 12562
kaybetmişti 12563
konularındaki 12564
oya 12565
cinayet@@ 12566
euroyu 12567
temizle@@ 12568
sokaklarında 12569
bulup 12570
fonlarına 12571
Şkodra 12572
operasyonlarını 12573
parçasıdır 12574
öfkeli 12575
boşa 12576
gönderecek 12577
şirketlerini 12578
sıfatıyla 12579
İstihdam 12580
çalıştılar 12581
akis 12582
acağının 12583
dular 12584
yatırımlarını 12585
eksiklikler 12586
yasasına 12587
çözümleri 12588
Media 12589
pasaport@@ 12590
Austria 12591
Schwartz 12592
temsili 12593
durağı 12594
çevre@@ 12595
zorundalar 12596
ılık 12597
başarılara 12598
oradan 12599
ortasından 12600
sanay@@ 12601
geçişin 12602
karşılıklılık 12603
Ru@@ 12604
çelişkili 12605
Mahmud 12606
piyasada 12607
mecbur 12608
farklılıkların 12609
sokma 12610
bet@@ 12611
leştirmek 12612
korkusu 12613
düşüşü 12614
madım 12615
katliam 12616
do 12617
sorumluluğun 12618
anlayış@@ 12619
ideolojik 12620
hedefle@@ 12621
başarıyı 12622
Maja 12623
Theodor 12624
yargılandığı 12625
girişimlere 12626
Parti@@ 12627
riskleri 12628
çab@@ 12629
tümüyle 12630
misiniz 12631
alacaktır 12632
üstüne 12633
lenmesine 12634
iyeti 12635
kaçakların 12636
krizine 12637
verebil@@ 12638
ılmak 12639
PRİŞTİNE 12640
eği 12641
ılmasından 12642
bahsetti 12643
kızdırdı 12644
oluşturması 12645
kopar@@ 12646
şahsen 12647
üdür 12648
oluşturul@@ 12649
zarfında 12650
İbar 12651
özelleştir@@ 12652
söylemesine 12653
askerden 12654
eksik@@ 12655
taraftarı 12656
iddialara 12657
yakındaki 12658
işlemekle 12659
Mor@@ 12660
muhalefete 12661
Sol@@ 12662
bağlıdır 12663
İkincisi 12664
şebekesi 12665
kanı 12666
işlerine 12667
şirketlerine 12668
girişini 12669
barikat@@ 12670
9. 12671
109 12672
çevreleri 12673
lü@@ 12674
gözlemcilerin 12675
Kongre 12676
etinin 12677
yakınlaştır@@ 12678
ilerinde 12679
Mo@@ 12680
lisansı 12681
teknolojileri 12682
Sitel 12683
geçerken 12684
Pire 12685
düşünmüyorum 12686
tamamlayıp 12687
kararlıyız 12688
güreşçi 12689
referans 12690
meslek@@ 12691
potansiyelini 12692
belediy@@ 12693
turistin 12694
demişti 12695
eğilimleri 12696
yansıtan 12697
gayrimenkul 12698
bütünleş@@ 12699
Turk 12700
belirti@@ 12701
dönük 12702
kadın@@ 12703
sularında 12704
edin 12705
başlamasıyla 12706
atın 12707
olduğumu 12708
tartışıyor 12709
alımı 12710
yerleşik 12711
çıkabilir 12712
Etnik 12713
Agron 12714
başlatacak 12715
Sözü 12716
lılık 12717
almadığı 12718
anti@@ 12719
amak 12720
bulmanın 12721
naylon 12722
neden@@ 12723
şartlardan 12724
Mes@@ 12725
getirildiği 12726
Roland 12727
pol@@ 12728
tutukluların 12729
Örgütünün 12730
sendikaları 12731
tanığın 12732
kazasında 12733
sağlamış 12734
failleri 12735
ayrılmasına 12736
Güzellik 12737
res@@ 12738
tepkisi 12739
Rad@@ 12740
Lütfi 12741
15@@ 12742
kin 12743
Kr@@ 12744
olasılığıyla 12745
reformlardan 12746
etmeme 12747
Tem@@ 12748
birlik@@ 12749
sendikaların 12750
köş@@ 12751
milletvekillerini 12752
görmediğini 12753
yakınlaş@@ 12754
Saddam 12755
seslendi 12756
algılan@@ 12757
imkan 12758
partilerden 12759
oluşturuldu 12760
kalkınmaya 12761
Besimi 12762
Cengiz 12763
EUPM 12764
çat@@ 12765
AMBO 12766
kadına 12767
oraya 12768
Lila 12769
gündür 12770
UNIFIL 12771
gündemini 12772
Bocevski 12773
Afgan 12774
Temyiz 12775
görevlerinde 12776
azaltmayı 12777
cılık 12778
tutarak 12779
yürütül@@ 12780
lerce 12781
getire@@ 12782
temsilen 12783
edilmedi 12784
1800 12785
işlemiş 12786
faslının 12787
sonuçlandır@@ 12788
ailelere 12789
L 12790
tehditlerle 12791
buz@@ 12792
Konusunda 12793
Standart 12794
kirliliği 12795
HK 12796
meksizin 12797
tarafına 12798
geçmiş@@ 12799
direniş 12800
Dmitry 12801
kamuya 12802
Kayıp 12803
geçil@@ 12804
almaktan 12805
değerini 12806
hissediyorum 12807
ılığını 12808
konuştular 12809
oyunc@@ 12810
iyisini 12811
korkan 12812
doğmasına 12813
gişe 12814
1. 12815
perspektifi 12816
düşmesine 12817
İzzetbegoviç 12818
bilgilerini 12819
yarısına 12820
Orban 12821
kabinede 12822
temelleri 12823
RTRS 12824
tanınmasını 12825
imzalay@@ 12826
şube 12827
görülür 12828
Institute 12829
malarla 12830
Aç@@ 12831
po@@ 12832
3,7 12833
imler 12834
usuna 12835
yaşamına 12836
birikmiş 12837
ihracatçısı 12838
Listesine 12839
DJ 12840
karısı 12841
Walter 12842
sattı 12843
askerlerine 12844
alanını 12845
kazanmasını 12846
Grand 12847
İhracat 12848
erdir@@ 12849
koşuluyla 12850
gerginliklerin 12851
Kendi 12852
altyapıyı 12853
bozuk 12854
tüp 12855
başlıklar 12856
mışlar 12857
Plamen 12858
kanton@@ 12859
tamamlamayı 12860
birisini 12861
50. 12862
sübvansiyon@@ 12863
mutluyum 12864
paralarını 12865
sizlik 12866
boykot@@ 12867
değ@@ 12868
mağduru 12869
Bence 12870
söylentileri 12871
Yenilikçi 12872
Milliyet 12873
Allah 12874
Sür@@ 12875
favori 12876
girerek 12877
ısın@@ 12878
blogcular 12879
kaybetmesi 12880
merkezlerinden 12881
firmasına 12882
ken@@ 12883
hisseleri 12884
girişimci 12885
odaklı 12886
parkı 12887
akrabaları 12888
laboratuvar 12889
niyetini 12890
kul@@ 12891
Dünyası 12892
düşünmek 12893
kâr@@ 12894
hareketler 12895
götürecek 12896
savunmaya 12897
işlendiği 12898
fatur@@ 12899
krizde 12900
yaklaştır@@ 12901
Jelasiç 12902
söylediğini 12903
grubunu 12904
müzisyenler 12905
mamasının 12906
çarpıcı 12907
olmadığından 12908
Sır@@ 12909
Kaliniç 12910
edilme 12911
Tanrı 12912
maddesini 12913
yayınevi 12914
konferansının 12915
futbolcu 12916
ödemeler 12917
faillerin 12918
Tunus 12919
güçlüklerin 12920
önderliğindeki 12921
ılığın 12922
roket 12923
ulacak 12924
kullanılabilecek 12925
harcıyor 12926
mütevazı 12927
seferber 12928
ig@@ 12929
luğunun 12930
sansür 12931
diktatör@@ 12932
eşinin 12933
hızlandırdı 12934
kulüp 12935
yetkin 12936
erteledi 12937
açmasını 12938
artırıcı 12939
evlerinin 12940
müdürleri 12941
Memeti 12942
cılar 12943
ıt@@ 12944
yavaşlama 12945
örgütlerle 12946
kademe 12947
temellerini 12948
dilimi 12949
ıla@@ 12950
sebebi 12951
hazırlay@@ 12952
ıştı 12953
Daskalaki 12954
örnekler 12955
şampiyonasında 12956
ita 12957
ımızdan 12958
göstermekle 12959
Cer@@ 12960
desteklenecek 12961
gerçekleştirmeye 12962
görmesine 12963
yağ 12964
gerçekler 12965
satmaya 12966
ite 12967
Stojan 12968
oyuna 12969
parçalan@@ 12970
protestoların 12971
üstelik 12972
konuşması 12973
yaklaşımın 12974
bölüm@@ 12975
dalgalan@@ 12976
ödülleri 12977
Sırplardan 12978
varlıklarının 12979
mesafede 12980
parlamenter 12981
Rade 12982
let@@ 12983
Teodor 12984
konuşuyor 12985
aşması 12986
standardı 12987
ışını 12988
diledi 12989
anında 12990
yardımcılığı 12991
katından 12992
elektrikli 12993
masasına 12994
Den@@ 12995
seydi 12996
kirli 12997
olgunluk 12998
girişim@@ 12999
yaklaştı 13000
Lamberto 13001
gelmesinin 13002
miktarının 13003
şarkıcının 13004
manzara 13005
Bar 13006
Seç@@ 13007
Ulah 13008
gerçekleşeceği 13009
lisansüstü 13010
sürücü 13011
ch@@ 13012
ılan@@ 13013
yaşına 13014
istenmeyen 13015
iniş 13016
ket 13017
Curiç 13018
tatillerini 13019
baskıları 13020
bütünüyle 13021
konuşlandır@@ 13022
tas@@ 13023
unvanını 13024
mesajları 13025
Berat 13026
yaşamaya 13027
duğunda 13028
dilekçe 13029
Sigorta 13030
tarif@@ 13031
açıklamalarına 13032
temelinde 13033
ödediği 13034
gök@@ 13035
laboratuvar@@ 13036
kuruluşlarını 13037
ilçe 13038
Zubin 13039
sindir@@ 13040
kuvvetlerini 13041
kendilerinin 13042
ilanını 13043
müdahalede 13044
kompleksi 13045
karışıklık 13046
fırsatını 13047
şark@@ 13048
üretimini 13049
yarışmayı 13050
Uzan 13051
değişikliklerinin 13052
he 13053
üniversitelerde 13054
değiştirerek 13055
Barrot 13056
FBI 13057
Potocari 13058
ödenen 13059
SNA 13060
katliamında 13061
gribinin 13062
bayrakları 13063
çev 13064
meni 13065
kongresinde 13066
soruşturulması 13067
reforma 13068
mahkemesinden 13069
mevki 13070
şartlarına 13071
girmeden 13072
yeme@@ 13073
kampanyalar 13074
kültürünü 13075
üyenin 13076
Müttefik 13077
aleyhte 13078
katliamıyla 13079
ef@@ 13080
memeye 13081
alamadı 13082
değiştirmesi 13083
güvenilirlik 13084
çalışanlarına 13085
Brankoviç 13086
gruptan 13087
Ağ@@ 13088
Du@@ 13089
hoş@@ 13090
bütün@@ 13091
Strpce 13092
Channel 13093
dergisine 13094
sevk@@ 13095
bıraktığını 13096
beş@@ 13097
çıkmayı 13098
eşiğinde 13099
verecekler 13100
isteyenler 13101
deney@@ 13102
amacın 13103
yargıya 13104
National 13105
Köprü 13106
ro 13107
yatırımlara 13108
440 13109
dire@@ 13110
sonbahar 13111
bö@@ 13112
operasyonunun 13113
lerim 13114
toplumlara 13115
içecek 13116
yurtiçinde 13117
boyutu 13118
akıl@@ 13119
Klan 13120
harcan@@ 13121
bölge@@ 13122
1986 13123
iste 13124
numarası 13125
bulunmaması 13126
olun@@ 13127
Novine 13128
korkuları 13129
Tri@@ 13130
tiğine 13131
mücadelesini 13132
aray@@ 13133
momentum 13134
sınırda 13135
Stojanovski 13136
1987 13137
kanıtla@@ 13138
Enerjisi 13139
verilmişti 13140
mem 13141
kup@@ 13142
ayaklan@@ 13143
Roman@@ 13144
Sin@@ 13145
derec@@ 13146
grevi 13147
uygulandı 13148
poz 13149
haberlerin 13150
etmeyen 13151
tez@@ 13152
yaşayanlar 13153
misyon@@ 13154
uğr@@ 13155
liklerinin 13156
unca 13157
memek 13158
Menekşe 13159
Toplumsal 13160
eğitimine 13161
Mit@@ 13162
caminin 13163
Vekariç 13164
ılma 13165
göstermesini 13166
maaşın 13167
sanılan 13168
IOM 13169
Steinmeier 13170
güçlere 13171
tım 13172
nce 13173
kamp 13174
fazladan 13175
derecesiyle 13176
luk@@ 13177
ettir@@ 13178
deniz@@ 13179
yüzleş@@ 13180
helikopter 13181
Prijedor 13182
yenlerin 13183
yazar@@ 13184
eskisi 13185
Yıllık 13186
belirlemiş 13187
safhalarında 13188
Boşnakların 13189
cez@@ 13190
ice 13191
ziyaretçilere 13192
teşkilatını 13193
yönetecek 13194
Mat@@ 13195
saçma 13196
azınlıkları 13197
Uyuşturucu 13198
lamıştı 13199
Yakın 13200
Haziri 13201
anayasasının 13202
okullarında 13203
bisiklet 13204
açılmasının 13205
ilişkinin 13206
irim 13207
sek@@ 13208
Bekim 13209
sahipliğinde 13210
marka 13211
Gelişim 13212
sitesinin 13213
durumları 13214
Bologna 13215
imzalanmasına 13216
tamamlayarak 13217
ihtilafa 13218
Gen@@ 13219
istatistikler 13220
Posta 13221
seks 13222
sokaktaki 13223
Hong 13224
meyeceklerini 13225
Kong 13226
oluşturulmasına 13227
göstermekte 13228
ılığına 13229
başlatılacak 13230
sorusuna 13231
şahsi 13232
anması 13233
inşaatına 13234
devamına 13235
riskiyle 13236
toplantıyı 13237
çabanın 13238
mahkum@@ 13239
başlattığını 13240
iftira 13241
anlam@@ 13242
puan@@ 13243
şeklindedir 13244
Papulyas 13245
çöp@@ 13246
Britanya 13247
recektir 13248
vuran 13249
Research 13250
Saviç 13251
paramiliter 13252
subayları 13253
hizmetine 13254
takım@@ 13255
takvim 13256
4,3 13257
izole 13258
itirazlarını 13259
destek@@ 13260
def@@ 13261
getirmediği 13262
tor@@ 13263
durumuyla 13264
Konseye 13265
yazarları 13266
savaşan 13267
ıslah 13268
melerden 13269
Danışmanlık 13270
ayrılarak 13271
önceliklerini 13272
verilmesinin 13273
rakamların 13274
Olimpiyatların 13275
yakalamaya 13276
esin 13277
trend 13278
imkan@@ 13279
stratej@@ 13280
çıkararak 13281
krizinden 13282
kolaylaştırılması 13283
Dragisiç 13284
sondaj 13285
Berlusconi 13286
oyunları 13287
tat@@ 13288
yetkilerinin 13289
çıkarlar 13290
tel@@ 13291
gitmekte 13292
ortam@@ 13293
Bakoyannis 13294
uzay 13295
hastalık 13296
önceliklerinden 13297
doğrul@@ 13298
şeffaflığı 13299
arifesinde 13300
doğruluyor 13301
eleştiril@@ 13302
borsa 13303
insanlarının 13304
uyul@@ 13305
Anlaşmalarının 13306
kalkın@@ 13307
kanıtlan@@ 13308
Miliband 13309
suçladığı 13310
Dağları 13311
yapılabilir 13312
değişime 13313
gelenekleri 13314
ıkları 13315
bant 13316
eli@@ 13317
pay@@ 13318
-Arnavutluk 13319
bale 13320
akıllı 13321
ura 13322
üstlenmeye 13323
suçlamalara 13324
bildiğini 13325
Pr@@ 13326
kanaat 13327
oynamak 13328
ayrılmak 13329
hakim@@ 13330
ığının 13331
yorumlarda 13332
7,3 13333
meslektaşları 13334
Montenegro 13335
Joe 13336
konularına 13337
düzeyine 13338
ittifakın 13339
ey 13340
Maloviç 13341
örnekleri 13342
yenilenen 13343
Stip 13344
Austin 13345
hukuku 13346
zorlukları 13347
mikro@@ 13348
beklerken 13349
yürü@@ 13350
halkından 13351
öğretmen@@ 13352
zamanların 13353
jeviç 13354
Paşa 13355
sanatsal 13356
hakimleri 13357
düşürüldü 13358
pazarlar 13359
negatif 13360
sanığı 13361
ediliyordu 13362
rafinerisi 13363
fikirlerini 13364
kasab@@ 13365
Yargıç 13366
bilgisayar@@ 13367
yor@@ 13368
üçüncüsü 13369
Elizabeth 13370
açılışına 13371
mesafedeki 13372
tutuklanmıştı 13373
vermesinin 13374
andığını 13375
hatalar 13376
vermemesi 13377
Kuneva 13378
tuttuğu 13379
manastır@@ 13380
hastaneler 13381
ağa 13382
Tokyay 13383
Konjanovski 13384
kaldıran 13385
iyileşmesi 13386
11. 13387
generallerin 13388
açıkları 13389
engellerden 13390
3,9 13391
yabancıların 13392
bulunduğuna 13393
feribot 13394
230 13395
açıp 13396
89 13397
isimlerin 13398
soruşturmaların 13399
Antik 13400
Stolojan 13401
diğeriyse 13402
ilçesinde 13403
sefer@@ 13404
dondurdu 13405
teknolojiye 13406
Eurobond 13407
partilerini 13408
kaydediliyor 13409
tanımayan 13410
fiyatını 13411
meblağın 13412
bilen 13413
değişikliğinin 13414
ayrılık@@ 13415
merhum 13416
metin 13417
anketlere 13418
öğreti@@ 13419
ORA 13420
gelirli 13421
operasyon@@ 13422
büyüğü 13423
Singapur 13424
luğuna 13425
güçlendirilmesine 13426
sağlanmasında 13427
fuarına 13428
liydi 13429
yansıması 13430
operasyonunu 13431
5,8 13432
sesleri 13433
manı 13434
istikrarına 13435
meclis@@ 13436
toplanacak 13437
Harek@@ 13438
mobilya 13439
yönleri 13440
Bek@@ 13441
ziç 13442
göğüs 13443
ilişkilerden 13444
hayatının 13445
geliştirdi 13446
yüzünü 13447
vakıf 13448
yükseltilmesi 13449
kurumlarda 13450
Memija 13451
yardımının 13452
tutuk@@ 13453
aramızda 13454
olimpiyat 13455
katılabil@@ 13456
kanalın 13457
Söz 13458
haricinde 13459
yayınlayacak 13460
içeriği 13461
ücretin 13462
kararlılığının 13463
üstünlüğüne 13464
Hastanesi 13465
hareketli 13466
kriter 13467
korudu 13468
Ömer 13469
değiştirmeyi 13470
kılacak 13471
söylemesi 13472
Program 13473
İ.Ö. 13474
doğrulan@@ 13475
Bankanın 13476
katılabilmesi 13477
uygulandığı 13478
Antonis 13479
deneyimlerini 13480
kısmına 13481
ki@@ 13482
dairelerin 13483
itici 13484
hatırlıyor 13485
meselelerle 13486
andan 13487
van@@ 13488
koalisyonuna 13489
maden@@ 13490
başarısız@@ 13491
fir@@ 13492
lis 13493
ularına 13494
kanadı 13495
ayan 13496
edilmemiş 13497
toplumlarına 13498
göçü 13499
güçlen@@ 13500
yardımını 13501
Bogdan 13502
İstiyor 13503
işinin 13504
onaylayarak 13505
kesti 13506
arzını 13507
luğunu 13508
komş@@ 13509
önlen@@ 13510
ivedi 13511
görülüyorlar 13512
merkezde 13513
tesinin 13514
ilerley@@ 13515
co 13516
kurbanın 13517
tasarısının 13518
osunu 13519
İKÖ 13520
sıcak@@ 13521
baz@@ 13522
ılmaması 13523
düz 13524
edemeyeceğini 13525
komitesine 13526
çerçevede 13527
abilmiş 13528
Klaudija 13529
doktor@@ 13530
saate 13531
ızı 13532
yetiş@@ 13533
çeşitliliği 13534
Görev@@ 13535
leştiril@@ 13536
şehirde 13537
nitelikli 13538
Jan@@ 13539
mühendisliği 13540
layacağını 13541
yaşta 13542
kolaylığı 13543
satışını 13544
küreselleşme 13545
6,7 13546
televizyon@@ 13547
Televizyon 13548
kadarı 13549
San 13550
parmağı 13551
Riga 13552
iade@@ 13553
gördüklerini 13554
nik 13555
ayak@@ 13556
kova 13557
dinler 13558
vet@@ 13559
Harry 13560
nüfusuna 13561
tersan@@ 13562
liğ@@ 13563
sponsor 13564
kendimi 13565
kararlarına 13566
şiddet@@ 13567
tekliflerini 13568
çevreyi 13569
tartışmada 13570
gördüğümüz 13571
başlatan 13572
meslektaş@@ 13573
Dow 13574
yanaki 13575
kabineye 13576
gerekirken 13577
geçit 13578
rakipleri 13579
Trajkoviç 13580
tutuklamaları 13581
ker@@ 13582
diplomatların 13583
mediler 13584
Sam@@ 13585
üş@@ 13586
sektörler 13587
tanıy@@ 13588
ley 13589
termoelektrik 13590
yakalanıp 13591
söyledim 13592
İvanovski 13593
maliyetli 13594
4,6 13595
ziyaretine 13596
tığımız 13597
belediyeleri 13598
sindirme 13599
hastalığı 13600
hırsızlık 13601
liyorlar 13602
görüşe 13603
ilişkilendir@@ 13604
antika 13605
koşul@@ 13606
Organizasyon 13607
etkilendi 13608
ilgileniyor 13609
göründüğünü 13610
eğitim@@ 13611
vergilerin 13612
tescil 13613
Erkekler 13614
ilgilendiklerini 13615
suçuyla 13616
kasabanın 13617
açıklanması 13618
ruhani 13619
Fest 13620
girerken 13621
böbrek 13622
genişleyen 13623
pas@@ 13624
önleyecek 13625
nefes 13626
reformdan 13627
mesaj@@ 13628
avantaj@@ 13629
dünyadan 13630
gelmekte 13631
İranlı 13632
are 13633
sam 13634
terfi 13635
alabileceğini 13636
vurgulamak 13637
fotoğraflar 13638
ölümüyle 13639
otoritesini 13640
em 13641
sıkışırken 13642
tanımasını 13643
HRW 13644
diğerinin 13645
duğumuz 13646
tarz@@ 13647
Camii 13648
güreş 13649
Park 13650
madeni 13651
yasaklan@@ 13652
anlamak 13653
Pro@@ 13654
diplomatın 13655
sorulara 13656
eğitimini 13657
dönüştürmek 13658
kocası 13659
etmektir 13660
diğimizi 13661
karayolları 13662
Vi@@ 13663
bık@@ 13664
menşeli 13665
Yeşil 13666
çektiler 13667
geliştiril@@ 13668
tahminleri 13669
5,2 13670
gitmesini 13671
komşularının 13672
fesh@@ 13673
operasyonlarının 13674
hakların 13675
850 13676
na@@ 13677
kazandırdı 13678
sürtüşme 13679
otomobil@@ 13680
melere 13681
iliğin 13682
süreyi 13683
belirlenecek 13684
ortalaması 13685
suçlamalarını 13686
farkl@@ 13687
üretimine 13688
Kuzmanoviç 13689
yasağın 13690
ığını 13691
kurup 13692
ılacağına 13693
desteklemektedir 13694
edilebil@@ 13695
devri 13696
sahibinin 13697
duygusu 13698
malardan 13699
protestoları 13700
sesi 13701
ilkesine 13702
sayımında 13703
Konstantin 13704
saldırılarını 13705
kaydedildiği 13706
duygusal 13707
ziyaretinden 13708
davalarına 13709
ımından 13710
Capital 13711
öğ@@ 13712
Vergi 13713
Komutanlığı 13714
yazarın 13715
meseleye 13716
götürül@@ 13717
Drina 13718
Web 13719
mutluluk 13720
Gıda 13721
bırakın 13722
viz@@ 13723
Decani 13724
ayaklanma 13725
oynam@@ 13726
ord@@ 13727
güzel@@ 13728
karşılanıyor 13729
kök@@ 13730
haç 13731
hızda 13732
emeyecek 13733
usunun 13734
hızını 13735
kilisesi 13736
soruşturmaları 13737
reddetmişti 13738
başlanması 13739
Dam@@ 13740
Selmani 13741
görüşte 13742
başarılarını 13743
miş@@ 13744
deneyimi 13745
Gi@@ 13746
yasayla 13747
Aş@@ 13748
gruplarına 13749
durdurdu 13750
kül 13751
kre@@ 13752
alarma 13753
artırdığını 13754
düşerken 13755
Değiş@@ 13756
söyledikleri 13757
kullanıyorlar 13758
Gostivar 13759
fazlasıyla 13760
liderlerden 13761
hapiste 13762
terörün 13763
kabineyi 13764
içki 13765
meselesine 13766
belgeye 13767
kaçakçılığını 13768
Vuciç 13769
düzineden 13770
onaylayan 13771
jimnastik 13772
liderliğini 13773
eceğ@@ 13774
SEEMO 13775
Brdo 13776
Res@@ 13777
istemişti 13778
başlanacak 13779
değişimin 13780
birliğe 13781
usunu 13782
kil@@ 13783
Sun@@ 13784
içeriğini 13785
tamamlandığında 13786
Hayredin 13787
Kuki 13788
Gelecek 13789
Juncker 13790
andır 13791
yoruz 13792
uzmanlarından 13793
yanıtlar 13794
Rumlar 13795
talebinin 13796
beceri 13797
Mihajloviç 13798
DBA 13799
form@@ 13800
Mirror 13801
rken 13802
memelidir 13803
almada 13804
dilimini 13805
süreçlerine 13806
Te@@ 13807
Zana 13808
hayatın 13809
BK 13810
kaderi 13811
stadyum@@ 13812
ülen 13813
güçlüklere 13814
duyurusu 13815
alanlarını 13816
Kilise 13817
tatbikatın 13818
vakaları 13819
erişimini 13820
kurulmasında 13821
süreçlerini 13822
Carlos 13823
ulaşılabilir 13824
birarada 13825
leşmesi 13826
radar 13827
Los 13828
programlarını 13829
kalkış@@ 13830
tler 13831
iddialarına 13832
hazırlanmasında 13833
başlatıldığını 13834
izleyerek 13835
baskınlar 13836
grevler 13837
seyre@@ 13838
yapılarının 13839
Gor@@ 13840
metrelik 13841
Zagrepli 13842
gezisinde 13843
grubundan 13844
Polancec 13845
hukuk@@ 13846
Pale 13847
Dostluk 13848
EUSR 13849
vergisinin 13850
Fizibilite 13851
yo 13852
uzatılması 13853
turunu 13854
gözünü 13855
rakamları 13856
Tudor 13857
performansının 13858
tanındı 13859
veterinerlik 13860
ıl 13861
ivme 13862
İvaylo 13863
112 13864
folklor 13865
mühendislik 13866
durumundaki 13867
--@@ 13868
aş 13869
görüşül@@ 13870
çıkarsa 13871
ayrıntı 13872
landır@@ 13873
Mur@@ 13874
gidişatı 13875
tac@@ 13876
endeksinde 13877
araz@@ 13878
tonluk 13879
kayakçı 13880
Koç 13881
çıkarıldığı 13882
yapacaklarını 13883
teşvik@@ 13884
tetik@@ 13885
kuvvetli 13886
alkış@@ 13887
ilerlet@@ 13888
nedenler 13889
bürokrasi 13890
larınız 13891
hücre@@ 13892
gözlemcileri 13893
gösteriyorlar 13894
izle 13895
MJAFT 13896
muamelesi 13897
yapmadı 13898
yönlerini 13899
cinayetleri 13900
duvar 13901
geçiş@@ 13902
düzenlemelerin 13903
Wimbledon 13904
ertelemeye 13905
hane 13906
Yarinye 13907
arzının 13908
işliyor 13909
kaçtı 13910
ceğine 13911
çiftçilerin 13912
iyileştirilmesine 13913
kanton 13914
esiz 13915
abiliyorlar 13916
tüketicilere 13917
5.@@ 13918
semt@@ 13919
ilgiyi 13920
Ediyor 13921
Ödülünün 13922
mizi 13923
görebilir 13924
üy@@ 13925
öğretmeni 13926
buğday 13927
GSMH 13928
skandal@@ 13929
uygulayarak 13930
dönüşünü 13931
karakter@@ 13932
liç 13933
Raçan 13934
ticarete 13935
burs 13936
İçinde 13937
çevrildi 13938
kral@@ 13939
Kaczynski 13940
gerçekleştirecek 13941
Gençler 13942
tutuklamanın 13943
tavsiyelerde 13944
çizen 13945
sınırlama 13946
Servisi 13947
üre@@ 13948
dığ@@ 13949
topraklarından 13950
Milosavlyeviç 13951
maliyet@@ 13952
Erol 13953
uçuş@@ 13954
Düzeni 13955
girişimlerin 13956
Birleşmiş 13957
okum@@ 13958
kapsa@@ 13959
kül@@ 13960
emniyetli 13961
bakanlıklarının 13962
başsavcının 13963
MEP 13964
girişimle 13965
kiç 13966
tes@@ 13967
Kalkandere 13968
almayan 13969
belgelen@@ 13970
sendikası 13971
üyordu 13972
greve 13973
Pieter 13974
adında 13975
öldürmek 13976
sonucudur 13977
ür 13978
seçilmesini 13979
eşiğine 13980
saatlerce 13981
çifti 13982
istisna 13983
gezisinin 13984
luğa 13985
arkadaşlarının 13986
dua 13987
tab@@ 13988
9,5 13989
ettiğinden 13990
mer 13991
bakan@@ 13992
Yaş@@ 13993
Mikereviç 13994
gerekip 13995
yeti@@ 13996
tığında 13997
malar@@ 13998
adımlardan 13999
Ljubomir 14000
4.@@ 14001
milyon@@ 14002
yataklık 14003
Değişim 14004
kalabalığı 14005
indi 14006
öngördüğü 14007
istişarelerde 14008
Hizmetleri 14009
tanıdığı 14010
göstergeler 14011
ısınma 14012
Nejat 14013
tazele@@ 14014
Mekanizması 14015
büyüt@@ 14016
leştir@@ 14017
kaydetmesi 14018
üretime 14019
bileş@@ 14020
alarındaki 14021
mış@@ 14022
zanlılardan 14023
İlazi 14024
KCK 14025
İlişkin 14026
kapasitede 14027
konmasına 14028
takımında 14029
neyin 14030
yinele@@ 14031
tanımladı 14032
tahsilat 14033
amamış 14034
İrtibat 14035
Kalmeta 14036
ardan 14037
tabanı 14038
bilgisayara 14039
Başbak@@ 14040
zamlar 14041
düşürül@@ 14042
kullanımıyla 14043
arkasına 14044
bahis 14045
tah@@ 14046
sonucunun 14047
ba@@ 14048
Ponta 14049
tiler 14050
toplamaya 14051
Anne 14052
Stream 14053
boşluğu 14054
inanılmaz 14055
etkiyi 14056
ödül@@ 14057
Demetris 14058
eğitimden 14059
Ac@@ 14060
EPS 14061
anket@@ 14062
kaybederken 14063
kişiyle 14064
örgütlerinden 14065
isyan@@ 14066
toptan 14067
Angeles 14068
savaşının 14069
istiyorlarsa 14070
tatbikata 14071
başarının 14072
etkileyeceğini 14073
olmasın 14074
arayışı 14075
müdahal@@ 14076
başlamayı 14077
Kosovalılar 14078
iletişimi 14079
alanın 14080
mekanizmalar 14081
dok@@ 14082
gerektir@@ 14083
Radikaller 14084
yüzbinlerce 14085
Roganoviç 14086
Yine 14087
inanc@@ 14088
jiç 14089
federasyon 14090
Co@@ 14091
yalı 14092
Brezovica 14093
eser@@ 14094
kahve 14095
ürün@@ 14096
birleştiril@@ 14097
hafifletmek 14098
karşılarken 14099
açacaktır 14100
geçmişine 14101
testi 14102
Somali 14103
acağımızı 14104
fırtın@@ 14105
yaşamakta 14106
girebilmesi 14107
masıydı 14108
koordinasyonu 14109
has 14110
unsurlarından 14111
payının 14112
Dragoljub 14113
Tele@@ 14114
100. 14115
Tes@@ 14116
Fenerbahçe 14117
müzakerelerden 14118
organiz@@ 14119
bankaya 14120
geçmekte 14121
rezerv@@ 14122
hepsini 14123
çevreye 14124
dönmesini 14125
çerçeveyi 14126
istif@@ 14127
yerleştir@@ 14128
ımıyla 14129
ayrılmasını 14130
düzeltmek 14131
kaldıkları 14132
hayali 14133
oynaması 14134
60. 14135
çağrısına 14136
faslın 14137
Yetkililer 14138
olayına 14139
liklere 14140
içeri 14141
saldırıdan 14142
ortaklarının 14143
uzmanlarına 14144
Hamza 14145
edilmediği 14146
cumhuriyet@@ 14147
yolcular 14148
girişimlerini 14149
Boz@@ 14150
istismar@@ 14151
seviyelerini 14152
çıkarılmasına 14153
kavga 14154
Albena 14155
uğruna 14156
desteklenmesine 14157
lıklarının 14158
Bereliler 14159
geçirmiş 14160
ithalata 14161
imzaladıkları 14162
geçmişten 14163
suçlamalardan 14164
liklerine 14165
adaylarının 14166
suçlamayı 14167
Jeleva 14168
Vuckoviç 14169
vekil@@ 14170
oylar 14171
İlir 14172
sağlayabilecek 14173
Pendarovski 14174
kadarını 14175
çı@@ 14176
geçilmesi 14177
kaynaklan@@ 14178
duruluyor 14179
tanıdığını 14180
dakikalık 14181
sonunu 14182
dünyasına 14183
Tivat 14184
evlen@@ 14185
depremde 14186
onuncu 14187
isti 14188
zırhlı 14189
imkanları 14190
kredisinin 14191
yumuşat@@ 14192
Pavel 14193
diğerine 14194
şüpheci 14195
koşullara 14196
ayrıntılarını 14197
alanlardan 14198
CPI 14199
17@@ 14200
sekreter@@ 14201
anketleri 14202
yönetmelikleri 14203
santralı 14204
pri@@ 14205
blogcu 14206
uzaktan 14207
başlatacağını 14208
Severin 14209
hareketine 14210
değişmesi 14211
nam 14212
iyisi 14213
yönetil@@ 14214
yasalarla 14215
başkentindeki 14216
etmeyeceği 14217
baskında 14218
ann@@ 14219
Kredi 14220
rastlan@@ 14221
gerekçesi 14222
yürütüldü 14223
bulg@@ 14224
yükümlülükler 14225
yararlanma 14226
üreti@@ 14227
heyetiyle 14228
cihazları 14229
görünümünü 14230
PHARE 14231
operasyonlara 14232
8. 14233
gelişim@@ 14234
leyecek 14235
kutlayan 14236
olacaklarını 14237
kuruluşuna 14238
turnuvasında 14239
geçirilmesine 14240
emirleri 14241
önceliğin 14242
makin@@ 14243
komisyon@@ 14244
uçakları 14245
î 14246
diğerleriyse 14247
sunumu 14248
KEK 14249
Joviç 14250
Miro 14251
Droutsas 14252
anayasasında 14253
çiftç@@ 14254
barajın 14255
işlerinin 14256
finallere 14257
rezervleri 14258
5,3 14259
alacak@@ 14260
gizlice 14261
atını 14262
des 14263
kaydettikleri 14264
Foca 14265
dışarıdan 14266
durdurulması 14267
kaçağı 14268
kullanılmasına 14269
Azaltma 14270
virüsün 14271
üyeye 14272
eminiz 14273
gününü 14274
anıyor 14275
açıklamasından 14276
hisse@@ 14277
serginin 14278
akını 14279
Me@@ 14280
mevkidaşları 14281
korunmuş 14282
Kutsal 14283
koalisyonunda 14284
Simonoviç 14285
duruş@@ 14286
gayrımenkul 14287
uyoruz 14288
taktik 14289
mo@@ 14290
müzenin 14291
inşaat@@ 14292
Blanka 14293
kriterlere 14294
ordudan 14295
yaratılmasına 14296
emedi 14297
üyeler@@ 14298
vergilerinin 14299
varılması 14300
toplantılarda 14301
durduğu 14302
başlamıştı 14303
sorgula@@ 14304
kazası 14305
işley@@ 14306
kınadılar 14307
beklenti@@ 14308
uda 14309
film@@ 14310
dikkati 14311
edilebileceğini 14312
zar@@ 14313
hazırlık@@ 14314
bunlarla 14315
kamp@@ 14316
kaçmaya 14317
yöre 14318
hissi 14319
teknoloj@@ 14320
yönden 14321
anlayışı 14322
parçalanmış 14323
Mac@@ 14324
Makedonların 14325
kucak@@ 14326
Dairesine 14327
Barrett 14328
kam@@ 14329
layabilir 14330
birbirini 14331
Trayko 14332
So@@ 14333
artmasının 14334
Stoykoviç 14335
dillerinde 14336
kontrol@@ 14337
oluştururken 14338
itiraf@@ 14339
idaresini 14340
her@@ 14341
yaptığına 14342
sürdürmesini 14343
büyükelç@@ 14344
klinik 14345
şart@@ 14346
Güven@@ 14347
ela 14348
Partisine 14349
Atalay 14350
ite@@ 14351
açılacağını 14352
inşasını 14353
acılar 14354
kullanılabilir 14355
yenilenmesi 14356
iği 14357
şey@@ 14358
çalışanlara 14359
cihaz 14360
kaygılara 14361
edeceğim 14362
radikal@@ 14363
Kut@@ 14364
kıt@@ 14365
devrilmesinden 14366
biçiminde 14367
izlediğini 14368
Eurozone 14369
ödedi 14370
belgelerinin 14371
yürüyüş@@ 14372
anladığını 14373
geçirecek 14374
şirketlerinden 14375
göreceğini 14376
Besim 14377
yerlerden 14378
modernizasyonuna 14379
ai 14380
Dar@@ 14381
geliştirmesi 14382
görüyorsunuz 14383
Ci@@ 14384
etmelidir 14385
ederiz 14386
derecesi 14387
Avni 14388
Hatay 14389
HSBC 14390
Bul@@ 14391
kazandırma 14392
enklav@@ 14393
eşya 14394
tik@@ 14395
paketine 14396
heyete 14397
dizüstü 14398
gezisini 14399
kötüsü 14400
bırakmaya 14401
zirvesinden 14402
han 14403
laşması 14404
gayret 14405
karşıladığı 14406
ayrımcı 14407
köy@@ 14408
istek 14409
müşter@@ 14410
ılamaz 14411
Partili 14412
kere 14413
13. 14414
adres@@ 14415
sürül@@ 14416
lığıyla 14417
ilecek 14418
Cukiç 14419
olayında 14420
belediyelere 14421
kolektif 14422
Profesörü 14423
isyancı 14424
RWE 14425
paraları 14426
gurbetçi 14427
ayrıntılar 14428
gönderen 14429
emekliye 14430
liberal@@ 14431
faturalarını 14432
tepkileri 14433
leriniz 14434
büyümesine 14435
Today 14436
260 14437
tutulduğu 14438
değiştiğini 14439
Bilişim 14440
hapisteki 14441
bulunmadı 14442
ıncaya 14443
değerlendirmesine 14444
santralini 14445
hijyen 14446
öğrenme 14447
sergileri 14448
Bol@@ 14449
olabileceğine 14450
çevreci 14451
gerçekleşmiş 14452
kurulduğunu 14453
görsel 14454
kök 14455
agresif 14456
Vuk@@ 14457
Vecernji 14458
biliyorlar 14459
gelişmelerden 14460
gerçekleştirdikleri 14461
enlerden 14462
Lawrence 14463
riç 14464
Oyunlarının 14465
0,1 14466
inceliyor 14467
operatör 14468
durak@@ 14469
gerçeklerin 14470
ellerine 14471
evlilik 14472
Can@@ 14473
mil@@ 14474
NS 14475
Gru@@ 14476
amatör 14477
sera 14478
şüpheleniliyor 14479
bölgelerini 14480
Bujanovac 14481
konum 14482
medeni 14483
milliyetçiler 14484
gütmeyen 14485
Tra@@ 14486
tutuklanmasına 14487
beklentisi 14488
th@@ 14489
atmayı 14490
kurulacağını 14491
maç@@ 14492
şoförü 14493
lek@@ 14494
tekel 14495
fi@@ 14496
sıkılaştır@@ 14497
teorik 14498
dinlemek 14499
IBM 14500
beyan@@ 14501
tampon 14502
gu@@ 14503
Nüfus 14504
sürdürmesine 14505
sürme 14506
sonuçlarından 14507
imaj 14508
Hotel 14509
evden 14510
farklılıklarını 14511
Sağlığı 14512
engellenmesi 14513
Kas@@ 14514
eceğimizi 14515
doğruladılar 14516
miktarını 14517
Finci 14518
vekiller 14519
medyasının 14520
atının 14521
dıklarına 14522
hazırlıklarını 14523
bildiği 14524
engelliler 14525
gelirlerinde 14526
genişletilmiş 14527
yasalarında 14528
gerginlikleri 14529
Maliki 14530
hamlesi 14531
yatak 14532
Dusko 14533
vergilendirme 14534
dağıtılması 14535
mayacağız 14536
devirme 14537
Met@@ 14538
ilikle 14539
duygularını 14540
tüketi@@ 14541
partilerinden 14542
memizi 14543
önemsiz 14544
lin 14545
kavram@@ 14546
kampanyaya 14547
eğilimler 14548
reddettiğini 14549
İddianameye 14550
organ@@ 14551
geçirerek 14552
Valentina 14553
oluşum@@ 14554
Yıldırım 14555
çıkarılmış 14556
Javno.hr 14557
olaylarında 14558
çağrılarını 14559
manevra 14560
dak@@ 14561
kısıtlayıcı 14562
zirveden 14563
sorguluyor 14564
mühendis 14565
alp 14566
yöne@@ 14567
fuarda 14568
yaşanması 14569
Müz@@ 14570
azın@@ 14571
kaldık 14572
kalkanı 14573
lı@@ 14574
5,7 14575
cinayetin 14576
indirme 14577
Sa@@ 14578
Zbaniç 14579
udur 14580
site 14581
Tsvetanov 14582
dükkan@@ 14583
Davidoviç 14584
Jackson 14585
Pak@@ 14586
inceleyen 14587
erdiğinde 14588
slalom 14589
ombudsman 14590
modelinin 14591
kılmak 14592
köyde 14593
kaldıracak 14594
Silah 14595
12. 14596
270 14597
Terör 14598
uygulanmasından 14599
iddiasını 14600
fi 14601
Salonu 14602
X 14603
birbirlerinin 14604
trafiğini 14605
leyici 14606
mey@@ 14607
devamının 14608
tanıtımı 14609
daralma 14610
bilinçlendirme 14611
gücünde 14612
komplo 14613
yollarının 14614
Prilep 14615
Enformasyon 14616
yönetmelikler 14617
Osman 14618
fiyat@@ 14619
uların 14620
öldürülmüştü 14621
cihazlar 14622
istemek 14623
örgütlerden 14624
Patrick 14625
yakalanarak 14626
tehditlere 14627
finalinde 14628
iadesine 14629
dul 14630
Şam 14631
Ringas 14632
tiriyor 14633
olmayabilir 14634
alüminyum 14635
başlatması 14636
başkan@@ 14637
korumakla 14638
bulunmuştur 14639
Ses@@ 14640
planlarından 14641
borçlan@@ 14642
açıklayarak 14643
isteme 14644
üydü 14645
Meglena 14646
haliyle 14647
uzak@@ 14648
itibarı 14649
Kadınlar 14650
egemenliğinin 14651
Diana 14652
yüzyıllardır 14653
yönete@@ 14654
gösterge 14655
isimlerini 14656
Makedonija 14657
barikatlar 14658
6,3 14659
yorumlan@@ 14660
Madde 14661
desteklendi 14662
kullandıkları 14663
kimilerine 14664
abileceğinden 14665
varılıyor 14666
Mahke@@ 14667
Yargıtay 14668
yönetiyor 14669
lemeye 14670
fırsat@@ 14671
tanıklar 14672
getiriyorlar 14673
izleyeceğini 14674
malılar 14675
kategor@@ 14676
potansiyele 14677
Koştunitza 14678
yükümlülük 14679
düler 14680
analistlerinden 14681
Elektronik 14682
deniliyor 14683
Ljubisa 14684
oluyorlar 14685
Vlastimir 14686
Verhagen 14687
Dan@@ 14688
kablolu 14689
otoyolunun 14690
tamamlanmasının 14691
ınıza 14692
başlatılmasının 14693
birisine 14694
jan 14695
oran@@ 14696
cisi 14697
değil@@ 14698
arşiv@@ 14699
gin@@ 14700
adığı 14701
hast@@ 14702
sürmesine 14703
konuşurken 14704
4,2 14705
Sanayii 14706
test@@ 14707
konmuş 14708
olacaktı 14709
aşmak 14710
başsavc@@ 14711
Vladan 14712
müşteriler 14713
İsim 14714
kimseyi 14715
gireceği 14716
[...]
