<blank>
<s>
</s>
,
.
&apos;
ve
&quot;
bir
da
bu
için
de
/
nin
AB
nın
ile
)
(
ın
@-@
Sırbistan
günü
Kosova
olarak
olan
daha
in
dedi
:
Avrupa
-
söyledi
en
yeni
a
Türkiye
göre
olduğunu
&#93;
&#91;
Sırp
çok
daki
yer
iki
tarafından
arasında
Makedonya
büyük
yıl
son
devam
BH
etti
ilgili
kadar
dan
Hırvatistan
ancak
diğer
Belgrad
siyasi
Times
yaptığı
ya
konusunda
uluslararası
Arnavutluk
üzere
Bakanı
ülkenin
her
SETimes
ABD
olduğu
European
Southeast
Karadağ
Bulgaristan
milyon
önemli
--
ye
sonra
karşı
eski
ilk
Romanya
Yunanistan
gibi
NATO
BM
10
fazla
e
%
haberi
un
yüzde
ise
yılında
verdiği
Cumhurbaşkanı
11
kabul
ülke
den
şekilde
olmak
ta
birlikte
Bosna
iyi
önce
Türk
;
nun
ekonomik
üç
sahip
içinde
sonrasında
yaklaşık
devlet
ediyor
ne
Pazartesi
yapılan
veya
üzerinde
başkanı
12
şöyle
Hersek
savaş
bin
Başbakan
oldu
gelen
değil
Hırvat
açıklamada
söz
ayında
geçen
genel
hükümet
Kıbrıs
bütün
fakat
deki
Dışişleri
Çarşamba
ayrıca
te
hafta
bunun
belirtti
yüksek
işbirliği
Başbakanı
yol
aynı
yerel
üyelik
düzenlenen
09
eden
i
geri
Getty
Salı
geldi
var
Images
yönelik
ay
avro
07
06
05
polis
yerine
sıra
Priştine
demeçte
bazı
Reuters
04
03
08
özel
alıyor
hakkında
AFP
konusu
yönünde
verdi
yanı
biri
arasındaki
karar
gerektiğini
pek
konuşan
Arnavut
yeniden
yardım
Mart
20
yana
?
tek
olacak
ortak
Mayıs
uzun
alan
Ekim
Haziran
Perşembe
çeşitli
sadece
iş
ı
Aralık
Başkanı
güvenlik
Ocak
diyen
tüm
aldı
amaçlı
Makedon
hükümetin
hükümeti
15
bulundu
1
anlaşma
dört
yetkililer
destek
Temmuz
şu
Kasım
karşın
Pazar
hem
enerji
Üsküp
Nisan
gün
etnik
açısından
Yunan
Balkan
o
bulunuyor
geçtiğimiz
30
araya
Saraybosna
ten
Dünya
yı
Balkanlar
dahil
Eylül
Bulgar
rağmen
az
mevcut
mücadele
tam
ziyaret
aldığı
Şubat
üyesi
Kosovalı
AP
ortaya
kendi
bekleniyor
2
gerekiyor
Bu
Atina
olması
resmi
sırasında
Konseyi
on
kamu
başka
etmek
ikinci
yapılacak
Komisyonu
zaman
yalnızca
anda
25
Tadiç
diyerek
milyar
Partisi
askeri
Uluslararası
Rusya
AK
para
li
kişi
ekledi
yi
üye
yıllık
söylüyor
avroluk
altında
17
Cuma
nedeniyle
görev
şey
yatırım
ulusal
seçim
bulunan
yakın
sayıda
Ağustos
Cumhuriyeti
katılım
insan
beş
amacıyla
edilen
Bosnalı
16
basın
02
Brüksel
üst
ilişkin
ciddi
hiçbir
dile
bunu
kaynaklar
13
3
gereken
kapsamında
eğitim
yönündeki
oy
ileri
ardından
ilerleme
dış
sona
başladı
18
inşa
kısa
kültür
14
Tiran
01
SC
derece
meydana
27
Lahey
altı
bölgesel
durumda
sınır
şeklinde
elde
2004
parti
adlı
bile
güçlü
5
Bankası
önümüzdeki
ana
açık
Ankara
suç
ki
sözlerine
IMF
İstanbul
mali
diyor
21
gelecek
günkü
Sofya
ev
ayı
kararı
ülkede
Güvenlik
Bakanlığı
ifade
bölge
toplam
Genel
Mladiç
Erdoğan
Bükreş
Güneydoğu
24
teki
farklı
barış
Demokrat
Batı
düşük
çoğu
Almanya
çözüm
süre
22
ekonomi
durum
ele
yaşanan
savunma
yılın
19
hale
üzerine
gerekli
23
hazır
28
küçük
aday
Yardımcısı
artık
düzey
iç
oluşan
ülkeleri
yine
yolunda
6
2007
suçları
yaşındaki
Rum
lideri
yok
nde
yabancı
ülkesinin
4
26
lik
edecek
olmadığını
halinde
bakan
2008
ülkedeki
günlük
yargı
katıldı
iddia
sorun
Ulusal
zorunda
etme
teslim
Irak
ettiği
olumlu
Yugoslavya
satın
zamanda
İki
organize
konuşmada
bağlı
sonunda
ICTY
kredi
başta
lider
la
taki
boyunca
Zagreb
7
dair
birkaç
tan
2006
8
çıkan
yasa
uygun
burada
29
ülkelerin
u
özellikle
buna
reform
sorumlu
kazandı
2005
kuzey
herhangi
kötü
Slovenya
sağlık
merkezli
ticaret
açıkladı
yüzünden
olacağını
yandan
nda
elektrik
hâlâ
getirdi
arada
yaptı
yetkili
bölgede
UNMIK
açtı
üyeliği
50
ama
2009
Fransa
öne
Romen
henüz
çağırdı
takdirde
raporda
konulu
adım
-@@
Cumartesi
sahibi
muhalefet
tarihi
ülkeler
toplum
Merkezi
hükümetinin
ülkelerinin
Boris
bunların
mümkün
nasıl
temel
bağımsızlık
yapan
kentinde
gösteriyor
Mahkemesi
na
yolsuzluk
yardımcı
kaydetti
yayınlanan
yılı
Dairesi
2010
bağımsız
meclis
Kostunica
ler
gerçekleşti
bilim
lar
doğru
bölgedeki
başlarında
açıdan
Rehn
100
olduğuna
bilgi
yaşayan
sonuna
türlü
zor
haline
temsil
serbest
izin
Anlaşması
altına
edilmesi
süren
el
sivil
gerçek
yetkilileri
süreci
yıldır
karşıya
verilen
görülüyor
mevkidaşı
ülkeden
ettiğini
aralarında
B92
önceki
turizm
İtalya
vergi
Parti
doğrudan
şimdi
üyeleri
haber
KFOR
küresel
suçu
sosyal
an
başlıca
anlaşması
ötürü
ilişkileri
duyurdu
Birliği
İnternet
AGİT
üçüncü
gerçekleşen
dünya
proje
veren
İş
etmesi
dönemde
yolsuzlukla
ini
beri
1995
inin
ün
partisi
oranında
leri
ilan
grup
Ortaklık
etmeye
geliyor
Sorumlu
İngiltere
9
olmasına
parlamento
Adalet
erken
dünyanın
kez
le
sözcüsü
2003
çalışma
Washington
hakkındaki
Ahtisaari
demokratik
dışişleri
neden
40
işaret
oldukça
başarılı
AKP
hala
PKK
artış
Sırplar
The
başına
Zoran
ediliyor
petrol
31
tür
kişinin
cumhurbaşkanı
toplantısında
alacak
önde
belediye
sağlayacak
EULEX
vize
dışında
BBC
bütçe
ederek
üzerindeki
mahkeme
benzer
Nikola
ları
şirketi
durumu
ülkeye
şiddet
Sekreteri
bugüne
edildi
konuştu
sorunu
lerin
parçası
geniş
sonraki
genç
ait
cumhurbaşkanlığı
anlamına
yılından
rol
film
ların
çağrısında
yeterli
yedi
Rus
önünde
sahipliği
merkezi
Barış
bundan
sözlerinde
konusundaki
dönem
kalan
sekiz
gerektiği
ilişkiler
Festivali
anlaşmanın
seçimleri
halkın
sözü
tekrar
sayısı
böyle
vurguladı
Üniversitesi
yılki
ikili
liderleri
sağlamak
ordu
hakları
anayasa
yasal
Savunma
1999
Yüksek
yetkililerin
şirket
olmayan
yüzden
ülkeyi
dizi
kontrol
Basescu
istiyor
müzakerelerin
belli
teknik
İstikrar
tamamen
tehdit
Komisyon
bakanlığı
konu
giderek
diye
önem
boru
Alman
Sanader
reformları
kuruluşu
Berişa
statü
hava
sürekli
GSYİH
almak
İçişleri
bulunduğu
nden
halkı
işbirliğini
yardımcısı
çalışan
ülkesi
politika
alma
statüsü
olmaya
koruma
terör
ettiler
umut
yapılması
Rumen
nihai
çağrıda
halkının
adet
birinci
neredeyse
yılına
kadın
Avrupalı
hizmet
merkez
Gül
bakış
bugün
aşırı
Parlamentosu
net
avroya
Kürt
dikkat
DPA
Miloseviç
sürdü
yoluyla
müzakere
Karadziç
kaynak
medya
hareket
yönetim
baş
ek
yılda
lerini
yasadışı
başında
uzlaşma
öncesinde
halk
kriz
memnuniyetle
adayı
doğal
hemen
söylediler
olsa
toplumun
verildi
sistemi
Atlantik
emekli
spor
sırada
mal
azınlık
olası
olmadığı
ön
büyüme
ölçüde
su
düzenlediği
talep
Gruevski
Doğu
bunlar
Kalkınma
...
ndan
Recep
Üyesi
gümrük
Jovanoviç
sürecinin
ila
1990
soruşturma
del
anlaşmaya
seçimler
Tayyip
çünkü
olabilir
istikrar
güvence
giden
görevi
2002
nükleer
desteği
oranı
Enstitüsü
mi
liderler
uzmanlar
Yugoslav
Ponte
teşvik
zira
hedef
öte
Orta
Haber
baskı
defa
kesin
çalışıyor
potansiyel
iktidar
isim
larını
sorunları
Kurulu
hiç
al@@
Güney
başkan
ediyorlar
500
kendisini
lerinin
200
gösteren
milletvekili
zarar
olma
olup
Avusturya
lere
lerine
çıktı
Müslüman
euro
adı
ortadan
larının
bölgenin
sürüyor
onun
60
Sosyal
2001
engel
Sırpların
ını
sonuç
olumsuz
alanında
taraf
Ajansı
ticari
civarında
binlerce
müdürü
gerek
bakanı
2011
ının
geçiş
yaşam
yapıyor
koalisyon
hızlı
planlıyor
kaçak
sürecini
bizim
Maliye
Ratko
si
insanların
demokrasi
günlerde
dini
ısrar
üyeliğine
madalya
artan
Büyükelçisi
söyleyerek
yakında
onu
söylüyorlar
Gotovina
kaldı
kültürel
Yeni
dava
İngiliz
yapmak
Macaristan
teşkil
projenin
gazetecilere
tarım
toplantı
görüşme
isteyen
yanlısı
yapacak
Libya
tepki
solda
görüşmede
dokuz
verdiler
ine
yürürlüğe
hukuk
partinin
Demokratik
göz
yaptıkları
protesto
sorunlar
planı
olasılıkla
vadeli
bazıları
Olimpiyat
uyardı
partiler
verme
Solana
bekliyor
New
Vojislav
müzakereleri
üzerinden
İran
hattı
Mesiç
faaliyet
aylık
alınan
gaz
liderliğindeki
Ashdown
toplantıda
işbirliğinin
onayladı
silah
gösterdi
planlanan
beklenen
rapor
arası
katılan
ü
1992
orta
at@@
silahlı
İnsan
lara
anlaşmayı
konuda
takım
Cinciç
uyuşturucu
yerli
açıldı
sonucunda
lerinden
sert
stratejik
etkili
bildirildi
mı
analistler
altın
doğalgaz
elçisi
yürütülen
olduklarını
kurulması
komşu
ihtiyaç
edeceğini
tarihli
acil
başbakan
Kültür
Film
mahkemesi
Slobodan
Ceza
Devlet
asker
Hollanda
Srebrenica
İsrail
çaba
tarihleri
sonuçlar
araştırma
2000
kararını
davet
Roman
bakanları
düşünüyor
çerçevesinde
özelleştirme
görüşmeler
katkıda
geçici
sonucu
Fransız
ayın
gelecekte
uygulanması
somut
ına
olmakla
gelir
taşıyor
polisi
alındı
tahmin
seçimlerin
Sosyalist
programı
kendisine
yerini
larına
lık
yapmaya
İlk
iade
ayrı
haberlerinde
çevre
devletin
önüne
partisinin
SAA
grubu
Ordusu
övgüde
Arşiv
açıkça
hayata
STK
oviç
lardan
yolu
güç
veriyor
çocuk
lerle
işsizlik
alınması
teklif
tedbirler
şirketin
hakkı
larından
gerçekten
Derneği
gözden
raporunda
karşılıklı
sık
nitelendirdi
başkanlık
Kesimi
yönetimi
larla
kurulan
görüşmelerde
tarihte
rekabet
gücü
hapis
durumun
inden
Müdürü
verecek
diplomasi
oluşturuyor
Grubu
Ticaret
diplomatik
kaydedilen
yanıt
oranda
örgüt
saygı
alanda
dek
yani
kilit
yaz
General
vermek
Olli
yayınladığı
alması
finans
Meclis
olmasını
kesinlikle
35
müzakerelerinin
seçimlerde
reformu
reformların
seyahat
Dodik
iktidardaki
gizli
konuşmasında
300
ağır
lerden
uygulamaya
olmadan
siyaset
bağımsızlığını
yılındaki
görülen
insanlar
Luka
Ekonomi
ihtiyacı
değişiklik
kenti
larda
İtalyan
yönde
komutanı
ortalama
Dayton
olanak
uygulama
yıldan
geleneksel
York
Podgorica
altyapı
sürecinde
olacaktır
Zagrep
70
nüfus
istifa
Papandreu
di
banka
ından
edilmiş
Seydiu
Annan
verilecek
göreve
sağ
geleceği
belirtiyor
müzakereler
adımlar
inanıyor
Radovan
temsilcileri
olay
kurma
etkinlik
Banja
endişe
eyaletin
başlattı
Arnavutlar
ziyarette
imzalanan
oluyor
ziyareti
Genişlemeden
İslam
makamları
dolar
diyalog
olacağı
belirten
yasanın
söyleyen
hatta
belirtildi
reformlar
sözleri
Scheffer
başkanlığını
içindeki
reddetti
Eski
Federasyonu
Hoop
S@@
me
kolay
temsilcisi
sisteminin
imzaladı
çabalarını
Ortodoks
onları
birisi
idari
zamandır
haberlerde
toplumsal
imzaladılar
lerde
sektörü
Tomislav
Amerikan
adalet
basında
uyarınca
İspanya
Boşnak
Merkez
istedi
inşaat
görevdeki
edilecek
çalışmaları
suçla
tanınmış
ni
kapsamlı
hayatını
biraz
tur
kazanan
kampanya
sayesinde
sorunun
durumunda
örneğin
lı
vatandaşların
hitaben
çabaları
ilişkilerin
futbol
ç@@
analist
binden
kurumları
partilerin
dışı
Abdullah
Moskova
etmeyi
saat
oldukları
yapma
sürecine
şart
ilgi
yıllarda
Birliğe
aldığını
terk
maya
haberlere
istediğini
partileri
Dragan
milletvekilleri
borç
s
kararın
belgede
getirmek
Komitesi
Suriye
Çin
dolarlık
kısmı
başlayan
Afganistan
Ali
müzakerelerini
imzalandı
örgütü
milliyetçi
bölgesinde
taraflı
getiren
gazeteci
değişiklikler
sağda
biçimde
leriyle
sürecin
televizyon
mücadelede
öngörülüyor
mahkemenin
almaya
yıllardır
yapacağı
mahkemesiyle
80
ihlal
geldiler
bunları
vardı
sağlama
Nikoliç
İgor
ıyla
eşit
bölgesi
bildiride
Fatmir
K@@
geldiğini
belirtiliyor
katılmak
gitti
adil
erkek
projesi
Adriyatik
VOA
kalkınma
sayısının
herkes
gerçekleşecek
etki
Kuzey
yıla
bize
sundu
görüşmek
içişleri
ödül
k@@
Zrvenkovski
hukukun
biz
Hakları
iyle
verdiğini
in@@
krizin
sergi
toplantısı
kamuoyu
bildirdi
görüyor
üyelerinin
Vladimir
yanında
ma
röportajda
heyeti
grubun
görünüyor
hedefi
çoğunluğu
şeyi
gazetesinin
uzak
Çek
puan
girişim
verilmesi
ülkelere
ülkelerine
aile
üretim
komünist
uygulanan
kalma
amacı
Örgütü
nüfusun
tarih
başa
dayalı
kararlı
mesine
150
unun
şartları
onlara
durumdaki
kal@@
olursa
sonu
Meclisi
ifadesi
Sali
Bir
Viyana
kişilerin
kurtarma
birçok
an@@
Ohri
getiriyor
zamanı
Karamanlis
gazetesine
bununla
olasılığı
toprak
yazar
ünlü
2012
uyarıda
ederken
sonuçları
1991
Goran
karmaşık
açıklama
mak
güvenli
bölünmüş
emin
Vuk
Jeremiç
90
istikrarı
Mitrovica
süredir
haberine
larında
ında
düşünüyorum
etmekle
yakınlarındaki
önceden
Temsilci
Haşim
düzeyde
inde
takımı
görevden
başlayacak
memnun
Enerji
RFE
RL
pazar
öğretim
se
bloğun
duyduğu
Polonya
ikna
yayın
firması
Barroso
SFOR
geçerli
400
belge
olsun
adına
Savaş
derecede
yönetmen
politikası
sürece
uzman
dünyası
bakanlık
mesi
ar@@
lük
gerekse
1998
deniz
verici
görüş
itibaren
süreç
döneminde
altını
meye
toplu
Kupası
yap@@
kaçakçılığı
yapmayı
Moldova
kurumsal
seçimlerinde
çoğunluk
onların
elinde
zorlu
şehir
mayı
vermeye
yaygın
değer
askıya
güvenliği
konuyla
bildiriliyor
görüşündeler
FT
Demokrasi
hayal
altındaki
Milorad
sürecek
sigara
yoğun
öğrenci
aş@@
Bakanlar
masına
çekti
hükümete
Halk
korunması
km
girişimi
başlaması
görevli
4@@
Telekom
asla
sağlayan
taşıyan
hazırlanan
terörle
mesini
artırmak
tedbirleri
Bakan
Özel
Noel
Traian
dolu
program
İttifak
lerinde
Yorgo
hak
resmen
sonlarında
bilgisayar
telefon
ülkelerde
muhalefetteki
birlik
teknoloji
temsilciler
yüzlerce
filmi
sorumlusu
yetkililerle
istikrarlı
larıyla
düzenlendi
zaten
açılan
noktası
George
tehlikeye
ceza
önlemek
mek
manın
ikisi
Paul
tartışma
ulaştı
Belediye
Birliğin
görmek
başarı
mahkemeye
aldılar
var@@
miş
vermesi
sorunların
turist
düzenledi
gerçekleştirilen
birinin
Ahmet
gelecekteki
tespit
sonrası
artırma
cep
şunları
yetkilisi
derhal
seviyede
Başkan
harekete
nı
Georgi
şimdiye
siyasiler
kimse
güven
referandum
A@@
özgürlüğü
Bush
yapması
sa
işbirliğine
seçimlere
Branko
yavaş
gazetesi
açtığı
raporu
gıda
ülkelerden
bulundular
sağlanması
düşüş
Geçen
Tariceanu
masını
anlaşmasının
Lajcak
çalışmaya
kişisel
doğruladı
rakam
Antonio
Parvanov
HDZ
ıyor
Anayasa
Radiç
polisin
bekleyen
yanlış
3@@
SE
istiyoruz
tercih
Bank
sektöründe
fikir
kendisi
yasayı
kara
kıyasla
Linda
İçin
unu
yardımı
örnek
görevini
görüşmelerin
tatil
EBRD
aç@@
özgür
ihracat
rolü
müzakerelere
kurulu
düzenlenecek
alarak
öncesi
açıklamasında
olanağı
kendilerini
İsviçre
koalisyonu
profesyonel
ak@@
En
merkezinde
katılma
geldiği
Akdeniz
kişilik
sıkı
dikkate
alanlarda
Karadağlı
müzakerelerine
tasarruf
Karadaku
sağlam
süresi
getirilmesi
genişleme
B@@
krizi
tartışmalı
ması
müzik
Hafta
suçlu
mesele
geçti
y@@
plan
İvo
D@@
il@@
yılının
eylem
edip
Londra
Amerika
masının
halka
yu
sunduğu
popüler
standartlarına
suçlanan
enflasyon
maaş
sağladı
çaplı
yılları
Sloven
birliği
Beta
katılıyor
karşıtı
fırsat
bölgeye
Schengen
karşıladı
Ukrayna
ankete
başkanlığı
üyeliğinin
Dünyasında
etmiş
İyi
ayındaki
vatandaşları
Karadeniz
kur@@
haberlerine
kişiler
kalacak
çıkar@@
belirgin
tarafı
karşılığında
bölümü
luk
sağlıyor
Georgiev
öngören
sözde
seçmenlerin
savunuyor
milli
Milan
Stipe
kaydettiği
sözlerini
girdi
ekonominin
kullan@@
üçte
45
fazlası
başsavcısı
İşbirliği
E@@
yapıldı
Javier
meyi
seçmen
alanlarında
er@@
bulmak
göster@@
olduğundan
ben
yasaları
tarihinde
kurumlarının
şeklindeki
mesaj
şartlar
çözüme
eğlence
nedeni
korumak
kaynağı
festival
sorumluluk
toplumu
bazda
nün
kentin
çık@@
beklediğini
Ban
Buckovski
çabalarına
insanları
etmesini
misyonu
mesinin
önerilen
maları
etkinlikte
tarafın
ödülü
entegrasyon
una
kurumlar
madan
malı
temaslarda
Nehri
içeren
önünü
Talat
sırasıyla
Novi
G@@
lardaki
görüşmesi
idare
kilometre
yeşil
diplomat
Macar
artırılması
Martti
katkı
geç@@
zafer
nüfusunun
m@@
kullanılacak
başbakanı
dördüncü
programına
tamamlanması
makla
atılmış
ortasında
ortaklık
dönemi
bizi
duyulan
l@@
acak
Ivo
Afrika
rapora
mülteci
geç
açan
örgütün
T@@
Liberal
sandalye
ona
genelinde
almayı
ortada
suçladı
Selanik
çapında
müdahale
mekle
zayıf
olabileceğini
bulunduğunu
operasyon
işe
Radyosu
okul
açılış
etmesine
kurmak
getirme
yetkililere
heyet
yaşadığı
yaşıyor
mensuplarına
meleri
Sanat
Kostas
çalışması
ekonomisi
önündeki
Petersen
ayrıntılı
devleti
kritik
şansı
ndeki
bilinen
verilere
alındığında
antik
d@@
Paris
katıldığı
dı
radikal
arak
iptal
telefonu
BHF
aylarda
haklarını
etkin
güçleri
anayasal
normal
toplantıya
birini
düzenli
Jessen
vatandaşlar
diği
yolundaki
bulun@@
makamlarının
etmişti
değildir
dev
duyuruda
şüpheli
Hasani
süreyle
International
tiyatro
ekliyor
Rugova
ulaş@@
et@@
kısmını
edilemez
zengin
O@@
inanıyorum
araç
dolayısıyla
metre
bil@@
İsveç
katı
soykırım
şirketler
edilmesini
olur
gösterdiği
kabine
Davutoğlu
olmayı
5@@
Hükümet
kent
erdi
planını
istihdam
anlaşmasını
maruz
ülkelerinde
sayısını
etkisi
çağrısı
mahkemesinin
çağdaş
kaydedildi
120
Merkel
cezası
davanın
ışık
düzenleme
Asya
Belçika
Müzesi
Cukanoviç
çıkıyor
hukuki
Seçim
seçildi
i@@
Osmanlı
işleri
yineledi
dairesi
55
Mücadele
Polis
alınacak
M@@
bulunarak
kuruluş
VMRO
ım
de@@
edildiği
parlamentonun
faaliyetleri
Tuna
iletişim
doğrultusunda
ası
işlenen
inşası
konuşma
makta
ziyaretinde
İkinci
YTD
aktarılan
tanık
katılması
liderlerinin
Avusturyalı
PSD
bulunması
hedefine
gösterdiğini
üyeliğini
liderlerin
planlarını
aktif
aya
ediyoruz
P@@
sağlamaya
öncelik
Blic
sermaye
diğini
firma
sahne
benim
aslında
genelde
Borisov
adanın
kalıyor
çocuklar
boykot
Josipoviç
Teknoloji
elçi
etkinliğe
kurulacak
katılımı
fırsatı
GDA
üniversite
istihbarat
sanayi
gruplar
dünyada
adını
görüşünde
zam
250
Batılı
Spor
katılacak
kentindeki
bulma
kullanma
yapıcı
göç
bankacılık
Sofia
Miroslav
çıkardı
ihraç
komisyon
gördüğü
hizmetleri
Berlin
yetki
sistem
onlar
bakanlığının
hazırladığı
sorununun
ver@@
başlatma
olmaları
derin
ötesi
imza
c@@
mesinden
verimli
kaybetti
Büyük
din
Dimitris
konular
meden
dışındaki
çalışmalarını
euroluk
SDP
uyumlu
açıklamaya
yurtdışında
z@@
t@@
Savaşı
kuzeydeki
şeyin
kaldırılması
sorununa
meli
600
kararının
saldırı
kurumların
tedbir
işi
C@@
Dinkiç
kat
güney
başlangıçta
alternatif
finanse
gelişme
vatandaşlarının
uzmanları
siz
cumhurbaşkanının
çekiyor
açığı
eleştirdi
öğrenciler
eşi
çoğunlukla
belirli
gören
kendilerine
Stefan
6@@
er
kullanılan
mekte
yaparak
7@@
festivali
ekonomisinin
alanındaki
kısmen
DPMNE
as@@
darbe
Yatırım
katılmaya
yükümlülüklerini
dir
standartları
Y@@
yle
Finlandiya
Ekonomik
kurum
olayları
olduğunda
üreticisi
sayısında
ayda
savcılar
üçlü
Laura
tavsiye
şirketleri
aları
izni
duruma
gözaltına
CNN
Kosor
of
ulaştırma
EUFOR
mahkum
kala
değişiklikleri
yıldönümü
direktörü
Temsilciler
Şampiyonası
Carla
şartlarını
kişiyi
tutuklandı
umutları
geliştirme
gelerek
mecliste
2@@
sandık
Dış
kadınların
Ceku
planladığını
geleceğini
müzakerelerde
kötüye
Mostar
sorunlara
ihtilafı
baş@@
izleme
sınırları
idi
olmasının
abilir
uzmanı
anlamda
desteklemek
şimdiden
tutuklama
erişim
Gürcistan
ıp
halen
hakim
maması
Slovakya
zamanlar
Mehmet
Markoviç
ş@@
Draskoviç
fiyat
bütünleşme
belirttiler
getirmesi
geride
yolda
is@@
İ@@
sürede
başlıklı
kazan@@
sınırlı
Olimpiyatları
olağanüstü
Jose
kaynakları
olduğunun
şirketlerin
planlanıyor
kadınlar
faiz
Gazprom
tehlikeli
avronun
görüldü
DSS
Komiseri
indeki
bana
geçmişte
Paddy
sunulan
herkesin
TV
işten
asıl
zirvesinde
acağını
alırken
üretimi
anın
mış
Bilim
Stanişev
sabit
kuruldu
diğerleri
olmaması
KDV
İslamcı
olasılığını
n@@
kazandığı
başarısız
H@@
News
uyum
giriş
kon@@
çocukların
Karaciç
masından
Eğitim
amaçlayan
menin
Temsilcisi
gelmesi
mahkemesine
oğlu
Bloomberg
Dnevnik
kayıtlı
ünü
davası
fark
çalış@@
PASOK
tanınan
adli
ton
dayanarak
satış
oranının
Jaap
aykırı
sanat
içine
strateji
yapısal
sel
sürdürüyor
birimi
yakınlarında
vizesiz
şefi
koydu
en@@
bağış
Hükümeti
bekliyoruz
oranla
Milo
düştü
Birlik
yasası
Birleşik
lu
gündeme
konser
umuyor
Kıbrıslı
biraraya
fiyatları
1,5
vatandaşı
bulunmak
istediği
gerekçe
masıyla
vereceğini
onaylanması
32
görevine
yapımı
yoksa
vererek
Hareketi
Japonya
itiraz
karara
bak@@
parlamentosu
güzel
seçimlerden
görüştü
yaptığını
dayanan
personel
sat@@
ay@@
kampanyası
iddiaları
bünyesinde
Turizm
meselesi
Anadolu
Taçi
ndaki
zanlısı
neler
önemini
iç@@
Mediapool
sınırı
getirdiği
konuları
bağımsızlığı
karşılık
umduğunu
arama
standartlarını
asının
saatlerde
kasabasında
madığını
yaş
rejiminin
gücünün
olaylar
umutlarını
kimlik
Büyükelçiliği
sürdürülebilir
çoğunun
tamamladı
sanatçı
ajansı
yayınladı
katılımcılar
artması
Ante
değerlendirme
Nastase
sürerek
ar
800
aranan
Günlüğü
kayıt
Michael
Temas
ettikleri
e@@
dönemine
Split
sektörünün
madı
m
görüşmeleri
CHP
maddi
artıyor
me@@
ilişkilerini
konferans
konferansta
daire
suçlanıyor
belki
Haradinay
döviz
cezasına
önerdi
gece
zirvede
N@@
gerektiğine
getirdiler
Ciocoiu
ordunun
düzeyinde
haberleşme
iyimser
Nabucco
ek@@
oylama
Koruma
demiryolu
le@@
Kilisesi
acağı
azından
yasaların
mayın
grupları
açıklanan
ünün
alar
dünyasından
çalışmalarının
erek
Demokratlar
yapmış
Arnavutların
statüsünü
yıllar
plana
parlamentoda
ayına
hangi
UNESCO
ülkelerinden
planları
Roma
gerçekleştirdi
65
nedenle
insanın
bırak@@
iyor
mişti
süreli
Marina
ımız
bağlantılı
terörist
Kaide
üne
yürüten
açıyor
almış
avrodan
olmuş
başar@@
olmaktan
veriliyor
paketi
iddiasıyla
vatandaşlarına
olayı
memuru
uy@@
yaşında
seviyesinde
sistemini
yetersiz
gel@@
entegrasyonu
yerde
Mustafa
hizmete
75
oluşuyor
gençler
Ljajiç
ankette
L@@
bulunacak
yatırımcılar
konumunda
birinde
göstererek
kapsayan
başlatılan
oyuncu
zanlı
Sergey
çoktan
yasalar
açılması
destekleyen
tartışmalar
memesi
desteğini
yoksul
ara
olurken
hasar
şiddetli
Daciç
gümüş
tı
mesiyle
ortamı
Taci
Komutanı
idaresi
üstesinden
siyasilerin
gerekecek
et
9@@
projeler
Radikal
tarihinin
Blerta
dönüş
Rama
aleyhinde
buradaki
Babacan
sorununu
Popescu
sı
malarını
önerisini
Arap
güçlerinin
yollarını
unda
ediyorum
geçirilmesi
olacağına
santrali
projeye
duy@@
UNDP
Recepi
anlaşmazlık
değişim
arttı
kayıp
modern
kondu
ödülünü
bankası
oluşturan
planının
sun@@
ıyorlar
çalışmalarına
Hırvatlar
insani
yan
Araştırma
havayolu
yapılmış
EurActiv
gelişmiş
düşün@@
Kaddafi
daveti
Manuel
34
s@@
alı
t
Nikolovski
fotoğraf
denetim
hattının
askerleri
işler
kurdu
ır
DUI
ithal
belirterek
anlar
anlaşmada
yoksulluk
adalete
temsilci
Dahası
fon
emlak
alt
işçi
milletvekillerinin
kriterleri
ilave
V@@
ik@@
kalıcı
paralel
İlişkiler
sürmekte
miktarda
itibarıyla
geliştirilmesi
liği
hazırlık
acı
özgürlük
ders
barışçı
yazarı
ındaki
rekor
projeleri
görüşmelere
cinayet
sektör
aracılığıyla
madığı
im
karşısında
b@@
edil@@
gazeteciler
buldu
anlaşmalar
çözmek
2013
verdikleri
birbirine
muamele
tutumunu
onay
ilerlemeyi
görevlisi
uyla
ülkelerle
eksikliği
alanı
anlaşmazlığı
belirsiz
Z@@
azınlıkların
olmadı
say@@
8@@
avroyu
öneri
edilebilir
halkına
önleme
İttifakın
etmeleri
destekleme
desteklediğini
erkekler
emniyet
ilerletme
Makfax
F@@
oyla
LDK
İbrahim
maktan
destekliyor
üstünlüğü
oran
U@@
laik
ticareti
ortam
at
kurumlarına
bulunuluyor
güçlendirme
açacak
çizdi
hidroelektrik
hareketi
sözleşme
Guardian
Vuyanoviç
faaliyete
Yeniden
toplumunun
geçmesi
Sad
sinin
ademi
bunlardan
Kanada
bıraktı
çözme
hükümetini
sonucuna
yapılmasını
haklarının
zamanlarda
f@@
Kofi
dur@@
edeceği
700
tip
ekibi
Sırplara
çözümü
yasaya
zamanında
kökenli
enin
tavır
DS
hepsi
ortaklaşa
kuruluşları
ödeme
bağlantı
Euro
şirketinin
vermiş
şeyler
takip
getirmeye
esi
Voyvodina
borcu
muhabiri
Lüksemburg
yoldan
Ermeni
ortağı
hayati
çıkması
toplantının
getirecek
planın
v@@
!
garanti
medi
günde
olmayacak
ada
Euobserver
muhalefetin
komuta
Belgradlı
koşulları
gerçekçi
fayda
abileceğini
hızla
kıyı
böylelikle
37
danışmanlık
festivalde
ücret
bölgelerde
dolayı
meclise
Robert
iste@@
seçimlerinin
sizce
gelişmeler
konuk
yarı
r@@
tesis
mediği
gir@@
hedefliyor
bilişim
Clinton
etmekte
eminim
bence
edici
meclisin
hazırlanıyor
bakanlarının
ilerlemenin
talebi
çalışmalar
nispeten
vadede
Milososki
oyların
madde
Aleksandar
dön@@
şikayet
Putin
mesinde
ip
Oyunları
1993
kuzeyindeki
kısmının
kamuoyuna
kâr
g@@
edilmesine
kapalı
aktardığına
çıkarıldı
sahte
Konsey
konularda
giren
Sarkozy
k
kullanımı
gerçekleşmesi
Hakkındaki
çözülmesi
Eurovision
oynadığı
bloğa
yaz@@
Davor
1996
operatörü
iş@@
aksi
esine
ik
elektronik
savcı
Igor
Yönetim
başkenti
hapse
gidiyor
Daniel
33
ecek
Siyasi
çabalarının
os
Milovanoviç
kurulmasını
istikrarın
emeklilik
otomobil
maliye
izliyor
şartı
güvenliğini
kitap
hareketin
varlığını
kırsal
DP
göstermesi
Stankoviç
kaçakçılık
kararına
çalışmak
Bakoyanni
sürdürdü
sistemine
söyleniyor
SDSM
iler
aların
rüşvet
etkinliklere
&amp;
basına
UAD
bölgesindeki
tabii
vermeyi
askerler
alın@@
Kar@@
43
adam
sini
gösteri
geçirme
sağladığı
fazlasını
ihtilaf
mamış
ayından
it@@
hükümetine
mükemmel
desteklemeye
Plus
etkinliği
der@@
tut@@
tutuklanması
işsiz
faaliyetlerini
Yaz
Miloşeviç
Sağlık
birleşme
sistemin
Durres
ağı
konuş@@
vatandaş
Vakfı
sisteminde
el@@
R@@
yönetiminin
am@@
hakkına
aleyhindeki
bildirdiğine
çabuk
eren
seçimlerine
imha
konut
sağlayacağını
anayasaya
orada
te@@
gözlemciler
kap@@
üyesinin
hafif
önlemler
zemin
projeyi
hassas
yolunu
bul@@
Bölgesi
ina
kanıt
aksine
Lefkoşe
gazete
mıştı
eceğini
Ortadoğu
birleştirme
tıbbi
olanlar
Rice
kontrolü
mediğini
edildiğini
geçmiş
yükseldi
Akademisi
hissesini
ihale
krize
halde
mülkiyet
çeken
ol@@
bakanlar
kimsenin
ti
sonuçlara
ka
ücretsiz
planına
melerini
hizmeti
özerklik
Bayram
dik
Zivkoviç
Echo
anket
yapacağını
başı
refah
kat@@
kar@@
gerekir
göstermek
Odası
oynanan
on@@
ad@@
festivalin
değişikliği
işkence
bakanlığından
kullanarak
başından
PfP
HINA
bekle@@
İşçi
trafik
Obama
kurmaya
ulaşmak
Cumhuriyet
mada
bölgeyi
alacağı
dayanıyor
yeri
performans
karşılandı
USAID
Kuvvetleri
Krasniki
geleceğe
mu
getirdiğini
topluma
muhtemelen
varılan
anlaştılar
Hürriyet
Cumhurbaşkanlığı
seçilen
Valentin
internet
malıdır
durumdan
başkanlığındaki
Nebojsa
isi
katılımcı
ırken
ilerlemeye
Sırpları
lerindeki
miktar
açma
durumunu
ı@@
rejimi
kesiminde
gücünü
Topi
programın
Inzko
konularında
artışla
zanlının
taraflar
ülkelerini
diler
malarına
sürdürmeye
Avustralya
lerdeki
elden
güven@@
ateş
di@@
aşırılık
sürdürme
1000
günleri
amaçlanıyor
attı
çıkarılması
ölüm
Genelkurmay
karşılamak
araba
doğum
süreçte
asını
verilmiş
Tanjug
Açık
yarat@@
h@@
milyonlarca
Politika
ani
kriterlerini
deyişle
is
emek
sözcü
sunuyor
acağına
konferansa
maktadır
Dusan
hedefleniyor
oyun
sıcak
toplandı
önemlidir
Suçları
çabalar
yatırımlar
bunlara
olmayacağını
Deutsche
grupların
gönderdi
Jean
açılışını
Petar
vereceği
yetkililerinin
gazetesinde
yatırımı
dil
Microsoft
elinden
farkında
başvur@@
iyileştirme
başlangıç
değişikliklerin
eleri
geçirdi
ürünleri
belgeleri
la@@
hedefleri
cesaret
ikiye
örgütleri
mağlup
u@@
beşinci
can
asgari
nedir
davada
Kürdistan
yeterince
kaldır@@
savaşı
pazarlık
uygulanmasını
başlama
36
başlat@@
sitesi
başardı
aktardığı
yıllarında
p@@
Günü
raporun
İstatistik
Nano
Prlenda
başlatılması
Ödülü
KKTC
ayrımcılık
tazminat
sonbaharda
soru
sağlaması
getirildi
Moisiu
arkasında
içi
töreninde
şimdilik
gençlerin
festivale
makroekonomik
yüz
Calin
karayolu
getir@@
çatışmalar
söylediği
47
geçecek
çek@@
öner@@
eyalet
gerçekleştirdiği
Maroviç
bronz
ekip
açıklaması
Muhamet
uygulamada
meseleler
artır@@
kalması
51
haberler
numaralı
Genişleme
olmuştu
İlerleme
mekten
göçmen
köprü
kişiye
aldıkları
yönetimindeki
48
misyon
suçlamaları
nerede
pahalı
men
kimin
çerçeve
kurban
istiyorlar
Altın
eğitimi
Zaman
finansman
tutuyor
alarının
canlı
gerçekleş@@
göstergesi
katıl@@
paranın
PDK
çalıştı
Mısır
larındaki
yaklaşım
42
meyeceğini
toplama
İspanyol
oluşturulması
Natasa
and
yla
mektupta
yere
tanıyan
birden
iktidara
mensup
fikri
koy@@
kaynaklanıyor
MIA
destekle@@
iy@@
çalıştığı
başbakanın
noktada
sağlanacak
taşıdığı
sanık
yakından
Vlado
ıdır
seçimlerini
sorunlarla
istikrara
olmasından
W.
konuyu
operasyonu
John
tedbirlerin
yaşandı
ilaç
il
1997
gelmiş
seçti
sol
danışmanı
G17
almasına
törende
Tribune
koşullar
mutabakat
savaşın
ülkelerindeki
ülkesinde
gönderdiği
belirleme
rolünü
büyüyen
Divanı
çıkar
Celiç
eceği
Gücü
dolara
başlıyor
Fuarı
Radyo
yerinde
gördüğünü
yolsuzluğa
melidir
yetkisi
düzenlediler
sektöründeki
Amerikalı
bi@@
bilgileri
katılmayı
alacağını
izledi
Facebook
kullanan
azalt@@
beni
teşekkür
yazı
hedefini
olduğumuz
Programı
zorunlu
Avro
sektörüne
kutladı
desteğiyle
İvan
saldırıları
tarihten
gör@@
çift
Akımı
bayanlar
yan@@
av@@
liman
iz@@
ken
es@@
Vukovar
tarafsız
alışveriş
organ
kuş
kalmış
çalışanları
İktidardaki
yaş@@
belirlenen
mektedir
kesim
koviç
Filip
seçmenler
olayların
ıl@@
gereğini
Haris
Mirko
doğu
oluşturma
yanından
acaktır
sırayı
göstermeye
asına
güvenilir
zanlılarının
katıldılar
öyle
Yusuf
baskın
ilerin
reformlara
üyeli
ucuz
0
irken
aydan
sürdüğü
sorumluluğunu
iye
Geoana
ca
suçlar
yolsuzluğun
insanlara
gördü
törenine
Anlaşmasının
al
eyalette
büyümenin
etmektedir
önemi
Schilling
bilgilere
Zeljko
Tihiç
böylece
düşen
hedeflerine
uygulanmasına
iyileştirilmesi
tarafların
öğrenim
mayan
melerine
ev@@
Ar@@
Alexander
verilmesini
oyu
Portekiz
rüzgar
avukat
yardımıyla
ermesinden
O
etmenin
n
Ki
muazzam
liderlik
sergide
Dubrovnik
Bütünleşme
ıydı
şiddetle
insanlık
bildiri
Zvetkoviç
dalında
ak
mamız
zanlıları
Herald
Fonu
kendisinin
abilecek
kan
sayıdaki
bilimsel
kuruluşlarının
Stojanovska
itiraf
işbirliğiyle
yoktur
oluşturduğu
Yardım
kaynaklanan
karışık
iyileşme
Pekin
zorla
üyelerinden
blok
projesinin
masında
Ş@@
Bölgesel
haftalık
ma@@
birine
bilgiler
barışı
gönüllü
sonuçlarını
p
çıkarlarını
Nataşa
istekli
başkanları
Xinhua
turu
haklı
Peter
krizden
zanlıların
abileceği
zirve
dil@@
kış
.@@
re@@
görevinden
meseleleri
Konjikusiç
Hristofiyas
süresinin
listesinde
değişen
sorunlarını
karşılaş@@
hayır
bölgesine
topraklarında
kapat@@
üyelerine
sayılı
Turkish
meyecek
ailesinin
ekonomist
Ulaştırma
44
risk
örgütünün
geçiyor
kaldığı
Banka
oranları
Ramazan
kayak
2,5
alanları
uygulaması
46
yararlı
girmesi
azaltmak
mıştır
imi
izleyen
kurul
tak@@
piyasa
Agim
yorum
dağıt@@
İngilizce
yürüttüğü
davaları
dahilinde
başkentinde
Taki
ülkesinden
kilise
pazarına
ırklı
gereği
nüfusu
çağırdılar
çifte
katılanların
doktor
amacının
görevde
I@@
günler
B
aydır
Türkler
HIV
stratejisi
yoluna
Bağımsız
veto
Lübnan
münasebetiyle
sıradan
değerinde
bir@@
Ç@@
şüphe
bas@@
eşlik
UPI
belgenin
Labus
Bozidar
komisyonu
dünyadaki
kırıklığına
sayımı
ir
ertesi
arkeologlar
ul@@
değiş@@
Her
rakibi
layık
taraftan
Profesör
işleyen
alanlar
asında
olmalı
gerekçesiyle
esinin
den@@
ülkesine
koordine
AKI
İlgili
Brammertz
teşkilatı
yatırımcıların
Norveç
Richard
Barbutov
anlaş@@
Mahkeme
38
almasını
çalıştığını
planda
nci
meyen
planladığı
Marko
dakika
toplantısına
o@@
video
mayacak
projede
az@@
filmin
değin
41
bin@@
artışı
standartların
medyanın
sor@@
yaralandı
hüküm
çalışacak
Nimetz
sokak
güçlendirilmesi
du
çocukları
esini
undan
olayın
başladığı
taşımacılık
sürüldü
emri
girecek
kararları
maliyeti
partilerinin
uçak
yatırımları
düzgün
Ivan
notunu
zamanın
devlete
İvica
yola
zamandan
ister
sefer
sağlanan
saldırılar
kuvvetleri
İttifaka
or@@
açabilir
Jankoviç
düş@@
heyetinin
kendini
listesinin
öncelikli
im@@
sahipleri
sergisi
moon
standartlara
yasak
eli
Meta
Paktı
yatırımcı
kes@@
eceğine
Hareket
önemlisi
ciç
kilometrelik
anlaşmaları
bağımsızlığının
söyle@@
İvanoviç
sunan
misyonun
suretiyle
kararlılığını
Sivil
Bojana
turizmi
atılan
bölgelerinde
ayakta
sanayii
değildi
döndü
yollardan
azaltma
derecelendirme
Süleyman
yapım
uzlaşmaya
ilişkilerde
misyonunun
An@@
çatışma
kalabalık
alınmış
oldular
Hindistan
dünyasında
Belene
mahkemeyle
alıyorlar
şansını
iyileştirmek
grubunun
Adrian
başlatıldı
Dimitrova
Boyko
beyaz
girişimin
payı
Haberleşme
1.000
Fakültesi
politikasını
etkileri
haklarına
yemek
kullandı
Silayciç
toplumlar
Toplum
sinema
pratik
Burgaz
geçerek
çıkarma
kademeli
geliştirmek
gidecek
mez
eyaletteki
desteğin
koalisyonunun
yıllarca
toplantıdan
ova
yazılı
yaratmak
hükümetle
yoksun
parlamentoya
inan@@
zirvesi
ithalat
vergisi
yolcu
yaptılar
projesine
si@@
Kamu
Al@@
göz@@
kaldırma
Hıristiyan
şarkı
yarısı
otoyol
kurumlara
çekmek
benzeri
yazılım
tutukladı
kız
alınmasını
seçenek
İrlanda
bulunmadığını
politikasının
tedavi
rakamın
doğan
anayasanın
yasasını
olabileceği
açığını
ilgisi
İnsanlar
görüşlerini
Lukiç
imzalanması
bütçesi
destekli
birleşik
ekonomiyi
geleni
suçların
çözümün
yak@@
onaylanan
sığınma
yarısında
as
otel
güneyindeki
öncelikleri
kullanıyor
hakkını
komisyonun
gönder@@
iz
fikrini
önerisi
oluştur@@
taşıdığını
isinin
personeli
örneği
Silahlı
ülkeyle
tartışmaya
hükümetler
Denizi
milletvekillerine
askerlerinin
vatandaşlara
çalışıyorlar
başlamasından
ince
amaçlıyor
atıfta
mayacağını
yaklaşan
web
daimi
istiyorum
desteklenmesi
gemi
Verheugen
Danimarka
davaların
dayan@@
sunuldu
egemen
füze
uyar@@
getirerek
Kostov
Şeffaflık
dönemin
çıkarlarına
işleme
azalma
David
ın@@
aracı
işle@@
Şimşek
ıyordu
artırdı
ilişki
karşılayan
Daily
lan@@
kaldığını
davayı
ailesi
raporunu
şarkıcı
sorunla
Radio
gurur
alıp
şeffaf
tutum
sürpriz
bazılarının
evet
yasalara
İttifakı
çöz@@
haftalarda
tarafının
Kemal
tıp
polisinin
Ayhan
tutmak
isini
tarihe
kurucu
puanla
erecek
endişelerini
vardır
malar
belirlenmiş
kurucusu
görevlerini
yarım
varan
Azerbaycan
un@@
Frattini
kurumlarını
gelişimi
ön@@
talebinde
Forumu
harici
kar
bölümünü
çıkarmak
85
z
imiz
arasına
memiş
belgeyi
nitelendiren
ç
biriydi
federal
sigorta
düzinelerce
devi
by
Büyükelçi
sunulacak
geçersiz
Soren
öğrencilerin
Angela
mıyor
kanalı
sadık
CEFTA
inanıyorlar
62
oturum
ci
kuzeyde
tehdidi
öncelikle
suçun
Marija
geçirmek
başladığını
beklendiği
turistler
eş@@
politikaları
dağıtım
gazetecilerin
çıkacak
adıyla
açıklamasına
j@@
meclisi
fonlar
güneş
öğren@@
birliğinin
bölgesinin
din@@
El
Jadranka
İktidar
mede
sorumluluğu
olmasa
eleştirilere
fiziksel
memurları
1989
çağıran
mücadelenin
yapı
basınında
tenis
a@@
Tiyatrosu
katılımını
yapılanma
1,@@
Prizren
iyorlar
kararda
toplanan
bireysel
GERB
ti@@
yüz@@
soruna
sektörünü
alandaki
duruldu
sahası
fiyatı
adımları
tartışmalara
Ak@@
görülmemiş
işareti
polise
kurulmasına
alarına
başsavcı
konferansı
üyelerini
Dejan
seviyesine
buraya
dığı
acaklar
hayat
SP
arabuluculuk
malların
kurumun
KLA
uygulamak
hayatta
görüş@@
çıkardılar
sürmesi
sektörün
saatlik
oyunu
ye@@
ışığında
Tuzla
miştir
etkileyen
yazık
işlenmiş
Dora
şartların
inci
konması
komitesi
şampiyonu
Nobel
bulunuldu
kurmayı
almıştı
şarap
Rohan
Çerçeve
oy@@
savcılık
Lizbon
olabilecek
aşağı
ilerle@@
bazen
Esad
meşru
eskiden
cazip
düşünce
sürdürülen
kazanç
çoğunluğunun
hızlandırma
çıkarılan
bankalar
Teşkilatı
bombalı
Mladen
hepimiz
boz@@
rakip
tamamı
yasada
kurumu
Dağı
ır@@
Independent
yükselen
bankanın
çıkarları
lığı
tutan
artırmaya
A
telekom
konusunu
raporuna
kaçır@@
savundu
çıkmaza
ihtiyacımız
doğ@@
1244
eler
dikkatli
mektup
ılan
nakil
gösterildi
gününe
hız
ılıyor
len@@
nihayet
Press
İvanov
yıldızı
gündeminde
um
riski
imzaladığı
fizibilite
suçlamalar
ılması
kendine
Dnevnik.bg
yaşanıyor
yerlerinden
ayrılan
peki
açılacak
zamanla
edeceğiz
miyor
liğe
masa
Kosteliç
haftaki
elerin
kararlar
yararlan@@
öngörüyor
isimli
harcamaları
ürün
deprem
programları
hükümetinden
güveni
eksiksiz
öncesine
eylemleri
statüsünün
desteklenen
ülkelerdeki
diğine
çi
birer
uydu
dönen
duyduğunu
alara
başkanının
ir@@
reddediyor
bölümünde
profesörü
ac@@
çabaların
turda
anlaşmayla
projelerin
müdür
Direktörü
1980
tabi
vazgeç@@
Katolik
bakanlığına
zanlılarını
anketler
ık
inanılan
kapasitesini
programının
Mar@@
protestolar
geçirdiği
seç@@
müzakerelerinde
mücadeleyi
işini
tütün
ko
başla@@
suça
kan@@
gerçekleştirildi
sonuçlandı
santral
PIC
merkezinin
kurbanların
yar@@
İslami
DPS
onayı
meyeceği
ANA
dikleri
haberde
verirken
53
gözlemci
kıyısındaki
kilo
yolları
takımının
ur@@
Konferansı
getirilen
teklifi
SNSD
duyuyor
düzenleyen
işadamı
seçimlerinden
adamları
acağız
hükümetten
oylamada
fabrikası
korumaya
bakanlığın
etrafında
diplomatlar
başkanlığına
Holkeri
savun@@
lar@@
kapsamındaki
açıklandı
şirketlerinin
açtığını
SDA
oluşturmak
izle@@
ısı
pazarı
Estonya
sporcu
sabah
ov
kalacağını
Daha
gitmek
kasabası
girmek
Rasim
teşekküllü
özgürlüğünü
programda
inanıyoruz
hasta
azaltılması
fiyatlar
BSP
Schwarz
ordusu
adan
KSF
durumlarda
cumhurbaşkanlığının
sunmak
hal
makamların
Papadopulos
büyümeyi
dılar
kategorisinde
39
açmayı
diyaloğu
alarını
merkeziyet
general
Ivica
başladılar
uygulan@@
vermişti
edecektir
meseleyi
49
dahi
ıldı
Uygulama
fiili
Terziç
programını
komite
finansmanı
kullanmak
bağlayan
Traykovski
uygulanacak
koordinatörü
inanılıyor
işlem
suçlarıyla
Kal@@
Partisinin
ılmış
değerli
Euronews
Iraklı
2014
santralinin
devletinin
aylarında
Son
intihar
ıları
Group
kim
benzin
askerlerin
ebilir
suçlarla
Racan
gerçekleştirilecek
görüyoruz
istifasını
gözardı
liderin
52
yolun
nu
eline
kapsayacak
sok@@
sahipler
bölgeden
gerek@@
anma
SRS
bağlamda
54
çıkma
töreni
Foniki
bildirildiğine
hep
çıktığı
eviç
fonları
etkinliğin
gelirleri
değerlendirmek
dönüş@@
masaya
ü@@
kay@@
Ermenistan
değeri
Ana
bağlantısı
tanınması
üstlen@@
artmasına
öldürülmesi
gücüne
çekme
man@@
Journal
tersine
öneriyi
Bölge
diklerini
man
amaç
değiller
olayda
the
Birlikle
başbakanlık
çabalarında
siyasileri
kaç@@
binin
kaydettiğini
Tarım
gerginlik
mültecilerin
görevleri
Van
sitesinde
git@@
denetimi
savcıları
Yolsuzlukla
yarattığı
Predrag
Welle
İş@@
af@@
merkezindeki
ımı
daydı
tarihlerinde
siyasete
temiz
tümü
kredisi
Novak
başlattığı
kazanması
başvuru
Ege
başlamasını
tartış@@
yat@@
öngörülen
toplumların
uz@@
dığını
orman
Papa
okula
sakin
lüks
900
denk
mücadeleye
olmadığına
işin
potansiyeli
işlerini
Sancak
kapasitesine
Ramazanoviç
kaldırmak
ter@@
kapasitesi
alanlarındaki
72
evi
Araştırmalar
resim
Yahudi
yasasının
dijital
larımız
Simeon
üyeliğe
hedefinin
Financial
tahsis
seviyesi
çocuklara
li@@
MSK
Ashton
görüştüler
gelip
basit
Ergenekon
durumunun
harika
kesimindeki
aylar
temsilcilerinin
büyükelçisi
imkansız
görüşü
uzanan
konudaki
Simiç
elverişli
bekliyorlar
elere
yazısında
katılımcıların
binası
ajansının
Ljubljana
liğini
başlamasına
ağının
fonların
57
aklama
kuralları
kapısı
öz@@
memiz
Svetla
BDP
Europe
Wisner
başarıyla
Füle
turistlerin
dim
NIS
95
yen@@
Vlora
yönetimin
işletme
reformunun
ur
ödemek
etmekten
James
anı
Eylem
66
gecesi
ekonomisini
olmaz
edebiyat
girişimleri
tahmini
batı
suikast
siyasetçiler
hedeflerini
anla@@
Yunanlılar
tanesi
Svetozar
sür@@
parayı
Pamuk
döneme
Serbest
ölümcül
alım
reformlarını
Spiriç
kullandığı
Bilgi
ayrılmış
stand
UNICEF
modernize
Hava
Arnavutça
tarihine
kullanmaya
Haciç
Rücker
irade
Komsiç
açmak
çalışırken
kırmızı
adamı
patlama
planlandığı
tehlike
cumhurbaşkanları
krizle
Alfred
patlak
ilgilen@@
çıkmak
arıyor
ödülünün
örgütler
sanatçılar
kimi
genellikle
sonundan
hisse
belirlenmesi
tutarında
Hollandalı
öğrencisi
taslak
şans
tıpkı
açacağını
makamlar
şiddete
Boc
cezalandır@@
evlerine
56
kaynaklarını
ihtiyatlı
sonuçların
sağlamayı
ilişkilere
firmaları
katılımının
savcıların
Sekerinska
geriye
kaybeden
güçlerin
anlaşmaların
eğer
nitelikte
Bugün
ikisinin
isine
bulmaya
Maria
sürüyorlar
seçimi
konan
Bogdanoviç
yöneticisi
Brezilya
mal@@
yük
ene
engelle@@
Gençlik
çalışıyoruz
sürdürmek
lığını
gerisinde
imajını
krediyi
İkili
çelik
düzeyindeki
nüfusa
farkla
kalmayıp
gelmesini
firmanın
yurtdışındaki
Biljana
öğretmen
duydukları
ic@@
sağladığını
gönderme
kuvvetlerinin
artıracak
esinde
takımın
kurulmuş
yatırımcılara
350
konferansında
Jelena
boyu
atıl@@
törenle
veriler
finansal
ülkeleriyle
alındığını
Kon@@
salt
Selimay
tan@@
güçlendirmek
Yapılanma
asıyla
başlamak
Hristofyas
tarihini
devamı
normale
kalmak
kalmaya
test
yurtdışına
topladı
Burns
musunuz
ismi
önceliği
amaz
ecekler
konumunu
alıyordu
yıldönümünü
gösterilen
düzenlenmesi
öneme
güvenini
Müsteşarı
başlatmak
perakende
1994
l
sunacak
D
ılar
koalisyonun
sağlan@@
Kovaceviç
görüşlü
yerlerde
d
etmesinden
ofisi
unsur
Erlis
sar@@
yık@@
sıfır
caz
iktidarda
yaratıyor
yaparken
düzeni
tartışmak
sürdürülmesi
um@@
kesintileri
dünyaya
almakla
yaşlı
yatırımın
Kermabon
uyor
mayacağı
hükümetleri
biliyor
komşuluk
koyduğu
ziyade
rakamlar
yapılıyor
kesimi
veril@@
itibariyle
geçir@@
alardan
mahkemede
olmalıdır
analisti
alındığı
ış
leme
konuya
yatırımların
eş
Stratejik
katılımın
yaklaş@@
ekonomiye
bulunuyorlar
doğumlu
bat@@
yetecek
savunuyorlar
süt
dıkları
takdir
cari
Bitola
kazanmak
euroya
kullanılması
varlık
hedefleyen
MPA
hoşgörü
şimdilerde
arkeoloji
bulunma
Çinli
ilerle
ilere
öldü
adaylar
bildiriyor
geliş@@
mahkemesinde
şair
zirveye
müze
adayları
to
sürecindeki
ce
olaylarının
kurul@@
engellemek
muadili
ıcı
altıncı
hoş
beraat
ekibinin
edeceğine
Kosumi
sayısız
yaşamını
bölümünün
bina
şeffaflık
yardıma
kontrolünü
istatistik
ılmasını
suçlarından
Kathimerini
uyarı
Steiner
Bürosu
ayrıl@@
dolaylı
ezici
1,2
defalarca
bağımsızlığına
tutumu
eri
dış@@
boş
final
kuruluşunun
atık
görme
statüsüne
görüyorlar
yapmaları
tanın@@
Dimitrov
çekildi
radyo
Fena
kolayca
geçtiğini
elerini
kaz@@
maaşları
63
özelleştirilmesi
hükümetlerin
törene
Müslümanlar
unsuru
almaları
gerektiren
Rupel
ov@@
yenilenebilir
Robertson
evlat
Vetevendosje
unut@@
inandığını
maz
ağ@@
tatmin
yaşadı
buçuk
Post
ıldığını
buluyor
ötesinde
gözlem
katına
taşıyacak
aktar@@
art@@
performansı
hızlandır@@
Kore
sağlayarak
vurgulayan
yapıldığı
yenerek
seçilmiş
Çocuk
ilişkilerinde
belgeler
sorunlu
programında
iydi
san@@
sorunlardan
rejim
anne
ıldığı
adımı
başlatmaya
üyle
firmaların
varlığı
ecektir
Askeri
engeller
nitelendirdiği
mobil
etkilenen
mas@@
ihlali
sal@@
güçlükler
ilerden
devraldı
Sezer
halkını
ND
J@@
güçlerini
zirvesine
yazdı
edilmişti
Bütün
dık
ilişkilerinin
yüzyıl
ilerlemesi
dans
130
reddeden
zamanının
tablo
Ortak
ili
projelerine
oranını
oranına
ölçekli
Rasmussen
yaratma
it
operasyonun
etkisini
sekreteri
dır
milyondan
Müdürlüğü
geçmişi
larımızı
idir
sahiptir
hızlandırmaya
tane
Bar@@
gelmesine
çalışanların
oyuncusu
seçil@@
fabrika
çıkarak
belirlemek
katılımıyla
Girişimi
vermesini
Tiyatro
edin@@
lama
savcısı
undaki
koruması
Planı
kaybettiği
eğitimli
58
liderlerle
bulunmuyor
siyasetçi
kazanma
Bunun
gelişmekte
soruşturmanın
Christian
Çevre
söylemek
koruyor
parlamentosunun
lerimiz
iklim
hata
muhalif
Ahmeti
getiril@@
ıma
attığı
olasılığının
hükümetiyle
sayfalık
duyur@@
oyuncular
açığının
malıyız
sağlay@@
kazanarak
tren
dıklarını
iflas
anoviç
aileleri
uygulanmasında
ılacak
kır@@
hazırlanması
bariz
Djukanoviç
coğrafi
hızlandırmak
münferit
düşünüyoruz
satışı
zarara
3,5
davran@@
vatandaşın
em@@
artırmayı
Japon
savaştan
medyada
etkilen@@
acağından
etmemesi
görevlileri
anlaşmazlıklar
sizin
gösteril@@
Street
kork@@
özür
Mircea
İmparatorluğu
beklendiğini
ö@@
anlaşmasına
şüphelenilen
açıkla@@
turistik
yolsuzluğu
sının
temsilcileriyle
fonu
atıyor
tutuklanan
bankaların
gün@@
Kurtuluş
ziyaretçi
van
babası
çekilmesi
teröre
Mediafax
Tito
ız
malları
ünde
ilerini
grev
kapılarını
olurdu
Prag
yer@@
Gaşi
geçirilen
meclisteki
hesap
edebilir
Boskovski
kullanılıyor
Ağı
içer@@
medyaya
demokrasinin
yargıç
hazırlanmış
tepkiler
us
haberinde
kaynaklardan
Baş@@
alarıyla
Litvanya
bakanın
ılara
tarafında
savunan
durdur@@
model
os@@
faaliyetlerinin
kaynaklarının
başvurusunu
belirle@@
kuruluşun
rahatsız
Koridor
ihtilafının
diğinde
bağış@@
sene
doktorlar
Rompres
mesajı
günün
birleş@@
Sovyet
çağırıyor
hakaret
Cenevre
fonlarının
110
öz
Yerel
askerlik
Romanlar
bulunmuştu
İcra
bayrağı
eksik
ilerlemesini
ımızın
çabayı
çiz@@
diyaloğun
anlamı
aralarındaki
iyordu
Oliver
sürdürdüğü
INA
şeker
taş@@
bayan
basketbol
sıraya
yarışı
mayla
CEO
bölgeleri
lay@@
herkese
bağlayıcı
68
İdari
anlat@@
yapmakla
ziyaretinin
erteleme
Emil
merkezine
kuzeyinde
ziyaretini
anlatıyor
öldürüldüğü
isimler
10@@
diğimiz
gelişim
suçlardan
eylemi
istiyorsa
gelmek
ticaretin
ab@@
kanıtı
melerinin
buldular
Condoleezza
üçü
isinde
yürütme
gösterecek
cinsel
götür@@
deyimiyle
çıktığını
geleceğine
makul
niyet
size
sınıf
politikalar
herşeyi
ja
ilerliyor
sonuçlanan
topraklarının
Kopenhag
atma
gösterileri
geçmesine
ifadesinin
tamamlamak
up
görüşmelerinin
dönüşü
ger@@
abil@@
ünden
78
avukatı
gücün
İzleme
ılmasına
seçilmesi
araştır@@
İdaresi
AIDS
söylerken
dikten
uyguladığı
osu
ayrıldı
idam
sağlandı
yapılmasına
kınadı
olmuştur
gösterisi
durumdalar
yayınladıkları
Çalışma
kazandılar
arasından
desteğine
sürdürmesi
ellerinde
taş
düşürdü
analiz
ümit
kapsıyor
listesine
ulustan
Sanayi
yaşandığı
çıkarına
zamana
başlayacağını
devletler
Makedonlar
bölünme
ıyoruz
Parlamenterler
lığa
enerjisi
Frank
akaryakıt
çalışanlarının
vurguladılar
görüldüğü
değiştirmek
yarattı
katılanlar
ımızı
beklemek
tutulan
standartlarının
temas
bağlayacak
iddialı
140
sonuca
tüketici
W@@
başarısı
yaklaşmakta
yansıtıyor
notu
Andy
korun@@
çoğunluğunu
bomba
mühimmat
demek
Er@@
kapatma
bağlantıları
Cokoviç
gününde
alarla
genişle@@
söylemişti
Aziz
desteklediği
yeraltı
veri
güneydoğu
ses
Anlaşmasını
edilmesinin
yakalan@@
Prodi
yasalarını
Mal@@
çoğunu
Nine
olayla
yürütüyor
ayla
sayede
ateşli
büyümesi
yay@@
ha@@
çözümler
nokta
ölü
üyeliğin
kapasiteye
uygulamasının
Gümrük
yardımın
başarısızlıkla
mirası
ş
faaliyetlerin
temsilcilerin
ladı
ılarak
tesisi
icra
ulaşım
inşasına
yatırımcıları
oluşturduğunu
Hukuk
Bamir
atmaya
ilerletmek
uzmanların
rock
gölge
Strazburg
y
bar@@
malarının
belediyeler
döneminden
memur
yapılarına
dağ@@
ettiklerini
ekonomisine
dayanışma
listede
şeyleri
nedenlerden
Lazarova
yorum@@
tahliye
rejimini
başlamış
yönetimini
politikalarını
64
bulunmasına
meydan
hedefler
partilere
İstihbarat
hedef@@
paylaş@@
milletvekilinin
övgü
firmalar
Eroğlu
çocuğun
onlarca
ia
adayların
BTA
görüşünü
ilerinin
çıkış
alıcı
1.@@
alt@@
Kriz
SDS
milyonluk
pazar@@
belediyesi
tekstil
akın
Brajshori
ortamda
noktasına
der
anlara
Daianu
değişiyor
değerlendirdi
kamuoyunda
eceklerini
etkileyici
ihtiyaçları
yapıl@@
puanı
Dink
maktır
görmüş
61
makamlarını
değiştir@@
bizzat
gösteriler
amayacağını
eleme
binasının
lerimizi
Yap@@
edileceğini
kentte
hiçbiri
zaferi
Focus
tar@@
düzenleniyor
af
durumla
dörtte
odaklan@@
karşılama
bebek
Mali
referandumda
St.
sız
gitmesi
ül@@
Hersekli
gerekiyordu
açıkladılar
şiddetin
Yılmaz
kendileri
katılmasını
Radovanoviç
ıyorum
seyirci
SPS
Havaalanı
kullanım
diğeri
Kitap
kitabı
C
referandumu
bekliyorum
gelişmeleri
İsrailli
67
sonuçlarına
bakıldığında
üyeleriyle
r
sanmıyorum
hedeflere
varsa
adaylığı
açılmasını
taşı
kaçınılmaz
yüzyıldan
saldırının
işgal
binanın
suçlamada
ölümüne
organizasyon
Seselj
ımın
projesini
kadınlara
kolaylaştır@@
faaliyetler
Edi
planında
liberal
davasında
başvuruda
yapısı
davalar
üyeler
meselenin
istikrarını
gereksiz
fiyatlarının
yirmi
katılarak
metreküp
umuduyla
pazarının
sistemleri
geçmek
şok
rejimin
bakım
rakamlara
konumda
Gazeteciler
karşılaştığı
bilgiye
Diyarbakır
yararına
kıs@@
EIB
insanı
be@@
istikrarsızlık
ırsa
gerekirse
evde
Ivanov
makamlarına
ufak
fazlasının
tır
konferansına
alkol
Wall
etmeyeceğini
iadesi
ışığına
dernek
vatandaşlık
hizmetler
endişeler
görül@@
dolaşım
çıkart@@
tik
Romanların
programlar
Saxe
Coburg
ebileceğini
Brcko
CoE
asından
kaynaklara
Beyaz
iler@@
alarından
EXIT
59
cezalar
faaliyetlerine
giriş@@
ihracatı
potansiyeline
etkilerini
kabinenin
Yunanlı
arz
uzat@@
yangın
atması
sürülüyor
Lavrov
Dr.
merkezleri
katliamı
engelleri
Basın
statüsüyle
faydalan@@
iniz
deneyim
devreye
bulundukları
sorunuyla
ler@@
Devletleri
nevi
sev@@
görünüm
Mil@@
74
demokrat
acakları
reklam
1974
kapasite
dar@@
onur
köy
eylemler
felaket
Bekiri
ülkesini
Kongresi
varlığının
saatler
yaşan@@
not
inşaatı
bulunuyordu
uygulamasına
abiliyor
entegrasyonuna
partiye
ulaşması
kaliteli
Airlines
kamuoyunun
yasasında
yapmakta
standartlar
nüfuz
Araştırmaları
zanlılar
rekabetçi
çocuğu
konunun
oybirliğiyle
Hırvatların
askerî
Özelleştirme
sembolik
şirketlere
eleştiren
Kaletoviç
partiyi
atılması
Filistin
sağladılar
birbirinden
izlemek
yapacakları
talebini
değiştirmeye
Gordana
yarışma
yüzyılın
açması
duruyor
kalp
fikirde
beklediği
Şu
Sırpça
yönetmeni
ailenin
Bel@@
dur
ortakları
eyi
tanı@@
tuttu
teşkilatının
Fatos
meselelerin
parlak
öneriler
Sutanovac
kararlarını
mahkemelerin
oluş@@
bini
yetkilinin
69
iddialarını
ılacağını
görüşmenin
Koha
kişiden
plastik
hazırladı
vermesine
duruşma
84
savunmasız
etmiyor
artışa
2015
Struga
ortamını
etkinlikler
2020
politik
Simitis
i-
seviyeye
soğuk
4,5
faal
partiden
gerçeği
malarından
hak@@
sonrasındaki
kimliği
beyan
uygula@@
açıl@@
denetleme
lenen
gider@@
tanınıyor
Nikolay
esinden
gönderilen
Telegraph
otur@@
sağla@@
nitelendirerek
orijinal
tasar@@
özelliğini
önerisinde
devralacak
kadının
bürosu
habere
inceleme
özerk
oynayan
meslektaşı
enler
sınırın
World
Coviç
Yasası
yapıyorlar
bütçesini
ayrılması
çıkmaya
ziyaretçiler
iden
büyüklükteki
Gabriel
bütçesinin
kişileri
erişimi
Petroviç
liderlerini
Ay@@
ICG
eriyor
istediklerini
Standard
cezaları
tüketim
lise
kurduğu
yakalanması
genelkurmay
seçmek
kaydeden
gayrı
liste
toplamda
Bedrana
mantıklı
day@@
etmesinin
Stefanoviç
Özgürlük
eğ@@
hemfikir
Türkleri
sular
çekil@@
atan
yapmasına
g
taleplerini
odak
EUobserver
Milos
içeriyor
Petrov
konuların
men@@
başlay@@
gez@@
isinden
imizi
kullanımını
öğrencileri
krediler
tanım@@
görev@@
başkanlığında
ış@@
koşulların
ağını
olmalarına
destekleyecek
1,3
açıklamalarda
mahkemeler
çözmeye
yasama
ıya
programa
yıl@@
tamamlan@@
Parlamento
kapasitesinin
Adnan
Ardi
Pulaj
cinsiyet
başbakanları
vermekle
1,6
dik@@
sanıkların
San@@
Fiat
dürüst
yasalarına
balıkçılık
yasağı
gözaltında
tasarıyı
madaki
bulunurken
kurtar@@
ri@@
Gün@@
kapatılması
yedek
üste
doldur@@
belgesel
önlenmesi
ayının
öldürüldü
Popoviç
yoktu
yol@@
mülk
olmanın
hissesi
çalışanı
Çok
Tüzüğü
ihtiyaçlarını
yapıları
alar@@
yaşamı
komutan
MW
pazarlama
gösterme
liğinin
ter
çıkmasına
ık@@
edebileceğini
klasik
DNA
devriye
yaşama
Öz@@
miktarı
görün@@
kalmasını
hazırlan@@
hastane
İzmir
yiyecek
bağ@@
öğrencilere
kuvvetler
ilerleyen
koordinasyon
kabinesi
ola@@
Kor@@
adının
Deniz
bizler
komutası
Misyonu
Powell
180
çıkarıl@@
umuz
arttığını
gündemde
dığına
Blair
am
kaynaklı
..
ondan
tutul@@
düzenle@@
uğradığı
işbirliğinden
haberleri
ebilecek
umudunu
aradaki
sağ@@
başvurusunda
geldiğinde
sergiledi
modernizasyonu
araştırmaya
birliğine
işadamları
kişilere
yetkililerine
sonuçlarının
aileler
Suç
Orhan
çoğunlukta
Doları
Ramuş
ilerlemesine
maların
eti
Kabashi
tığını
söylemekle
önerdiği
eve
işbirliğinde
yöndeki
eceğiz
olacaklar
Türklerin
JAT
Milli
Medvedev
verdik
eğilimi
II
şahıs
Elektrik
güvenliğin
balık
istemiyor
soktu
seçme
zorundayız
paketini
Fatih
elerine
yarar
Özgür
girme
planlama
örgüte
yakınında
belirt@@
kapı
hi@@
Kadın
dönüşüm
par@@
eceğinden
safhasında
karış@@
Sava
komünizmin
id@@
Beth
soldan
hızlandırılması
filmler
lığın
koyuyor
Albert
çekmeye
gönderil@@
olmamakla
çabalara
toplan@@
gerçekleşiyor
bölgesinden
uğradı
diz@@
sürdürdüğünü
liyor
kimyasal
kü@@
dost
sa@@
kullanımına
tasarı
dendi
Muammer
yenileme
çalışmaların
ser@@
uç@@
servis
han@@
değerindeki
kentine
referanduma
landı
lamaya
ettiğine
referandumun
hesap@@
yazdığı
eyalete
KESH
sektörde
alınıyor
misyonuna
kararlılık
Anayasası
verip
81
yendi
sergilediği
bilet
Budapeşte
hükümette
tur@@
tamamını
ıların
komünizm
kaçakçılıkla
birbirlerine
hakimler
Novosti
suçlamaların
gelmiştir
elerinin
gruba
Madrid
beklen@@
acaklarını
ilki
keskin
birliğin
talimatı
Biden
Miroljub
Holding
raporunun
Karşı
artarak
noktaya
suçluların
Corceviç
yolunun
Miller
alanlardaki
dışına
geleneklerini
isiyle
operasyonları
Sasa
76
parça
karşılıyor
göstermektedir
sundular
Caviç
olaydan
öldürülen
83
sayım
sözünü
sağlayacaktır
yapılacağını
Fried
aylarca
Priştineli
kim@@
lerse
tutuklan@@
göstericiler
haklar
ölümü
Türklerinin
Razvan
edebil@@
dolaş@@
nakit
atıldı
cezaevi
77
imizin
mektir
denli
ilerinden
kampanyanın
sözler
bildir@@
diğerlerinin
standart
ziyaretin
bulunacağını
adaletin
sine
Sarayı
kavuş@@
bulunmaya
geleceğinin
alarında
vermedi
baskısı
kadarki
elerden
önlemleri
maçı
Foniqi
yayınlandı
çeyreğinde
artışın
termik
sürerken
teknolojik
mallarının
çatışmaların
sağlamanın
mutlu
Kabaşi
layan
Rahibe
ilgisini
seviyesini
verildiği
sivillere
eğitime
Poor
firmasının
serbestleştirme
Radmanoviç
belirsizlik
çıkmaz
politikasına
öde@@
umuyorum
160
vur@@
kaldırmaya
engel@@
abilmesi
yarış@@
eşsiz
kaygılarını
suya
çıkarmaya
Nicolas
Mlacan
reddederek
iddianame
türban
Yorgos
tutma
tedbirlerini
yöneltilen
açıkladığı
tavsiyede
Hazar
dünyasının
Ljiljana
ettik
ilgilendiren
edecekler
yönettiği
sınırında
Kur@@
ellerinden
getireceğini
T
Monitor
ilkelerine
aktör
ajansına
ap@@
belirleyici
kurbanı
çetin
ün@@
Geleceği
AAK
bes@@
bit@@
şansının
Gölü
ebileceği
Sekreter
düşünülen
konsorsiyum
+
iyileş@@
Kariç
ihaleyi
hat@@
yükümlü
tarafta
Feith
konumu
RTK
Zannier
geçtiği
Teknik
yetkilileriyle
Bitiki
televizyonu
Entegrasyon
getirmeyi
cumhuriyetin
oylamaya
değiştirilmesi
şartlı
kararından
verileceğini
zirvenin
liğine
gelirken
olamaz
Jacques
ayrılıkçı
82
konferansın
arkadaşı
ınca
Meydanı
saldırıya
görünen
amadı
gençlik
pop
geçiril@@
çıkaran
oylamanın
sunması
aylardır
kalanı
entegre
ı-
çalışmalara
Katılım
şartlarından
ovski
piyasaya
üstü
geçirildi
do@@
Hoca
vermeleri
İskender
eyaleti
anısına
ordusunun
akla
ci@@
dairenin
tasarısı
suç@@
subay
başkanlığının
ileride
satışa
Karolos
bildirilen
Mark
Derviş
konularını
savaş@@
yönetimine
Katar
mama
Yıl
sevk
harcanacak
talepleri
gittiğini
pilot
Nicholas
yapıldığını
bine
kuruluşlar
lehinde
sürdüler
Küresel
güce
Burada
ildi
tarafa
Tassos
listesi
uzmanlara
beraberinde
azınlıklar
Zemun
El@@
köşe
olaylarına
işletmelerin
egemenlik
fırsatlar
dostluk
sporcular
buluş@@
18@@
nefret
yanıt@@
prosedürleri
ayak
arttığı
protestocular
toplumuna
televizyonuna
foruma
biyometrik
etkileyecek
M
elerle
borçlarını
kısıtlamalar
olağan
kararla
PACE
demir
sürülen
dar
sürdüren
alarda
çalışacağını
yansıt@@
etkiliyor
merkezin
h
no
döneminin
Süreci
kaçakçılığıyla
şartlarının
bütçenin
kalitesini
doğusundaki
öncelikler
ilişkisi
Holbrooke
eser
Rompuy
sandalyeli
derneği
biyolojik
Mahkemesiyle
dönüm
araçları
askerin
ömür
Korgeneral
gelmesinden
tatbikat
uncu
ör@@
Organize
ılımlı
0,@@
çalışanlar
söylentiler
ata
sunmaya
yapacağız
önle@@
durdurmak
ebil@@
güç@@
se@@
dediler
haftada
Insight
hayatı
gruplarının
Martin
Kampschror
yalanladı
saldırıların
Pahor
değerleri
hakimlerin
duyurdular
zulüm
pasaport
oluşturdu
incele@@
istismar
ekonomistler
gönderildi
belirleyecek
Mitev
jüri
atılacak
tecavüz
ılmasının
j
ge@@
kız@@
imkanı
okullar
amaca
çıkmış
düşmesi
hayvan
tesisleri
yıkıcı
sınav
-ki
dıktan
olmamasına
etrafındaki
du@@
eleştir@@
kuvvet
anların
irler
tesisin
kalmadı
ötesine
çocuklarının
sorguya
meselesinin
20.
katkılarıyla
Moody
sorunlarının
geçirmesi
yılını
tamamlama
ECB
kokain
bedeli
muhalefeti
parlamentodaki
onayla@@
tanıma
kor@@
abilmek
örgütlerinin
silahlar
karşıladılar
işletmeler
Ver@@
yüzyılda
uygulamaları
kentsel
nedenleri
Yargı
Üyelik
eserleri
direktör
saha
generalin
1@@
zor@@
nakli
Vesna
kalacağı
Milenkoviç
ere
olanakları
Kulübü
açıktır
geleceğiyle
vaatlerini
ılacağı
elerde
maç
esiyle
ilen
mamak
girmeye
sınır@@
lü
da@@
S
gösterilmesi
bulunmuş
yetkililerden
sandalyelik
yatan
dü
ters
borcunu
usta
Baş
bünyesindeki
subayı
düzenlemeler
gözle
FENA
eleştirilerine
Srbija
olmayacağı
liğin
sürdüreceğini
işlerin
bertaraf
haksız
kredinin
Papuliyas
gidip
belirledi
cu
yakıt
amaması
teşhis
Ohrid
organı
artırması
gribi
Bulgarlar
Ivanoviç
temizleme
Kış
tir
Necdet
yetkileri
yakalamak
bi
işine
2,@@
istenen
sözlerinin
Man@@
halk@@
ica
ok@@
attılar
köyü
ilanından
gergin
ıyı
operasyonda
ama@@
kurallar
tarzı
vurularak
kitabın
psikolojik
işlevsel
değiştirme
Pekusiç
yatır@@
karşılay@@
kaybet@@
başındaki
açıklıyor
yetkilerini
sürdür@@
Ödülünü
Lukoviç
ecekleri
ayr@@
esnek
muhafazakâr
suçlandı
liderlere
görüşleri
uyarısında
ruhsat
Kürtlerin
siyaseti
toplayan
masıdır
güneydeki
yapmıştı
harcamalarını
Teresa
tedarik
saatlerinde
uyruklu
G
aff@@
Libyalı
günümüz
tiç
arsa
ertele@@
endişeyi
sınırlarını
tasarının
karşılan@@
ağ
kanıtlar
eleştirenler
tek@@
Medya
haklarında
niteliği
samimi
Matthew
Samarciç
katılımına
dille
artırarak
Per@@
kentinin
girmiş
tığı
açmaya
ailesine
beldesi
ayır@@
olaya
Novinite
düzenlemeyi
emrini
açılışı
Or@@
girdiği
dergisi
cevap
reformlarda
soruştur@@
Petkoviç
1.500
ulaşma
maaşlarını
koş@@
üstünlüğünü
arken
korkunç
birisinin
taşıma
73
Olympic
taraftarlar
gecikme
ilerlemeler
çapındaki
Thaci
ürünler
uyarıyor
trafiği
kaldırdı
min
serbestçe
Proeski
Bakanlığının
davasının
konuma
gözler
amadığı
tür@@
noktaları
Operasyonu
Drazen
diren@@
suçluyor
vurguluyor
silahların
sıklıkla
işçiler
Enver
hedefe
sisteme
komiser
bu@@
onaylaması
uzlaşmanın
Ne
Rumları
şimdiyse
iyoruz
tarafları
fabrikanın
ko@@
stratejisini
ortalarında
ide
ciddiye
pan@@
alınmasına
yetersizliği
gösterilecek
kutluyor
ahlaki
Radmila
engelleyen
fırsatları
Suudi
öden@@
oluşturmaya
şeyden
okulu
umuyoruz
aldık
sakinleri
daireleri
Zastava
meler
duran
ren
Trajkov
toplantısının
Finans
ardında
toplumla
yaratacak
azaldı
merak
enlerin
muş
evlerini
Polisi
soruşturmayı
türünün
konusuna
öl@@
cumhurbaşkanını
lanıyor
ışı
heyetine
uçuş
yapmasını
kasıtlı
kaynaklandığını
Georgievski
izlen@@
belediyenin
adaletten
yönetiminde
mahrum
sanatçının
bölgeler
yükseltti
kaydederek
sınırının
Yovanoviç
yalnız
özgürlüğüne
Victor
Komünist
Reisi
Başkanlığı
anlaşmazlığına
anlaştı
toplamak
akademik
bölün@@
başlattılar
yerleri
kaybı
bütünlüğü
kov@@
kınayan
Letonya
lığına
tılar
yen
Helsinki
mamakla
simgesi
belirlen@@
yaratan
isimleri
olaylara
olanların
ılardan
koruy@@
bütçesinden
atı
eye
sevilen
Arnavutlara
uygulanmasının
sorunlarına
engelleme
önerileri
değiliz
paketinin
Projesi
dost@@
kenara
metal
biliyoruz
düşür@@
bakımından
unsurlar
Re@@
Kürtçe
kasaba
dinamik
larsa
sendikalar
Alakbar
yakalama
telekomünikasyon
DTP
Ditore
İnşaat
dönüştür@@
polisle
ede
geçmişteki
getirilecek
geçme
belirtilen
seçeneği
park
seçime
Hiseni
has@@
okullarda
görevlilerinin
insanlığa
rolünün
sınırına
rahat
Stamboliç
Darko
planlıyorlar
ad
şiddeti
bütçesine
üstünde
sonucun
büyü@@
şüphesiz
tutumlarını
kırıklığı
stratejisinin
şüphelilerin
pazarında
demokrasiye
Ko@@
sin
alışverişi
Pakistan
uygulamasını
doların
Par@@
taciz
İç
isteği
fabrikasının
gazı
gol
yerek
tamamlayan
71
akşam
örgütlerin
planlar
pozitif
yerleşim
ağır@@
bulan
eseri
düzenlen@@
Mavi
çalışmada
bakanların
önlemlerin
Politikası
lehine
azınlıklara
temsilcilerle
zorluklar
oynuyor
dışarı
bulunmayan
bakanlıkları
adaylık
usu
98
halini
düşüşe
özgürlüğünün
vurdu
ılarla
etse
etmediğini
yasalarının
edilip
lerdi
onaylandı
düşünülüyor
atarak
Kurti
maaşlar
bölgelerdeki
çevresel
destekçileri
olduğumuzu
Nenad
görüşmelerden
Wolfgang
Bayramı
itibarını
engellerin
gerginlikler
başkentin
cezasını
Bu@@
kaç
Antonela
bakıyor
Sosyalistler
rejimine
gi@@
bulunmasını
kaydedil@@
larımızın
durumuna
amayacağı
lemek
sistemlerinin
abilirler
inizi
Oyunlar
dalgası
alabil@@
mücadeledeki
Svilanoviç
belirlendi
DDY
ime
partisinden
gar@@
seçmenleri
kendisiyle
veda
zararlı
soruya
patlayıcı
İşler
zorlan@@
suyu
egemenliğini
gerginliği
sınırlarının
yürütülecek
Kızıl
saydı
imize
Arjantin
sız@@
vergileri
insan@@
Trakya
tanıt@@
arda
yarışmasında
3.
ekonomileri
sorunsuz
reformlarının
UNHCR
haftalar
Jovan
aj
bağımsızlığa
savunarak
yükümlülükleri
reddetmesi
ortalamasının
verildiğini
sürecinden
harcama
I
ulaşan
partili
oda
festivalinde
havaalanı
görevinin
temizlik
Biz
şeylerin
ıdan
İl@@
cumhuriyet
kurallarına
köyünde
zanlıyı
sorularını
madencilik
şaibeli
ro@@
Destek
korku
dağ
günümüzde
ortasına
sessiz
görevler
Gates
Petrescu
Kürtler
bilgilerin
Franco
gününden
zammı
hız@@
sağlayacağı
kampanyasının
4.
dairesinin
tarihin
fark@@
Filistinli
süresini
1984
PNL
sendika
ke@@
başlandı
hazırlıkları
kaynakların
açıklanmayan
Leakey
Caz
dım
içinse
arz@@
gelmediğini
girişimde
Ladin
umudu
azalması
ail@@
toplantılar
edebilecek
içinden
ıs@@
karşılaşmasında
hareketle
lis@@
muhtemel
saldırısı
dakikada
olaylarını
giderken
kemer
yargılan@@
Google
İzlanda
Passy
ürünlerinin
yarışmada
maddesi
sonuçta
yaşay@@
etmeli
asyon
mezun
değerlendiriyor
Rocen
kolaylaştırmak
sınırlar
mini
elerinden
listenin
Serge
güdümlü
vardılar
bankaları
farkına
mamasını
ım@@
evine
evinde
Atatürk
sabahı
yaşamak
kol@@
düzenlemek
om@@
değilim
SEECP
milis
paylaşıyor
lojistik
polisine
şiir
geçirmeye
önerisine
verileri
olmaksızın
genişlemesi
liderinin
ibaret
güçler
İdare
Miliç
likten
galip
sanığın
Erhard
Popovski
açmış
don@@
ciler
od@@
kaçmasına
kesimlerinde
iliyor
heyetin
yarışacak
mallar
ülkesindeki
A1
taviz
Zlatko
buradan
piyasası
genelindeki
liderleriyle
kaldırılmasını
dığından
açlık
tutmaya
hatları
çektiği
sekreter
görüşler
yerleş@@
Gjorge
ele@@
yazan
politikalarının
bombalama
nedenlerinden
kulak
başlarına
Bazı
tartışmaların
hükümetlerinin
niteledi
vermenin
arkadaşları
kolu
Yönetimi
verilerine
görüşmeye
değişimi
gerçekleştirmek
kural
duyan
engellemeye
ifadesine
davalarının
üstlendi
likle
taze
ediyordu
Saray
açıklamalar
ödemeye
ılarından
kararında
eni
getiriliyor
operasyonlar
siyle
cesur
herşey
açmıştı
değerlendir@@
gittikçe
önerisinin
uyardılar
amayacak
oyunun
modernizasyon
Lehne
layarak
bağlılığını
Denktaş
may@@
türü
getirmede
RTS
Barack
davalarını
ımıza
kıdemli
safhada
geliştirmeye
medyası
hizmetlerini
Dairesinin
belediyelerin
Mahkemesine
ed@@
hibe
çiftçiler
kalite
sağlıklı
Günleri
tutuklamalar
kağıt
koşullarının
ilanının
komşusu
askerlerini
alama@@
nezaretinde
kararların
yük@@
sahil
girişime
deniyor
tehditler
Zirvesi
kartı
yarısından
Bizans
İşleri
Fouere
krizinin
tü
toplumları
memurunun
davayla
ilerine
yasak@@
tehditleri
işte
us@@
ilanı
yapılacağı
diğinden
oloji
sanıklar
kesinti
bulması
gençleri
firmalarının
azınlığın
isyan
çevir@@
kalmasına
bilir
şansına
ladığı
kazandır@@
ilgilendiğini
170
soruşturması
lanması
dal@@
kitle
suçundan
sınırdışı
lendi
toplumdan
girişimini
devletten
kaydı
düzenliyor
adayın
fuhuş
saldırıda
Çağrısı
Müslümanların
Boşnaklar
yse
ydi
değişti
açık@@
99
göçmenlerin
katılacağı
belirtmekle
esas
elerinde
duyuruldu
88
ürünü
seçimlerle
konserler
yeteri
ez@@
kazandığını
arananlar
görmeye
cami
vakit
başlangıcı
hedeflenen
tutuklanmasının
Yolsuzluk
karardan
US
sıkıntısı
H5N1
lamak
kazanıyor
ılabilir
üzüntü
alabilmek
güvenliğe
ısını
gazetecinin
Ordu
artı
ılarının
taraf@@
geçmişe
mesleki
dili
sap@@
muhafazakar
dönemden
asındaki
basının
tanıtım
Obradoviç
eleştiri
tutuklu
setlerle
tuttur@@
IOC
çalışmasını
or
prestijli
sen@@
adımdır
F
yargının
sınırındaki
çözümüne
denetimli
kaybetmiş
onlarla
American
ayırdı
giriyor
deydi
duğunu
yaşam@@
bur@@
nüfuzlu
sunma
malarında
kurulunun
borç@@
yapıp
kalmayı
tasarısını
düzine
ec@@
hal@@
fiyatlarını
koyma
yumuşak
House
çiziyor
nehir
çoklu
grubuna
oynadı
eriş@@
Charles
Kap@@
fikrine
değişikliğin
bırakıp
ortamında
istemediğini
kalk@@
şartıyla
kayb@@
büyümeye
dönmek
bölgelere
uygulamayı
1,4
.com
Catherine
başlayıp
müzakerecisi
to@@
ledi
kulis
yanda
Mu@@
yakınındaki
olacağız
yaklaşırken
Bildt
getirilmesini
kültürü
nedeninin
Orgeneral
Kozloduy
Eide
şaşırtıcı
olma@@
sahiplerinin
dolaşımı
KPC
yaptırım
işçilerin
adaylığını
siyasilere
engeli
onayladığı
yapılar
korunmasına
etme@@
olursak
ilkeleri
Çiçek
belirtirken
katılmasına
hazırız
anlaşmazlığını
tin
ekipleri
belgelerin
medyasına
planla@@
eroin
başlatılmasına
sahipti
vergiler
ardındaki
eder
saldır@@
restoran
yüksel@@
miras
uluslu
sek
istifaya
atmış
cumhurbaşkanlığına
İsveçli
ilerletilmesi
vaadinde
konsey
senaryo
meselesini
Dedeağaç
tesislerin
çağr@@
ede@@
gelince
memekle
tamamında
kaygı
çıkıp
gösterdiler
Pavkoviç
getirmesini
hesaba
barışın
Der@@
Ofisi
tecrit
luğu
riske
attığını
Dnevni
ınız
yaptırımlar
görecek
müdahalesi
Kosanoviç
girişiminin
ölümünden
komşuları
lenmiş
laş@@
lıklar
seslenen
len
yaptık
enflasyonun
grupta
Ürdün
seviyesinin
kayıtdışı
gelme
ize
lıyor
edebileceği
Free
kalitesi
korunmasını
sayıları
değerlendiril@@
bugünkü
köklü
Iliç
ulus
kutlamak
İliç
olmazsa
toplay@@
yaşadıkları
dondur@@
550
2.
ali
top
getireceği
Avrasya
memurlarının
Gent
üretiminin
je
Transilvanya
yarattığını
gelebilir
maliyetleri
dolayında
kas@@
modeli
Gana
Dabilis
imzalayan
önemdeki
delil
Tahiri
ne@@
maktı
lik@@
forum
met@@
laması
bulunmadığı
personelinin
savaşta
sü@@
kurallara
Çağdaş
yedinci
katılımcılara
olaylarda
rütbeli
sergileniyor
bal@@
bildirge
lıkları
Bir@@
listeye
sağlanmasına
iddialar
Hüseyin
çıkardığı
ham
Ordusunun
bakanının
Festivalinde
atanması
uk@@
tamamlandı
Türkçe
Polt
kararıyla
şirketine
olabilmesi
Hay@@
hazırlamak
lerimizin
borçları
kıy@@
dengeli
vatandaşının
kaçın@@
gittiği
avantaj
meliyiz
baskılar
ısının
ri
gerçekleştir@@
Partinin
duyuruya
limanı
In@@
çalışmalarında
çalışmayı
ofis
ist
kimileri
varlıklarını
mafya
muhteşem
Kalfin
edilirken
EU
Malta
etmede
Milanoviç
ah@@
konsorsiyumu
Öğretim
taban
kuran
bastır@@
iti@@
sınırsız
alana
ihmal
beklenmedik
göre@@
At@@
arkadaş@@
amıyor
hektarlık
vatandaşlarını
edeceklerini
endişeleri
Iliescu
zinciri
Gordon
belirtmiş
projelerini
Philip
sürdüğünü
açıklan@@
Sibenik
hareketinin
yapıların
paket
bırakıldı
Borislav
tamamlanacak
gelmiyor
Rumlarının
istedikleri
almanın
müttefiki
ğ@@
yoğunlukta
yorumları
ofisinden
maçında
oyuncuları
noktasında
bildirgede
sağlığı
alınarak
blog
gezi
hazırlama
parasal
isterken
mayacağına
anlaşmadan
sak@@
üyor
bulunmakla
gündem
tu
meslek
dikkatle
sonlarına
Latin
adımın
edinme
Daimi
gayet
festivaline
geleceğin
savcılığın
kuş@@
atan@@
skandal
6,@@
atandı
mışlardı
güneyinde
ekmek
ot@@
bankasının
gerçekleştirdiler
çıkmasını
düşürülmesi
ESM
destekleyeceğini
mülteciler
karşıla@@
standby
değişikliklere
Ülke
ifadesinde
Be@@
240
P
tepkilere
sizi
Plavsiç
görüşmelerine
Saraybosnalı
çoğunluğun
Fonun
Nesovski
uçağı
Fitch
ilik
oranlarını
olsaydı
danışman
Bizim
Tose
davasını
birimleri
ekipman
SNS
dağlık
Bak@@
sözlerle
ip@@
mensubu
Crvenkovski
değiştirilmiş
katılıma
heykel
dığında
tü@@
86
hediye
tura
ortaçağ
haftadan
gerçekleştiril@@
temyiz
Online
taşımacılığı
forumda
çekerek
çağır@@
gerçekleştirilmesi
aktris
biliyorum
kesiminin
kop@@
Avaz
güvencesi
Har@@
giy@@
oluşacak
veriyorlar
içme
arkeolojik
çalışarak
lehte
Sovyetler
düzenlemesi
ileriyle
93
projelere
Müzik
dönmeye
geliştir@@
bağımlılığını
yanıtlayan
dinar
yapıyoruz
bilmiyorum
ardı
Rijeka
layıp
7,5
za
bahar
Havayolları
kaldılar
amayan
Airways
yurtdışından
okuma
değişikliğe
yaklaşımı
Telecom
yapılandırma
üncü
partisine
Pula
uzmanlık
kurulmasının
sunuluyor
Shkullaku
açığa
düşündüğünü
650
yaşadığını
Cristian
açacağı
Başbuğ
güçlerine
denet@@
başkent
tık@@
donanım
Hillary
imzalamak
soykırımla
yaşın
NMS
kuruluşların
edenler
işlediği
kavuştu
Alina
meme
otomatik
önerilerini
adımların
değer@@
yaşamlarını
fil@@
düzenleyerek
öldür@@
seviyelerde
değiştiril@@
vaka
Vukceviç
ac
kasabasındaki
almadan
bira
kaynaklarına
çıktılar
istemiyoruz
sıkma
tartışmanın
koyan
kurallarını
ederse
tedbirlere
92
gösterirken
galibi
yaşandığını
korkuyor
diyaloğa
İvana
yönetilen
Sadiku
Traykov
-ve
ge
trafiğe
anayasayı
açarak
azalıyor
Koalisyon
cinayeti
ği
st@@
iddianamede
Balkanlarda
clock
ettikten
Kanunu
yatıyor
görmesi
uyarıyorlar
hizmetlerinin
gevşek
devral@@
üstünlüğünün
çevirdi
araçlar
seniz
kullanımının
4,@@
gezisi
tasarlanmış
vermeden
kamusal
saldırıyı
endişeli
çalışmanın
entegrasyonunun
desteklemeyi
uzaklaştır@@
iyorum
onar@@
sonsuza
girişimler
durdu
karşılayacak
kov
memnuniyeti
Petrol
Marty
bildirgeyi
keşf@@
görmezden
Nükleer
gözlem@@
kentteki
sunul@@
şartlarda
Kragujevac
oysa
fiyatların
otobüs
karşılayarak
Ion
ermesi
Pierre
Bankasının
riskli
parti@@
ihtilafından
taksi
gecik@@
Kanadalı
0,5
ARM
TI
sürdürecek
ittifak
eyleme
egemenliği
ren@@
faydalı
kalacaklar
edileceği
kutlama
hukuka
üyelerin
eleştiriyor
üreten
ve@@
aj@@
kurdular
anlaşmazlığa
Var@@
kullanıldığı
davaya
gü@@
Kral
UEFA
oyn@@
filminin
arka
toplumda
yetkisine
Lukoil
kazanmıştı
sanatçıların
Branislav
bulundur@@
aşamasında
hisset@@
UDF
ilk@@
yatırımlarının
bildirisinde
geçmişin
tavrı
birim
borcunun
onlardan
Ser@@
Şala
lığının
bilin@@
hazırlanmasına
kut@@
Mer@@
Jones
Genç
müreffeh
Freedom
birliğini
durgunluk
haftanın
nesil
ılarını
per@@
irse
pazarındaki
kur
Zenica
bırakan
bölgelerindeki
sunmayı
ihtilafın
ilginç
gelirlerinin
beklentileri
karşılamaya
ıysa
karşılanması
ağına
hatır@@
abiliriz
başlatılmasını
kaygılar
Milutinoviç
iken
hile
ayrılacak
alanların
suçlama
Raufoğlu
anlayış
verilmesine
Oyunların
tav@@
destekledi
tartıştılar
saldırgan
kuvvetlerin
ailelerine
ag@@
tipi
sanal
Securitate
askere
belediyede
Aleksander
Öcalan
paylaşımı
malara
kalmıştı
İddianamede
tir@@
tebrik
atmak
Dyukanoviç
sayı
evinin
Yves
yaşanacak
hali
tartışmaları
herkesi
edilerek
kazanmaya
kısıtlamaları
ressam
partisini
arayan
kuracak
Budva
büyükelçileri
bar
ikincisi
bölüm
müfettişler
yayınlanacak
almakta
lıkla
Topiç
sözlü
yas@@
kullanıl@@
isterim
uzlaşmacı
Taleski
yapımına
mü@@
hazırlıyor
stratejinin
Vadisi
gelişmesi
çekilen
ski
gerektiriyor
mamaları
koruyan
hamle
SEE
reformun
parası
olmadıklarını
reformcu
bula@@
başlamadan
yargıçlar
kabinesinin
etkiledi
artırıyor
huzurunda
indir@@
aday@@
Mandiç
derin@@
zengin@@
açılmasına
Üniversite
karanlık
anki
Express
kuru
talebiyle
uygulamanın
Vlatko
koruyacak
uc@@
Dan
düzene
lanmış
genişletme
projelerinin
gerçekleştiği
leniyor
olmay@@
müzakerelerindeki
ruhu
and@@
anlattı
raportörü
uzunluğundaki
urken
batısındaki
hastanede
kurumlarında
pazarın
gösteriliyor
ayrıntıları
ISAF
rehin
gerileme
madıkları
uğraş@@
katılacağını
satan
Televizyonu
araştırmalar
örgütlü
çağrı
kanser
ilinde
yemin
Güler
reel
Tatlıses
kesimler
dum
gündeminin
anayasada
çıkarmayı
İn@@
günden
riskler
duyuyorum
Baran
top@@
reddettiği
Bil@@
geçmeye
uz
artıracağını
yon
sav@@
Olimpiyatlar
oz@@
gal@@
duyuru
kab@@
dönüştürme
denge
FIFA
önleyici
faktör
Yabancı
şirkete
utanç
tenisçi
kazı
maddeleri
Konseyinin
anlamıyla
huzuruna
suçladılar
BNN
kir@@
Gazetecilik
planlarına
karşıladığını
mamaya
bağları
birleşmiş
lisans
Ger@@
gerçekte
olmamız
alışverişinde
umarım
gelişmelerin
sağa
büyükelçiliği
örgütlere
yayımlanan
toplumlarının
riskini
gö@@
gelişmelere
enflasyonu
gen@@
gösterdikleri
lenmesi
ük
yaşamın
hav@@
keşif
kurbanları
bölünmesi
Ben
gerekmektedir
tüketiciler
dinle@@
analistlere
Tüm
evleri
ra
sıralamasında
göstermeleri
Bal@@
biriminin
önlem
halihazırda
müstakbel
Borissov
yürütecek
hazırla@@
çekmeyi
suçlayan
lerken
tiği
kızı
reddettiler
olabil@@
zorluk
onayına
halkla
koymak
farklılıkları
DiCarlo
tahminlere
düzenledikleri
Geçici
geril@@
vekili
Jansa
sarf
Niş
Venizelos
araştırmacı
Joachim
çağırıyorum
domuz
Antalya
cenaze
Limaj
becerilerini
protestolara
anlaşmazlığın
medikleri
sahibiz
ni@@
teröristlerin
medeki
bağımsızlıktan
ülkesiyle
Irish
havaya
Küçük
başkanlarının
Elçisi
elç@@
hazırlıklı
niyetinde
edilmemesi
Pan
cam
yarısını
düşman@@
2.@@
kırılgan
landığı
abilecekleri
97
ödüllü
Kadare
getirilmesine
Demokratların
hükümetinde
gerçekleştiğini
girmesini
genişletilmesi
Vlasiç
başlan@@
vermekte
Romano
opera
belirleyen
durdurma
olacağından
koşullarını
yapmaktan
aç
Tan@@
oranıyla
iliği
Fotoğraflar
toplantısını
gidil@@
0.000
RS
sık@@
yukarı
değerlendirmesi
Topalli
Tümgeneral
ılarına
for
uzatma
Bo@@
fuarı
eleştiriler
can@@
Kuvvetler
kaçırma
ekolojik
Steel
ekonomilerinin
ayrılma
suçlarının
Patten
lanan
yapabil@@
Tetovo
bunda
ihalesini
başarısını
sil@@
elbette
projeyle
fer@@
gelişinden
Slovak
Kan@@
meyve
yet@@
takviye
tti
güçlüklerle
böylesi
sezon
kaygıları
yarışmaya
Muhammed
21.
santralin
adaya
çıkarken
ödeyecek
Ancak
köprünün
karşılanacak
Albay
bölücü
azal@@
işletmeleri
mekanizma
ba
sağlayabilir
ifşa
İsa
gerçekleşmesini
arabulucu
Clark
yapmanın
kalırken
çoğunluğa
ülkemizin
pahasına
87
ebilmesi
Jandrokoviç
soruşturmada
taşın@@
Arası
amaçlar
çare
davranış
maddelik
gelebilecek
Yunanlıların
miktarlarda
dol@@
ten@@
alanına
likleri
yaptıklarını
gençlere
müş
üyesini
yanındaki
dönüştü
başkanını
yaklaşıyor
fotoğraf@@
kampanyasını
editörü
City
kalıntıları
yanıtı
ha
Zarko
ür@@
kazanırken
siyasetin
Misko
beklenirken
imzalaması
Şimdi
ödülüne
Okulu
gerçekleri
borçlu
Kat@@
söyleşide
amaç@@
Av@@
Miodrag
Besa
sınırların
hitap
Fuele
başladığında
kanlı
birincilik
damgasını
kısıtlı
maaşlarının
sektördeki
muştu
lardı
Futbol
f
Jociç
görevinde
Jonilda
List
ürünlerin
yerlere
göçmenler
vermediğini
emir
açtılar
suçlara
şüphesiyle
geliyorlar
alabilir
tamamının
hızı
mücadelesi
barajını
ılmasıyla
konaklama
bulabil@@
kimliğini
tedbirlerine
dergisinin
kovuştur@@
artmasını
Sırplarla
çekici
ideal
tedbiri
haberdar
Birliğinin
Gracanica
maaşlarına
medyasında
farklılıklar
üstün
andığı
arı
orduya
sistematik
katılmaları
mamasına
vaat
ey@@
ölen
suçlan@@
zirvesinin
silahları
yor
1,1
konseri
belirlediği
üretilen
afet
güçlendir@@
PTK
aran@@
görülmesi
MESS
performansını
dönemdeki
14@@
his@@
Rumsfeld
bor@@
mutlak
mahkemelerde
görüşlere
bulunduğumuz
görüşmesinde
etmelerine
üzüntüyü
ist@@
sosyalist
Denetleme
binaların
Görev
Ö@@
sağlamaları
MOL
yenil@@
Bur@@
gaz@@
kapatmak
ra@@
Hasan
militan
Nis
ovo
tamamla@@
Sınır
yarış
gelmektedir
imzalayarak
sorular
isimlerinden
suikast@@
meyecektir
mallarını
iyileştir@@
uma
Venedik
tutuklanıp
meyle
haritası
ithalatı
başarıya
pazarlarına
kısıtlama
kurumlarıyla
müziği
grup@@
gitmeye
Bill
leş@@
Orkestrası
sözleriyle
bağlılık
hakkının
yöneten
imzalanacak
fiyatlarına
ısına
olanları
insanlarla
söylen@@
başlamaya
lanma
kredilerin
3,3
restore
sorumluluklarını
buz
farkı
kapattı
anları
seyrediyor
sözleşmenin
anlaşmazlıkların
Mihai
muaf
Pliva
dönüşleri
Dav@@
gereğinin
Barbu
En@@
kentlerinde
siyasetçilerin
ettiğimiz
indirim
çocuğunun
gerektiğinin
rekabeti
üstlendiği
1970
Ev@@
alev@@
E
düzenlemeleri
taraftarları
sponsorluğunda
dernekleri
imzal@@
yabancılar
gencin
Corporation
kullanmayı
6,5
kayda
Çavuşesku
kardeşi
emez
filmleri
mezar
beğen@@
Limay
ça
güçlük
üyeliğinden
Varşova
tümünü
etmediği
umuzu
sıraladı
eğilim
gelişen
koalisyona
kaçağın
sahada
Papademos
hiçbirinin
sektörlerinde
1500
dokun@@
suçlular
Tarih
istek@@
tamamlaması
gerginliğin
ilkelerini
prosedür
desteklen@@
savaşa
hareketini
mayacaktır
mak@@
çalışmakla
oynadığını
demokrasiyi
yürüyüş
oylamayı
özel@@
Scotsman
güvenin
lardır
ımda
ular
temiz@@
Koalisyonu
bütçeye
zi
Baba
budur
açıklamaları
istediler
çağrılarına
yaptığımız
Federasyon
PD
har@@
yürütülüyor
mimari
parçaları
gördükleri
seçmenlere
başlamasının
sığın@@
mazsa
Mahkemesinin
tesisler
sokaklara
Başsavcısı
ileriye
eylemlerinin
yayın@@
beyin
umu
büyükelçilik
imzalan@@
engellen@@
gazetecilik
kolaylaştırma
korsan
ilerlemesinin
ödemesi
uş@@
yarışında
Edebiyat
iktidarı
çe
1,7
baskının
imzalanmasının
oturumunda
otuz
Anlaşmasına
ılığa
oluşturulan
kurbanlar
sını
Komisyonunun
soruşturmaya
Arabistan
kurması
sak
ilişkili
kendisinden
nü
kalkınmayı
geçirilmesini
Koci
aşan
canlandırmak
metrekarelik
ücreti
uygulay@@
açabileceği
Soğuk
kıyısında
Kiril
akşamı
birleştirilmesi
Havalimanı
91
geçiriyor
Andrija
görüşmelerini
kriterler
KOBİ
maddenin
Yas@@
kısmi
Varna
onunla
taslağını
filmiyle
zamanlı
ortaklığı
dairesinden
efsanevi
bab@@
edebilmek
edilmesinden
Yarışması
sektöre
düğü
işçilere
şehri
engelli
yarıya
evin
açıklayan
kaza
Colin
ant
Kristina
aldıklarını
devletlerin
Şahin
Fon
Mitreva
yollar
Daci
turunda
Başa
Zbogar
Sosyalistlerin
Nokia
Schook
Yıldız
doları
üm@@
desteğe
ismini
anlatan
eylemlerine
Bilimler
tanıklık
vaatleri
kaçakçılığının
çı
gözlerini
bulgular
faaliyetlerde
görevlendir@@
Osetya
Kouchner
kentinden
maliyet
Mile
almasının
siyasetten
posta
Her@@
ürünlerini
yon@@
etkinlikleri
bitir@@
ses@@
kadını
uzlaşmayı
yüzme
ılar@@
19.
usulsüzlük
gerektiğinde
yıldönümünde
min@@
Velchev
Tanja
tanımlanan
anan
otoyolun
belgesi
tanıtmak
çıkıyorlar
bağımsızlığın
Shantek
maden
tanımlan@@
duyurduğu
Kandiç
dersler
dönme
reformunu
alacaklar
Kısa
Veles
Sibiu
çözül@@
ayrılmaz
if@@
tutarlı
Reform
birinden
ans@@
altyapının
başarılar
iyiye
burası
giz@@
dayandığını
kaynaklarından
3,2
çıkarıyor
yaratılması
hasara
yöntem
barındıran
soruyor
tedbirlerinin
yönetimiyle
soruşturmalar
ihtiyaçlarına
layacak
anlaşmazlığının
atılım
kente
geriledi
WHO
ailelerin
büyükelçi
misyonunu
çoğunda
anahtarı
entegrasyonunu
sıkça
yaratmaya
ulaştır@@
ender
sınırını
Zukorliç
cemaati
hay@@
izlediği
çekmesi
önerinin
düzenlemenin
düzeyi
Gal@@
halktan
ilerletmeye
gördük
görüşmelerinde
mirasının
altyapısını
dolandırıcılık
dokunulmazlık
Vlahoviç
Kumanovo
altyapısı
çağrıları
96
atanan
mesafe
Sözcüsü
kazanmış
Opera
asi
çözümünde
madıklarını
işlemleri
DOS
bulduğunu
Mirasları
etkiler
dediği
yoğunlaş@@
atama
hızlandırması
yetkililerinden
tarafça
planladıklarını
sonuncusu
Gazze
önlemeye
oranın
çalışmasının
çalışacağız
biliniyor
evler
yaşamış
tarafındaki
tahminler
maz@@
ımının
Şirketi
işletmelere
es
Bor@@
gazetenin
2,3
eserler
Galerisi
festivalinin
niteliğinde
geçmesini
yaşları
getirmeleri
hazırlayan
ilgilenen
başlı
duğu
liklerini
değerlendiriyorsunuz
etmiştir
işçileri
krediyle
IPA
İnsani
tanımaya
bırakma
mirasını
ıda
sahiplerine
Günter
yerler
ulaşmasını
onaylan@@
tamamlanmış
haftasonu
tutarındaki
Ber@@
Hala
fiyatlarında
oynamaya
vatandaşlığı
meclisinin
Uz@@
bayrak
yönetime
katılmış
hayatlarını
hepimizin
ateşkes
topluluk
tanıyor
ıc@@
dir@@
ort@@
öğleden
yönel@@
bugünlerde
düştüğünü
araştırmacılar
Borsası
tr@@
eylemlerin
re
Mladenov
ürken
arazi
sahneye
likler
politikasında
artarken
kullanmakla
gözüyle
dığımız
ımları
faktörler
değerlendiriliyor
Jankulovska
Ne@@
telefonla
oteller
konum@@
düzenleyecek
3,6
riskine
nereye
mam
adada
acağımız
şahısların
öldürül@@
Çalışmaları
ödemeyi
kaydedildiğini
sohbet
Zdravko
sıradaki
katkılarından
liderlerinden
kazanmasına
toprakları
Kurumu
Birimi
Donald
zanlısının
kutladılar
yasaklayan
birbirlerini
bizlere
ici
Para
biçimi
pazarda
infaz
pazara
değiştirdi
kaçan
unsurların
dönmesi
lider@@
ga
hedefimiz
izlenmesi
yanısıra
Anna
bileceği
eleriyle
olasılıkları
Tony
ban@@
şikayette
kullanması
Damir
bayrağını
bozul@@
olaylardan
organizatörler
isten@@
filmde
Josip
art
eğil@@
süresince
sürenin
protokolü
Petroleum
toplandılar
kovuşturma
sitesine
hektar
istihdamı
teklifini
makamlara
isteğiyle
isteksiz
çiler
Dimitar
Marian
suçluları
0@@
Birlikte
Anlaşmaları
leştirme
oluşturacak
Suç@@
suikastı
Nazi
sezonu
tüketicilerin
leşme
AİHM
Tıp
oranlarının
meclisten
verimsiz
kutsal
hissediyor
İnsanların
Kararı
karşıt
biridir
duğuna
kapıları
koşul
getirip
kalabilir
Rudoviç
barışçıl
çiğne@@
çatısı
grubunda
esindeki
450
ilmiş
gönderdiğini
imin
pat@@
Top@@
mekanizması
Zadar
istifası
verebilir
eceklerine
politikanın
karşılamada
yapıyordu
Air
5,5
umutlarına
gec@@
izleyecek
kılıyor
Matiç
soruyu
Şiir
demokratikleşme
ol
yakınlardaki
liler
baharda
sivillerin
seçenekler
ayaklanmalar
sayıl@@
duyul@@
Cyprus
azami
tereddüt
gelmeye
duruşmada
hazırlanmıştır
çalıştıklarını
M.Ö.
ücretler
2,2
milyona
suikasta
masındaki
meblağ
işgücü
süreceğini
Downer
mer@@
Joseph
sonuçlan@@
Yılın
Di@@
su@@
tutuklandığını
Fırtına
organları
De@@
lıktan
piyasaları
Fakat
Ara@@
turistlere
Arhin
Birinci
sayımının
açılışında
altından
özelleştirmenin
eksikliğinin
çarptırıldı
yöntemleri
düzen
işleyişini
Sayın
karar@@
haklara
cezalarını
konulardaki
şüphelinin
gelişimine
mallara
planlayan
tutukla@@
bürokratik
siç
istatistiklere
karşılaştır@@
saatten
göndermeyi
Bernard
kaydettiler
ul
ateşe
dostu
futbol@@
6.
plan@@
medikçe
elle
Balkanların
ayar@@
ilişkilerine
birincisi
İsviçreli
ayrımcılığa
kararlaştırılan
aşkın
üstlenecek
bırakarak
uğrayan
ertelendi
ertelenmesi
gele@@
imzalanmasından
olanaklarını
Val@@
hisselerinin
başlatmayı
kolaylaştıracak
şunu
okulun
ayıran
kredileri
yazın
hazırlandı
yakın@@
ekibin
ıklarını
liderlerine
Resmi
Visegrad
taslağı
platform
göstermiş
topluluğun
Anders
uygunsuz
yapının
ilerek
görünmüyor
açarken
bölgelerine
dikkatini
tutulması
Koordinasyon
seçimin
gelişimini
bağlan@@
belirtmişti
seçmenin
diyalogun
danışmanlarından
ılmasında
Eurostat
izi
dayanılarak
olmadığının
görebil@@
Dur@@
Osijek
yetkililerini
yaptır@@
yüze
Suriyeli
Dick
takas
kendimizi
donanımı
program@@
dav@@
750
yakalandı
kısıt@@
hemşire
dayat@@
tanıdı
rolüyle
Kurulunun
oradaki
sıralamada
izm
tahsil
turizmin
Busek
yoğunlaştır@@
haber@@
Daviniç
Denis
dü@@
tutuluyor
adındaki
sağlamasını
kutlamalar
EVN
altyapısının
güçlükleri
Kipriyanu
Marin
Europol
devir
görülmeye
ayları
sağlamada
incelemeye
almıyor
şahıslar
kurumlarından
değerler
bulunuyoruz
eşitliği
kaldırıldı
onaylama
hepsinin
idaresinin
ihracat@@
alan@@
Benim
olmayacaktır
devamında
Romenler
boşalt@@
göl@@
bazılarını
demektir
yüzücü
yağ@@
çatışmalarda
askerinin
yetkisini
olasılığına
vermeyeceğini
yordu
alınacağını
andı
Bunlar
parlamentoyu
eserlerinin
duyurusunda
Stratejisi
Anlaşma
Ol@@
depolama
imzalanmasını
umutlar
mensupları
tır@@
metrajlı
kandır@@
yuvarlak
azınlığı
düzenleyici
güçlendirmeye
açıklamasını
yerlerini
reformunda
kesimin
sorunlarıyla
şüpheliler
işlen@@
ekonom@@
kaydediyor
Doğrudan
bulduğu
diktatör
basını
alarm
düşünüyorlar
Srebrenitsa
katliamının
x
dönemlerde
skandalı
istendi
korumanın
satışları
Alkalay
sunarak
gündemine
Filarmoni
korkuyorlar
evlerinden
baştan
yaratacağı
dönemindeki
kaf@@
masum
ladığını
tören
Scepanoviç
canlandır@@
annesi
memnunum
Seçimler
Bağdat
sinyallerini
dığının
vurgula@@
görmeyi
imtiyaz
Tahran
7.
konuyor
uğraşan
üz@@
Ilir
Lulzim
Mon@@
zorunluluğu
kurşun
Herman
Kazakistan
sistemde
uzaklaş@@
Trablus
yavaşlat@@
ortamın
kriterlerine
vak@@
bo@@
fikrinin
destekten
Sariç
Oslo
BiH
söyleyebilirim
refahı
dönemini
ladılar
aniden
yapısını
gitme
kuruluşundan
devlet@@
heykeli
ilerletmenin
sayfa
teftiş
lu@@
geçirmeyi
malzeme
umutlarının
düzeydeki
12@@
örgüt@@
bırakılması
sorun@@
ılabileceği
MHP
1,8
sinden
yoldaki
fuara
tutuklanmasını
yüzyıla
imzalama
cı
yürüt@@
Hrant
açıklık
lerdir
disiplin
Topluluğu
Hükümetin
ima
Selimi
Özkök
okulların
meyeceğine
Bancroft
Ischinger
verimlilik
Yakup
sarf@@
Tar@@
hayat@@
hatırlattı
tanıması
düzenlemeye
reddedildi
koyduğunu
R
liderliğinde
düzel@@
imzalamış
10.
kurtul@@
madılar
vakası
Samir
Pol@@
savcının
çabalarından
gelirler
Business
Viktor
mamıza
tutuklayıp
Mladjan
bizden
ilerde
oynayacak
Krstiç
verme@@
kısım
Kol@@
kullanıldı
teknolojisi
Rus@@
Mir@@
Konseyin
Hellenic
makamlarıyla
faaliyetlere
doğur@@
amaçları
op@@
süreciyle
gerekç@@
getirmesine
bulunup
başkentinin
Sreten
engelledi
memeleri
dilinde
döne@@
borcun
Curoviç
Yol@@
ru@@
bağlıyor
kaybettiğini
çalıştıkları
ham@@
sorumlulukları
gittiler
gruplara
acele
larımıza
vurgulayarak
harcamalarının
erkeklerin
kabulü
kökünü
zıt
civarındaki
sahnesinde
etken
seller
çalışmasına
asayiş
hazine
beklediklerini
kentlerde
abileceklerini
Ab@@
www.@@
iyse
etmeden
Luksiç
talebin
kullanıcı
güvensizlik
verilerin
görüldüğünü
bTV
endişelere
kitapları
etmelerini
söylenen
çök@@
yapılandır@@
hissesinin
düştüğü
imzalamayı
hepsinden
karşılaması
olasılık
tahminlerine
harcam@@
siber
GSM
mediklerini
unsurları
diyalogu
ödülün
maliyetinin
saklan@@
servisi
şehrin
hazırlıklar
asa
öngörüldüğü
ımızda
kurmuş
hastaneye
Mail
rekabete
Tak@@
ent@@
konulardan
Metohija
eti@@
atlat@@
kesimleri
MAP
amadığını
genç@@
ekonomide
iradeye
ekonomisinde
duvar@@
olmalarını
Kara
kablosuz
bağlant@@
Se@@
gensoru
politikaların
laştır@@
kesintiler
bırakıyor
engellerle
Janez
usulsüzlükler
sistemindeki
Sadece
malî
CD
öldürülmesinin
Remikoviç
olduktan
terörizm
anayasası
3,@@
2,9
katıldığını
prosedürü
imzalanmış
tarafını
yaralandığı
15.
Prosper
kod
cumhurbaşkanına
harcamalar
28.
Bunu
destekçisi
eylemin
verecektir
protestocu
güne
Belçikalı
uyum@@
öncülük
kurtarmak
Su
Milletler
ğini
Ro@@
yarışan
ildiği
v
mamalı
çete
bazılarına
gide@@
mark@@
sinyal
memleketi
konuşmasını
siz@@
tanımlayan
getirmenin
va
adeta
sol@@
verdiklerini
sigortası
hizmetlerin
kapısında
cm
kaydet@@
beklemeye
kurum@@
emeyeceğini
inşasının
işaret@@
lıkların
kadınları
sal
Nova
bağışta
Doğ@@
öneriyor
kullandığını
ete
tamamlanmasını
kraliyet
ODIHR
Temsilcilik
Verdi
ih@@
kazançlı
faaliyetlerinde
mar@@
fikirler
kavuştur@@
reddet@@
anlardan
olduklarına
memurlar
yükünü
düşünmeye
sıralanıyor
Ford
Tesla
Ön@@
asker@@
bırakıl@@
Vulgarakis
çıkabilecek
varlığına
vatandaş@@
yurt
sahipken
abilen
piyasasında
ilmesi
girişi
kaldırılmasına
yöntemi
Sendikası
olaylarla
krizini
bileceğini
yip
ber@@
diş
amacını
meşhur
komşularıyla
ödemeleri
devletleri
kaya
ağında
Miranda
generaller
mamıştır
uzunluğunda
birbiriyle
işaretler
Yılı
gündemi
cumhuriyetinin
sinde
uzmanlarının
mezse
üretimin
şeye
kurarak
tim
maaşı
Listesi
zaferini
öldürülmesiyle
dayak
ılmaya
lıklarını
adamın
tutacak
Internet
1960
larken
Bay
akıl
düşünen
Baykal
tabanlı
doğdu
şehit
ilerlediğini
sergiler
onayını
birbirleriyle
kurumlardan
tehlikesi
girmeyi
Haklar
diç
santralleri
Dimitrij
ou
stratejiyi
Tudjman
aradığı
Frankfurt
kanıtlamak
başkanlığından
gönderilecek
danış@@
Veselin
savcılarının
gelmişti
tahvil
araştırmada
becerileri
temeli
olmasıdır
Cannes
Af
Brayşori
On
Toplumu
operasyonlarına
zayıf@@
memnuniyet
Yol
dokuzuncu
madıkça
anlaşmalara
artacak
eşitlik
Federal
eceğimiz
hacmi
abileceğine
destekleniyor
İz@@
sunulması
anketine
ska
saldırılara
dağıtmak
anti
üstlenen
olayının
Ülkenin
donan@@
ılarıyla
ğe
eserlerin
sonuçsuz
topu
İsmail
mavi
teklifinde
seçilecek
girmesine
yükü
çıkarılacak
Görüş@@
lat@@
olabiliyor
mesajlar
Araştırmacı
feci
tık
toplantıları
iyileştirmeye
çıkarılmasını
kutlamaları
sırasındaki
kaydetmek
telif
Security
çözümlen@@
ret
çözüm@@
eşliğinde
büyük@@
Ad@@
gelin@@
bilecek
suçlamalarla
alam@@
Duliç
Artık
suçlamalarıyla
ulaştığını
küçül@@
iyet
kanundan
tarihsel
anketin
Fogh
Momcilo
olmadıkları
edilmesinde
kalarak
kok@@
dönüyor
ebiliyor
felaket@@
acağım
istediğimiz
kutlandı
istasyonu
yükselerek
sloganı
ücretleri
Ceriç
barikatların
soy@@
beklentiler
çatış@@
hakemlik
Soruşturma
olmuyor
merkez@@
çıkardığını
geçişi
harekatı
açabilecek
Bayrami
hazırdır
sah@@
trajik
edilmesiyle
ılırken
kuzeydoğusundaki
inanan
işyeri
farklılık
ılıp
uyguluyor
alık
zararı
Ranko
suçsuz
İs@@
dolardan
bulunmayı
teşkilatlarının
telaffuz
etkile@@
kongre
Bekay
Müdür
ICO
Elena
binalar
diniz
kapısının
ari
dilde
bakanlıklar
kullanırken
Herseğin
tekrar@@
tanımlanıyor
mensuplarının
hüküm@@
paylaştı
Düzenleme
birlikleri
melerin
Kuruluşu
Sorumlusu
öneride
Yan@@
göstermesine
atlet
anlatılıyor
Br@@
suçlarında
Berisha
vermiştir
kazanacak
kurulun
izlemeye
benzersiz
eyle
örgütüne
Li@@
İzetbegoviç
tüketimi
kalkınması
saldırılarda
Krivokapiç
gönderiyor
yapay
ICC
çevrimiçi
boy@@
kuruluşlarına
görevlerinden
ilke
çarptır@@
belir@@
temsilcilerinden
tutulacak
tarihinden
öneminin
Tzanis
ardılı
Voice
ağın
aza
Amariei
konumuna
Ter@@
Tabii
verilirken
hattına
ündeki
taraftar
maçın
mese
imizde
yıkılan
İle
yapmaması
eva
Yar@@
landığını
ke
gelecekler
çocuğa
Borut
for@@
taşımak
tasarım
topluluğu
Ge@@
sergiliyor
rota
ölümünün
aradan
fonlarından
oyuncuların
vermekten
bel@@
Koridoru
2,7
Kralı
Güçler
memesini
zan
mesidir
Lazareviç
görevin
başbakana
likte
devasa
söylenebilir
bölgelerinden
belirtiyorlar
ofisinin
sokaklarda
inanç
almalarını
aşı
ati@@
kararsız
Surroi
analizi
raf@@
eşit@@
kaydedilmesi
aktan
barındır@@
siyasette
yatırıma
hareket@@
cam@@
alanlara
ithalat@@
kamyon
almadığını
yön@@
halklarının
Fon@@
ılmıştı
katma
irdi
miktarın
kuvvet@@
kuruluşlarından
Harri
varış
4,4
rotası
ihtimali
Raporunda
taşıy@@
hayatına
Chris
grafik
uymak
doktora
parasını
müttefikleri
bilimler
tep@@
edilmek
barikatları
asyonu
edi@@
suçlamasıyla
Jan
üretiminde
Zupljanin
kanseri
karşılamakla
uluyor
zamları
Yayın
verdim
Centre
ufukta
role
kanıt@@
verimliliği
kampında
Packett
engelliyor
muyor
hizmetlerine
ısıtma
tanıkların
Butler
çeşit
yaktı
dördü
bilinmiyor
PDL
ikisini
havacılık
Marshall
Vatikan
Kotor
Rekabet
ılı
Vodafone
arkeolog
cumhuriyeti
kaldırarak
şartına
efsanesi
değerlendirmede
rolüne
lanacak
anlaşmazlıkları
becer@@
ığı
C.
fikirleri
tüfek
yaralan@@
yaratması
spor@@
Bağış
Tuğgeneral
sayısındaki
saklandığına
Koştunitsa
zorluklarla
Samaras
tercihli
asyona
kilisenin
Cluj
bütünlüğünü
Pack
YouTube
Hiçbir
dayandır@@
elimizde
alanının
nitelikteki
tazeledi
teçhizat
Savcılığı
ürünlerine
tanımayı
boyun
aramaya
British
milyarlarca
ilerlemeden
dükkan
Bölümü
öncesindeki
yönlü
operasyona
İşletmeleri
KPT
Önümüzdeki
bakana
saygın
bilmek
Ben@@
maçta
seviyedeki
yazarlarından
Hollywood
havada
moda
Evenimentul
bütünlüğüne
ahşap
lenecek
Pan@@
of@@
eğitimin
gündemin
ovska
Claude
niyeti
hazır@@
kaybetme
yal@@
Önemli
kontrolündeki
sözleşmesi
yaratacağını
1,9
istişareler
yönetiliyor
tavrını
hisselerini
Moratinos
sanılıyor
aki
lamış
geliri
arab@@
araçların
eleştirerek
etin
Sar@@
Haftası
teması
kanun
Marmara
Kir@@
3,8
davetlisi
Bonn
pasaportlar
Tek@@
muştur
korum@@
sonuçlanması
zehirli
Butmir
revize
değerlendirilmesi
hariç
medik
rafa
gecikmeler
değerinin
eleştiriliyor
çatışmada
mesindeki
ödenmemiş
süregelen
ğin
lakaplı
kardeş@@
hentbol
son@@
yarısının
hastalığın
lo@@
Kav@@
2,6
Nedjeljko
tiğini
bölgelerinin
başkentine
Christie
misyonlarına
yakalay@@
istemeyen
iddialarıyla
kapısını
tıklarını
basınına
c
süper
geçirilmiş
değerlendirmeye
tolere
doğa
tu@@
mişlerdi
Bingazi
şekil@@
şimdiki
kimliklerini
duyg@@
okulda
düşünül@@
zam@@
yansıyan
yazıyor
görüştüğü
çeyrek
getirmiş
kısmında
Belediyesi
Ek@@
laiklik
Büyükanıt
yoksulluğu
arzı
eleştirdiler
OMV
getirebil@@
üretecek
azaltmaya
süre@@
Markac
Vukoviç
H
gerçek@@
gerileyerek
Interpol
Hilmi
genişlemesinin
Srpske
kuraklık
etkisiz
savc@@
Perisiç
santral@@
Sljivancanin
teröristler
imajı
N
vermektedir
Zeri
Hizbullah
JNA
bölgesini
Mevcut
memesine
Başk@@
felç
fikre
yok@@
gerçekleşeceğini
mine
onaylanmış
Kom@@
yenler
Mitiç
Fil@@
he@@
maddeler
yüklü
saldırılarına
yerden
ekle@@
bölünmüşlüğüne
büyüyor
azalan
ihtilaflar
iyimserliğini
sahasında
seviyeleri
Emir
Bas@@
Polonyalı
yöneti@@
a-
çalıştır@@
alabilecek
belgelerini
Veljoviç
yaşartıcı
deneyim@@
ihtilafları
Janica
salonu
alet
Zilei
koşullarda
uk
özelliği
canlandırma
değindi
erdiği
adlarını
organlarının
aynısını
limanına
safhası
yardımcıları
bek@@
elçinin
Stavrevski
emiyor
Karadağlılar
istemiyorum
varken
inşaatın
bağımlı
turunun
çekiliyor
besteci
bahset@@
tamamlamış
Cor@@
yükümlülüklerin
durumlar
ödüle
sekizinci
79
yetenekli
işletim
tanımlanmış
sunacağı
borçlarının
ılabilecek
gerçeğini
düşüşün
piyasasına
topraklarındaki
yardımda
Balkanlardaki
kapanış
genişlemenin
ifadede
taraflara
ark@@
dünyaca
diğinin
anlaşmalarının
televizyonda
220
iri
kulübü
personelin
sayısına
oylaması
kaybına
yorumcu
suz
görmüyor
3,4
çıkarması
taşı@@
insana
niçin
düşman
mektubu
telafi
protokol
Alpha
tartışılan
bütçesinde
adlandır@@
sonradan
evlerin
grev@@
kazanmayı
seçtiler
söz@@
belirsizliğini
kalmayacak
Kukes
halkları
karşısına
vurgulandı
sömür@@
gül@@
bütç@@
yıldızlı
uğramış
rekabetin
teşkilatları
bayram
Snezana
Sitesi
nüfuslu
kıyısı
havaalanının
yorumlarında
Kay@@
Sch@@
düşüşle
olabilmek
yapıya
ayki
Hari
Festivalinin
parayla
tanınma
çerçevesi
kaçınmaya
özgürce
okulları
düşüncelerini
ilerlemek
hikay@@
ekibine
kültürünün
düşürme
ısıyla
operasyonlarda
analiz@@
topluyor
şi
inkar
yinelediler
avukatlar
ekoloji
sanatçıları
oturma
opulos
yön
Özgürlükler
Doğan
Planlama
masi
iddianameyi
yum@@
tem@@
mahkemesince
uldu
şubesi
sistemli
keyfini
Cuk
çocuklarına
gelmedi
OECD
Danimarkalı
ulusun
piyanist
Girit
profesyonel@@
yazarlar
etik
Johnson
WTO
büyüklüğü
CARDS
mediğine
tarama
güvenliğine
kaderini
fiyata
satmak
suistimal
işlemler
Safet
varıldı
taşımaktadır
siniz
taraflardan
değişikliklerini
uğraşıyor
meselelerde
onay@@
adasında
yayınlayarak
özgü
imz@@
Global
politikalarına
adasının
kart
cesaret@@
göndermeye
çıkaracak
sutopu
yenildi
sır@@
inoviç
şampiyon@@
kafa
kapılarının
girdiğini
Stadyumu
gelir@@
kampanyaları
düğünü
ATP
Cedomir
yoğunluklu
ziyarete
sunmaları
kimseye
evski
tutması
dağıtılacak
hattını
Kosovo
Şampiyonasında
hazırlandığı
liğiyle
sağlamakla
verir
toplanması
etmedi
veritabanı
seçenekleri
hikayesi
Divac
Grossman
varsay@@
programlarına
operasyonunda
komisyonunun
denetle@@
çıkarlarının
ada@@
karşısındaki
verilmedi
gerçekleştirme
görevlerine
görüşmeyi
başkalarının
ımını
Car@@
müttefik@@
çocuk@@
eleştirel
mevzuatı
okuyan
be
çöp
Delta
uğra@@
arac@@
farkındayız
göstermiştir
raporlar
eşgüdüm
William
onuruna
Sven
CNA
sandalyeye
nihayetinde
uzlaş@@
adaki
ıyorlardı
eylemlerini
Top
Pet@@
vergisini
hareketleri
Bakanlığından
ale
nöbet
vermesinden
diğim
enlere
Mariç
nadiren
belediyesinin
ast@@
ulaştığı
mekti
gelirlerin
yanına
jeopolitik
1.200
bütçede
İşsizlik
biyo@@
yenilik
istikrarsız
tipik
ta@@
gerçeğe
üretken
aldıktan
gecede
gelmeleri
onayladılar
yardımları
gecikmeden
Schröder
mahkemelere
iddiası
kurtulmak
sektörleri
etkileyebilir
savunucuları
görüşmesinin
ji
oruç
Mediu
Tur@@
övgüyle
buluşma
restoranlar
Yıl@@
sinyaller
bol
ettim
ulaşacak
kapatmaya
şartını
acilen
siyah
alıyoruz
yarışması
sokmak
Andreas
aylığı
Su@@
bütçeyi
tarihçi
düşüyor
kalmıyor
şekli
b
sıkıntı
belediyesinde
uluslar
müz@@
işaretleri
bitiminden
kararlılığı
mu@@
kargaşa
ucu
inşasında
adanmış
uzakta
Evangelos
ödüller
birleştiren
suçlarını
5.
Sydney
avukatları
kalitesinin
Vujanoviç
kızgın
Ungureanu
güçleriyle
daireler
değerlendirmesini
Kos@@
bağladı
piyasasının
anketlerde
ağları
getirirken
müşteri
memurların
mağaza
Gheorghe
komitenin
OTE
gri
00
Pacolli
çıkacağını
so@@
itfaiye
Oscar
atmosfer
Baconschi
etkilediğini
doğudaki
kapatıldı
yükümlülüğü
girişiminde
öğretmenler
imizden
fasıl
gerekeceğini
devamını
temasa
kurulduğu
çeşitlilik
katılmıyor
ımdan
herşeyin
baraj
potansiyelinin
eme@@
hapishan@@
Geliştirme
çatışmalara
verimliliğini
kaldırılmasının
demokras@@
arkasındaki
ız@@
Sami
Parkı
Emniyet
madık
çevresinde
yıldız
parlamentosunda
yargılanmakta
gözetiminde
nitelendiriyor
maddelerin
finansmanına
ortaklar
Energy
yönü
ziyaretçilerin
ulaşarak
kleri
amayız
beklentilerini
satma
genişletmek
pazarlara
azınlığa
imde
ihtiyacının
Manastırı
Vukotiç
ların@@
nitelendirilen
br@@
imtiyazlı
tedbirin
geli@@
ör
içerisinde
böl@@
yansıttığını
yargılanması
Tasarruf
iya
nüfuzunu
sürü
öldüğü
alış@@
irsiniz
kurumlarla
acaktı
amay@@
binaları
leyen
reformlarla
yineleyen
kalkınmanın
tanımak
tal@@
sivilin
müttefik
profesör
karşıtlar
şike
Ligi
yolsuzluktan
kanunu
zede@@
tesislerinin
denildi
öncülü
paylaşan
bildiri@@
reformuna
Benedikt
çağrısını
renkli
sağlayıcısı
generali
satmayı
karıştığı
Macovei
kararlaştır@@
politikayı
oynay@@
ımına
yapılandırılması
Arena
duyuyoruz
memişti
benz@@
hatırlat@@
müzakerelerdeki
süreçleri
kapan@@
uygulanıyor
ameliyat
rol@@
RECOM
devr@@
geçeceğini
koymaya
parlamentodan
ınızı
ailelerinin
yumuş@@
devralan
etkil@@
avukat@@
mamıştı
deneyimli
Saranda
Thomas
tıkları
alg@@
eceğim
tutuklanarak
biç@@
televizyondan
döv@@
süreleri
azalmaya
iti
KADEK
başvurusu
siyas@@
2,8
erin
operasyonel
ifadesini
Mihayloviç
kuvvetlerine
94
uzman@@
ekonomiler
ığına
Fischer
hastaların
kimlikleri
Kuveyt
Antonescu
temsilcinin
Başpiskopos
rot@@
125
yas
ithalatına
açığın
Çek@@
beşte
gerektirdiği
görüşülen
tel
Cermak
karşılaştı
BB
devredil@@
geleneği
öğrenmek
İletişim
asyon@@
popülist
işlemlerini
13@@
hevesli
Ljube
ulması
Trandafir
ihalesi
mahkemeleri
sebep
eleştirildi
Antiç
iv@@
olu
seviyelere
Marnhac
kömür
Suçu
saatte
yılların
Papandreou
biti@@
emekliler
ilç@@
Mitroviç
Jolie
bırakmak
ihanet
Tomiç
Radu
gidiş@@
serbestleştirilmesi
bombası
eşyalar
girebil@@
tanınmasına
gemisi
müştü
akademisyen
Diyalog
oturumda
yürürlükte
Mi@@
Usame
saldırılarının
sonucunu
akl@@
kartları
emsal
Kusturica
Durum
düzen@@
etmesiyle
harit@@
duktan
kalıp
çöküşünden
gire@@
Andriç
ayakkabı
oylamadan
lendiği
duyuran
voleybol
katlı
Mak@@
kampanyada
Bojan
RIA
anmak
yebil@@
Petkov
ce@@
yargılanan
açısı
yenilikçi
üyesinden
met
Merkezinin
yöneticileri
dığım
imalat
Plan@@
sonuçlardan
ertelen@@
odaklanması
meselelere
dostane
artırmanın
adları
yayılmasını
Reformu
hazırlayacak
değişik
koşulu
Heyeti
azaltması
baskıya
ulan
minin
Bulatoviç
çözmesi
uğradığını
ikamet
Mahkemesinde
koleksiyon@@
uyordu
düzelme
Bi@@
ulu
ödenecek
Raporu
2,4
kurbanlarının
köken@@
bankalarının
pahalıya
Mem@@
alınıp
kullanıldığını
kullanılmasını
yaşıyorlar
üzer@@
dökül@@
ortamına
Tokyo
göndererek
etkisinin
mimar@@
Si@@
başarıları
koru@@
safhasına
bilgisi
Üsküplü
Cemaati
kın@@
bakılıyor
prosedürler
güçlendirecek
geçirmesini
taleplerine
yebilir
kurumunun
pay
değerlerini
atam@@
bazında
sandalyenin
Murat
elimizden
adamlarının
kutla@@
aracılığında
yüzüne
edildiler
iyet@@
Sev@@
kaydıyla
gereğine
ie
kapasiteli
görünür
eğilim@@
Etti
not@@
Hadziç
memiştir
geçmeden
oturup
konuşmak
seri
muhalefetle
sahasına
euronun
ifadeleri
partilerle
gitmeyi
eşzamanlı
mayarak
Türkmenistan
akta
Pek
destekliyoruz
Raduloviç
Bağımsızlık
çıkarı
belgelere
edemeyiz
artmaya
olmasıyla
girişimiyle
Et@@
Az@@
sen
alınmıştı
ran@@
merkezini
sistemlerini
değerlendirecek
başarmış
desteğinin
Say@@
finalde
Vekili
başlarken
360
BIRN
Gora
göze
sanatçısı
düzenini
kentini
yakalanan
hâlen
çalışmış
vergilerini
yapacağına
puanını
sübvansiyon
onaylanmasını
ülkeler@@
oluşturulmasını
fuar
safhaya
şampiyon
Tarculovski
Meron
disiplin@@
katılmasından
benimse@@
ağaç
sahasını
Davis
puanları
aram@@
üm
uçur@@
turistleri
şartlara
gi
Norveçli
ödeme@@
Stephen
yapacaklar
CEZ
Romania
enleri
301
troyka
cezai
yapısının
dönüp
mallarına
verileceği
sağlamaktadır
korumayı
demeç
Cemil
Gordan
Komisyonun
planladıkları
bırakması
heyetleri
olduk
haftadır
oyları
üniversiteler
sesli
mimar
ho@@
Genc
kaçakçılığına
besleyen
üp
çarp@@
Chirac
tanımla@@
kart@@
platformu
yineleyerek
Klaus
konseyi
ze
karşılaşmada
inc@@
aydın
yürütmekte
binasına
tele@@
bakanlığa
döndür@@
nehrin
niyetli
kalabalığa
turnuvada
lığından
kullanılarak
üs@@
ihracatının
suikastın
bitki
sosyolog
Srdjan
düzenlenmiş
üst@@
Azınlık
normalde
işlemi
Angel
meyiz
zaferle
inda
adımlara
Göç
belirtil@@
çıkmıştı
mekanizmaları
Geri
giderleri
işleyişi
liğinden
lilik
Arben
etkilerinin
JSO
başarısızlığa
hac@@
Manjola
rakamı
Bay@@
talimat
baskılara
Han@@
onaylandığı
halindeki
iadesini
edildikten
belirttiği
festival@@
eler@@
sur@@
Sesi
artıran
lim
Carl
güncel@@
geldik
altyap@@
evrensel
Nikos
idaresinde
Sal@@
olamayacağını
harekat
takımları
hil@@
davasıyla
kanalizasyon
Tek
Peres
kullanmaktan
Gelişimi
zaferin
amadılar
lüğü
bay@@
söylendi
yaşından
redde@@
mazken
aylıkları
yorumcusu
bloğu
dev@@
tutumunun
çılar
hedefin
çocuklarını
val@@
bilinmeyen
piyade
prosedür@@
oranından
varlıkları
yayınlanması
hedeflerin
Gu@@
ansa
ulaşmış
Gelu
x@@
dağıtımı
Company
kriterlerin
çerçevenin
kafe
sağlanıyor
olanlara
malarıyla
irtibat
bakanlığını
nitelik
Mitroviça
hayal@@
Terörle
hafifle@@
ortak@@
bilmesi
yaratıcı
Pas@@
gereksinim
Olimpiyatlarının
uzmanlardan
faydalar
tırman@@
oturan
açabileceğini
Merkezinde
birleşmesi
eder@@
sağlandığını
Şarkı
planlarının
Ti@@
Karar
elindeki
Kaz@@
konusunun
hızlandıracak
servis@@
dokunulmazlığı
kesin@@
değerlendiren
kurulmasından
evlerinde
etler
sistemiyle
sın@@
çalışmakta
zaman@@
konularla
projesinde
Yaşar
devredilmesi
kalıntılarını
vefat
Meksika
tutumuna
karıştır@@
ilkokul
yaşıyoruz
sağlanmış
metro
resmî
etkenler
Musliu
görüyorum
gelirin
müzakereci
Zafer
anlaşmasıyla
iriz
Sistemi
Krajina
Operasyon
tümünün
tasarıda
yarışmanın
ımla
laşma
kg
yetkilisinin
Cankov
Plevneliev
litre
Ukraynalı
kârlı
tamamlay@@
askerlere
yaral@@
ateş@@
ölç@@
temsilc@@
Markos
kanıtları
Çalış@@
kullanıcıları
yaşlılar
tığına
ortamının
arabulucusu
Köstence
ifa
Dalmaçya
programlarının
bizimle
mü
Corce
fiyatlarındaki
sayımına
3G
CERN
Mungiu
Lutovska
etmemiz
yaratabilir
tartışması
fikir@@
kararlılıkla
Kusari
ilkesi
iddiaların
Hristos
ut@@
istler
Gerçek
eleştirileri
başkanına
yürütülmesi
yarın
mah@@
kırıklığını
Kent
tesi
geçin@@
rehberlik
ifadeler
ilkesini
savunmak
imal
Müzesinde
yorlar
ekler
patlamada
sekizi
mezar@@
patlaması
takımını
Geç@@
gelenek
bilgilendir@@
gönderilmesi
kentleri
finale
çizgi
anketinde
kesil@@
alınacağı
başbakanının
Ulemek
Kri@@
atlama
şarkısı
yayınlan@@
yükseltmek
yebileceği
düzeye
blog@@
sıkınt@@
yararı
sunduğunu
ödemesiz
toplumunu
taleplerinin
iyileştirmeler
yönetici
doğrulandı
teminat
Vecernje
gazete@@
satılan
yapılan@@
Bayanlar
sahip@@
hazırlaması
stratejide
bilim@@
one
anlama
yardımlar
bekleniyordu
çevril@@
eleştirmenler
kışkırtıcı
çekiş@@
azı
gruplardan
Şehir
Bağ@@
gazeteler
Batının
önem@@
Veton
adası
toplum@@
enerjinin
ısında
kılan
alınmasının
imkânsız
toprağa
devletini
Generali
Kostiç
payını
ereceği
yakal@@
kirlilik
Halkın
Lefkoşa
turnuvanın
işverenler
bölgelerin
anlaşmasında
destekleyenler
incelen@@
niyet@@
soruları
amacımız
oturumu
seferler
çekilme
id
sözcülerinden
indirmek
ihtiyacını
memeli
etkiye
konulara
abilecekler
tatbikatı
kullanılmak
erdiren
uygulamalar
açıklamıştı
bulaş@@
yakaladı
ilmesini
Avrupalılar
adadaki
durma
fiyatlara
yolların
isti@@
kuralların
koyması
arasındaydı
Kovac
yazma
kesimde
gideceğini
Mobile
kampanyasına
tabana
barışa
izniyle
maksızın
şahsın
geçiren
anlaşmalarını
pragmatik
yarıştı
iyimserlik
çağırıyoruz
dan@@
aldığımız
gösteride
NTV
gidilmesi
As@@
müzisyen
varlıklarına
mekaniz@@
sorumsuz
Steinberg
zorlaştır@@
kesinleş@@
PDP
uğrat@@
kanal
şeydir
bahç@@
yapılmadı
çağırarak
değinen
reform@@
makamı
göndermesi
suçlularının
ülkemiz
madığına
hiss@@
koyarak
propaganda
Mısırlı
kararlarının
anayasasına
konmasını
Salih
icin
birleştir@@
başkentte
heyecan
baskıyı
temelini
Min@@
imzalamaya
Steven
sivilleri
babasının
kanıtlay@@
megawatt
davalarında
tedarikçisi
ihracatını
bütçeden
vaz@@
harcanan
olaylarından
tutuldu
engelin
büro
çatışması
sel@@
ulaşılması
abildi
güneydoğusundaki
Senato
istem@@
akışı
becerisini
5,@@
İşlerinden
Miletiç
raporlarını
devret@@
sebze
Paskalya
kullanacak
röportaj
savcılığı
sin@@
yokluğu
Cirokastra
temsilcilerini
Babiç
büyümesinin
üret@@
üs
kampanyasında
Ku@@
gözaltı
ATHOC
ð@@
þ@@
ika
kanıtladığını
birleştirmek
katılmasının
tehdidinde
çatışmaya
maddesinin
göstereceğini
sunacağını
hedeflerinin
Siyaset
tutumları
yapılmasının
çalışıyordu
göndermek
bulacak
luğun
kararlılıklarını
boş@@
önü
güvenliğinin
Köprüsü
varmak
vizyon
ihlalleri
Ordusuna
aracılık
harek@@
geldiğine
piyasasını
melerinde
ut
dışarıda
turuna
ihtilafında
yönetiminden
kaldırmayı
iddianamenin
diğ@@
yenilgi
katılımcıları
yalan
Kütüphanesi
Todoroviç
Anagnostopoulos
ihalenin
önemine
Bekir
Filmleri
iyice
şunlar
Filipoviç
korkusuyla
herşeyden
inanmıyorum
yorumlar
ilerlemeleri
öneriye
tekeli
ihaleye
duyurulan
yükselt@@
Presevo
nadir
kalacaktır
bulunacağı
Hak@@
yumdu
atları
Makedonca
Hal@@
tarih@@
kurmanın
çözülmemiş
oynayacağı
başlayacağı
derken
çatışmaları
abilmeleri
Morina
seyahat@@
başkent@@
ımlar
endişelen@@
ihtimalle
ley@@
asıllı
atlar
itibar
doğrultuda
Brown
öğrencinin
bulunul@@
uş
beklenmiyor
Mirjana
umuzun
katılmakla
bağıml@@
umutlu
France
atacağı
lenme
çabası
sağlanmasını
yerleşti
ilkesinin
temsilcilerine
sayan
bırakacak
siyasetinde
dağılmış
Amiral
dersleri
alay
Afrikalı
Acil
Bechtel
Broz
ula@@
yağmur
aştı
düşündüğü
Raiffeisen
düzey@@
turnuva
bakanlığında
verebileceği
aras@@
ük@@
kıl@@
çıkış@@
hissedil@@
lem@@
sahnede
üyeden
eme
anlay@@
elli
ulmasını
kesimine
tehlikede
lıyorlar
doğusunda
ruhsatı
sınav@@
restorasyon
adaylığına
biçim@@
indirdi
isteniyor
ihtimal
kişilerden
ıza
atölye
akıllıca
lılar
bağlantılar
bağl@@
melerinden
las@@
azılı
elit
Kurul
tedavisi
maaş@@
seviy@@
LDP
konsolosluk
edenlerin
benziyor
Yahyaga
tesiste
heyetler
verilmemesi
Ra@@
Bulletin
att@@
Fullani
sem
güvende
vermiyor
sıkıntılar
makamının
Lazar
planlan@@
başlığı
Koordinatörü
mektubunda
şantaj
Pal@@
tüken@@
sahasının
ılığı
katkısı
İl
aktaran
dağıtmaya
üç@@
bağlamında
kazanmasından
girişimine
Kai
eg@@
menkul
Med@@
sokakta
kütüphan@@
brüt
kırdı
tutuklamaya
üreticileri
çiftçi
tutuklamaların
blokla
yükseltme
geçmeyi
rahat@@
almasından
acaklarına
dönem@@
Gregorian
niteliğindeki
sözleşmeyi
çalışıp
şüpheyle
eksiklikleri
yum
seçkin
raporları
yargıçları
üssü
Gallup
reddedil@@
kayn@@
Pavle
yayınla@@
göreceğiz
medyayı
durağan
Marie
müzesi
Cooper
Janjiç
Rogge
galası
nitelendirdiler
ıy@@
gelmeden
gazetecileri
görüşüne
talepte
nezaret
Pat@@
sebebiyle
rolünden
fon@@
yönetmenliğini
sektörlerde
Fajon
kot@@
MRF
kovski
mücadelesinde
azaltacak
Pukaniç
bankalara
etmeliyiz
bedelini
bakacak
alır
değerlere
tanımlanması
isteyeceğini
kullanıma
aşamada
iyileştiril@@
izlenecek
Anlaş@@
suçlayarak
derinden
saygılı
ılıkla
girişimlerine
forumun
hatalı
pozisyon@@
gelişmenin
taahhüt
yetkilerin
beklenenden
2,1
duyguları
Erwan
haklarıyla
kategoride
girmesinden
yerinden
Kurul@@
devletine
mamalıdır
olayını
aca
EUpolitix
ıcısı
topar@@
14.
fır@@
çift@@
yüzyıllar
kalın@@
Solomon
sandalyesi
değişikliklerle
Con@@
olsalar
Vasiç
yolculuk
Atletizm
bilgilendirme
girip
rastlanan
Ker@@
Demir
gelişiminin
Macarlar
Pantiç
ödün
Pre@@
fonlarını
model@@
davranış@@
manız
İrlandalı
çalışmalarından
Gashi
kom@@
belgele@@
aşma
lam@@
güveniyor
ödüyor
ihracata
İç@@
uya
elini
bildirdiler
kökleri
şüpheler
ihtiyati
davalarda
fiilen
yaratarak
ermesinin
sın
kışkırt@@
Cumhur@@
düşerek
organizasyonu
yarıdan
Belarus
edemez
ölçekte
Am@@
yemeği
esneklik
yarışıyor
komitesinin
tutum@@
avroyla
uzaklıktaki
arıyorlar
şist
koydular
kaydır@@
Sabah
ihracatın
kiş@@
gerçekleştiren
istedik
On@@
VRS
Koyu
sorulan
yarg@@
azaldığını
evsiz
malarda
birimin
bilinci
harc@@
okullara
lazım
almaktadır
IFC
lüğe
Kam@@
kriterlerinin
prensipte
Yolları
karışan
indirimi
koruyucu
Sil@@
silah@@
sayının
dür
görüp
dosya
lerimize
seviyesinden
sergiye
İşte
nakledil@@
savunmasını
tutuklandığı
desteklemesi
Sol
yoklamaları
olan@@
tutuklamak
nak@@
katkıları
Dev@@
minden
hastan@@
gelecektir
fiyatının
oylarını
Arkeoloji
zanlısını
gelişmede
sırf
görüşecek
zimmete
Ma@@
Kelmendi
Göz@@
başk@@
paraya
güvenlikle
işsizliğin
University
Hocay
alanlarının
lük@@
net@@
meniz
cezaevinde
açılmış
Gar@@
yapmadığını
Ivana
hikaye
kapılarında
Romanları
toplayarak
şans@@
Mobtel
epey
lari
hazırlanırken
Srcan
sorunlarından
hat
atadı
yarışa
değiştirecek
Elektroprivreda
bedel
yönetme@@
Vasile
3.@@
anahtar
özetliyor
Alogoskufis
basit@@
sistemlerine
Havacılık
amacına
otomotiv
digi
açıklamayı
itham
Muhafız
saklandığı
tesis@@
bağlılığı
kanalları
gelişi
kronik
İvaniç
yorumcular
atacak
oğlan
bilincini
hedefinde
Velimir
güneydoğusunda
Kos
Meclisinin
bekleme
dramatik
kötüleş@@
Caddesi
çıkmazın
çekimser
İyon
hastalar
Türk@@
listesini
NBS
katılıp
onarım
eceğinin
şüpheleri
ılabil@@
getirmişti
nelerdir
rebilir
kısıtlamaların
komşusunun
Straw
Uzun
dukları
itiraz@@
Sinema
Samuel
Stan@@
eyaletinin
bakmak
Olimpiyatlara
DSB
madım
sendikaları
alacaktır
meslek@@
getirebilir
neden@@
sokma
yoksullukla
kararlıyız
sorumluluğun
cezasının
tamamlayıp
anti@@
kazasında
iddialara
tümüyle
çevreleri
Pire
yerleşik
başlık
anlayış@@
arayışında
bet@@
Mor@@
sağlamış
söylemesine
Sağ@@
amak
barajı
mağdur
akis
güreşçi
iciç
girişimlere
Arnavutları
sinyalini
yasaklama
sü
binasında
sars@@
edileceğine
kazanılan
izde
olaysız
mamızı
işlemekle
oya
hedefle@@
müzik@@
turnuvası
çevre@@
adlandırılan
tartışıyor
kızdırdı
üstüne
sığınmacı
boğ@@
yansıtan
yarışmasını
çalıştılar
piyasada
şirketlerini
düşünmüyorum
iyeti
ekonomisti
kadın@@
Turk
dular
yatırımlarını
Sözü
edin
Maja
eği
yakındaki
pasaport@@
yapmamız
anayas@@
konularındaki
Kongre
kanı
oradan
aramak
cinayet@@
gıyaben
bulup
Arşivi
düşüşü
gözlemcilerin
şirketlerine
yargılandığı
tanığın
şaşır@@
do
durağı
bütünleş@@
gazeteye
kavg@@
Sh@@
oluşturul@@
olduğumu
katliam
mecbur
geçişin
otoriter
Jozefina
lenmesine
misiniz
manları
mayacaklarını
öfkeli
Destekleme
lıkta
ılık
sularında
deneme
özelleştir@@
tartışmayı
üzücü
farklılıkların
Konvansiyonu
İstihdam
makine
krizine
dinin
miz
turistin
Etnik
askerden
üdür
bağlıdır
ideolojik
belirti@@
başlatacak
engellemekle
zorundalar
uyu
endeksi
operasyonlarını
Önleme
İbar
Agron
Şkodra
alımı
işlerine
demir@@
Mahmud
kurbanlara
çilerin
çalıntı
eğilimleri
atın
Ban@@
gönderecek
şebekesi
Mo@@
şartlardan
başarılara
dünyayı
South
kurucularından
dönük
gayrimenkul
girişini
barikat@@
yakınlaştır@@
Sah@@
geçerken
yorumda
çabalıyor
fazlasına
öğle
çelişkili
ilerinde
Ru@@
sanay@@
Parti@@
belediy@@
potansiyelini
parçasıdır
Franjo
kopar@@
referans
boşa
kararlara
Asselborn
verebil@@
ılmasından
tutukluların
ılmak
sıfatıyla
getirildiği
belediyelerde
yasasına
109
Türklüğe
mez@@
euroyu
eksiklikler
teknolojileri
etinin
şahsen
muhalefete
Roland
komut@@
lılık
çab@@
Do@@
lü@@
Sol@@
Austria
Renault
satışından
demişti
sokaklarında
larca
korkusu
9.
yapilan
temsili
8,5
durum@@
ortasından
birliklerinin
başlamasıyla
Nezavisne
kaçakların
şarttır
failleri
Sitel
İkincisi
acağının
itirazları
denetimini
kaybetmişti
teşhisi
PRİŞTİNE
Mes@@
naylon
Gönül
leştirmek
Schwartz
zarfında
oluşturması
tatil@@
Theodor
riskleri
gündem@@
kümes
metrekare
temizle@@
ihal@@
fonlarına
karşılıklılık
merkezlerinde
deme@@
eksik@@
bulmanın
pol@@
çözümleri
lisansı
Örgütünün
çıkabilir
Ljubiciç
eklen@@
başlayarak
başarıyı
bahsetti
taraftarı
almadığı
gösterici
azalmasına
Trans
16.
güneydoğudaki
Zelanda
Kovaçeviç
Evi
Media
birim@@
geçmiş@@
etmeme
sendikaların
diktatör@@
yardımcılığı
luğunun
hareketler
aşması
mamasının
parlamenter
imler
Lila
değerini
sürücü
başlıklar
güçlüklerin
HK
Afgan
örgütlerle
Tunus
tarafına
3,7
Bocevski
Memeti
kullanılabilecek
kâr@@
ita
askerlerine
hissediyorum
seydi
Milliyet
ışını
yaşamına
Orban
res@@
altyapıyı
diledi
kirli
ulacak
masasına
temsilen
temelleri
doğmasına
kadına
Saddam
olasılığıyla
şampiyonasında
görmesine
seferber
kulüp
Seç@@
ch@@
Kr@@
sattı
korkan
gişe
oluşturuldu
girişimci
yaklaştır@@
oyuna
hisseleri
kul@@
ıştı
ödülleri
Den@@
mutluyum
Sür@@
faillerin
hazırlay@@
let@@
girerek
paralarını
temellerini
İhracat
Rade
birlik@@
Lütfi
Institute
Temyiz
Rad@@
almaktan
po@@
oraya
kirliliği
imzalay@@
DJ
konuştular
1800
Walter
konuşuyor
yetkin
önderliğindeki
grubunu
tüp
kaybetmesi
dalgalan@@
Stojan
mütevazı
Allah
birisini
değ@@
meksizin
gerçekleştirmeye
olgunluk
miktarının
partilerden
müzisyenler
edilme
ısın@@
mesafede
düşmesine
ıla@@
protestoların
anında
roket
çat@@
Jelasiç
harcıyor
direniş
buz@@
kin
kamuya
edilmedi
evlerinin
Plamen
krizde
getire@@
oyunc@@
varlıklarının
gelmesinin
ımızdan
malarla
reformlardan
azaltmayı
kanton@@
standardı
ılan@@
Aç@@
ken@@
firmasına
gerçekler
ite
erteledi
sebebi
tamamlamayı
odaklı
imkan
kabinede
gündemini
görmediğini
birikmiş
Kayıp
iyisini
Dmitry
bilgilerini
tanınmasını
Konusunda
geçil@@
manzara
bölüm@@
niyetini
mışlar
Yenilikçi
akrabaları
Cer@@
parçalan@@
lisansüstü
koşuluyla
söylediğini
söylentileri
boykot@@
yaklaşımın
sizlik
götürecek
yağ
yakınlaş@@
tepkisi
blogcular
yaşına
istenmeyen
merkezlerinden
örnekler
Sırplardan
yürütül@@
Besimi
kademe
konferansının
maddesini
fatur@@
laboratuvar
Bence
kazanmasını
tutarak
lerce
gündür
savunmaya
hızlandırdı
cılık
ayrılmasına
konuşması
Lamberto
Grand
usuna
Kaliniç
Sır@@
Standart
göstermekle
tehditlerle
ılığın
yayınevi
ig@@
favori
alanını
dilimi
yarısına
işlendiği
üstelik
15@@
katından
açmasını
AMBO
görevlerinde
algılan@@
1.
İzzetbegoviç
Tem@@
RTRS
müdürleri
sonuçlandır@@
Kendi
desteklenecek
görülür
ailelere
mağduru
perspektifi
ihracatçısı
işlemiş
bozuk
ıt@@
erdir@@
olmadığından
cılar
şube
milletvekillerini
eşinin
Dünyası
futbolcu
50.
Teodor
ödemeler
UNIFIL
çarpıcı
sansür
satmaya
şarkıcının
Bar
sübvansiyon@@
gerçekleşeceği
elektrikli
düşünmek
Tanrı
yavaşlama
artırıcı
gerginliklerin
yaklaştı
seslendi
Cengiz
köş@@
Listesine
kalkınmaya
Güzellik
ılığını
faslının
parkı
Daskalaki
girişim@@
EUPM
karısı
L
Ulah
boyutu
toplumlara
getirmediği
dilekçe
kalkın@@
belirlemiş
değişikliklerinin
takvim
ice
istatistikler
sorusuna
gitmekte
luk@@
grevi
oluşturulmasına
beş@@
-Arnavutluk
Uyuşturucu
bayrakları
Konseye
çabanın
göstermesini
Gelişim
trend
etmeyen
Miliband
izole
toplantıyı
pay@@
çev
tas@@
Roman@@
derecesiyle
Hong
Kong
güçlere
ilişkinin
üniversitelerde
mahkemesinden
sitesinin
melerden
önceliklerinden
Du@@
ziyaretçilere
eleştiril@@
Research
bildiğini
suçlamalara
verecekler
kampanyalar
derec@@
sınırda
mem
önceliklerini
azınlıkları
eskisi
Bekim
kuruluşlarını
poz
takım@@
kompleksi
saçma
safhalarında
marka
kolaylaştırılması
ket
aleyhte
yaşayanlar
şeffaflığı
sek@@
tamamlayarak
Britanya
paramiliter
anlam@@
Gen@@
tım
değişime
sindir@@
sonbahar
momentum
riskiyle
Menekşe
uğr@@
arifesinde
hastalık
iftira
karışıklık
iste
içecek
Sigorta
Tri@@
katliamında
şark@@
Steinmeier
Yıllık
ayrılarak
yetkilerinin
oynamak
ayrılmak
kuvvetlerini
bütünüyle
yaşamaya
dire@@
Potocari
verilmesinin
doğrul@@
gök@@
puan@@
Berat
ilanını
fırsatını
reforma
deniz@@
liklerinin
stratej@@
ığının
güvenilirlik
girmeden
anayasasının
Yakın
yapılabilir
harcan@@
sondaj
Channel
yazarları
kültürünü
dergisine
memeye
okullarında
gruptan
akıllı
kanaat
durumları
açıklamalarına
şahsi
eşiğinde
440
şeklindedir
üstlenmeye
uyul@@
verilmişti
seks
mesajları
iniş
4,3
Barrot
Dağları
1987
anması
savaşan
destek@@
unca
çalışanlarına
fazladan
Papulyas
def@@
memek
operasyonunun
kanıtla@@
teşkilatını
sahipliğinde
hizmetine
Boşnakların
hakim@@
SNA
Berlusconi
ettir@@
he
ayaklan@@
başlatılacak
itirazlarını
numarası
çıkmayı
deney@@
Köprü
ef@@
temelinde
meni
Olimpiyatların
cez@@
başlattığını
vuran
irim
tat@@
üretimini
amacın
bulunmaması
ödediği
bant
yönetecek
Haziri
yüzleş@@
suçladığı
Enerjisi
tiğine
Ağ@@
misyon@@
duğunda
tor@@
tatillerini
Prijedor
tarif@@
gelenekleri
çöp@@
inşaatına
doğruluyor
yakalamaya
baskıları
korkuları
mevki
tel@@
ıkları
ödenen
eli@@
Anlaşmalarının
çıkarlar
subayları
imzalanmasına
kongresinde
açılmasının
şartlarına
1986
eğitimine
Müttefik
kamp
yarışmayı
imkan@@
mücadelesini
ılma
bö@@
yurtiçinde
Klan
değiştirerek
sanılan
akıl@@
Toplumsal
nce
Bakoyannis
insanlarının
aray@@
bale
lamıştı
Pr@@
ortam@@
FBI
Novine
bölge@@
haberlerin
Sin@@
tez@@
alamadı
unvanını
caminin
helikopter
ılığına
recektir
ilçe
Posta
krizinden
oyunları
bisiklet
ura
laboratuvar@@
devamına
konuşlandır@@
Mit@@
kendilerinin
ihtilafa
üyenin
Bologna
durumuyla
soruşturulması
yenlerin
kup@@
müdahalede
esin
değiştirmesi
bıraktığını
sevk@@
hoş@@
lerim
isteyenler
göstermekte
Brankoviç
yeme@@
uygulandı
yargıya
bütün@@
olun@@
kanıtlan@@
çıkararak
borsa
sokaktaki
meyeceklerini
ıslah
maaşın
Mat@@
rakamların
Dragisiç
yatırımlara
Curiç
uzay
gribinin
Danışmanlık
yazar@@
ro
Stojanovski
Vekariç
katliamıyla
Zubin
Uzan
mahkum@@
Strpce
National
Saviç
IOM
düşürüldü
Harek@@
Klaudija
televizyon@@
ayrılık@@
istikrarına
aramızda
diğerinin
edilmemiş
girerken
layacağını
Trajkoviç
osunu
başarısız@@
dairelerin
duğumuz
yükseltilmesi
eğitim@@
mediler
Camii
edemeyeceğini
vermemesi
kadarı
Antik
önleyecek
madeni
van@@
mesafedeki
kaydediliyor
Ömer
merkezde
Jan@@
Park
tanımasını
satışını
lis
düz
ızı
katılabilmesi
etmektir
antika
ağa
yansıması
Söz
liğ@@
güreş
düzeyine
ki@@
çerçevede
rakipleri
89
hakimleri
Stip
parmağı
tesinin
dünyadan
Fest
Kuneva
ziç
örnekleri
6,7
göçü
ilişkilerden
sağlanmasında
vurgulamak
are
fiyatını
geçit
katılabil@@
nüfusuna
işinin
mikro@@
fikirlerini
belediyeleri
doktor@@
şehirde
tekliflerini
deneyimlerini
sam
söyledim
Erkekler
meslektaşları
tuttuğu
luğuna
metin
bilen
hukuku
ediliyordu
koşul@@
maliyetli
hırsızlık
Pro@@
kanadı
üstünlüğüne
nitelikli
abilmiş
Hastanesi
otoritesini
11.
Joe
Tokyay
hastaneler
tescil
San
toplanacak
ORA
Yargıç
ley
anlamak
meselelerle
meslektaş@@
kılacak
görüşe
büyüğü
gelirli
kasab@@
sesleri
gerekirken
andığını
beklerken
yanaki
toplumlarına
vermesinin
sindirme
açıp
hayatının
üş@@
anketlere
Elizabeth
sorulara
co
Bankanın
yardımının
diğeriyse
üçüncüsü
ılmaması
ayak@@
luğunu
kocası
Harry
diplomatın
İvanovski
öğreti@@
yakalanıp
komitesine
operasyonunu
generallerin
rafinerisi
itici
Austin
Konjanovski
ziyaretine
tersan@@
fir@@
açıklanması
sektörler
güçlendirilmesine
koalisyonuna
ey
tartışmada
tanıy@@
ilçesinde
engellerden
sefer@@
yor@@
İranlı
leştiril@@
etkilendi
vergilerin
Montenegro
yönleri
iyileşmesi
mesaj@@
avantaj@@
sıkışırken
gördüğümüz
tasarısının
mühendisliği
kabineye
jeviç
hatalar
Maloviç
yabancıların
konularına
yüzünü
pazarlar
ittifakın
geliştirdi
pas@@
olimpiyat
içeriği
Dow
yetiş@@
gördüklerini
söylemesi
güçlen@@
maden@@
yasaklan@@
tarz@@
fotoğraflar
ilgilendiklerini
ilgileniyor
Bek@@
göğüs
değişikliğinin
partilerini
Paşa
ker@@
ilerley@@
kısmına
kova
manastır@@
dinler
yorumlarda
öğretmen@@
yaşta
iade@@
görülüyorlar
kasabanın
sanığı
Memija
tığımız
andan
kanalın
reformdan
küreselleşme
tutuk@@
ivedi
soruşturmaların
ölümüyle
suçuyla
tanımayan
göründüğünü
İstiyor
bulunduğuna
Bogdan
ücretin
zamanların
manı
hareketli
bilgisayar@@
nik
zorlukları
kurumlarda
nefes
ularına
ayan
yürü@@
uygulandığı
kendimi
kararlılığının
kolaylığı
vet@@
Antonis
eğitimini
terfi
baz@@
başlatan
teknolojiye
3,9
sponsor
tutuklamaları
korudu
merhum
liydi
vakıf
hastalığı
önlen@@
kurbanın
fuarına
diğimizi
kesti
İKÖ
230
tutuklanmıştı
dondurdu
liyorlar
diplomatların
böbrek
kaldıran
yardımını
Riga
şiddet@@
haricinde
ilişkilendir@@
termoelektrik
arzını
komş@@
Görev@@
kriter
Program
gelmekte
alabileceğini
genişleyen
sanatsal
5,8
7,3
operasyon@@
meblağın
negatif
isimlerin
Sam@@
dönüştürmek
HRW
yayınlayacak
değiştirmeyi
doğrulan@@
kararlarına
çeşitliliği
çevreyi
onaylayarak
ruhani
meclis@@
Eurobond
mobilya
açılışına
Singapur
açıkları
saate
4,6
em
Stolojan
yenilenen
halkından
sıcak@@
feribot
Organizasyon
hatırlıyor
İ.Ö.
Televizyon
indi
beceri
kapasitede
ulaşılabilir
amamış
Değiş@@
konmasına
fesh@@
istişarelerde
semt@@
vergisinin
malardan
durdurdu
landır@@
hazırlanmasında
yasağın
girişimle
turunu
tığında
hızda
kül@@
kil@@
yo
bürokrasi
gösteriyorlar
memelidir
Hayredin
Kuki
vakaları
Birleşmiş
kre@@
Sun@@
Te@@
5.@@
seyre@@
çevrildi
adında
gerekip
Düzeni
çıkarsa
tac@@
Aş@@
seçilmesini
dığ@@
Ediyor
kanton
okum@@
öğ@@
söyledikleri
duygusal
Kuzmanoviç
süreçlerini
Wimbledon
jimnastik
emniyetli
4.@@
karşılanıyor
İlişkin
ülen
metrelik
başlanması
terörün
başarılarını
reddetmişti
Kalkandere
tonluk
Mihajloviç
değişimin
Gor@@
Nejat
kaydetmesi
başsavcının
Gençler
ettiğinden
meselesine
ticarete
süreçlerine
üy@@
Capital
sahibinin
topraklarından
tahsilat
kuvvetli
göstergeler
edilebil@@
melere
Decani
götürül@@
meseleye
fazlasıyla
hakların
menşeli
ımından
belgelen@@
öngördüğü
Gelecek
almada
yanıtlar
gözlemcileri
tetik@@
çıkarıldığı
ayrıntı
ertelemeye
izleyerek
dönüşünü
Değişim
tab@@
gezisinin
bık@@
ziyaretinden
gruplarına
sınırlama
alarındaki
--@@
yapacaklarını
ceğine
izle
yönlerini
geçiş@@
Mirror
başlatıldığını
hukuk@@
leşmesi
ısınma
dua
üyordu
belgeye
onaylayan
iddialarına
almayan
çizen
üre@@
bileş@@
Hizmetleri
liderliğini
deneyimi
programlarını
kral@@
MEP
kiç
abiliyorlar
düşerken
görüşül@@
tutuklamanın
MJAFT
nedenler
stadyum@@
protestoları
Yarinye
ür
Komutanlığı
yapmadı
duygusu
birliğe
ığını
süreyi
düzenlemelerin
hızını
Servisi
tamamlandığında
aş
Gi@@
suçlamalarını
EUSR
Mekanizması
Juncker
uzatılması
kök@@
İvaylo
kurulmasında
Vuciç
kazandırdı
yataklık
yinele@@
Rumlar
veterinerlik
işliyor
Los
uçuş@@
arzının
içeriğini
BK
kaydedildiği
kaçakçılığını
artırdığını
belirlenecek
karayolları
gitmesini
kalkış@@
luğa
sendikası
kaderi
ıl
teşvik@@
rken
bakanlıklarının
adımlardan
Web
operasyonlarının
850
ayaklanma
Dam@@
geliştiril@@
liderlerden
milyon@@
Mikereviç
İçinde
takımında
Carlos
talebinin
uzmanlarından
cinayetleri
kaçtı
ivme
araz@@
Koç
rakamları
öğretmeni
muamelesi
andır
Pale
duyurusu
birarada
mış@@
Erol
bakan@@
yeti@@
Yeşil
üretimine
komşularının
Selmani
usunun
Pieter
Milosavlyeviç
erişimini
uygulayarak
mizi
tanıdığı
ord@@
eşiğine
bırakın
öldürmek
zanlılardan
güzel@@
saldırılarını
görüşte
Vergi
alanlarını
grevler
görebilir
duvar
soruşturmaları
Dostluk
sesi
gezisinde
Gostivar
güçlüklere
tanındı
tanımladı
tazele@@
mutluluk
gerçekleştirecek
tler
ılacağına
durumundaki
Gıda
ilgiyi
liç
ortalaması
gözünü
hane
sonucudur
miş@@
gidişatı
Ödülünün
tatbikatın
kabineyi
ilerlet@@
içki
112
na@@
oynam@@
istemişti
burs
viz@@
girişimlerin
grubundan
GSMH
dilimini
yazarın
larınız
yoruz
Kilise
hücre@@
çektiler
tes@@
endeksinde
esiz
istisna
otomobil@@
DBA
kayakçı
hapiste
düzineden
saatlerce
tavsiyelerde
kapsa@@
büyüt@@
başlanacak
çiftçilerin
baskınlar
Brdo
Tudor
üretime
ilkesine
Vi@@
kül
yasayla
iliğin
devri
arkadaşlarının
alkış@@
9,5
performansının
Fizibilite
SEEMO
skandal@@
mer
kullanıyorlar
Konstantin
desteklemektedir
Drina
sürtüşme
5,2
haç
Ljubomir
malar@@
leştir@@
radar
Zagrepli
yapılarının
usunu
Res@@
Zana
kalabalığı
buğday
tüketicilere
neyin
karakter@@
farkl@@
Yaş@@
eceğ@@
Polancec
Kaczynski
kurup
iyileştirilmesine
davalarına
sayımında
kilisesi
çifti
mühendislik
hayatın
KCK
emeyecek
Mur@@
form@@
greve
Raçan
alarma
tahminleri
İlazi
folklor
maliyet@@
kötüsü
ayrımcı
edeceğim
ılamaz
başlatacağını
baskında
cihazları
yürütüldü
imzaladıkları
uğruna
isti
toplantılarda
kamp@@
işley@@
uçakları
kaydettikleri
anlayışı
dışarıdan
5,3
makin@@
diğerleriyse
barajın
yöre
korunmuş
kavga
İlir
operasyonlara
ayrıntılarını
tik@@
idaresini
Besim
sürdürmesini
ela
yürüyüş@@
göreceğini
kam@@
açılacağını
eşya
hareketine
bulg@@
rastlan@@
müzenin
Kutsal
hissi
durduğu
turnuvasında
önceliğin
geçirilmesine
kazası
Blanka
kutlayan
duruluyor
onuncu
gezisini
heyete
şart@@
Barrett
inşasını
yenilenmesi
modernizasyonuna
belgelerinin
izlediğini
dillerinde
köy@@
bırakmaya
Trayko
Ci@@
Bul@@
yükümlülükler
etmeyeceği
çı@@
depremde
beklenti@@
sorgula@@
Droutsas
varılması
üyeler@@
sonunu
Vuckoviç
istek
birbirini
ai
etmelidir
şirketlerinden
Güven@@
ite@@
zirvesinden
lığıyla
nam
üreti@@
durdurulması
gizlice
Me@@
zar@@
mo@@
dünyasına
adaylarının
Jeleva
yönden
kucak@@
derecesi
alanın
Tes@@
tabanı
iletişimi
çerçeveyi
hepsini
uzmanlarına
istismar@@
dok@@
isyan@@
Roganoviç
liklere
cumhuriyet@@
toptan
bahis
Fenerbahçe
edilmediği
geçmekte
savaşının
has
organiz@@
müdahal@@
EPS
toplamaya
başarının
kaybederken
Anne
Ac@@
girebilmesi
ardan
çevreye
başlamayı
rezerv@@
100.
olayına
olmasın
Yine
ımıyla
Boz@@
girişimlerini
saldırıdan
örgütlerinden
düşürül@@
müzakerelerden
tiler
istiyorlarsa
seviyelerini
bilgisayara
arkasına
inanc@@
Somali
içeri
ürün@@
payının
Başbak@@
mekanizmalar
kahve
fırtın@@
etkiyi
açacaktır
hafifletmek
federasyon
koordinasyonu
unsurlarından
inanılmaz
Tele@@
acağımızı
Kosovalılar
İrtibat
Angeles
dönmesini
zamlar
yüzbinlerce
Kalmeta
yolcular
Demetris
hayali
kullanımıyla
bankaya
ayrılmasını
gerektir@@
jiç
yaşamakta
boşluğu
anket@@
ödül@@
masıydı
oynaması
ba@@
eğitimden
Co@@
tatbikata
yerleştir@@
yalı
birleştiril@@
ortaklarının
Yetkililer
düzeltmek
Stream
Hatay
Makedonların
yerlerden
acılar
yaptığına
anketleri
PHARE
geçmişten
lıklarının
zırhlı
finallere
gününü
yararlanma
dikkati
suçlamalardan
dakikalık
kadarını
desteklenmesine
koşullara
itiraf@@
karşıladığı
laşması
artmasının
iği
kaygılara
yönetil@@
iyisi
değişmesi
oylar
Pavel
taktik
virüsün
kullanılmasına
açıklamasından
çıkarılmasına
hazırlık@@
şüpheci
gelişim@@
enklav@@
Avni
oluştururken
Dairesine
Cukiç
sürül@@
kere
So@@
biçiminde
radikal@@
olayında
müşter@@
adres@@
blogcu
suçlamayı
geçirmiş
sağlayabilecek
geçilmesi
uyoruz
bunlarla
edilebileceğini
emirleri
komisyon@@
ordudan
evlen@@
imkanları
kuruluşuna
şey@@
geçirecek
13.
anladığını
heyetiyle
liklerine
duruş@@
alacak@@
uda
kaçmaya
Pendarovski
sekreter@@
ederiz
gayret
dizüstü
devrilmesinden
Kut@@
görüyorsunuz
kullanılabilir
Mac@@
kazandırma
santralı
8.
görünümünü
vekil@@
Bereliler
film@@
akını
işlerinin
sunumu
anıyor
des
hisse@@
î
başlamıştı
ithalata
Kredi
17@@
yönetmelikleri
han
layabilir
Dar@@
Eurozone
kıt@@
Partisine
parçalanmış
çalışanlara
ödedi
kontrol@@
büyükelç@@
ilecek
pri@@
yasalarla
gerekçesi
ann@@
diğerine
tanıdığını
kriterlere
teknoloj@@
kınadılar
çiftç@@
anayasasında
Miro
Joviç
eminiz
atını
Azaltma
üyeye
mevkidaşları
yaratılmasına
emedi
olacaklarını
kaynaklan@@
kredisinin
Albena
başkentindeki
paketine
Partili
klinik
cihaz
geliştirmesi
Stoykoviç
uzaktan
leyecek
yumuşat@@
KEK
koalisyonunda
kaçağı
serginin
gayrımenkul
inşaat@@
alanlardan
HSBC
Severin
Tivat
vergilerinin
Simonoviç
Foca
rezervleri
her@@
Radikaller
eser@@
Hamza
faslın
kaldıkları
arayışı
kişiyle
testi
çağrısına
Dragoljub
Ponta
etkileyeceğini
karşılarken
sonucunun
60.
tah@@
Brezovica
geçmişine
istif@@
Atalay
CPI
tekn@@
derinleş@@
azaldığı
uların
potansiyele
fırsat@@
yönetiyor
Mahke@@
Madde
konuşurken
sürmesine
cihazlar
birbirlerinin
egemenliğinin
itibarı
Şam
sponsorluğunu
kültürler
opoulos
safha
Buyar
atına
Alsat
gemileri
öğrencilerine
0,1
Gru@@
Can@@
ombudsman
doğruladılar
th@@
Dusko
ilikle
maç@@
lı@@
erdiğinde
zirveden
gelişmelerden
inceliyor
çağrılarını
olaylarında
reddettiğini
site
Met@@
vekiller
lek@@
dinlemek
Sa@@
azın@@
Müz@@
mühendis
riç
je@@
geçtikten
canlandırılması
finalinde
Meglena
Kadınlar
yönetmelikler
kablolu
oluyorlar
barikatlar
yorumlan@@
malılar
ermesini
birisine
tamamlanmasının
yollarının
Ses@@
kimseyi
Girişim@@
kariyer
kaybediyor
başkan@@
kullandıkları
Vlastimir
Enformasyon
isim@@
gerçeklerin
gerçekleşmiş
kolektif
İddianameye
kaldık
5,7
fi@@
imaj
Profesörü
amatör
kurulduğunu
Bol@@
medeni
denetiminde
liberal@@
lin
dak@@
evlilik
agresif
gurbetçi
büyümesine
müşteriler
bulunmuştur
açıklayarak
Yargıtay
konmuş
yesi
Mirası
hast@@
fi
gayri
Today
teorik
tekel
aydınlar
değil@@
kategor@@
12.
varılıyor
tanıklar
isteme
bank
seferleri
biliyorlar
bölgelerini
gerginlikleri
atının
Kas@@
değerlendirmesine
270
udur
sorguluyor
gönderen
abileceğinden
analistlerinden
Terör
Osman
X
satılması
emediği
ortaklıklar
değiştiğini
gerçekleştirdikleri
çıkarılmış
memizi
sonuçlarından
yatak
tampon
Tsvetanov
Valentina
ellerine
dükkan@@
cinayetin
yaşanması
eğilimler
oluşum@@
NS
şüpheleniliyor
gelişmesini
varması
Türklere
ememesi
üydü
uygulanmasından
daralma
gücünde
istemek
gin@@
hizmet@@
bür@@
başlatması
6,3
borçlan@@
alüminyum
geçirebil@@
Tra@@
indirme
operatör
önemsiz
doğalgazını
raporlara
tanıtımı
düler
kimilerine
deniliyor
otoyolunun
tehditlere
korumakla
oynadıkları
bon@@
duyuyorlar
yarışını
gireceği
Oyunlarının
enlerden
olabileceğine
ıncaya
leriniz
kaldıracak
kılmak
gelirlerinde
tüketi@@
miktarını
köyde
hijyen
durak@@
beklentisi
partilerinden
sera
bildirgenin
Atom
bilinçlendirme
fiyat@@
Makedonija
lemeye
planlarından
yüzyıllardır
Ruslar
keli@@
bakılırsa
öldürülmüştü
desteklendi
arşiv@@
Verhagen
Prilep
devamının
mey@@
iddiasını
Patrick
olmayabilir
aşmak
Hazır@@
geldim
tutulduğu
kurulacağını
evden
kavram@@
milliyetçiler
Lawrence
Sağlığı
gu@@
hamlesi
tepkileri
tutuklanmasına
seçim@@
turnuvaya
yapmadan
yakalanarak
dul
test@@
öğretmenlerin
başsavc@@
uzak@@
Salonu
yönete@@
isimlerini
Ljubisa
başlatılmasının
tiriyor
Ringas
Vladan
Batiç
süreye
verebileceğini
hepten
prosedürlerini
ulus@@
emekliye
çevreci
260
fuarda
beyan@@
Silah
sıkılaştır@@
duygularını
mayacağız
hazırlıklarını
bildiği
sürme
atmayı
hapisteki
kök
mil@@
slalom
inceleyen
Pak@@
Nüfus
IBM
devirme
dağıtılması
genişletilmiş
organ@@
dıklarına
sürdürmesine
farklılıklarını
Javno.hr
yöne@@
Bilişim
bulunmadı
konum
RWE
hükümetlere
Gligorov
politikalara
bıraktığı
şaşırttı
avantajlı
Endeksinde
iyileştirmesi
erdiğini
kaybetmesine
iadesine
haliyle
trafiğini
leyici
ınıza
adığı
yükümlülük
4,2
gösterge
Yüz@@
Dan@@
jan
izleyeceğini
getiriyorlar
Elektronik
cisi
oran@@
komplo
oyunlar
BTC
ortaklarından
Foundation
doktorların
ayrıntılar
sergileri
Vuk@@
gütmeyen
isyancı
engellenmesi
şoförü
engelliler
eceğimizi
Yıldırım
manevra
alp
belediyelere
paraları
Maliki
medyasının
yasalarında
kalkanı
Jackson
kampanyaya
Vecernji
öğrenme
kaynağa
olacaktı
Sanayii
Koştunitza
görsel
santralini
kısıtlayıcı
geçirerek
Finci
Zbaniç
vergilendirme
modelinin
borçlanma
Diana
örgütlerden
Serbia
İsim
Ülkeleri
Davidoviç
Potok
Oyuncu
Hotel
Bujanovac
faturalarını
özelleştirmeden
işlev@@
ırdı
azını
vermez
iradesine
kuruluşunu
istifasının
fikrin
ilgiliydi
kilis@@
Naim
izinsiz
Pap@@
ısrarla
konacak
halklar
Vassilis
örgütlerine
zayıflat@@
kaçırılan
artırılmasına
mde
okumak
parç@@
sağlandığı
bildiril@@
uygulayan
çözülmesini
sorgulan@@
anlaşmalarına
gözlemc@@
fabrikasında
Pav@@
Pi@@
karma
adliye
patlamanın
kullanacağını
kaos
etleri
Homen
tutmayı
Gyurcsany
dahil-
ajans@@
beton
ecekti
sergile@@
sergilenecek
sırt
adır
tartıştı
yayınladılar
anlaşmazlığında
kros
radyoaktif
çalışacağına
melerle
uçaklarının
Boru
saygılarını
katledil@@
Yasa
kapsamına
İşverenler
zeytin
tiyle
tecek
sergil@@
san
Anton
İlki
kalp@@
Gök@@
nüfuzu
veriyoruz
çıkmasının
von
cileri
savcılara
hükümler
kavuşması
düşmanı
düşeni
dikkat@@
gelişmesine
kapatılan
çetesinin
Arnavutlarla
dereceye
sonlandır@@
kimliğinin
öldürüldüğünü
Moda
etkinliklerin
kardeşler
dans@@
EPP
mülk@@
bulunmaları
karşılaşması
Özgürlüğü
endiş@@
taslakta
göründü
çıkmazı
Nak@@
projesiyle
MTV
no@@
karşılaşma
gireceğini
devletlerinin
decek
yaklaştıkça
bağımsız@@
olmalıyız
aksa@@
Faruk
tanıklara
tehlikesiyle
adam@@
özellikleri
gerçekleşirken
kıtasını
kazand@@
sosyo
Şatosu
Georgieva
idaresindeki
etkilere
12,@@
istikrarsızlığın
yaralanan
bağımlılığı
olojik
bulunanlar
kullanılmış
Artan
iddialarının
kaldırması
sarı
Müşterek
ürünlere
yaşadığımız
mahal@@
uygulanmakta
kıta
toplamı
liderliği
protokolün
biri@@
sağlayamadı
yardımına
ilmesine
aileye
meyeceğim
seferinde
tavsiyeleri
cami@@
çekişmeler
payına
bildi
hazırladığını
adılar
uygulamaların
1963
Agrafiotis
görürken
salgını
biriyle
Dejanoviç
oğ@@
iltica
eb@@
bağlılıklarını
dedir
Gerhard
yedisi
başladık
etkisiyle
programından
çileri
18.
yayılması
Ni@@
Laszlo
milletvekillerinden
Ruli
seçimlerdeki
Djeliç
kurallarının
sınıflandır@@
ekleri
Plassnik
soruların
biç
210
Sınırsız
No@@
silin@@
saldırılardan
aydın@@
dene@@
seçecek
halkların
yalan@@
uçakla
altısı
yetkiler
desteklerken
cev@@
çeyrekte
dağılımı
Müslümanlara
aydı
engellediği
Ademi
müfettişleri
kariyeri
saf
iyor@@
taşıyordu
alıkoy@@
klerini
sınıfı
görevlendirdi
anılan
kazandırmak
Clock
Camp
ihtilafına
mühimmatın
yürüte@@
maalesef
meşgul
ılık@@
ildiğini
suçlanıyorlar
işlem@@
cilik
gerilim
rekabetçilik
yurtiçi
Elenovski
sembolü
akar@@
Lu@@
şirketini
sözleşmeler
ulmuş
silahsızlanma
U2
yangınlar
St@@
genişlet@@
gerçekleşmesine
istedim
öteye
Strauss
Sultan
havası
transit
diplomasisi
Küba
uranyum
oturuma
incelemek
vurgulanıyor
başarısının
Sighisoara
roman@@
duruşması
eğit@@
tip@@
çağırıyorlar
koltuk@@
lin@@
6,6
lidir
siyasetinin
çıları
sandalyeyle
yetkiliye
olasılıklarını
geliştirilen
polis@@
Aliç
br
anlamlı
tezgah@@
madalyayla
yakalanmasını
çıkarlara
sürelerinin
önceliklerinin
ulaşmaya
yükselmesi
kuruma
1981
lık@@
yarar@@
indi@@
muhalefette
asyonun
mutsuz
edebilmesi
toplantıların
Uka
akış@@
tüketicileri
sitesini
aşarak
Raznatoviç
mahkemeyi
Goati
tarihindeki
Kafkaslar
Drews
evini
İmza
fe@@
amaya
isteyenlerin
davetini
kalitede
kullanmasına
Majko
lerin@@
Time
oluşturmayı
çar@@
DA
ekonomiyle
suçlaması
3,1
çıkartma
yollara
sonuncu
birliğinden
semtinde
Şafak
Tr@@
hazırlıklara
gecelik
Twitter
Sullivan
akışını
Mayın
koşullardan
verdiğimiz
durduruldu
Most
Sü@@
Toronto
mevsimi
saniye
öykü@@
uyorlar
virüsü
Mutabakat
ortaokul
Jasenovac
diplomas@@
hesapları
Hasat
Merdare
Videanu
gerçekleşmedi
salar
cezalarına
izlenim
kaynaklandığı
başaramadı
okul@@
çalkantılı
misyonunda
hükümet@@
yapımında
Tutuk@@
Mirsad
kayıt@@
Edita
istlerin
vasıtasıyla
anlam
mücadele@@
harap
donanımlı
güneybatısındaki
silahlarını
dağılması
günlerinde
6,2
pazarını
mermer
raporlarında
profesyonellik
Abhazya
geçip
tetkik
şahıslara
vi@@
binayı
Hoti
yasağını
şampiyonluğu
ayrıldığını
şeridi
Nada
ularının
Avustralyalı
elik
nakliye
ulaşmayı
esasen
lev@@
ticaretinin
durulacak
ırkçı
planlamadığını
makam@@
Arasında
Hattı
girdiğinde
sağlanamadı
yargılanıyor
seyret@@
savlarını
kış@@
duyar@@
temsil@@
ula
verebilecek
portalı
yerlerinde
düğüne
ağırlık
Zivanoviç
okur@@
geciktir@@
entegrasyonunda
şayet
kasabasının
ular@@
konsorsiyumun
lenmesini
türde
Çöz@@
Milica
resi
kuruyor
Danilo
karşıtları
harita
ikler
Önce
başkaları
katılmadan
dağıttı
Sandra
seminerde
kale
kullanımında
ideoloj@@
muğlak
söyleme
şartın
hazırlamaya
gerekti
Miçiç
Diğer
sanırım
tamamına
madalyası
hükümleri
Gör@@
savaşlar
yukarıda
eylem@@
sıradışı
Le@@
w@@
tasarlanan
adayının
komiseri
Duvarı
mülklerin
lerince
Cal@@
Galerisinde
reklam@@
Albania
yazarların
6,4
neye
kaydede@@
yaşamayı
uydur@@
avantajlar
sanayiinin
uları
bakmaya
ifadelerini
sürük@@
yetersiz@@
iradesini
lığ@@
Lider@@
yakalayıp
sualtı
miktar@@
fik@@
çektiğini
bü@@
fakültesi
dönmesine
diş@@
özelleştirmeye
beraber
karakol@@
patla@@
huzursuzluk
topraklarına
birtakım
Ardian
gözünde
düklerini
yenleri
barış@@
saflarına
alışverişini
geçirdiler
bilg@@
yaptırımların
giç
kasabada
merkeze
iletti
görüşmeden
katılımc@@
denetiminin
yersiz
HRT
dönüştürül@@
sayılıyor
dağıtımını
çetenin
salı
Başsavcı
Moldovalı
Methodius
sent
devir@@
gin
geliştirilmesine
satıldı
Baltık
pazarlarda
sağlanamaması
ekonomilerinde
piyasaların
manastır
başlatıp
gündemdeki
söylese
ticaretini
salgın
Slavica
üyeliğiyle
maksimum
Bakü
sağlanmasının
süreceği
dinlen@@
orta@@
götü@@
dalgasının
milliyetçilerin
ola
başaran
ala
araçlarını
beşi
Başladı
Silvio
ilgilidir
zehir@@
hissesine
tepkisini
ümüzü
gelenek@@
Bize
edilemeyeceğini
iddiayı
motor
havaalanında
teklif@@
Gece
Strumica
puanlar
koyacak
gelmez
dınız
Glavas
kaçmak
ertelenen
mutlaka
disiplini
ap
Patrik
oluşturulacak
iktidar@@
memesinin
Go@@
seçimde
gan
ilde
Öğrenci
rollerinden
Popov
Mik@@
Van@@
geldikten
sağlayabileceğini
tamamlandığını
liklerin
Refah
üretme
enerjiye
Paravantes
davalarla
Dim@@
etkilemeyeceğini
Kocijanciç
konustu
Fer@@
liğinde
yası
kapılar
sevin@@
hazırlıkların
yargılanacak
düşürmek
kavuşturulması
sevdiği
abilirsiniz
geldikleri
izler
Buhler
görünümle
odaları
merkezlerinin
ust@@
şartının
uzaklıkta
vurarak
Proj@@
evo
nitelendir@@
ödenmesi
analistlerin
attıkları
dinleme
Slavko
Tolimir
yapımını
daima
kalifiye
pratikte
mevzuatını
krizler
gerekti@@
dikti
davranmaya
yapılarını
şarkılar
imleri
borçlar
kapatılmasına
dolaşan
Yak@@
mağara
destekley@@
ilginin
tamamlanacağını
lüğünü
Cin@@
sanki
Oy@@
hızlandıracağını
sordu
haklarından
Öncesi
bulunmaktadır
hedeflediğini
azaltılmasına
getirmekle
suçtan
açıklanacak
tüm@@
etmişlerdi
projeden
gösteriye
isteyecek
Ch@@
yönetmeliklerine
hücre
bilinç@@
ederim
Fran@@
Telegrafi
iller
Kö@@
masrafları
referandumla
Pancevo
mercii
gitmesine
Kişiler
sürdürmeleri
değin@@
değişmedi
Dacia
uygulamakta
Yolu
dairesine
yatırımcının
Jagodina
anayasasını
gönderdiler
Tom
şarkıları
aranıyor
Cheney
tığından
4,1
dengesi
Kraliyet
alınırken
imzalam@@
Niko
lendir@@
başını
modern@@
pasif
bazlı
istemediği
Mrksiç
masada
Yasasını
göndereceğini
Brod
0,3
çıkarıp
Malezya
siteleri
Banya
Vuciniç
Sınır@@
tutuklay@@
gereklidir
kavuşacak
onayladığını
Suçla
bulunduran
Kalkandelen
işlere
konut@@
etti@@
000
umuyorlar
resim@@
Mad@@
getireceğine
cumhuriyetleri
durdurmaya
yemekler
getirilmiş
paralar
çevreler
TİRAN
Moon
teklifçi
kullanıp
aklamayla
terminali
mezken
sayf@@
ormanlık
parmak
yasalarıyla
getirilmesinin
lerinizi
Danışmanı
değişikliğini
piyasalarında
şiş@@
alardaki
mahkemelerinde
Kırgızistan
başlarındaki
Slav
akciğer
Stanishev
9,@@
zedele@@
toplantılara
edeki
şüphesi
selam@@
ulaşmanın
kulübün
otel@@
ili@@
Kılıçdaroğlu
yegane
danışman@@
5,9
belirleniyor
diaspora
iliğe
milliyetçilik
çevirmen
-bir
Star
Müsteşar
Stefanovski
Science
artırıp
restorasyonu
Ristiç
kayıtsız
Osmanagiç
uğu
kavramı
patron@@
Taseva
gerçeğin
üğü
katılım@@
kaybol@@
kadarının
tekrarladı
ücretlerinin
firmalarını
ücretlerin
duruşmaya
değerlerine
gor@@
avuç
mac@@
getirmiştir
kötü@@
katlan@@
usul@@
kaybedecek
kazılarda
kaplı
tiğinde
ihtilaftan
eller
Eurobarometer
yatırımla
Marc
Ri@@
Taner
pla@@
paketin
kurtulan
taziyelerini
zafere
değiştirildi
lamayı
ebilmek
yayınlaması
abildiğini
istiyorsak
yükümlülüğünü
kitaplar
graf@@
larıdır
mitingde
normal@@
ittifakı
akoviç
final@@
önceliğinin
Gr@@
tavsiyelerini
arlar
kararlıdır
enko
tona
cinayetle
malzemeleri
yayınlayacağı
kadastro
eyleminin
ıyorsunuz
yapmalı
Borisova
ümü
hisseye
ner
Adaları
birşey
Tam
kanıtıdır
imle
soprano
Koreli
Mülteciler
edinilen
Drutsas
havalimanlarını
uğraşmak
lek
toprak@@
mahkumlar
dak
hâ@@
nite@@
madalyasını
Stockholm
Öner@@
kapsamı
denetleyecek
çerçev@@
bölümüne
barındırıyor
Sav@@
Arnavut@@
bugünse
tarak
ılıktan
çıkarların
sicil
edinmek
dönemlerinde
seminer
varma
anal@@
White
söylemeye
tekrarlan@@
Son@@
Weekly
yollarla
işadamlarının
2.000
In
zorlanıyor
Vijesti
puanlık
güçlendirmesi
oku@@
gezisine
çete@@
org@@
Bahreyn
akrabalarının
olasılığından
azalarak
olmamasından
vardığı
çevreyle
çekin@@
takımına
devre@@
öngör@@
haftalarca
yaşıyordu
çoğ@@
inandığı
ikilik
ılarda
küçümse@@
Bakanlığına
doğrulayan
çevrilmiş
yaklaşımını
onadı
Jutarnji
söyleyecek
iradenin
inancı
şüphelen@@
Brasov
odaklanmaya
Agerpres
anketi
117
karayolunun
yapılabilecek
kanalına
tamamlanan
ilerlediği
Emirlikleri
çekişme
gayrıresmi
bölgeyle
yolsuzluklar
ekonomilerde
altın@@
uğrattı
oyun@@
Virgil
bulunmasının
istikrarsızlığa
yavaş@@
bölünmeye
tanımış
ırlar
Bükreşli
taksit@@
Albanian
helikopter@@
Darik
etkilemeye
Körfezi
firmalara
devretti
savunduğu
Dünyanın
süreçten
tasarruf@@
hamile
receği
kazanırsa
virüs
dönüşümü
algılanan
getirecektir
Bode
kitlesel
başlangıcında
faaliyetlerinden
ent
yüksek@@
10.000
tatili
iğ@@
kampta
dadır
tartışmalarda
proj@@
olarka
ilkelere
sürmesini
koltuk
bastırıyor
çarptırdı
Sey@@
besle@@
tük@@
endeks
ulmasına
sürdürülmesini
Partizan
şirketlerden
ziyaretleri
Net
adımlarla
Teknolojileri
görmüyorum
temelde
önyargı
miyordu
edilmeden
toplumlarını
üğe
memektedir
suçunu
tatbikatlar
konularının
eklenmesi
go@@
İon
şeklini
işsizliği
etkileyeceği
Kürtlere
sızlık
izlemesi
yazılmış
ertelenmesini
lan
duk
kuzeydoğusunda
Ivaniç
Niksiç
süz
şirketten
La@@
Belir@@
pasaportu
sakini
iyorlardı
duruşmasında
yaşamının
De
Ahmed
yarışta
Corner
programların
bağışladı
ati
ulardan
Kedev
mantıksız
modelini
maddeyi
döndüğünü
reaktör@@
yükseklikte
kiral@@
Ho@@
siyasetçileri
devri@@
gösterime
ino
verenler
bun@@
Hazır
anlığı
bunca
lanmasını
olduklarından
konseyin
harcamaların
ettiğinde
eki
Tanoviç
bazılarında
bulmuş
9,2
Prvoslav
Nor@@
Srna
sponsorluğundaki
ermesine
ciden
Tah@@
olayıyla
yim
yonu
çalışanın
başvurusunun
yaya
koltuğunu
açılıyor
bölümleri
barın@@
sınavı
Tayland
çıkanlar
büyümesini
geçirmede
kurgu
Hırvatça
Boucher
listeleri
tolerans
yönlendir@@
alınmadığı
tavuk
formül@@
Atomstroyexport
yorumu
mad@@
Kre@@
şebek@@
ARMO
Voyislav
önümüzde
Teslim
yardımların
Denkova
Staviski
Doha
Temsilcinin
Karargâhı
oturdu
düşmüş
Hans
Ödülleri
sözleşmesini
uçuşa
finansman@@
pazarları
engelle
Kastrati
DVD
Ram@@
öldürme
faturaları
gösterilerin
haftalardır
Zvecan
kesimini
Almunia
endüstriyel
görevimiz
yapabilir
edenlere
siyon
mekan@@
geliştirmeyi
ihalesinde
Hac@@
inde@@
görüşen
ea
numara
milyonu
merkezlerine
ömürlü
kaybolan
çimento
Schüssel
anlaşmazlığıyla
Grabar
Kitaroviç
Fin
yapısına
Famagusta
projelerde
gelmeyi
enstitü
Sat@@
yeter@@
indiri@@
acaklardır
Ok@@
eta
saf@@
dönmüş
şiddetten
geçirdiğini
motor@@
dıklarında
UDMR
an-
Batıya
olog
heykelin
kalkınmasını
sakin@@
anıt@@
olanaklar
mezunu
vizyon@@
birleştirecek
haldeki
Angelopoulos
tepe
yalılar
cel@@
Haiti
kazanç@@
yargıçların
Kuçi
Güçlü
öv@@
Demiryolları
LAOS
Mübarek
tarl@@
iftar
yerinin
Selimoviç
yangın@@
Bondsteel
BIA
gümrüksüz
paralı
yasaklıyor
Bin@@
u-
SFF
Hazine
Chiarini
Munk
ayrımcılığın
mamaktadır
televizyonunun
Lagumciya
dolaşıyor
kayır@@
birleşiyor
davranıyor
ılmalı
süreçlerinin
infaz@@
ğiyle
baskın@@
yetersizliğinden
Mimoza
yetkiye
aktiv@@
teme@@
yetkin@@
makineli
Ortak@@
isteme@@
özgürlüğün
topla@@
sektörlerindeki
çeteleri
çağ@@
sergilediler
misilleme
yoksulluğun
sürdürürken
Din@@
Dil@@
kamyon@@
koalisyonundan
tanımı
tanımlıyor
yara
elebaşı
saran
yenlere
gündemindeki
He@@
önünün
nica
ığa
şüphelerini
uyorum
ahlak
adaylarını
iç-
hazin@@
koşullarına
ğinde
multimedya
taklit
önemde
dokunulmazlığını
genişleten
Siyufas
öldürülmesinden
beraberindeki
asılsız
Savcı
Demir@@
Kul@@
ısından
barikat
vereceğine
BT
ısrar@@
sağlarken
bilmediğini
iliğini
bankalardan
ces@@
modası
doğalgazı
Rodriguez
yurda
Sen@@
ner@@
hudut
görüşülecek
tavır@@
ilerlerken
sayıca
AB@@
Sorun@@
mağdurları
demokratikleş@@
adaleti
seçtiği
uzu
gruplarla
netleş@@
yakınlaşma
yönetim@@
işlevi
Bala
Lejyon
piyasalarına
kasabasına
bırakmış
satarak
çiftin
sında
kanıtların
5.000
arındır@@
pasaportların
incisi
beldesinde
metni
dairelerinin
izleyici
indeydi
odaklanıyor
üstlenmesi
misyonları
Anatolian
devletle
kime
itsa
görüle@@
sunmuş
Reformları
yanıtta
özgürlükleri
ano
direktör@@
osuna
yuv@@
vermediği
Economist
ıcılar
yıkılması
Burkay
Voyvodinalı
göstereceği
yıkım
müdür@@
bağla@@
şikayetçi
gruplarından
dine
kınam@@
mazeret
batısında
dönüştü@@
merkezden
dis@@
ologlar
Gaz@@
kısalt@@
18,@@
Üyeliği
gizle@@
düzeltme
alınmasıyla
yıkıldı
bağı
becerisine
meslektaşlarıyla
genişletmeyi
kiralama
kaydetmiş
güçlendirmenin
unuz
kaldıktan
Oprea
dönecek
peynir
hayvan@@
etk@@
imparator@@
sına
Dubai
değişimler
oluşum
amac@@
edilene
ertelenmesine
vermeyeceğiz
türleri
seviyelerine
Bab@@
Associated
savunucusu
düşecek
eylemlere
pekiş@@
kullanıcılarının
çıktığında
polislik
aşamaya
oski
öğrencilerinin
karşıl@@
madır
durması
ezeli
Kırmızı
döndüler
dizisi
Hüküme@@
Reform@@
tanış@@
dosy@@
davasına
işlemlerinin
sert@@
Ljupco
ettirmek
mes@@
sözlerin
kayboldu
Cecilia
Cam@@
ortaçağdan
Rauf
reformlarına
Dağ@@
yayılmış
sınırla@@
açıklamasının
Al
dilekç@@
grevine
Sanatları
tenor
kalesi
destekler
lağv@@
tanımamış
kutluyorlar
tutumlar
suçlamalarda
psikolog
felsefe
gelecekleri
Gre@@
balık@@
cinayetlerin
IT
yapımcı
Utrinski
zihniyet@@
hakk@@
sandaly@@
olanı
bitmiş
kayba
bakımı
gidiyorlar
müzakereciler
aylıklarını
kurtuldu
Pen@@
cul@@
4,7
Buraya
kanıtlara
ülmesi
başarısızlık
leştirilmesi
lılığı
lığında
ulaşmada
huzurlu
Sok@@
iddi@@
yüzü
yebilecek
taşıdı
sloganlar
benzer@@
köyündeki
1200
tamamlanmasına
pasaportları
eri@@
İlker
düşüncesi
Akademi
birinc@@
partiyle
Cikotiç
Elbasan
defter@@
yarışına
yarışın
ade@@
safhasını
konserle
Guinness
sevgi
aldım
elleri
bakır
ayrıcal@@
ağırlığını
Can
konuğu
mleri
birimini
red
yaklaşım@@
ane
Hayır
diyalog@@
prosedürlerin
kulübünün
set
köyün
plaj@@
dem@@
Olimpiyatlarda
işç@@
Basketbol
rekoru
pe@@
Credit
satışların
satışına
yasaklı
büyükelçiler
çağrılara
maaşlara
sağlayamadılar
onda
sorumluluk@@
6.@@
liste@@
hizmetlere
gelişigüzel
Üç
yüklen@@
gidebil@@
belirsiz@@
saldırılarında
gezen
soyledi
dilinin
fa
güçlendireceğini
seler
cin@@
atıcı
yaratacaktır
sayılan
Popova
Bulgar@@
göstermelidir
kayıplara
Anlaşmasında
mıyorlar
Hays
yanıtları
alıcılar
Wilson
geliyordu
Edward
Komut@@
suyun
isteğini
şoför@@
bilme@@
listelerinin
kaçındı
aradığını
laştırma
etmeyecek
karşılaşıyor
törler
Lukalı
silahsız
Tartış@@
sağlayama@@
Ovcara
Uyum
numar@@
Smederevo
etkileniyor
izden
komutanları
şehir@@
huzur
Stojanoviç
Zanl@@
Wood
Ka@@
Louis
isimlerden
hissedarı
suçluyorlar
simgeleyen
sahaları
santraller
ıyorsa
bozma
UN
başlayabilir
güreş@@
çabalarıyla
birlikler
düşünmüyor
Telenor
edeme@@
Mobilkom
bulaşmış
çeşitlendir@@
1945
if
Kır@@
stok@@
Duşan
parlamentosundaki
Ven@@
açılmasıyla
330
ımında
Musa
çıkmasından
Club
peşine
ilişkiyi
iyileştirecek
bulmayı
operasyonların
artış@@
Dimitri
bayram@@
eylemlerde
Münih
sözlere
önergeyi
yıllara
acemi
dergi
büyüdü
hastalara
Franz
noktalar
denetlemek
konsolidasyon
faaliyette
reformlarında
Bruno
yıkıl@@
Egmont
karşılaşılan
Stara
rafiner@@
Agos
tanıtma
Filibe
tren@@
gecikmenin
şebekesinin
line
tarihçiler
Kanal
Veliko
Norac
sürücüler
HDI
satıyor
destekç@@
Uzlaşma
sonuç@@
acağ@@
bölünmesine
üye@@
çalıştık
1982
şekillerde
öncü
rek@@
kurula@@
otorite
zayıfla@@
aittir
ziyaretler
katılmıştı
temaslar
geçebil@@
Bankasından
işlemlerin
seviyorum
olunca
hesaplarını
söylem@@
ins@@
akları
zararın
katılacaklar
ou@@
başarılarından
anına
bask@@
konuşmasına
laikliği
bombanın
kent@@
caydır@@
kad@@
eşcinsel
merkezinden
Eş@@
göstericileri
fabrikasını
Doğal
Gaz
Aj@@
doğum@@
kiralık
fırlat@@
partilerine
icat
kural@@
dallarında
asyonunun
Önce@@
açıklamalarını
Konseyine
vatandaşlığına
Boğazı
tar
çiçek
hattın
koşulan
döküldü
sineması
yarışmasına
Den
brifing
faaliyetleriyle
izlenimi
üzüm
düzenin
diklerine
Ekibi
kontrolsüz
firmaya
savundular
otoyolu
sağlamakta
üyeliğinde
yöneticiler
rakam@@
ödeye@@
ailelerini
ekonomiden
doğru@@
planlanıyordu
To@@
Luis
elinin
besliyor
Jo@@
Life
Edmond
uyan
kullanıcısı
geçmişle
Müslümanları
5,1
yasalarda
arzu
alınma
lanmasına
puanıyla
bahsediliyor
çeşitlilikte
oluşturarak
Arnavutluğun
sınırlandır@@
konus@@
ihtilaf@@
Bora
geçimini
oranlarında
kariyer@@
oranındaki
meyip
Yalnızca
haberin
totaliter
aşır@@
yoksul@@
başard@@
oynanacak
çılık
Ian
tehdidiyle
sun
göçmenleri
çokuluslu
abilme
iktidardan
med@@
Brian
özgürlükler
feder@@
tayin
yerlerinin
aka
ot
SE@@
cumhurbaşkanlığını
köylerde
sellerin
maliyetlerinin
ruhunu
tasarıya
bilmiyor
takın@@
şah@@
havalimanı
müşterileri
alacağına
oluşuyordu
gesi
katk@@
dinarın
liklerinden
Kov@@
yapmalarına
Böyle
telefonları
hücum
maliyetini
yapılmadan
bağımsızlıklarını
şemsiyesi
diy@@
düzenlemesinin
statüye
tekne
pomp@@
Konfederasyonu
maaşların
ekipler
Has@@
person@@
dam@@
daralt@@
Velçev
uygulamakla
fonun
Blagojeviç
uygulamalarını
madalyanın
ortaklığın
istemesi
biletleri
müşterilere
zan@@
istemektedir
Arınç
ılmalıdır
depremin
saat@@
bozdu
dizgin@@
şirkette
mültecinin
terek
imajının
Azeri
kesildi
aşağ@@
belirlenmesini
paya
dondurma
tedbirlerle
Sp@@
çoğuna
nehri
önceleri
Savaş@@
kazanacağı
sanız
kaydedilmiş
Üçüncü
bulmada
daire@@
Feder@@
imine
geçer@@
transfer
Pe@@
19@@
Kab@@
mahkemelerinin
ordusunu
kanalının
yitir@@
Kruşevo
yaptıklarından
kapısına
edecekleri
temasları
haritasını
birimine
Moldavya
ılabilmesi
Anagnostopulos
kaş@@
mücadelesine
misyona
Fas
rakamlarına
konuklar
St
leşmiş
Kryeziu
Cez@@
gördüler
göğüs@@
en-
atta
sik@@
fahri
Joviceviç
toplumdaki
çizerek
meseleyle
merkeziyetin
semtindeki
Merkez@@
algıla@@
rayından
ılarında
safhasının
yönetmek
vatanseverlik
dayken
düzelt@@
tepeden
gergin@@
biber
tahrip
mek@@
edilir
üyü
pakette
kullanıc@@
meclisinde
aleyhine
ayacak
OTP
usundaki
yo@@
oluşmasına
ide@@
ettiğim
aydınlat@@
atik
eğlen@@
yaşı
yürütmek
sıralarda
tanımıyor
maskeli
vb.
talihsiz
üçünün
ret@@
dey@@
RAE
sonrasına
kitle@@
olamadı
tirmek
Lo@@
rehber@@
madığının
tamamladığını
gözetim
duyuluyor
Nik@@
Slav@@
itirazda
damg@@
çekilmiş
İttifakla
konuşmaya
cennet
suikastının
ilerletmeyi
deneyime
ibadet
Kilis@@
santrallerin
radyosuna
kamuoyunu
feth@@
Srbije
Ham@@
Yaşam
Novo
aldır@@
katılmadı
Mis@@
Ovidiu
Onayladı
geti@@
toplulukların
Hartmann
oylamasından
örgütlenmiş
turizme
ku
protokol@@
şerefine
Kolordusu
rekorunu
Pec
hissettiğini
kazılar
zihinsel
üreticilerinin
arttır@@
rahatsızlık
göçmenlere
belediyesine
bölünmesinin
katıla@@
Savcılık
yabancılara
kemik
ihalede
Sir@@
7,@@
sıralarında
vakalarının
mekanizmalarının
genel@@
düzenlemekle
280
İşletme
lendiğini
Dans
İklim
uzattı
müştür
çağırdığı
şansları
anlamsız
anlatmak
kuruluşlarında
görevlere
açmasına
dür@@
halter
aktardı
lıydı
Üst
önergesi
sunulmuş
değişikliklerde
Grubunun
kütüphane
yükseliyor
kitapta
Eserleri
Hedef@@
Zvornik
garip
ister@@
145
büyükelçilik@@
araştırmaları
nominal
kulüp@@
geçirmenin
sanat@@
diyorlar
odak@@
yenilgiyi
ziy@@
teknolojiler
savcılığa
ısıt@@
izleri
yapabilecek
çalan
onurlandır@@
yolla
aştığını
almasıyla
korkut@@
isminin
gösterilere
diğerlerini
NET
Svetlana
sorusunu
soykırımı
tezahür@@
kuşatması
kurdukları
Xavier
imzalandığı
Pa@@
temas@@
yaralanmıştı
sağlamaktır
göl
müdürünün
almıştır
Yarımadası
müdahaleye
olmadığında
Yüzbaşı
örtbas
istasyon@@
uzatılmasını
reisi
mısır
zamanındaki
imzalayacak
aşamalı
Trajkovski
övdü
diyaloga
güvenilirliğini
itirazlarına
kalacağız
vermelerini
bahse@@
SIPA
Endeksi
temel@@
stratejiye
kısaca
sorusu
açıklanmadı
başbakanlığa
Doris
ch
sözleşmeleri
hamle@@
Blaga
serbestliği
operasyonlarında
tercih@@
kavuşturmak
ürse
aciç
ders@@
öfke
uygulanabilir
Geoffrey
yansı@@
müfredat
Bulma
kıtanın
sürdürmeyi
mezun@@
Pardew
komisyona
likidite
aylıklarına
Albtelecom
ACTA
ulduğu
balistik
Galicnik
bozucu
ers
tıkan@@
olduklarının
Lupu
boyut@@
PUR
bulgu
kutlamalara
inkâr
uyandır@@
Guca
diğimi
şampiyonluğunu
rejim@@
önerilerin
harcamayı
Akrepler
transfer@@
fırsatına
şikayetler
satıştan
garantisi
liyordu
güvenceler
ettirmeye
zorluklara
Doğru
çıkarılıyor
şartlarla
lesi
tehdidini
mis@@
diyalogda
gemilerin
suçlamalarına
ilkelerinin
farklılıklara
zora
lemesi
17.
kültür@@
girmesiyle
açar
Vaclav
Em@@
Jokiç
Boskoviç
ferdi
şen@@
til@@
teşkilatından
diklerinde
patlayan
belirlemeye
ziyaretç@@
eylemciler
Cox
kuruluş@@
işlet@@
yapmadığı
anıldı
duygu
mevcuttur
turnesi
Akropolis
yapılara
ard@@
dökü@@
medim
inceleyecek
eskiye
gelebil@@
işlek
iyelik
parmaklıklar
berg
fayd@@
Rajko
ılabileceğini
Kad@@
kurduğunu
özerkliği
Tzvetina
stratejisinde
satışıyla
Ah@@
olduğ@@
Dört
Knezeviç
imzaladığını
deyse
aşk
Ticari
kralı
generalleri
istikrarının
korunmasının
toplumundan
kapıyı
tamamlamaya
dolaşımını
ülkelerimiz
gerçekleştirmesi
çıkmasıyla
yöntemler
sunum@@
Adım
çalışmasında
planlıyoruz
arının
ınızın
ânda
amazsınız
UNODC
pazarlarını
emiz
Seçimleri
leyeceğini
layıcı
gazetecilerle
dikkatleri
yönetmen@@
ırsak
tezat
öneren
tanığı
sergilenen
por@@
ürete@@
ıldığında
diğerlerinden
udan
kargaşaya
inizin
cemaat
Musevi
okun@@
abileceğ@@
çözmeyi
katılımcının
izleyiciler
mesajını
asyonları
seçilmesinin
toplant@@
açısına
zemini
çekilmek
kongrede
çalışıyorum
cilerin
meyecekleri
suçlanmıştı
akrab@@
tartışıyorlar
tanımayacağını
üldü
les@@
noktalarda
dahilindeki
duruşmalar
ılacaktır
ordusuna
edilmeye
av
pazardaki
101
12,5
elek@@
süreçteki
Mag@@
Mut@@
reddetme
insanlardan
artmış
Vel@@
bıraktılar
kavram
126
eğilimin
beklemediğini
yüzdesi
bölünmesini
arabuluculuğunda
endeksli
uç
macı
açıldığını
açtığına
belirtildiği
enfeksiyon@@
cihazı
keşfettiler
erişimine
küreselleşmenin
dengele@@
şekillendir@@
siyasetç@@
risk@@
ıldıktan
donanma
Büyük@@
mücadeleyle
ihlal@@
ızın
kurumlarındaki
piyasadaki
tezahürat
meydanında
Dragnea
yaralanmasına
mamasından
üsleri
eurodan
çiftlik
dün
yaralı
tanımadığı
leştirdi
çözülmesinin
uygulayacak
baharında
kuzeydoğu
Tugayı
imtiyaz@@
larımızdan
olmayanlar
Gül@@
ceğini
ortama
yansıtacak
Sonuç@@
seviyesindeki
ste@@
modeline
dönüşüm@@
Plovdiv
Çelenk
bahsedil@@
Hepimiz
destekleyerek
dos@@
çarpış@@
memnunuz
Brnjak
gelenin
belirtmesine
havaalanına
hi
ATİNA
vermesiyle
pas
referandumlarda
Stefanopulos
Olimpiyatlarında
tehditlerin
Akım
akan
karşılığı
dinsel
oğlunun
işletmec@@
kimya
katılabilmek
toplamayı
sekteye
Bronz
başkalarına
Jasna
bağışçılar
skandallar
çözmenin
kullandılar
cumhuriyetlerinin
kınayarak
EBU
lıdır
beklenebilir
oluşması
teknolojinin
IAEA
Vesnik
Komitesinin
algı@@
Pavloviç
kardeş
üle@@
kavramını
dağıtma
dışından
ücret@@
şanslı
hediyeler
Müftü
cemaatinin
faslı
dağıtıldı
benzeyen
seçen
koalisyonunu
mahkumların
Bosanski
ittifak@@
başlıkları
devam@@
görülebilir
faaliyeti
beraat@@
rotasını
biçimleri
personeline
içerdiği
Lehtinen
görüntü@@
larım
taksi@@
bütünleşmesi
zamanki
Fatlum
Gasparoviç
İler@@
gazisi
düz@@
recek
benden
talep@@
ruh@@
yandaşı
talebine
subaylar
patlamamış
suçla@@
Croatia
sözleş@@
konulan
kutlanıyor
ortaklarıyla
Bandiç
boyutlu
Adam
şirketinden
115
Akşamları
uzanacak
aktörler
katıldığında
abildiği
konsere
Uygula@@
vizesi
ılmadan
üniter
yönet@@
oylamasıyla
yüzleşmek
müvekkilinin
alışılmadık
kendiliğinden
sorumlularının
Yöneticisi
menler
geçenlerde
ton@@
turizmini
ing
konvansiyonel
Ste@@
sokacak
yapacaktır
elektriğin
İk@@
Momir
Srebrenika
edilmeleri
müşterilerin
apartman
söyleyebiliriz
Krajinalı
düzeninin
Pentagon
Bakanları
teşkilatına
eğitmek
sahaya
umun
çıkmada
bölündü
keti
barajının
düşük@@
bıkmış
Hintli
Raf@@
Festivaline
ziyaretçileri
ceviç
giderse
fotoğrafçı
Festival
gerçekleştiriliyor
sınırlarında
yapılmaması
örtüş@@
dikenli
Hakkında
ıncı
Radoviç
Radyosuna
Muharrem
kazanacağını
terörizme
7,4
testler
Göster@@
io
etkilendiğini
ekip@@
nokt@@
Mercedes
gördüm
eğiti@@
etkinliğini
anmış
idar@@
Milen
diploması
artırıldı
kayıtları
kaçakları
istemesine
gördüğ@@
çerçevesindeki
Cernavoda
ncu
Dayanışma
vade@@
imajına
bankac@@
başardık
gelmediği
zulümlerde
çıkışı
tahmin@@
matik
baz
müzaker@@
milletvekil@@
yitirdi
Mevlana
süs@@
müdürlük
yerleştirdi
açıklarken
teklifler
şehrinde
5,6
kaydetmesine
milletvekiline
AN@@
avantajı
Ioan
ambargo
ayrılıyor
7,6
çağrılar
saklandığını
yaşananlar
araştırmanın
Bana
düzeyini
planıyla
BBB
Afrim
Stanisiç
adım@@
görülmektedir
isindeki
müddetçe
bildiriye
nitelendiriliyor
Korca
ellerini
FYROM
yürürlükteki
vaatler
11@@
mar
yaptıktan
aracın
antrenman
yapılmadığı
Jack
öngörüsünde
gelene
ICJ
sesini
Reeker
materyal@@
içerecek
Po@@
yardımlarıyla
matematik
Klinik
harekât
anl@@
noktalarından
seçimlerindeki
müfettiş@@
batıdaki
durmaya
azaltıyor
teletıp
Program@@
Misceviç
dolup
döndürme
neo
Massari
NEK
Williamson
ithalatını
binaya
sokakları
rak
başkentteki
Micunoviç
vurul@@
ulara
idis
salon@@
iyorsunuz
ben@@
sınıf@@
Havel
hükümdar@@
Banca
müfred@@
V
geçirilmesinin
operatörleri
Valisi
Pavlevski
sitede
Veselinoviç
ilan@@
sürdürebil@@
personele
kabullen@@
ğinden
mevzuat
Seb
abilirdi
aceleye
göstergesidir
görüşlerine
hedeflerinden
çözecek
çıkmadan
anlaşmaz@@
doğrula@@
çizg@@
vazgeçmek
seferi
del@@
osunun
uygulanmasıyla
uygun@@
kesmek
füz@@
oturumuna
olmamasını
izlemeleri
escu
eksikliğini
girdiler
lıklara
ayrılıp
zamanları
bürosunun
vergisiz
ağırlıklı
Bla@@
toplanmış
göstericilerin
toplanarak
abileceğimizi
cesaretini
yardımcılarından
patlamadan
Devrimci
Portekizli
verirse
iptali
Onur
fabrikayı
rolleri
serg@@
Sti@@
davranışı
bel
görüntü
sağdan
programıyla
gitarist
gösteriyi
taşındı
yerleştiril@@
dağıtılan
tirilmesi
Dönem
Vancouver
çalışacağı
kadınlardan
kariyerini
şarkısıyla
andılar
Balesi
vide@@
amama
maçları
misyonlara
eylemlerle
umduklarını
lüğün
kontrollü
verilmeyecek
İste@@
girişimciler
Başta
olduğum
açısını
ikinc@@
noktadan
Vlade
hissedar@@
Almanlar
paylaşmak
girişimlerde
liğidir
sürmüştü
ayarla@@
Dön@@
Bey@@
receğini
dr@@
FOCUS
dıkça
getirilmesinde
gelecekle
Anayasal
siyasetine
görevlerin
onaylanmasının
soygun
istikrar@@
Kayak
çaldı
kalkan
istişare
fikirlere
mayacağım
lecek
rejime
temize
iddialarından
Seyahat
bilerek
tarz
parlamentosuna
zamanlaması
ep@@
yayıncı
zincirinin
boy
ed
forumu
buralarda
müdahalenin
üretici
uğray@@
arına
Gö@@
ölenlerin
Deliç
meyvelerini
bol@@
öncesinden
işlerinden
eşitsiz@@
Karadağlıların
fak@@
olgunlaş@@
arenada
edindiği
deneyimleri
ya-
bağımsızlığıyla
ayrılmaya
inler
fos@@
listesinden
ithalatın
saldırılarından
eylemleriyle
La
sporcuların
satranç
duruşmaları
oturum@@
ırklar
bahçesi
yavaşla@@
manzar@@
İsti@@
ars@@
binada
simgeliyor
odası
tepk@@
gerektirdiğini
çetesi
tikleri
haneli
Amerikalılar
tanıttı
175
belirliyor
karmaşık@@
eylemci
1988
yargıda
manların
büyükelçisini
indiril@@
enerek
geminin
tahmininde
ikramiy@@
kasabasından
açıklamak
görülecek
artırılmasının
Telekomünikasyon
102
Hentbol
müş@@
sistem@@
netlik
organizatörleri
gönderilmiş
Tarihi
Bülent
sicili
topraklarını
üyse
kontrolden
ayırmak
politikaya
mayıp
yönetmelik
terminal@@
başkente
Adria
Bogoljub
Ail@@
lıklarla
statünün
bot@@
bayramı
karşılanmasına
geçmişiyle
dağılmasından
rehabilitasyon
çalışanının
vadesi
düzenlemesini
gazileri
Rek@@
destekçilerinden
yuvası
hırsız@@
operatör@@
varlığın
asyonunu
sahnesine
fiyatlarla
sürdüreceğine
16@@
atanacak
ziyaret@@
değişken
ihmal@@
Bilyana
sanatı
orman@@
aşam@@
receğine
güvenlikten
ödeyen
çekilecek
gol@@
tamamıyla
başardılar
garanti@@
ayrılmasının
lerek
sokmaya
elektriğe
gerçekleşti@@
avantajları
yasakladı
ruh
gerçekleştireceği
hatlarını
girilen
Bizi
cular
çalışanlarını
iyiliği
makamlarından
çatı
Tüz@@
örgütten
ilerimiz
olmas@@
karışık@@
tikten
rim
omuz@@
Öz
mültecilere
egemenliğine
zorundadır
gorus@@
götürmek
batık
anahtar@@
çabal@@
tsunami
kurmakla
çalışacaklar
otellerin
cezasıyla
Waldner
ırksal
dövül@@
çekecek
programlara
bilginin
komşular@@
aldat@@
hakem@@
ımızla
ürettiği
sanatının
gelmesiyle
statükonun
sonuçlarıyla
IKEA
sakinlerinin
dilen@@
maddeye
kullanılacağını
unsur@@
doğuya
Borrell
ifadelerine
teydi
gidişatını
indirildi
İlişkileri
Herceg
yatırımlarda
ayrılırken
Ce@@
ileriki
tutar@@
kökeni
Lord
karşıt@@
imini
oto@@
standardını
erdikten
Diaconescu
kriziyle
okulunun
1971
yıkılmasından
Bursa
kanıtlıyor
belirsizliğe
etkinliklerde
bizleri
bölgelerden
Mc@@
ayarak
Sollaku
Kiev
kusursuz
incelenen
Vize
rotaları
sunulacağını
seçimini
böylesine
Güven
edilebileceği
durumlara
atacağını
gereksin@@
ian
prosedürlerinin
performansına
onaylanmasına
bahseden
öyküsü
güneydoğuda
başbakanlar
kapatılmasını
imzalamıştı
santralının
animasyon
Bankacılık
kapatarak
minimum
ekonomideki
bularak
gazetelerinden
duyduklarını
denetim@@
maktaydı
kalem@@
ılığıyla
yasallığı
yayıncılık
9,9
340
odaklanmak
motive
ler-
ib@@
seçmesi
kızlar
savunması
Vecdi
felaketin
organik
şişe
şarkıcısı
artıştan
Deniz@@
düşünüldüğünde
kabinesine
lar-
Kuş@@
dönüşünde
Çetin
ICMP
Jeffrey
edilmeyi
öngörülüyordu
Taliban
işbirlik@@
edilmediğini
anlamında
tutuklanmasından
göreceği
Köylü
eklenen
yapabileceği
endeks@@
teklifte
kontr@@
yatırımc@@
güc@@
refaha
gerekiyorsa
luklar
ülerek
Madencilik
verecekleri
yerleştirilmiş
geneline
Kent@@
adasındaki
köyleri
Bale
Sim@@
cephe
Konkordiya
1950
kuruluşlara
dışla@@
meyeceğiz
önerge
bakanlıkların
atıldığını
işletilen
mahkemeden
Westerwelle
İsmet
Boy@@
gala
sürdürmenin
0,7
ağlarını
sonuçtan
maliyesi
yaptığım
çelenk
ayırdığı
sürdürülebilirlik
Seçim@@
örgütleriyle
yayılan
olar
resimler
tartışıl@@
alıcıların
söyleyemem
yolsuzluklara
sahnesi
rahatsız@@
Gazetec@@
Maxim
gerçekleşmişti
duymak
kadro
komutasını
ayrımcılığı
kaçmayı
şub@@
kolay@@
soğ@@
Gazette
bilgiyi
dolduran
Tarih@@
psik@@
lıların
olmalarının
amamaları
8,@@
çerçeveye
giderlerini
tanınmasının
kolaylaştıran
Simatoviç
Pazar@@
yararlanacak
anlarla
Brkiç
öngördü
çapta
gönderdikleri
yaşadıklarını
sim@@
7,7
piyasasındaki
rezerv
hesabı
Sırbistanlı
firmasıyla
hesaplarına
lendirme
Dicle
acak@@
atmosferi
ülkemizi
Ohio
görülmüş
saç@@
yolsuzluklarla
Timisoara
odaklanmış
Ericsson
Kitabı
0,8
kalıyorlar
kiliseler
okur
38,@@
devredecek
yayınlanıyor
ilişkilerdeki
durmuş
Mücahit
civarına
edebiliriz
Bulgarların
Dvor
birinciliği
beklenti
eklenecek
Oldu
ruhsat@@
faiz@@
Naz@@
egemen@@
Yakovu
kaldıklarını
itler
Şefi
Naumovski
MRT
Osmani
inen
caz@@
dikil@@
vermeyen
Djokoviç
sorunumuz
1915
Prespa
tahminlerin
mıyoruz
pos@@
Kardinal
roman
Pope
EUCOM
noktalara
gençlerinin
0,2
Milosevic
özelleştiril@@
İşçiler
televizyonunda
Senad
Chisinau
çoğunluğuna
habercisi
uymaya
Zirvesinde
görevlerde
Öğrenim
eklendi
umduğu
yolundan
engellediğini
malzemeler
ate
algılandı
durdurul@@
osunda
Lieberman
Matsuura
panel
saygıyı
dernek@@
üniversitenin
oynama
kaçakçıların
hazırlığı
Baharı
görevlendiril@@
baraj@@
olanağına
BNR
kartlarını
miyorum
1.800
Bat@@
mi@@
ılmaz
Rusların
çıkmaması
111
sektörlerine
çekerken
Brezilyalı
filmine
oper@@
meydan@@
federasyonu
olay@@
etmez
boyutta
formüle
iddianamesinde
yayınlanmasından
yardımc@@
ulaşmasına
yıldız@@
izlenen
kenarındaki
süreçlerinde
yapmalarını
vatan@@
yıllardaki
Mel@@
ıcıları
galerisinde
inanç@@
Pop
izleyic@@
Danas
yetiştiril@@
bozmak
bulmaları
anlaşmazlıklara
atletizm
Liapis
mimarı
şef
3.000
ka@@
içinde@@
dansları
30,@@
yönetimde
Tarık
mum
fraksiyon@@
ağıyla
başrol
Vseki
amadan
güvenilirliği
Alternatif
düşürmeye
verenlerin
imzalamasına
rebil@@
sağlayıp
damar
larınca
Invest
Bos@@
atların
hayran
Proje
Euro@@
Menkul
general@@
koltuğuna
ailesiyle
Don@@
Haxhinasto
prensi@@
cezasız
teşkilatında
üstlenmiş
kaçakçılığından
Olimpik
eşdeğer
toprağı
Başkenti
ateşi
idarenin
hacminin
ithalatının
Radyosunun
Yugo
tör@@
Radoslav
sine@@
anlaşıl@@
1967
tepesinde
demografik
hemşireler
işçisi
örneklerinden
ilham
biz@@
etkinliklerinden
Genç@@
merkezlerini
kalar
denizcilik
1985
YT
lağvedilmesi
etmedeki
Ermeniler
değiştirilen
mağ@@
baskıcı
Aktar
Ilija
bastıran
gezici
Devam
gerekmediği
lak
Kontrol
tasarrufu
Tusup
katılırken
Bratunac
For@@
İttifakının
yetkilere
tuttuğunu
olağandışı
ğine
maaşının
Mez@@
kurtula@@
akıbeti
çevreleyen
çöküşü
olduğumuza
parçalanması
duyurmuştu
rahatlat@@
yönetimler
melerde
olmamalı
itti
tanıkları
indedir
orduyu
riskinin
ihtilafların
Şimon
Başer
Albin
tanıtan
üreticiler
karşılıyoruz
temizlenmesi
rezervlerinin
maliyetlerin
protestocuların
erk@@
eyaletinde
bahane
teklifin
uçurumu
girişinin
çatışmalardan
Leposaviç
Amaçlı
ameliyat@@
hastanın
görünümü
sağlayıcı
vermede
etini
Christopher
Dell
yöntemlerle
Harp
İşadamları
yatak@@
dalg@@
nehir@@
sürdürmekte
ofisleri
AG
tasfiye
cezalandırılması
ilkeler
Besnik
olacağının
standartlarında
edilemeyecek
Stavros
7,2
yerle
durumlarını
sipariş
Yer@@
Lis@@
platform@@
Wikipedia
teftiş@@
terminal
Papoulias
Petrom
Adası
basılan
kaynağını
arayış@@
HNS
üyesine
atmaları
kısma
kaptanı
desteklediklerini
internette
Suçlar
rak@@
maddelerinin
Pero
dördünün
Uç@@
uyması
yerleşmiş
üssünde
Zuzul
Bozo
aklanma
20@@
tif@@
casusluk
aklan@@
rejimiyle
Milevska
gr@@
yarıda
bakıma
endişeye
değerlendirilecek
eldeki
Rom@@
gösterebil@@
kapsamını
dersi
Dragutinoviç
lanmaya
alk@@
direk@@
Fildişi
yükselme
Toplum@@
adapte
sivili
alternatifi
Biy@@
kilometrekarelik
Tor@@
hafife
nca
bahsediyor
Evet
kem@@
kalacağına
tamam@@
liderini
adi@@
milliyetçiliği
Aliyev
kazanılmış
kalmaması
cerrahi
katliam@@
hayranı
finallerde
yapmasının
referandumdan
Gez@@
ihracatına
incelenmesi
Arifi
karşılaşmaya
Zogiani
Peder
varlıklar
mevkidaşlarıyla
payları
yıkılmış
açıklığa
verilmiyor
ılmadı
14,@@
cinsinden
dolar@@
alanlarına
kapsamda
sanıyorum
380
kı@@
sergilediğini
fırsattır
İlişkilerden
dö@@
başarısızlığı
benimsen@@
Mas@@
aksat@@
yemek@@
hikayesini
projelerinde
6,1
bırakılan
İskandinav
Josep
koalisyon@@
oylamasını
gecikmelere
Debar
cok
tuğu
Seks
istasyonları
sürdürmektedir
koruduğunu
ailesini
Teknolojik
Cezayir
lidere
tüzel
santrallerinin
temin
ıklar
kampı
inşasıyla
yılla
Matei
Ran@@
bağ
Anciç
konserde
Hvar
deneyimler
efsan@@
iskan
Victoria
getirmekte
Macedonia
SA
yaşarken
Barkey
araştırmac@@
Taraf@@
Amerikanın
STA
7,8
sektörlerdeki
Eyaleti
evinden
yanlılarının
tutulur
Vlad
özü
larınızı
105
işlediğini
Aile
poster@@
şehirlerde
görmektedir
mağazası
harcadı
Cumhuriyetinin
Grubunda
saati
şarap@@
etkileyebileceği
civar@@
Art@@
polisten
mon@@
cezalandırmak
pankartlar
Simon
ları-
Birliğine
Çalışmalar
Lucas
Dairesinden
uygulamalara
görünse
yapıyı
EC
topladığı
yetişkin
onarımı
faktör@@
eko
çözümünün
tavsiyesinde
kullanmaları
etmelerinden
bağlarını
bildirgesinde
Altı
bozmaya
becerisi
artırmasını
baba
saldırıyla
cezaevine
Stamboliski
sahiplerini
tabanca
forum@@
2500
ulusa
etkileyecektir
Kuruluna
ıyım
sokan
komutanının
Kosovalıların
orduda
duygular
tecrüb@@
terörizmin
enden
Josef
abartılı
onaylamasından
kapasitelerini
örneğini
vekil
Kabil
önceliklerin
Egemen
girebilir
kızdır@@
Ciliç
mağaz@@
derneğin
uygul@@
prosedürün
gemisinin
artacağını
basamak
Yunanca
Kurum@@
Söz@@
dosyaları
ıni
yemekleri
fiyatın
Ceca
kanal@@
Gücünün
Kaynaklar
esrar
gömül@@
girmesinin
normlarına
söylemedi
Belgrade
oto
miyorlar
yangını
Alliance
samim@@
kadarıyla
yararlanan
haksızlık
kalanıyla
nitelendirildi
Müze
tis
gecikmelerin
istinaden
sporcuları
McCormack
ertelenmiş
katılmaktan
kalanlar
otomatikman
ertelemenin
ermeden
sözleşmeli
uygulandığını
Yolunda
hızının
sabırlı
ttiği
kısıtlamalarının
değişecek
kaynak@@
emeklilerin
anlık
üstlenmek
kültürlü
Cur@@
aşama
Nicholl
jandarma
araçlara
ilg@@
başardığını
madığından
alınabilir
pişmanlık
ucuza
tutturmak
satacak
Kahn
parçasını
koordinatör
sıralam@@
harekât@@
yetk@@
birik@@
Andrew
amadıkları
maçını
takımlar
edilme@@
cuların
geçirilecek
iu
körük@@
tatile
tiklerini
ebeveyn@@
ekonomilerini
varil
Vinko
cezaların
rıza
zer@@
III
Büyükelç@@
Alan
laştırılması
lüler
diplomatları
faydaları
areviç
evrim
biyodizel
belirlemede
Jeliç
Jaeger
resini
Samardziç
Siemens
asyonuna
gerçektir
bozan
akıt@@
Programına
Fonla
şükran
maraton
Paravac
Kahire
gecikmedi
Bugüne
amp@@
görüşerek
kabulüne
blokta
emi
Jahorina
Geliş@@
sevinçle
ihbar
amaçladığını
önderlik
severler
elen@@
filo
körükle@@
eKathimerini
işçinin
yaratmayı
önkoşul
Troyka
eserlerini
tanesini
isteyip
McElhaney
geçirdikten
performans@@
Podravka
önerdiler
albümü
Recepova
Wolfowitz
Forbes
Cana
görüştüğünü
atında
yolsuzlukların
dergisinde
Romanyalı
sıcaklıklar
bağlantılarını
Gürsel
gül
kitabının
örgütüyle
UNFICYP
turnuvasını
üretmek
Proksima
aksini
fatura
İfade
sürdü@@
seçilmesine
anu
cumhurbaşkan@@
Makedonyalı
hem@@
bakımdan
başlayabilmesi
tutukladılar
tank
makamlarla
yolcuların
protestolarına
denize
gelişmeyi
eylemini
Ev
mayacakları
asi@@
Yiannis
eğilimli
argüman@@
cömert
raporlarda
Başka
lam
165
Altında
suları
Çağ@@
grad
birimlerinin
mağdurlara
memize
denetleyen
reddederken
ateşkesi
Dra@@
oj@@
buluştu
halterci
ceph@@
kompleksin
savur@@
Cemal
mahalle@@
görülüyordu
düzensiz
dengelen@@
yasakla@@
yerin
utan@@
olmamıştır
arabalar
hoşnut
halkıyla
sezonunun
yardımcısının
vurduğu
yayınlayan
işadam@@
hayranları
Big
ayrımcılıkla
koordin@@
çekişmeli
gittiğ@@
Jurciç
mahkeme@@
Krist@@
Çetesi
çıkacağı
bulguları
Belgesel
yumurta
kahraman
afişler
olar@@
Ognjen
işveren
esir
domates
diaspor@@
engellilere
taraftaki
heyetle
görüştükten
üretic@@
yasağa
onca
Oto@@
Ki@@
barınma
ikilem@@
olmadığ@@
aldığına
ayrınt@@
lo
ğlu
Müslümanın
çılara
jimnastikçi
seyircinin
ailem
getirmediğini
liklerle
emeyeceği
askerini
çıkaracağını
eylemc@@
atabileceği
Halk@@
inandırıcı
tirip
kırıl@@
rast@@
Süper
Yasasında
değişikliklerden
kırk
unsurlarını
kampany@@
Zvezdan
cinayetten
yetkiliyi
Jer@@
arzusu
ğu
kür@@
ebeveynler
hazırlanıyorlar
haklarındaki
yöne
dengesiz
Ali@@
mden
farklılık@@
edilebilecek
neticesinde
mülklerini
akademisyenler
olmasında
alınmaması
Yarışmasında
pazarlarında
6,9
bank@@
katliamını
ilanına
salonuna
deleg@@
uçaklarına
kalmasının
kaçıyor
anıt
uzan@@
tatlı
sosyal@@
görünüyordu
karamsar
yaşamında
iyileşmeler
değerlendirmenin
genci
umuzda
bahsi
eleştirilen
uyguladı
bütünlüğünün
tutarken
bağımsızlığından
itleri
leyeceği
tabak@@
adamlarına
dök@@
yapabileceğini
alanlarından
edemedi
4,9
Rumyana
deceğini
İli@@
reformuyla
siyasilerle
May@@
Aydın
hayvanat
ursa
İstifa
endişelendiriyor
Klasik
ılabileceğine
30.
uymayan
sorundur
teceğini
tuğ@@
artmakta
Prens
zalim
nefreti
Kurban
panik
köprüsü
Kullan@@
İstatistikler
Kuvvetlerinin
çerçevesinin
tirirken
laşmış
aslan
polisiyle
Nacional
tadını
kasıp
temizlen@@
suçlarına
yapacağım
Senatör
kademe@@
bilimleri
teminatı
seyreden
lokomotifi
seviye
reddedilmesi
Demokratları
yanaş@@
eğitimle
Celal
başlatmama
miyle
kin@@
ayağa
belirtiler
Metohiya
olmamasının
arayarak
belirlemesi
görerek
dengeyi
0,6
analizler
ilaçlar
kesimlerini
oluşumu
Politi@@
ümüz
heyette
ülkemizde
ındaydı
adığını
Geçiş
zincir@@
hataları
gidiş
bütçeleri
felaketi
Krstoviç
başbakan@@
beklentilerin
kullanmasını
düzeltmeye
Gizli
inanmak
kazandıkları
sizlere
tutuyorlar
bahar@@
ısrarlı
girer
zanl@@
iddiaya
Maya
protestoculara
Makedon@@
Kuk@@
ığından
zirv@@
anlaşılıyor
liklerden
Da@@
törleri
kompleks
sergisine
Malmstrom
şampiyonası
galibiyet
derinlemesine
gelebileceğini
barlar
Oyun@@
cadde@@
cezayı
şüpheye
Topolanek
başlatıyor
emriyle
çevrili
hazırlamış
oluruz
Kremlin
kendilerinden
Altyapı
hemşirelerin
üyesiyle
MSNBC
oylarının
yonun
gidilmesini
yerlerine
Aida
ilçesi
dengesiz@@
Bratislava
çözüle@@
ERT
geçirip
artacağı
soykırımın
Drag@@
kli@@
boykotu
teklifleri
almaması
mir
slogan
ing@@
mişler
bedel@@
çeliş@@
uygundur
parasının
Partisinden
sınırdan
görünüyorlar
firmalarına
konumundaki
destekçilerine
duklarını
Ternava
öldürmekle
.org
arabayla
ena
yet
polisler
karargâhı
götüren
ilişkilerimiz
yükümlülüklerimizi
dünyasındaki
Frckovski
ilik@@
kuracağını
makale
davrandığını
ödey@@
suçlusu
mezarı
laboratuvarı
tesislerini
boşluk
Douglas
teknolojilerin
zorlaştırıyor
motivasyon
Dal@@
sürü@@
İşlerden
uygulamalarının
Christina
yasaklanması
istediğine
Yenilik
hazırlamakta
ilgisinin
Man
subay@@
Prix
görevlerinin
planlara
almalarına
karşılaşıyorlar
kalmaları
atom
sizler
sahne@@
sorununda
kalabilmek
temsilcilik
müsabak@@
Mario
gemiler
geleceklerini
Güç@@
düzenine
cezbet@@
beldeleri
sayıldı
meyeceğinin
cinayete
gerçekleştirildiği
yanan
iliş@@
makalede
raporundan
sinyalleri
Hristo
Ü@@
orkestra
gecikti@@
taban@@
mesela
inceleniyor
tersi
tarihteki
135
döviz@@
Puscas
sürdürülmesine
Peja
grafi
bilimi
fizik
kampanyayı
College
lim@@
muhalefetine
giymiş
ovac
elerdeki
meyerek
yürüttü
harcamalarında
bastırmak
çevrilemez
dolusu
derinleşen
emeyen
arın
tahta
namaz
kariyerinin
manevi
katılımdan
alınırsa
cenaz@@
yapma@@
temizliği
Raffi
karakterini
konserleri
kızağa
alin
Herkes
düzenlenmesine
Lib@@
U
karşılaştırıldığında
Il@@
etinde
edir
ışında
Doboj
mezarda
Stoyanov
hırsızlığı
Ljuboten
cumhurbaşkanlığından
atıcılık
da-
ilgil@@
yönelttiği
mışken
heykeltıraş
tutuklanmasıyla
tüketiminin
oturt@@
tug@@
ilmesinin
seçimle
edebileceklerini
getirir@@
yakınlık
piyasalar
pazarların
üyelere
üstlendiğini
190
baltalay@@
göründüğü
Mun@@
engellere
çıkarıldığını
Mary
tedbir@@
gecikmiş
hakimi
kurban@@
siyasetle
iddialarla
8,3
1973
liğimiz
azaltarak
korsan@@
filmlerin
artmasıyla
King
olacakları
Ayı
Bekliyor
edilmiştir
kesintiye
olduğunca
16,@@
zen@@
kanununun
Sef@@
kilowatt
döngü@@
hoşgörülü
önermişti
17,@@
Nuri
Barac
muayene
dezavantaj@@
bahsediyoruz
sos@@
şebekeleri
Aliya
Gri@@
Bey
bilinç
düm
Tom@@
değilse
asayişi
HSS
kayıtlarını
Reid
Hayrullahu
Valotto
komutanlığı
asız
listedeki
Dragisa
fikirlerin
öğretmenleri
gelirse
tığ@@
Statüsü
uza
ca@@
Behçet
kabulünü
güneyde
Kes@@
alkollü
Şeh@@
iştirak@@
mann
diplomat@@
yaratabileceğini
devrinin
alınmasından
toplayıp
bulmasını
0.@@
imhası
üt@@
Boziç
seçmeye
ıktan
servisleri
Öğren@@
adi
şirketlerde
Vilnius
görmekte
Zigiç
Benjamin
varmış
Ljubljanska
vatandaşa
yönetme
kategori
katılmanın
kalktı
Ren@@
kapasitenin
Sky
Ey@@
Milletvekilleri
Citaku
Yöneti@@
dizinin
dinci
Lech
savaşını
anlaşılması
durumdaydı
seçildiği
mahkemelerine
Cvetkoviç
Morar
Dolar
değiştirip
sırt@@
suçlarda
eylemlerinde
tavsiyesi
etten
Konferansına
kasten
sertifik@@
olaylarıyla
Radomir
torunu
zordu
bomb@@
Nes@@
suçlamasında
güçlükle
gündelik
çekincelerini
sundukları
ürünün
alkol@@
Nat@@
mayınlar
Locher
yakalanamadı
California
küçülme
üretmeye
kabinesinde
tekrarla@@
hemşire@@
yağmur@@
miktardaki
miyoruz
gelirlerini
edildiğinde
Prensi
dünyasıyla
IM@@
Jonathan
Alevi
markası
davalara
kısmak
Çalık
abart@@
popülerlik
Jung
Kirin
verilebilecek
TAV
Zdravkoviç
Luk@@
Erbakan
babam
Ramkovski
patronu
değerlendirildi
Nicolae
ındayız
düşünüyorsunuz
ertelemek
kalmadığını
takvimi
onaylayıp
yeler
sağlar
ül
nitele@@
pekiştir@@
kader@@
limanını
baskısına
yasağının
düğünden
teşkilat@@
tutuklananlar
gerçekleştirebil@@
Hamid
diklerinden
çevreciler
örgütünden
seramik
tanr@@
dükkanlar
Stoj@@
korunmasında
bombal@@
hareketlerini
yetkisinin
başlatılmıştı
güçlendirmeyi
pi@@
atlı
atöly@@
No
memur@@
hamleyi
müzakerec@@
gelecek@@
hakimin
tle
korunan
gönderildiğini
amaçlarına
sakat@@
kulübe
otelde
milliyetç@@
Ferenc
yağmal@@
aması
finallerinde
gazetec@@
çalışmasından
çizimi
sigort@@
mıyorum
Maastricht
geçirilmesinde
ilerlemelere
üyorlar
milletvekilliği
Aleksandra
taşım@@
havaalanlarını
birleştirmeyi
hattıyla
günlerce
kontrolleri
sınıra
ija
oyuncularından
kolaylıkla
sitenin
emek@@
kablo
geliştirdiler
yaşamlarının
sağlanarak
satışın
alıcının
karıştığını
önleyen
Tobacco
konsep@@
Bosnalılar
milliyet@@
edilmeli
yona
are@@
Tel
objektiflere
seslen@@
çöpe
tesise
röportaj@@
yetkinin
Kültürel
filmini
mekanların
NBA
Chicago
hazırlıklarında
adlarındaki
ödüllerini
Jimnastik
kaldırıyor
Çıkar@@
Power
mekanizmaların
birimlerin
Fe@@
sağlanmadığı
sorulduğunda
borçların
ödenmesini
muş@@
neyi
başlangıçtaki
kaçakçılığın
Dublin
kampanyalarını
miting@@
adaylara
merkeziyet@@
Gözlem
rapor@@
ğinin
ayıp
Millet
kazanmasının
taahhüdünde
nişancı
sey@@
imlerini
kısımları
suçlamalarından
Zvonko
uğ@@
tümden
tirici
arzusunu
olanaksız
tehdidin
grip
Vasil@@
yaratıp
meliler
mevduat
6,8
gölgelendi
yazında
engellendi
taşımaya
jandar@@
kumar
harcandı
göm@@
tarafsızlık
kanalize
belirtileri
cephesinde
paylaşmaya
protokolünü
kurut@@
ceği
eksikliğinden
tesislerde
Bulgaria
des@@
Generale
denetlediler
değerlendirdiler
adayını
Af@@
tesindeki
siyasinin
yönetti
SBiH
kutlamalarına
vermeme
dayanması
Caferi
deneme@@
protestoya
marjinal@@
girişimlerinin
umut@@
bekleyip
duyurarak
kendinden
çekirdek
Botsan
işledikleri
onurlu
kesimlerine
yurttaş@@
bilmiyoruz
iniç
Komitesine
Es@@
muhaf@@
dayanak
Piran
durumdur
Yerince
geçmişti
görüşme@@
edemeyeceği
felaketleri
donatılmış
demiryolları
vazgeçti
dokunulmazlığının
ardına
karışmış
surette
devrini
ihtilafını
bildirisi
karşılanırken
nüfuza
notlar
varlıkların
olmasaydı
Bakanlık
ameliyatı
mahkumun
Kürtlerle
konuşlanmış
fakül@@
tesinde
müfettişi
toprakların
platformda
Sırp@@
şiddetindeki
standart@@
ofisin
kavuşturul@@
kişilerle
patlayıcılar
bloktaki
Malev
mantık
Oil
başlayabileceğini
heyetinde
Bot
Savaşından
taslağının
Dino
dele@@
mağdur@@
uyrukluların
108
projelerinden
Podgorika
uçurumun
taslağında
duyulduğunu
ediyorlardı
azaltacağını
mor@@
seçiminin
şaşırt@@
yükselişe
materyal
çekiyorlar
Sor@@
bildiren
yev
Solyom
tanımlandığı
havayolları
seferlere
verilerek
çarptırılan
teleri
sün
ekibini
diplomatı
görevlerden
yetkil@@
mükelleflerinin
beceriler
katıldıktan
gu
köprüler
Rıdvan
gidilecek
köpek@@
ortaklığa
metreküpe
meseledir
turizminin
kum
yenilen@@
Ursula
bağlanması
alınabileceğini
derek
hayran@@
bakarak
getirene
depol@@
paylaşım
usuyla
Nemanja
dakik@@
galibiyet@@
adamının
kaynağın
gerekçelerle
adamış
yakınlığı
gen
kültürün
milyonun
çeşitliliğe
imizle
belirlendikten
yöntemlerini
gerginliklere
kalabileceği
kuruluna
elerindeki
bağlama
320
hazırlıksız
güney@@
rakipler
partisiyle
Kongo
hizmetini
korkarım
takv@@
esnek@@
hit@@
ığ@@
bölümden
SC@@
ber
çağ
çözülmediği
kilisesinin
hastanesi
vatanlarına
tanesinin
kısıtla@@
Raskoviç
olduğunuzu
HotNews.ro
büy@@
üsü
Ferrero
götürdü
Banoviç
L.
Od@@
politikada
bağışlar
açılardan
objektif
köken
eşgüdümlü
düzeyinin
dokunulmaz@@
çay
bağlam@@
kitabında
uğa
ah
doğumunun
RTCG
Borko
bakanlık@@
tahvil@@
açıklamalara
göstergeleri
vicdani
Asker@@
Profesyonel
restor@@
Aşkali
yaşayıp
aradı
sahiplerinden
pahal@@
layacağı
Ge
imli
olmazdı
Gardetto
Appathurai
bölümün
hızlandırmayı
satışının
hisselerin
meyin
değerlerin
Leonard
ilerletmesi
ilişkiye
söylemi
hazırlayacağı
dis
ihtiyaç@@
yayı
Rosemary
olunması
Zürih
Baj@@
ikilinin
sağlayacağına
Bulgargaz
nedenlerle
açıklarında
sözlerden
dönüştürülmesi
site@@
paketleri
Kalbi
elin
oluşturmanın
Bor
ipi
seslerini
raket
Cos@@
gözde
çokları
batılı
tamamlanana
yerleşim@@
Dominique
dal
Sisak
let
kaleme
Referandum
yeş@@
röportajın
cinayetiyle
planlandığını
yapımcıları
Avrupal@@
şebekelerinin
noktal@@
izlemeyi
uyruk@@
üyelikleri
merkezci
perspektif@@
vi
acımasız
istemiş
reaktör
taahhüt@@
ereceğini
şebekelerini
oluşturulmuş
1930
misti
Çelik
gerçekleştirdiğini
yanın
operasyonuna
konser@@
kler
sanatçı@@
yapmıyor
7,1
olanaklarının
göçle
deyken
otoyol@@
Electronic
BBB-
devralması
128
121
edilirse
lini
berabere
karşılaşacak
Alp
kalkınmasına
ayağı
Loncar
enstitüsü
Anes
yayma
atletler
dolarla
Ros@@
KP
ölmüş
artırılmasını
leyerek
ulduğunu
harcadığını
Aday
deste@@
car@@
giderlerinin
anlıyoruz
araçlarının
Pla@@
oluşturuyorlar
destekle
çelişki
10,5
projelerle
ağından
kaygıların
artistik
kışın
yapımcısı
rutin
yalıların
fa@@
çeşit@@
kanıtladı
geçirildiğini
Trajanov
mücadelesinin
onaylamak
yeleri
bulurken
liman@@
kıyaslandığında
sorum@@
Ermenilerin
Arapça
elektriği
tutula@@
inse
timiz
başarıdır
Andrei
uyumu
zanlılarından
Ha@@
Partisini
teröristlere
kredisini
kota
takıma
Dimitrijeviç
kanallarının
felakete
ku@@
Maylinda
Heritage
göstermediği
Luc
uman
paket@@
5,4
kesimlerde
kazandıktan
yardım@@
inş@@
değiştirilmesini
ebileceğine
vatandaşlarımızın
J.
gerekeceği
uşu
inisiyatifi
mağazalar
kabil@@
ayrılacağını
astronomi
Yannis
üçe
yükselişte
sürdürüyorlar
evlilik@@
sırrı
ödemelerin
tartışılması
batmış
Yüzme
koyarken
üçlünün
niteleyen
iminin
ortalamanın
menzilli
yn@@
yaptigi
1.5
artışlar
makalesinde
devrim
oloj@@
korsanlığı
SNP
acağımı
perakendecisi
oluştu
müzakerecilerin
kü
sarsan
sayımın
salonunda
Drama
eğitimde
özgürlüklerin
alırsa
İyileş@@
düşünc@@
Kişinev
bağlılığının
serbestleş@@
taarruz
Endonezya
Şeşel
PC
katliamın
ESI
teor@@
seyirc@@
ame@@
çağrıyı
hatırlatıyor
Kilisesinin
bakter@@
ızda
çısı
Romanlara
vereceklerini
Rekorlar
uçakların
Tokes
edene
emediğini
Barr
Müller
Başpiskoposu
oranlarına
etkilenecek
Monica
basın@@
Taş@@
ormancılık
olimpiyat@@
Kral@@
Yemen
değişikliklerine
ayaklanmaları
indir
kuy@@
Maurizio
kesilen
kombine
girişimcilerin
Milena
vatandaşını
baskıların
Rosen
İhale
Savcısı
Pri@@
Murati
PRM
stratejisine
Kudüs
lukla
mağdurların
geliştirecek
İnzko
kuzeye
çekimserle
aşa
tarıma
şikayet@@
vermelerine
luğundan
kesim@@
Yaz@@
Exit
INSIG
herşeye
nic@@
SRK
Mullen
başlarda
Komite
rahip
yapıyorum
filosu
yurtdışı
1.0@@
alabileceği
döneceğini
Craiova
çıkarmalar
dakiler
lendirdi
MUP
Kraliçesi
öldürmekten
şartsız
nedenden
tahsisi
sizliğin
devralmaya
Papakonstantinu
Kohavision
adlarının
beğenisine
Realitatea
töreninden
ığımız
törenleri
değiştiren
yansıyor
ES@@
Kültürü
seçiminde
bakma
Angelina
Picula
NBG
ANI
papanın
antlaş@@
köylüler
G20
arabanın
Krajisnik
Deleviç
İşin
sizliği
işbirlikçi
yaptırımları
kanalıyla
söyley@@
karşıyayız
düşünülecek
maddeden
cüm@@
satıc@@
gelişiminde
ücretlerini
çıların
hazırladılar
likleriyle
olarını
durdurması
lıklarından
EU@@
Hamas
canl@@
Uy@@
Vic@@
işgali
yürüdü
cal@@
aktarıldığına
seviyelerinin
bahsederken
suzluk
dünyayla
ludur
gerçekleşebilir
parametre@@
hafiflet@@
bırakmıyor
Tina
makinesi
Allan
gönüllüler
taşınması
sulama
korkular
bulabilir
dondurulması
Avrupalıların
kıtada
paylarını
sezonunda
sta
devretme
ılmadığı
önerilerine
Ek
terim
mazdı
halkımızın
komşularına
Neza
sektöründen
düşündüklerini
tehditlerine
uv@@
göstericilere
sübvansiyonları
Çev@@
ans
Cumhuriyetçi
turnuvayı
Travnik
sir@@
sertçe
Adli
diğerleriyle
Florin
Mol@@
klasmanında
Karak@@
saygısızlık
Fin@@
oluşturacağını
belgelerine
Sekreterliği
performanslarını
oluyordu
Mülteci
limanından
dostları
filme
Smiljaniç
kolları
kalite@@
ekleyen
zorlaş@@
lular
tapu
kullanmış
spekülasyon
gösterip
ziyaretten
Kapı
kavş@@
imzalanmasıyla
acaklarından
dönüşümlü
uğruyor
derg@@
time
deprem@@
Manchevski
çin
engelleyerek
prosedürünü
getirilirken
işbir@@
makal@@
görülürken
Bireysel
vatandaşlarımız
edem@@
Rumların
hesapla@@
halledilmesi
seçmiş
gelişmeye
azalttı
düğ@@
Gerek@@
Olarak
Flor@@
hedeflediği
verdiğine
Kra@@
saygıdeğer
Salihu
yaşını
etkilerine
öneriliyor
Sot
haftası
Tasar@@
sonsuz
mevzuatın
mirasına
gazetede
odaklanmaları
iadesinin
çeş@@
genişletil@@
ilişkilerindeki
tanımlama
çekmekte
gelişmelerle
oyla@@
doğruladığını
Bilimleri
amam
aletleri
dondurucu
mevduatları
daireye
ımların
nitelendirirken
isterse
torun@@
provokasyon
gesini
gözü
3000
işlerinde
Saroviç
demokrasisi
Komisyonuna
tekel@@
halle@@
faydaların
sö@@
Buna
boğul@@
artıracağı
yükselmesine
duğ@@
Heyet
mesajda
arıtma
dökülen
verilmediğini
Kolubara
Gazi
osa
sınıfta
Vil@@
onaylanmak
cu@@
komşularla
mikro
vermeyeceği
grupla
tinin
piramit
Bregu
taleplerin
hiyerarş@@
açmıştır
Ries
saldırısına
konvansiyon@@
VIP
mo
kılavuz
arabuluc@@
sıkıntılı
büroları
ihracatında
söylem
etle
Salzburg
kurulunda
erkeklerde
Paridoviç
His@@
bireylerin
unsurlardan
mişlerdir
düzenley@@
iciler
Cen@@
yat
1944
1948
manlar
Sega
Siderov
yanlıları
Senatosu
Yetkil@@
ofis@@
yaklaştığını
muhasebe
uzaklaşma
süreçler
United
sektörlerinin
Oyunlarında
yüksekti
medyadan
kayıplar
gruplarını
sosyoekonomik
masın
güvenebil@@
yelpazenin
savaşından
dekiler
Ziyaret
vurgulan@@
köle@@
ağr@@
sinir
salgının
ayırma
Prelec
bölünmeyi
tanınmayan
biten
yönetmeliklere
25@@
aklar
İkilinin
Kuruluş@@
kimlerin
elçisinin
9.@@
olanın
gerçeklere
çatışmanın
yatırım@@
Kaçakçılığı
yönetmeye
önlem@@
yardımla
atlarını
büyüy@@
CEC
başkentini
kesime
kapasitelerinin
aklık
Agency
gan@@
zafer@@
portal@@
225
Umut
Croatian
başkası
göstermelerini
BA
giril@@
Matematik
onya
mesele@@
ayrılığı
sınız
çıkarabilir
proble@@
yaptırımlara
Biz@@
tatbikatta
Haç
Jaksiç
diğiniz
tay@@
Aday@@
güvendiğini
Dragana
Soros
erler
avr@@
Hol@@
aileleriyle
güzelliği
dükleri
Blerim
itirazlar
referandum@@
geçireceğini
lebilir
girdikten
post@@
les
avantajlarından
fırsatlarını
Güvenli
söyleyebil@@
asıl@@
başlatmıştı
Karar@@
aşılması
ihtiyaçlarının
doğalgazının
şüphelere
gerekmiyor
290
zul@@
sıçrama
harcadığı
sattığı
davasındaki
sıralayan
koşullarından
abildiklerini
muhalefetten
üretimde
rafinerisinin
edilmiyor
talimatları
sıkış@@
ellerindeki
güçlenmesi
Rum@@
vakfı
açtıkları
noktasını
tiren
Badinter
ver
düşünecek
kanun@@
gazeteciye
statüyle
bulduk
faaliyetlerle
komik
kuvvetleriyle
Eurobank
Kampı
CN@@
telefonda
Hall
çığ@@
öğrenc@@
1978
savunmasına
yayını
ecek@@
demokrasiler
kalmıştır
davadan
karargah@@
zorlukların
diliyorum
eceğiniz
olgu
zorlamak
öğre@@
dillerini
sokuyor
İnsanları
teşvikler
emez@@
oni
Muhalefeti
adalet@@
dık@@
Belul
köprüyü
gitgide
korurken
karşılaşacağı
laikler
girişiminden
park@@
zayıflığı
suçlandığı
sürdüreceği
ılacağından
kurbanlarına
Fo@@
doktorları
tarafsız@@
yöre@@
giderme
üretiyor
vatandaşlığa
birleşiyorlar
hır@@
taşıyorlar
leri-
karargâhında
Tro@@
banliyösünde
bilime
yatırımda
geçeceği
Zaev
alımını
kulüpleri
militanlar
politikacılar
bulut@@
dek@@
tepkisine
mekan
telefon@@
Hav@@
Yakupi
Nec@@
Ödülüne
Turnuvası
seçilme
kr@@
Humphreys
Romenlerin
Ülk@@
üsüne
Olimpiyatlarına
Tut@@
gitmesinin
erdirme
ayet
Tür@@
iliğinin
Ülkeler
yargıla@@
projesinden
vade
kefaletle
bırakmayı
yönetmenler
Mustafiç
Eur@@
örü
gun@@
leştirilmiş
kanat
roller
Ziua
leridir
birliklerin
Gabriela
finansmanını
13,@@
tiyatrosu
eklerini
Show
bulguların
bilgisayarlı
Çanakkale
toplanıyor
kesintilerine
yönetilecek
larin
sözlerinden
ok
AES
İnşaatın
linyit
dilimin
İddia
kalabalığın
yapılsa
açığına
Kenti
Spahiç
genetik
reformlardaki
örgütlenme
taşımac@@
fuar@@
Singh
Hu
golf
bulduklarını
Network
jan@@
standartlarıyla
öngörül@@
Cameron
arkadaşım
ebeveynleri
SPO
meleriyle
digini
â@@
bağlar
ob@@
olgun
Hikmet
gayriresmi
mec@@
tırmanan
bisiklet@@
salgın@@
kriteri
MCV
çilere
Catalin
zaferden
köydeki
kalacaklarını
kutlamaya
Djordjeviç
Batıyla
seçilmesiyle
uzatmaya
komedi
geniş@@
artışına
gösterim@@
Watch
tahsilatı
şeylere
gözetimi
anlık@@
şef@@
piyasalarının
Büyüme
Inter@@
durulması
set@@
razı
dayatma
Vran@@
geçtiler
gece@@
düşünülürse
göçün
eleman
Pop@@
işyerleri
olana
kalkması
doğalgazın
sevkiyat@@
kesilmesi
siyasileş@@
yürütüldüğünü
Şener
işleten
Teknolojisi
Morris
ücretli
ekonomisindeki
Lilyana
propagand@@
sübvanse
yenlerden
Davos
temizlemek
poşet
192
yakalanmasına
düşünür@@
sorumlularını
ünüz
İleri
tutuklananların
işaretidir
müteahhit
sübvansiyonlar
özelleştirilmesinin
finansmanında
felaketinin
Je@@
faz@@
Far@@
yenen
medir
Barcelona
haritasının
çadır
standardın
kontrolünde
sahadaki
açıklay@@
dürüst@@
istey@@
Devletler
BAE
suçlularını
belirsizlikler
bombalar
lanacağını
ilinin
şüpheliyi
bekley@@
106
bombaları
parçal@@
Balkanlara
güvenilir@@
sentetik
alabilmesi
harekatın
sergileyerek
vereceğiz
Vasilyeviç
blok@@
oranlarıyla
ette
Amsterdam
şer
desteklenmesinde
Enel
şüphelileri
Matijaseviç
soktuğunu
planlanmış
ekran@@
futbolu
düşmeye
boyut
olojisi
yaşamda
aku
ayıracak
istekleriyle
SARS
DTT
ülke@@
kabaca
sekiz@@
planların
karıştı
alınmadı
holig@@
iyetle
kolaylaş@@
9,4
cak@@
vatandaşlarla
ic
nereden
silahlarının
karakteri
kullanacağı
yazıda
çıkacaktır
Arthur
oranlarda
köyüne
ıyor@@
artışının
endekste
fona
harç@@
Igman
türden
geleneklerinin
Transitions
ahlak@@
8,2
Sto@@
Özcan
kurumunu
pişir@@
patates
kapasite@@
AS
Latifi
günümüzün
tıktan
Patrik@@
Libera
yaşamlarına
cesareti
mesle@@
finansmanının
arad@@
Güneş
sayıyor
dansı
Adevarul
belirlenmesinde
muayen@@
reddediyorlar
kötümser
hazırlanmak
memurun
ticaretiyle
erini
devredilecek
Arta
kesimlerinden
evlere
sekreterinin
Transnistria
Kup@@
akışının
ğindeki
sağlam@@
sektörlerin
Bunardzik
ore
Sadoviç
altyapıya
etkileme
cep@@
performansları
yapamaz
gazın
kapasiteyi
Türklerine
etkinliğine
Samast
Milovan
Fi@@
sürdüreceğiz
diyoruz
uçağın
olmamış
Konulu
Ekonom@@
işsiz@@
trafiğinin
Leka
bilimci
Kesiç
Gecesi
verenlere
terörü
sayımını
baştaki
deposu
birbirimize
heykelinin
Goethe
alışveriş@@
Milano
Turkcell
paraf@@
dilleri
omuz
kitap@@
bombac@@
mermi
Baghdatis
depo@@
SOFA
yardımında
avrosu
Mira
Mila
edilmeyeceğini
Erkek
Guehenno
ansı
Srbijagas
Kadı
cihaz@@
Kolombiya
IREX
ıyordum
Georgiou
Netanyahu
resimleri
BMMYK
º@@
Linden
Ulahlar
alevlendirdi
liğimizi
kaçtığı
anlığının
milletvekilinden
Degert
davet@@
eliç
baskınlarda
mayınları
Vahabi
karşılaştıkları
kurmasına
Rada
limanlarını
nedenini
üstleniyor
sığınak
özet@@
uyuşturucuyla
kaçakçıları
tehdidinin
endişesi
sallayan
yürüteceği
Karzai
Erken
Sak@@
düşmüştü
sürdürdükleri
uçurum
basıldı
Cove
Girişim
kalmadan
İ
binalarının
gösterse
ihlallerinin
Adil
araç@@
Mos@@
kiler
Planına
onaylamasını
ikişer
boksör
Fr@@
Oper@@
yaralandığını
ayrılmıştı
sand@@
ides
pak@@
üzül@@
listelerinde
Spor@@
cazibe
İlirya
taraftar@@
içti
isteyenlere
bulunmaz
amaçlarının
kira
Kil@@
zer
esinlen@@
ayakkab@@
geçerlidir
Dritan
koşulsuz
ilerlemekte
sever
152
heykeller
tonu
tasarımı
Hey@@
müzede
romancı
yenilik@@
mühlet
ifade@@
rakiplerine
treni
yorumladı
edilmelidir
giyen
cevaben
yararlanıyor
paylaştığı
davranışlar
kalacakları
emsal@@
beklemiyorum
kuzeyi
uysa
isiydi
116
kaybetmek
tazmin@@
107
desteklemekte
Mü@@
azınlıklardan
göç@@
diplom@@
sonuçlarla
başlatmış
ağırladı
siyonu
görmemiz
heyet@@
eyaletten
oyunculardan
bugünün
programdan
Miguel
unvanı
isimden
sunumunu
Kok@@
ong
ck
Corneliu
Bucharest
Kim@@
anlaşmalarla
sıralandığı
tanık@@
bulunabileceğini
tedbirlerden
koşuyor
malısınız
hükümetlerine
cenneti
kampanyalarına
tanımlamak
temsilcilere
kuyruklar
Ltd
değişti@@
yargılanmasını
amaçlarla
şirketle
dairesinde
çekmiş
yetiştir@@
Emeklilik
Haf@@
yürüyor
yetenek@@
portföy@@
sürükle@@
gerginliğe
Sergisi
Kosov@@
bıkkın@@
metreden
düzenlendiği
ünite@@
yelpaz@@
lendiren
Bosn@@
Karel
Lemierre
stratejileri
menfaatleri
yatırımcılardan
küçültme
çoğulcu
orantılı
daireyi
katliamından
otobüsler
kürek
mecbur@@
üyelikten
izmin
izme
gibi-
değerlendirmeler
kazanımlar
İstikrarlı
sızdır@@
AKR
Köksal
koşullarında
soruşturmasını
özerkliğe
Tim
suçlulara
ordularının
başkanın
tanınacak
Ward
şeref
muhtır@@
Vetvendosje
inandır@@
olacağ@@
komite@@
yiy@@
manş@@
reddetmesine
sermayenin
aldığ@@
roket@@
devriy@@
tahıl
başladıktan
meyeceğinden
amaçlara
değere
protestonun
Montana
Vukeliç
yerleştirilen
açmasından
alınmalıdır
geçi@@
receğiz
düşmesini
yetmedi
Bilgisayar
kurs@@
olmamalıdır
lediği
Herhangi
görüşünün
Cu@@
düşmanlık
tecavüze
evlerde
başlamaları
kapılarına
cak
imal@@
Açtı
düşünürken
yıldızları
Lim@@
karşılamasına
havayı
vad@@
Chasa
çıkarmanın
Ataka
ofisine
abileceğimiz
yansıttığı
empoze
birleşerek
notunun
yapılmadığını
Paktın
iyla
ortasındaki
hareketlerin
yapılmalı
sürec@@
seçeneğin
tedav@@
korunma
bölünmenin
paylaştığını
duğunun
üyelikle
maaşlarında
kesintisi
küç@@
uçağa
yağışı
karışıklığa
İv@@
içerik
Ansip
tığının
pazarlıklar
ailelerinden
saldırdı
Grup
olgun@@
mesiydi
sergilemek
sömürü
yatırımlarla
etkilerinden
meslektaşlarının
paketinde
367
paylaştır@@
kesintilere
hir
istemiyorlar
çıkarınadır
ekonomilerin
trendi
ep
firmasından
kalkındır@@
icra@@
sitesinden
üniversitesi
Süleymani
taşıması
sayılabilir
mizin
görüşlerin
yatıştır@@
sorumluluklarının
iyileşmesine
davrandı
stand@@
Maksim
Miomir
nazaran
liliğinin
göndermede
kamplarına
tutacağını
rakama
öldürmeye
Zar@@
götürüyor
sanatları
mimarisinin
yaratılan
alıkon@@
birleştiler
eceğimize
Asamblesi
tanıyacak
duruşmanın
masraflarını
önlerindeki
paylaşma
İçişlerinden
indirilmiş
geçmedi
kaleci
cü
Çocuklar
adaletsiz
Ba@@
gelenlerin
cevap@@
tecrübe
kıyılarında
birleştirdi
Drago
Özbekistan
yebileceğini
evli
muameleye
vadedeki
kalırsa
Aynı
arazisi
belirlediler
çiftçilik
doktorun
vericidir
düşünmesi
dalı
kaldırılacak
konumunun
ilerleyebilmesi
tali
dengesini
Sanatlar
soykırıma
anlıyor
sisteminden
Stari
merkeziyeti
olas@@
Gallach
profesör@@
artırdığı
açıklamaların
cerrah@@
sunmuştu
araştırması
önleye@@
geçirmekle
You
enerjik
tırmandır@@
kurumda
sag@@
dilini
marşı
landırma
atmosferde
ığın
etkileyebileceğini
Bütçe
yaşanırken
biçimini
paniğe
araştırıyor
ran
davrand@@
ağacı
fotoğrafı
masraf@@
bakanlarından
üniversitede
diploma
eleştiriyorlar
marj@@
Melbourne
raf
ciddiyetini
çalışmalıyız
ılmadığını
sağlamlaştır@@
süreçlerin
Bal
nik@@
yaraları
Portal
edildiğine
polisini
-eski
Harvard
Vas@@
seçtiğini
önerilerde
toplumunda
7.@@
baktığımızda
usulsüzlükleri
toplandığı
yapılacağına
saklanıyor
.bg
unsurlara
cevabı
tartışılıyor
yükselişi
seçimleriyle
yu@@
uzaklaştırmak
tabur@@
keyif
hazırlanacak
gerçekleştirmeyi
uf@@
benzerlik
hisseler
Neretva
Temsilc@@
ayrılık
meselelerden
topluluğuna
sızan
görmekten
Şeyh
maf@@
topluluklar
Bodrum
Simoviç
Bilimsel
birikim@@
kriz@@
toplantılarında
Richter
Görmez
değerlerinin
doldurdu
hit
kitab@@
50@@
kapatmayı
asyonunda
gezecek
miras@@
cil@@
eğini
ındaysa
Hem
onaylanacak
acenteleri
inşaatının
bitiril@@
turnuv@@
idarec@@
Forum
anlaşmasından
Gün
gerektirecek
vazgeçmesi
teşkilat
reddetmeleri
Zor@@
sahnelenen
Mah@@
yaşaması
memurlarına
bulunabilecek
göçmenlik
asimetrik
Şiddet
alabiliyor
nesiller
sayılır
ger
acağımızdan
köylerin
önemin
refahın
ats
tesisinin
aşıyor
yapılmıştı
Energoinvest
tedarikç@@
eylemlerinden
Oriç
isteksiz@@
göndereceği
imzalı
İnceleme
Milliyetçi
cezaya
kentler
1979
gösterisini
özelleştirmesi
ZERP
9,3
gitmiş
Dün@@
Fetih
hastanesinde
gitmeden
konferans@@
akıllara
erkeklerden
mevzuatının
ırk@@
eleştirmen@@
makam
doğduğu
larımı
önereceğini
baltalam@@
geliştirilmesini
fiyatlı
faillerinin
köyler
Oyunlarına
personelini
stan@@
şeklindeydi
Eric
Trivan
gazeteciyi
halledil@@
kovuşturmaya
cilere
sağlanana
belgesinde
Marsicanin
Yenilenme
kuracağı
mamızın
geçmeleri
Mesut
cek@@
land
Müdür@@
konsey@@
etkinliğinin
takımlarının
geliştirerek
noktayı
çalışmalarda
sektör@@
geçmesinden
tavsiyeler
sektörüyle
ece
e-
üretmesi
ire
bildiriyi
ga@@
sonbaharında
bağışçı
özgürlüklere
iyetleri
gerisi
firmayı
hazırım
fiyatına
Is@@
eyalet@@
gelindiğinde
AF@@
Fier
ölüm@@
yarışının
örnek@@
çiftçilere
verilmesinde
kaydedilmesini
Kranjcar
karşılığını
içiyor
sigaraya
burayı
röportajında
farkın
Markus
sansür@@
arzında
Maxime
toplantısından
diğerlerine
itirazı
ayaklanması
özetle
limanında
hastası
Nagy
Yarış@@
Str@@
yargılanmasına
Sektörü
once
Y
asyonlar
Konuş@@
kuruluşlarıyla
Col@@
Sos@@
fakir
eylemde
uyarılar
Vatandaşlar
rayına
dır@@
sabit@@
Işık
duruşmalara
ayrıcalık
Patriği
ığımızı
orkestrası
makineleri
sh@@
mamayı
şirket@@
8,7
kaybetmeden
hortum@@
çizildi
bilgilendirmek
alenen
cezalara
turnuvasının
keyfi
yükseliş
0,4
Kenya
Finlandiyalı
sismik
kisi
inananlar
attaki
önerilerinin
gösterinin
çoğunluklu
enerj@@
oluşturdular
debil@@
yıllarındaki
karş@@
gösterdik
yapmamakla
ağırlığı
kanıtlayan
sokağa
durumundan
genişlemeyi
alım@@
sezon@@
Koz@@
Hırvatları
birimler
kapandı
genişlemesini
görüşülmesi
arkadaşlarına
oranlarından
uygulanma
edilenlerin
İade
albüm
Althea
caydırıcı
hizmetinin
cezbe@@
dağıtımcısı
kavramına
ortaklarla
beklenenin
etmez@@
yönetic@@
sembol@@
yılbaşı
off
mle
Sermaye
otelin
direği
grevin
perspektifine
duruşmaların
iflasın
yaşad@@
tirme
Tola
çıkmadı
piyasanın
rakiplerinin
profil@@
MB
iyorsa
Kıymetler
sunum
Venezuela
ekipmanı
kültüre
ven@@
paylaşıyoruz
andığında
liliğine
Demokratlara
gelin
ceğiz
Baz@@
Ljumoviç
gururla
Kandil
iddiasına
habercilik
bitiminde
isteminde
özgün
lobi
Puljiç
miting
hastalıklar
hastalıkları
Banatski
işlemesi
mayın@@
taz@@
kayg@@
marjinal
kurulmasıyla
Napoca
Hakan
diretiyor
İzmirli
kemer@@
tünelin
Sosyalistleri
est
Gregory
Oswald
yaklaştırma
faydalarını
anılıyor
om
Entegrasyonundan
harcayacak
ışığı
şansımız
Limani
çevrelerin
Filat
sürdürül@@
Erl
minde
kap
kuzu
haberini
dağınık
silahla
liyoruz
CEI
ucuz@@
konmasının
Atlanta
imaj@@
Dali
askerle
tamamlandıktan
IPKO
Kabaşay
Kaçakçılık
183
Olimpiyat@@
veriyorum
cir@@
almadı
getirebilecek
işgal@@
deler
içeri@@
Muhalefet
basketbol@@
Theodoros
kredilerinin
ilgileniyorlar
Hüsnü
ayırıyor
ılabiliyor
Petros
yattığını
ımlı
maddelerini
başlamıştır
ER@@
harcamalarda
karşılanan
saatleri
kuşatma
kesimlerindeki
sürücülerin
AIO
oluşturmaktadır
sör@@
Bankers
tamamladılar
Lugar
arkadaşlarım
troykanın
kitaplarının
Dr@@
Sofianski
çocuklarla
Sek@@
mayını
iletişim@@
kapanması
ilgilendir@@
leceğini
çabalarımızı
müthiş
gereksinimi
desteklemeyeceğini
Controls
hazırlar
Slobodanka
Jovanovska
finansmanıyla
duğundan
öldürülmesine
iyileşti
feribot@@
ortal@@
ISP
beklemiyor
mümkündür
rejiminden
izleyeceği
zorunluluk
Akropol
Dj@@
kamaralı
elebaş@@
Engelli
Jacev
goviç
Ganiç
Aslanlar
reaktörün
Sarkisyan
Aleksiç
Lora
Rajevac
Elghandour
özelleştirilmesine
getirildiğini
özgürlüğüyle
yükümlülük@@
Felsefe
ulusu
entegrasyona
işlemesini
çözü@@
ticarette
uygulamadaki
halletmek
İmz@@
destekçilerinin
gündüz
nesillere
cumhurbaşkanlarının
iyiz
üniversitelerin
lisi
Sırbistan-
Mlloja
istihbar@@
karşılaşan
satılıyor
zihniyet
belirtilmiş
elektrik@@
nes@@
yerleştirilmesi
gı
parçalar
Biri@@
azlığı
ombudsman@@
vo@@
önünden
ateşkesin
Gürcü
önerdiğini
dönül@@
golle
Vr@@
erinin
güçlerle
konuşarak
istekleri
yaralar
atla
başkasının
planlı
laikliğe
ambalaj@@
Porto
öykü
şat@@
hükümetse
altyapısına
Maj@@
söyledik
fabri@@
sektörden
şirketlerle
bölünmelere
çevresindeki
olmuş@@
Ciornei
hassas@@
yağış
Zam@@
yapıda
çeviri
üler
seçileceği
medeniyet@@
düşmanlığı
Güvenliği
asliye
seçimden
uygulamalarına
geçirildiği
yaktılar
petrole
kten
Kaplanoğlu
çekebil@@
slogan@@
konferanslar
Cumhuriyet@@
dedi@@
kodu
itibar@@
işverenlerin
kusur@@
tedavisinde
Böl@@
Kukan
yarayacağını
kapılarındaki
süreç@@
Johan
Mala
müjde@@
fes@@
sermayesi
tamamlayacak
tünel
giş@@
2016
yerleştirme
İhtilaf
yöneticilik
zorlayıcı
göstermenin
Rosatom
hükümetimiz
turun
birbirlerinden
değiştire@@
izleyicilerin
kamer@@
Zapatero
anov
Todor
kel
pasaportsuz
şeyle
tec@@
göreyse
kanıtlamış
kapasitesiyle
harcad@@
8.@@
sporcunun
vazgeçilmez
ümün
destekçi
Sokol
karşılamayı
şüphelisi
kayıplarda
silahı
gönderilmesine
milliyetçileri
ayrıldığı
aralığında
beklentilere
ck@@
Fehmiu
sinemasının
linde
çevrilen
beli@@
ayırdığını
işletmenin
West
Mahkemenin
karşılandığını
ımcıları
.hr
ünlüler
sır
tasarımcı
hazırlarken
koşan
üyes@@
yetimhan@@
ray@@
Arap@@
Sorun
görüşmesine
kongreye
tondan
sergilen@@
genişletmeye
yenilg@@
dayandığı
İster
uğun
Radojiciç
istikrarsız@@
çöküş@@
bürokras@@
nedenli
halinin
bireyler
geçmediği
kalanına
Anma
inceye
günlerin
federe
olabileceğinden
değerlendirilen
sporu
skandalıyla
Avustur@@
yolculuğuna
ızlık
isteğinin
Ötesi
28,@@
Ulrich
che
seçmenlerden
Planını
lemiyor
çekildiğini
işaretlerine
AD
çamur
hikayeler
hayvanları
seviyor
insandan
vermeyecek
eğiliminde
reddetmesinin
iyordum
karşılandığı
Haber@@
Chevron
yapmalıyız
katılmasıyla
talepler
uyuş@@
Sabancı
perspektifini
stan
söylentilere
Karçenko
nezaretindeki
kredilerini
kutlarken
giysi
teoride
Terör@@
Verica
mahallesinde
Reporter.gr
tikçe
getirdiğine
düzenleyenler
bildirim
politikacıların
müzeye
ulaşabilir
yapılanması
piyasalarda
Bliznakov
olo@@
izlerken
noktasının
desteklemenin
düzenlemesine
vizyona
Zen@@
Mobiltel
gra@@
izin@@
Liviu
boşalan
Meclisine
uyaran
ayaklanmaların
sayfadan
yakalanmasının
Kürtleri
yönetimle
önlemlere
prosedürünün
ğ
hayvanların
mamakta
Devleti
recekler
sp@@
arını
önce@@
ese
sağlayabilmek
başkanlarıyla
Hint
kabul@@
konseyinin
birileri
parlamentoları
saklı
taraflarının
ularını
çizmek
rüy@@
kaçakçılığında
gidermek
muafiyeti
girmeleri
vazgeçmeyeceğini
mücadeleden
10.@@
acaksa
Marco
transferi
artıracaktır
bütünleşmenin
hızına
enflasyonla
geliştirmenin
İhal@@
Iv@@
tos
ıcılık
Bulundu
olduğudur
sağlanacağını
gösterecektir
151
Ken@@
risklerin
Geceleri
Strasbourg
mercek
ifadelere
Miniç
muh@@
Risto
tasarlandı
fert@@
hesabını
Elizabeta
sergilendiği
doğuyor
kamplarında
cezaev@@
Jelaciç
per
geçirmekte
edilmeyecek
ste
liğindeki
Sk@@
kazandıracak
And@@
ora
Sof@@
dana
Şer@@
bölünmüşlüğünü
sunulmasını
Land
teknolojiyi
yeviç
gaziler
atlayarak
ilerimizin
yasaklanıyor
turizmde
usunda
memurlara
trajedi
sürtüş@@
gözönüne
kapatılmasının
deri
sayılması
Tu@@
Sonja
dayanmaktadır
Des@@
yayınlamasından
şekliyle
bölünmeleri
İlham
Müzakere
varılacak
izley@@
asıdır
370
zulümleri
lerimizde
tehlik@@
memleket@@
1946
çıkarılmasının
vakaların
hakareti
silme
kanununda
Bölgedeki
Atifete
zammını
Kapsamlı
arazide
götürüldü
Bunların
oylarıyla
ros@@
yoksullara
Un@@
karargâh@@
kampına
yasaklandı
Men@@
tuz
ılır
girebilmek
ropörtajda
almayacağını
esnasında
ayrım
korumaları
kültürüne
oldum
gerilla
gördüğüm
üncüsü
emre@@
değiştirebil@@
çekildiği
ruhuna
zararlar
düşürerek
Sönmez
tutuklanma
masalar
Savo
uygulamasında
ılığının
Anlaşmanın
lasa
esaslı
edeceğinden
özelliklerini
isa
geldiklerini
bombardıman
mahkumlara
yargıcı
ifadelerinin
Soykırım
ziyaretlerde
alfab@@
ektir
tavsiy@@
mektup@@
meselelerinin
eleştirilerin
değişmeden
vizyonu
aşağıla@@
aren@@
entegrasyonun
yarışmasının
radyasyon
partide
planlamakla
düzenlemekten
komşusuna
müdürlüğü
Fransızca
yayınlanmasının
202
karşılanmadı
Çernobil
8,9
stres
terör@@
çiziliyor
tartışıldı
1100
şampiyonaya
hayranlar
tesini
bağlanıyor
tırmanıyor
prov@@
kentlerini
mesleği
belediyesindeki
düzenleyip
yaratılmasını
Kum@@
adaları
Pren@@
yabani
dönüşler
dostça
lj@@
sark@@
TE@@
Paralimpik
hâl
teşebbüs
artırırken
receğinden
malıydı
biliyordu
ılacak@@
yinelen@@
müyor
içilmesini
bulundurma
1975
Araştır@@
esasına
Cinsiyet
şubesinin
istatistiklerine
imzalad@@
eksikliklerin
ekibinde
önlemlerini
Aracı
100.000
amaçla
yazılım@@
satış@@
FIBA
Kukla
şiir@@
Neolitik
başarıların
Kastriot
kesme
diplomatlarının
analistleri
co@@
denetimleri
Sözen
sürülmesi
America
hükümlerini
belirtisi
onaylayacak
Emekli
takiben
Nice
bankadan
bakanlarına
albüm@@
Sturanoviç
çözmede
programla
bırakılmasını
azar@@
cuma
SETimes.com
ermiş
karışmakla
sandalyeden
Dun@@
Costa
çalıştırma
geçer
çöplük@@
uzatıldı
yangınların
likli
dairelerinde
Dinamo
uygulanmaya
sağlamıyor
sürdürmekle
tutuklanmasında
gelenler
bakanlıktan
tiğinden
-özellikle
amayacaklarını
vatan
marş@@
Loğoğlu
tüketimini
isteklilik
birleştiriyor
Zor
Çağı
geleneğe
yaklaşımının
üretkenlik
Hu@@
çal@@
göçmenin
tecrübeli
yiti@@
gösteric@@
avantaja
amamakla
odağı
meslekten
Bra@@
baltal@@
Yardımı
Hat@@
tama@@
ruhsatını
Milenyum
Liberaller
Selo
Beyrle
havaalanını
gösterdiklerini
mıyordu
Barışı
kalın
havuz@@
yanl@@
açıklarının
ismin
olasılık@@
faydası
girişleri
kahraman@@
artırmada
hakem
mekanlar
becerikli
mus@@
aciliyet
genişletecek
intikam
Farklı
yayınlamaya
sükunet
ındayken
klin@@
enstitünün
bekliyordu
engelleyecek
kanalında
kors@@
CE@@
Casey
Operasyonları
olamayacağı
öldürdü
topçu
vergisine
artırabilir
memnuniyetsizliği
Stevan
aracına
Kafkas
Arkan
Ras@@
ödeyerek
kasabasını
Ksenija
akut
savaşında
bitimine
Hacı@@
Trifunoviç
Bartolomeus
anya
üçünc@@
kullanmalarını
Mersin
Becali
avljeviç
noktalarına
olmamak
iri@@
sularının
alevler
tiğinin
cezanın
Justin
verilebilir
rüşvet@@
subayın
Medojeviç
Zoellick
Çolak
kaydederken
militanları
iflastan
geleneğine
Sistem@@
sinagog@@
takıldı
kargo
köyünden
çelişen
alacakları
puana
kurtaran
süreçle
OSI
santraline
2017
göstermediğini
haftasında
bulgulara
eh@@
uyulması
şahısları
dönmeleri
bağlantıyı
kurtulmayı
çekmesine
bilmediklerini
Export
ilerimizi
gil@@
Action
çekileceğini
İmamoviç
Kolinda
Toni
geçmişini
satılacak
K
araştırmalara
alışver@@
au@@
Uzay
haz@@
12,7
izdir
havadan
çalışmıyor
hattında
karıştıkları
komutanıydı
emrindeki
Alan@@
Ratings
leriyse
haçı
Başlıca
açılış@@
imden
Traykoviç
Franko
tesinden
çekilmesini
Bölgesinin
kapatması
fasılların
gazeteleri
kısıtlayan
alışverişinin
sayısından
kW
çocuğunu
dük
başkanlarını
yağı
referandumuna
değişken@@
eğitil@@
varıyor
fuarında
pek@@
lastik
bulmakta
Okul@@
doğası
ariç
Spasov
vahşi
başvurdu
Endek@@
Nihat
laştırmak
istatistik@@
oturuyor
salı@@
Shala
ISPA
SAPARD
ınızda
mevzu@@
Sorin
etlerini
izleyip
savını
PODGORİCA
Bin
diktatörlük
onur@@
hastaneden
politikac@@
Hizmet
teknolojilerinin
mühendisi
ulacağını
yönetmeliklerin
Gianna
üslerini
sürülmüş
maliyetler
iliğine
Güzeli
amız
bulunamadı
işbirliğimiz
şap@@
tası
olmalarından
görkemli
A.
ritü@@
Lake
imzası
faktörü
kaçış
lisans@@
gazının
bağlantıların
Dimitrovgrad
kupayı
süz@@
Hümanist
İliescu
Hellas
dahildir
duyurulması
davetiye
coğraf@@
Ponos
kalanının
öfkeye
alternatif@@
olumsuz@@
Şili
kupa
birey@@
okulunda
oluyoruz
karşılaştığını
anlığını
doping
erit@@
etkilenmiş
gizlilik
pateni
dağıl@@
Mare
andığına
festivalleri
Yasasının
taraftarlarının
devle@@
nüsh@@
halinde@@
nüfusta
mezarın
işsizler
edebiyatı
geleneğ@@
engellemesi
halter@@
karakter
taht@@
Çokuluslu
Mirel
Trieste
riayet
gar
kentlerdeki
ödüllendir@@
Gelibolu
Güzel
sayılabilecek
ISG
sıral@@
Esma
hazırlandığını
penç@@
Bentler
hayatında
kültürleri
lira
Christo
bet
Karabağ
Meteoroloji
dinleyic@@
artışları
Ceyhan
sağlayamamaları
Planina
soruşturmalarda
acente@@
Molyviatis
lağvet@@
gözlemle@@
Gorazde
geçiri@@
hükümetteki
Hayssam
ehliyet@@
onaylamaya
Jas@@
Staniç
biyoloji
sistemden
önermiş
AUO
düşüren
muafiyet
HEU
iyileştirmeyi
tiril@@
Rodos
Çetince
res
Meriç
PSI
krom
Duka
NAM
dönmeyi
eleştirilerini
sakın@@
seçici
şikayetleri
tutuma
çevirerek
başkanlarından
ımdaki
değerlendirmelere
lıktır
memizin
durmak
konmuştu
zamanlarında
sokacağını
koalisyonundaki
Huruglica
çalışsa
aktivistler
norm@@
tamamladığı
adıma
kati@@
kökene
önermesi
durduğunu
bugünden
tehdide
güzergah@@
hisseden
durumdayız
ordusundan
planlıyordu
farklılıklarına
manzarası
başlatmanın
iradeyi
OS
öngörüyorlar
Dumitru
likteki
kalır
desteklemekle
Tiflis
tank@@
hatırlatan
arttığına
plaj
Tun@@
finalini
yetin@@
boya
saldırdılar
Rossin
mesin
alamadığı
üyelerden
Aliu
tutumundan
Yalçınkaya
kıran
takma
kullanmanın
adımlarını
çalışmasıyla
babasını
emniyet@@
militanların
gösterildiği
Nijerya
ışının
Panathinaikos
takımda
sponsor@@
Dem@@
oları
SERDA
kaldırıldığı
yandaşları
Alex
usul
çevirme
Pro
Sliven
Partenon
Michalis
galer@@
Hill
sergileme
romanı
liliğe
başlatmasını
anavatan@@
döndüğü
mayanlar
petrolünü
Görün@@
katil
geçtikçe
yayınlıyor
istatistiki
kategorisine
açıldığı
almalı
değişmesini
entegrasyon@@
Gerçek@@
sergilemesi
Bulgartabac
işimizi
değiştirmesini
Ekonomisi
bağışları
doğuruyor
kun@@
sıcaklık
yönetimleri
katkılardan
hazırlanmasını
belges@@
East
Poposki
balıkçı
seyahate
haritasında
yorgun@@
belirlemeyi
Windows
düzenliyorlar
sunumları
yapılanmanın
elçilik
politikasından
ulaşacağını
zorlay@@
cazibesini
gerile@@
100m
alacaklarını
Gjergji
Lideri
oynamıştı
endüstri
Bri@@
ışık@@
kariyerine
standardının
seçebil@@
öldürdüğünü
isteyerek
şık
sevdikleri
görünce
vurgul@@
koleksiyonu
yakaladığı
karışımı
meci
baskısıyla
geçişe
sahtekarlık
geleceğ@@
ihtimal@@
mülkleri
Osmanlıcılık
ilişkisini
olasılıklar
antren@@
Os@@
himayesinde
vakalarını
andır@@
kaldırdığını
Bes@@
Toplant@@
Destek@@
diklerinin
adres
düşürülmesini
MK
enflasyon@@
FoNet
çıkmanın
doğrudur
ıyorduk
savaşları
Jovoviç
üş
artırdılar
Cowen
manipüle
Şampiyonlar
şik@@
skandalın
Kararına
meclisine
ünifor@@
balıkçılar
ıslah@@
Societe
büyümeyle
profesyoneller
kurucuları
aktarıyor
Habsburg
oyunlara
kalanında
işle
adaylardan
algıl@@
Afet
kenarında
hantal
etkileriyle
sahil@@
lamalı
getirmemesi
ağaç@@
kol
rezervi
sabırsızlıkla
piramit@@
hatırla@@
gasp
uğradıkları
meşale
sergileyen
Ekrem
etlerin
patladı
liktir
ihbar@@
ayaklanmalara
tanımadığını
troykası
dinarı
kayıp@@
Başar@@
roviç
namaz@@
fail@@
Alt@@
kesi
tabur
Ordusundan
kadrosu
sağlanamadığı
düşürecek
alınmalı
törenlerine
hurda
ücretini
istin
uyarıları
yağış@@
Hristov
araştırmak
Entegrasyonu
lıyoruz
Dönüş@@
kararlaştırılmış
sorumluluğa
öncelik@@
maçtan
sunmasına
katılanlara
yaralarını
belirlendiği
ideal@@
hazırlayıp
Menduh
Sem@@
kaçakç@@
bakanına
bekleyebil@@
oluşturacağı
Düzey
kentlerinden
Sand@@
ticaretinde
güçlenmesine
hayvanı
kuzeyin
sarsınt@@
harcamak
torb@@
up@@
uçuşları
enstrü@@
kl@@
kapanmasına
metreye
Vreme
Tihomir
çalışan@@
sulara
çağırdığını
isimlerinin
First
termal
yatırımlarına
makalenin
ros
ölümünü
şüph@@
zar
İşlet@@
diliminin
safh@@
rek
kıldı
Mustafay
duyuruyu
anlaşmalarda
katılmalarını
müdahaleden
müşterilerine
güt@@
yasallaştır@@
genişletilmesine
tesine
Trajko
Tep@@
Def@@
Kerim
korkul@@
yaratabileceği
Bayındırlık
yapıldığına
ırsanız
Gec@@
Andrea
şair@@
Basha
Pollo
muadilleriyle
tırma
Veli@@
Tos@@
canlandırdı
pro@@
imtiyazlar
başkanından
gittiğine
sat
ciddiyetle
artırmaları
seçeneğ@@
banliyö@@
karşılaşmayı
meyeceğ@@
mevkide
erişime
isimsiz
Pek@@
devre
oyundan
umutsuz
Ay
yararlanması
eksi
Vahit
yaralanma
görüntüler
tümünde
yaptım
bombardım@@
Slavonya
arzına
sınırlarına
ıdaki
kit@@
Aldı
formülü
Hıristiyanlar
20.000
davranması
sabır
Eşref
inti@@
buydu
etmeyeceğiz
sektörlerini
turnesine
Yay@@
inisiyatifli
cemaat@@
teler
kaçınmak
Andrej
statükoyu
yolculuğu
fondan
Erste
bağışçı@@
Gran@@
ttiler
ilacı
ortaklığının
hizmetlerinden
yazıl@@
dile@@
-Sırp
sergiley@@
performansın
ilişkiler@@
macer@@
illeri
yaratır
Kabul
Anayas@@
varlığa
Anayasasına
tutumlara
arla
Cumhuriyetinde
genişletti
acikladi
Alın@@
seçenek@@
duyulduğu
atılım@@
karşılayabilmek
düğünde
çekilmesinin
kurtarmaya
NASA
başladım
yürüyüşe
sürtüşmeler
138
odağ@@
tildi
Lady
acıları
dönmesinin
savcılarıyla
açıklamadan
posterde
bilincinde
heykel@@
materyallerin
savaşmak
geleneklerine
aşık
bal
öğretmenlik
kapısındaki
anlaşıldı
sürdürecektir
kuruluşa
notlarını
emir@@
yönünü
sünün
gözleniyor
devirmek
hayli
enlerle
gayret@@
kaldırıp
kavramının
etken@@
leşmeye
durgun
[...]
